<s>	0
<pad>	0
</s>	0
<unk>	0
,	-3.06605
.	-3.20634
s	-3.9734
'	-4.07173
▁the	-4.11741
▁a	-4.18395
▁di	-4.37495
▁in	-4.41245
▁to	-4.53332
▁che	-4.65102
▁of	-4.66003
▁and	-4.71051
▁e	-4.72575
▁that	-4.90437
▁I	-4.91873
▁un	-5.06171
re	-5.11214
▁la	-5.14874
▁è	-5.25702
▁is	-5.26797
▁il	-5.27546
▁you	-5.29851
▁it	-5.3226
▁we	-5.37723
▁per	-5.4173
i	-5.47559
t	-5.50193
e	-5.61227
▁non	-5.6539
▁una	-5.6755
▁And	-5.68237
▁"	-5.69626
▁this	-5.70721
?	-5.72119
o	-5.7428
▁E	-5.83647
▁le	-5.85915
▁—	-5.8638
▁i	-5.86559
a	-5.86896
:	-5.94626
▁l	-5.95891
▁was	-5.96851
▁for	-5.97986
▁con	-5.99166
d	-5.99929
▁	-6.01823
▁sono	-6.05028
▁si	-6.05229
to	-6.05793
▁come	-6.08224
-	-6.08695
▁have	-6.10548
▁are	-6.10575
▁on	-6.13284
ing	-6.14004
▁they	-6.15079
▁can	-6.17788
ed	-6.18546
▁all	-6.19227
te	-6.19336
▁with	-6.20006
▁del	-6.20556
▁più	-6.22195
no	-6.23155
▁da	-6.23783
▁be	-6.26111
▁So	-6.27468
m	-6.28528
▁what	-6.34128
ve	-6.35055
▁about	-6.3582
ta	-6.3637
▁questo	-6.37767
▁so	-6.38448
▁me	-6.40133
▁ma	-6.42012
n	-6.42122
▁not	-6.42881
▁do	-6.43866
▁se	-6.44193
▁at	-6.44399
▁della	-6.45224
l	-6.49633
ti	-6.52409
le	-6.53023
▁ha	-6.54959
▁o	-6.56583
▁as	-6.58295
▁ci	-6.59234
▁my	-6.59256
▁people	-6.6073
)	-6.60909
▁like	-6.61634
r	-6.6198
▁one	-6.63849
▁nel	-6.64063
▁(	-6.64231
▁Ma	-6.66642
▁from	-6.67392
▁an	-6.67776
▁It	-6.67865
▁there	-6.6797
▁al	-6.69841
▁or	-6.70989
▁but	-6.71416
▁our	-6.72555
▁mi	-6.73258
ly	-6.77577
▁c	-6.79823
y	-6.80674
▁just	-6.81001
▁lo	-6.81295
▁We	-6.83613
c	-6.85187
va	-6.85269
▁But	-6.85445
▁out	-6.85667
ndo	-6.85876
▁ho	-6.87518
▁cosa	-6.8805
▁dei	-6.88389
li	-6.88432
▁if	-6.89291
ro	-6.89718
▁these	-6.89954
▁The	-6.92113
ri	-6.92127
▁gli	-6.93267
▁up	-6.93879
▁very	-6.94271
▁by	-6.94523
▁su	-6.95709
▁molto	-6.95806
▁delle	-6.96286
▁know	-6.97052
▁them	-6.97789
▁when	-6.97912
▁he	-6.98019
la	-6.9828
▁more	-6.98789
▁loro	-6.99462
▁had	-7.00197
▁going	-7.00603
▁questa	-7.01075
▁cui	-7.01635
▁because	-7.01684
p	-7.02493
▁perché	-7.02561
▁La	-7.04133
▁In	-7.04565
▁abbiamo	-7.04576
▁us	-7.05994
▁their	-7.06006
▁essere	-7.06022
▁who	-7.06167
▁think	-7.06374
▁see	-7.06376
▁persone	-7.07074
ci	-7.0711
▁alla	-7.09374
▁your	-7.0977
▁anni	-7.10625
er	-7.10972
▁were	-7.11181
▁fare	-7.11216
▁A	-7.11805
▁how	-7.12378
ll	-7.12873
▁would	-7.1289
▁anche	-7.13079
▁Non	-7.13272
."	-7.13278
▁quando	-7.1403
▁era	-7.1411
▁get	-7.14649
al	-7.14977
▁really	-7.15487
▁which	-7.15577
ne	-7.15715
▁s	-7.16596
lo	-7.20449
▁time	-7.20572
▁solo	-7.20774
▁hanno	-7.21314
▁dell	-7.22301
▁così	-7.23897
▁world	-7.25593
zione	-7.25891
▁ad	-7.26238
▁no	-7.26246
▁don	-7.2799
ni	-7.28238
è	-7.3005
▁has	-7.3104
▁tutti	-7.31184
"	-7.31225
▁fa	-7.31628
▁mondo	-7.31828
▁some	-7.3218
▁here	-7.32293
▁go	-7.32483
di	-7.32635
ra	-7.32723
▁This	-7.32865
▁way	-7.33613
nte	-7.338
▁then	-7.34095
▁tutto	-7.35167
▁modo	-7.35329
vo	-7.35999
▁vi	-7.36038
▁into	-7.36882
na	-7.37058
▁will	-7.37316
▁quello	-7.37486
▁You	-7.37812
▁where	-7.38226
▁actually	-7.38547
co	-7.3867
▁tra	-7.39268
▁years	-7.39279
▁Il	-7.39743
▁fatto	-7.39939
▁other	-7.40184
▁things	-7.42085
▁want	-7.42343
▁now	-7.43161
▁could	-7.43268
▁cose	-7.43784
▁'	-7.43965
es	-7.45004
▁make	-7.45433
u	-7.45509
mo	-7.45663
▁nella	-7.45726
▁Now	-7.45847
▁been	-7.47123
vi	-7.47449
▁They	-7.49659
ma	-7.49881
ca	-7.51198
▁re	-7.52096
▁Se	-7.53021
▁questi	-7.53168
ce	-7.53342
▁prima	-7.53414
▁parte	-7.53458
▁noi	-7.54221
in	-7.55008
▁mio	-7.55593
▁vita	-7.55735
;	-7.56038
▁queste	-7.56105
▁po	-7.56236
si	-7.56758
se	-7.57228
▁È	-7.57976
▁ri	-7.58377
▁than	-7.58796
▁said	-7.58984
▁sia	-7.59782
▁uno	-7.59871
▁over	-7.59993
▁something	-7.60103
▁right	-7.60198
▁Quindi	-7.60258
▁those	-7.603
▁ne	-7.60323
▁due	-7.60421
▁sul	-7.60629
▁mia	-7.60979
mi	-7.6182
▁two	-7.63136
▁qui	-7.63231
▁first	-7.63635
▁sta	-7.63899
▁de	-7.64075
▁stato	-7.64851
▁much	-7.6566
▁ed	-7.6583
▁C	-7.67256
▁work	-7.67324
▁also	-7.67464
g	-7.67912
▁back	-7.68933
▁thing	-7.69351
w	-7.69804
▁even	-7.6991
de	-7.70228
▁most	-7.70676
▁d	-7.70682
▁Questo	-7.70943
▁dal	-7.71481
▁look	-7.7165
▁L	-7.71883
▁può	-7.72866
▁nell	-7.73394
mente	-7.73579
▁got	-7.73624
ga	-7.73733
▁little	-7.73757
▁need	-7.74317
▁say	-7.74421
▁dove	-7.74484
▁ogni	-7.74545
▁she	-7.74575
▁ciò	-7.75191
me	-7.75794
▁life	-7.75981
rsi	-7.76062
▁his	-7.77376
▁only	-7.77455
Laughter	-7.77636
▁That	-7.78479
or	-7.79179
▁qualcosa	-7.7981
st	-7.80474
▁tempo	-7.81489
▁many	-7.8224
▁take	-7.82949
▁poi	-7.83754
zioni	-7.84203
▁lot	-7.84308
Risate	-7.84404
▁siamo	-7.85016
vano	-7.85727
A	-7.85742
▁new	-7.8623
▁mai	-7.87689
▁kind	-7.8883
I	-7.89967
nti	-7.90318
▁different	-7.90518
b	-7.90632
▁around	-7.9082
▁good	-7.90964
▁Per	-7.91137
▁io	-7.91435
▁idea	-7.91778
en	-7.92052
▁her	-7.92242
▁Si	-7.92502
tion	-7.92532
▁ancora	-7.93322
▁What	-7.93451
▁Ho	-7.94341
?"	-7.94361
S	-7.9505
▁He	-7.95178
sse	-7.95571
▁Le	-7.9571
ar	-7.95778
th	-7.96262
▁S	-7.96376
▁vedere	-7.964
▁use	-7.96672
▁-	-7.96811
pi	-7.96937
▁quel	-7.96949
▁alle	-7.97063
sti	-7.97113
an	-7.97339
▁did	-7.98245
▁There	-7.98387
tto	-7.98558
iamo	-7.98754
▁down	-7.99281
▁every	-7.99299
▁quella	-7.99361
▁pro	-7.99617
are	-7.99931
▁grande	-7.99968
▁lavoro	-8.00346
▁Mi	-8.00385
ate	-8.00685
▁through	-8.0086
▁sull	-8.00933
tta	-8.01331
▁degl	-8.01619
▁nostro	-8.01859
▁same	-8.02249
▁gente	-8.02424
pe	-8.0359
▁possiamo	-8.03742
▁dire	-8.04067
ck	-8.04844
▁being	-8.04904
sa	-8.0505
▁voi	-8.05099
▁sempre	-8.05223
▁far	-8.0526
ng	-8.05309
ssi	-8.05427
▁li	-8.055
▁10	-8.05847
▁dopo	-8.05895
ion	-8.0618
ur	-8.06364
▁volta	-8.06447
▁davvero	-8.0697
▁nostra	-8.08351
che	-8.08474
▁ai	-8.08686
f	-8.09167
▁tre	-8.09592
▁day	-8.09742
C	-8.10417
▁dalla	-8.10571
...	-8.10614
ru	-8.11752
▁put	-8.11765
▁Ci	-8.12206
gli	-8.12417
▁altri	-8.12483
▁chi	-8.12486
▁ora	-8.12786
rci	-8.13251
▁quanto	-8.13287
▁doing	-8.13893
po	-8.14104
▁three	-8.14136
▁pre	-8.14237
do	-8.14388
▁ti	-8.14727
tti	-8.14797
mento	-8.15476
ge	-8.15978
▁If	-8.16189
un	-8.16609
▁Ora	-8.16736
▁percent	-8.16778
▁co	-8.16886
tori	-8.169
▁Sono	-8.17291
▁dall	-8.18069
go	-8.181
▁20	-8.18318
▁detto	-8.18654
▁suo	-8.18821
▁human	-8.18846
▁any	-8.18847
▁storia	-8.19001
▁sa	-8.19436
▁well	-8.20688
▁va	-8.20703
▁fu	-8.20832
▁called	-8.21177
us	-8.21577
▁nei	-8.21865
▁Questa	-8.21873
▁giorno	-8.21886
tte	-8.21934
ty	-8.2227
so	-8.2255
▁find	-8.22711
▁made	-8.22838
▁sua	-8.22999
▁own	-8.23155
rlo	-8.23174
▁problema	-8.23226
▁fact	-8.23571
!	-8.23621
▁tell	-8.2403
on	-8.24085
▁molti	-8.2438
▁change	-8.24506
▁avere	-8.24673
▁quindi	-8.25494
".	-8.25737
▁Abbiamo	-8.25742
▁tipo	-8.2611
E	-8.26138
era	-8.26367
▁Well	-8.26454
ho	-8.26472
,"	-8.2695
▁why	-8.27263
▁year	-8.27427
ted	-8.2773
▁didn	-8.27819
▁O	-8.28138
mp	-8.28227
▁tutte	-8.28512
▁senza	-8.28654
▁let	-8.28691
▁off	-8.28918
▁talk	-8.29199
▁possono	-8.29408
▁car	-8.29947
h	-8.30646
▁today	-8.3085
▁bene	-8.31045
tu	-8.31047
▁realtà	-8.31188
▁should	-8.31285
▁proprio	-8.31533
▁nostri	-8.31835
ers	-8.32003
▁Un	-8.32052
x	-8.32145
ato	-8.32356
▁oggi	-8.32593
▁B	-8.3268
▁thought	-8.32957
▁stesso	-8.33036
▁stata	-8.3309
ver	-8.33092
▁Di	-8.33099
▁part	-8.33179
▁after	-8.33349
▁computer	-8.33372
▁great	-8.33559
▁punto	-8.34496
▁Perché	-8.34802
rà	-8.34991
▁started	-8.34998
▁sistema	-8.35084
ò	-8.35192
lla	-8.35212
▁altro	-8.35425
▁qualche	-8.35607
ment	-8.35616
▁might	-8.35634
bi	-8.36294
▁esempio	-8.36828
fi	-8.36836
▁erano	-8.37029
ting	-8.37174
▁better	-8.37389
ter	-8.382
▁before	-8.38501
▁never	-8.38718
▁last	-8.38915
▁Quando	-8.38939
▁meno	-8.39395
v	-8.39526
il	-8.39918
▁big	-8.39974
▁fine	-8.40052
▁give	-8.40328
▁problem	-8.40376
tra	-8.40407
▁important	-8.40556
nt	-8.40622
▁♫	-8.40638
▁bisogno	-8.40739
▁Ha	-8.40767
▁P	-8.40904
▁bit	-8.41257
gi	-8.41422
▁design	-8.4149
▁ra	-8.42242
um	-8.42285
zza	-8.4276
▁ca	-8.42952
▁system	-8.4313
▁start	-8.43239
▁still	-8.43863
▁together	-8.44107
▁went	-8.44111
▁long	-8.44136
pa	-8.44238
he	-8.44333
sta	-8.44406
▁place	-8.44472
ry	-8.44508
▁importante	-8.4454
rmi	-8.44634
▁end	-8.44645
▁state	-8.44677
▁show	-8.44862
▁came	-8.44973
▁Ed	-8.4507
▁data	-8.45095
da	-8.45493
est	-8.45684
▁able	-8.4595
▁Come	-8.46281
▁te	-8.46355
▁another	-8.46764
▁brain	-8.46803
bo	-8.46902
▁altre	-8.46921
▁few	-8.47331
▁fuori	-8.47418
▁Così	-8.47448
▁course	-8.47483
du	-8.47654
▁bambini	-8.47664
P	-8.47733
▁circa	-8.481
▁momento	-8.48212
▁ago	-8.48276
ha	-8.48415
per	-8.48519
▁New	-8.48937
▁water	-8.48963
ali	-8.48967
▁Lo	-8.49661
▁him	-8.49814
ation	-8.49823
▁nuovo	-8.50157
▁pi	-8.50566
▁negli	-8.50825
▁next	-8.50828
▁casa	-8.51017
▁story	-8.51081
D	-8.51101
▁volte	-8.51186
▁U	-8.51189
ria	-8.5135
ba	-8.51982
▁help	-8.5233
altra	-8.5238
▁real	-8.52414
▁When	-8.52574
▁found	-8.52625
▁question	-8.5316
▁mean	-8.53395
▁Vi	-8.53616
▁man	-8.53685
ness	-8.53743
▁each	-8.5404
amo	-8.54243
ul	-8.54262
▁Ecco	-8.54502
k	-8.54933
able	-8.5529
▁does	-8.55571
▁Mo	-8.55631
▁comp	-8.55907
bile	-8.55975
ff	-8.5598
▁again	-8.56077
▁call	-8.56103
▁point	-8.56561
▁forma	-8.56625
▁dati	-8.56682
▁used	-8.56829
▁aveva	-8.57166
ity	-8.57227
rono	-8.57434
▁women	-8.57552
▁mentre	-8.57797
▁love	-8.57837
▁capire	-8.57948
▁donne	-8.57981
▁am	-8.58068
▁ve	-8.58318
▁between	-8.58355
▁fosse	-8.58718
▁ero	-8.58863
▁live	-8.59152
ica	-8.59294
▁g	-8.5946
idea	-8.59494
▁app	-8.59513
▁home	-8.59531
▁technology	-8.59824
▁città	-8.6035
M	-8.60503
▁miei	-8.60568
▁nostre	-8.60597
▁example	-8.60749
one	-8.61043
be	-8.61065
▁visto	-8.61191
man	-8.61437
ic	-8.61459
tore	-8.6153
sh	-8.61732
ie	-8.61761
▁cervello	-8.61882
▁tratta	-8.61929
▁credo	-8.6203
nd	-8.62035
▁tu	-8.62254
▁andare	-8.6276
ati	-8.6289
▁30	-8.62898
ste	-8.62971
▁understand	-8.63011
ch	-8.63186
B	-8.63272
▁video	-8.63354
▁creare	-8.6346
nta	-8.63542
2	-8.6371
ità	-8.64203
mmo	-8.64428
▁19	-8.64502
▁tecnologia	-8.64898
▁create	-8.6492
at	-8.6542
▁grandi	-8.65513
▁sp	-8.65607
▁For	-8.65774
▁stiamo	-8.65842
▁potete	-8.65843
▁via	-8.65918
▁wanted	-8.66422
ano	-8.66723
▁insieme	-8.66811
▁sotto	-8.66885
▁milioni	-8.66977
▁forse	-8.67025
▁stati	-8.67029
▁media	-8.67052
▁looking	-8.67192
ke	-8.67284
▁doesn	-8.67375
▁person	-8.67455
▁qualcuno	-8.67462
▁quelle	-8.67478
ns	-8.6751
▁No	-8.67639
▁viene	-8.67763
▁feel	-8.67827
rò	-8.67859
T	-8.68153
R	-8.68157
▁alcuni	-8.6829
▁D	-8.68298
▁light	-8.68431
▁stanno	-8.68617
▁sarebbe	-8.68618
▁’	-8.6866
altro	-8.68691
▁primo	-8.68839
▁T	-8.68899
▁voglio	-8.69136
▁ta	-8.69163
sso	-8.69224
▁social	-8.69428
▁believe	-8.69445
▁done	-8.696
fe	-8.70236
▁school	-8.70283
lle	-8.70324
▁may	-8.70335
▁always	-8.70465
▁pensare	-8.70626
cce	-8.70638
▁sort	-8.70677
▁too	-8.7068
▁senso	-8.71025
▁molte	-8.71103
▁space	-8.71124
ct	-8.71642
▁high	-8.71667
sce	-8.71845
▁significa	-8.72008
▁parlare	-8.72015
▁ever	-8.72151
chi	-8.72241
▁children	-8.72254
nce	-8.72742
▁50	-8.7278
▁porta	-8.72871
▁working	-8.73196
▁million	-8.73373
▁power	-8.73527
▁Because	-8.73612
▁country	-8.73657
▁whole	-8.73727
rvi	-8.7375
▁ce	-8.73805
▁100	-8.73824
ale	-8.73881
▁pa	-8.73936
▁domanda	-8.7417
▁dobbiamo	-8.74265
▁persona	-8.74422
▁stessa	-8.74596
O	-8.74601
▁away	-8.74653
▁trying	-8.74944
▁dice	-8.7515
▁già	-8.75215
▁Una	-8.75223
▁test	-8.75702
▁G	-8.75772
▁fino	-8.75891
▁four	-8.76062
▁col	-8.76209
%	-8.76591
▁anno	-8.76663
rs	-8.77014
▁farlo	-8.77164
▁Da	-8.77462
fa	-8.77671
▁lì	-8.77791
▁lui	-8.77963
▁face	-8.78286
▁problemi	-8.78346
con	-8.7838
▁Grazie	-8.78471
▁Africa	-8.78621
▁veramente	-8.78875
tà	-8.79111
rla	-8.79274
▁De	-8.79473
▁try	-8.79585
azione	-8.79828
▁money	-8.80105
▁bo	-8.80309
▁fanno	-8.80346
▁inter	-8.80926
▁case	-8.80946
▁Thank	-8.81015
1	-8.81079
▁sei	-8.81087
▁avete	-8.8111
▁using	-8.81285
ent	-8.81309
▁specie	-8.81367
▁ba	-8.81408
▁Nel	-8.81533
▁thinking	-8.81585
▁Al	-8.82013
tura	-8.82194
▁maybe	-8.82198
▁potrebbe	-8.82436
▁small	-8.82453
▁information	-8.82638
▁future	-8.82711
▁All	-8.82769
▁moment	-8.82809
8	-8.82822
▁old	-8.82846
▁avuto	-8.82947
▁hard	-8.83037
▁15	-8.8324
▁successo	-8.83444
el	-8.83536
▁How	-8.83674
ranno	-8.83707
▁means	-8.83773
▁meglio	-8.83984
▁kids	-8.84031
▁second	-8.84173
▁allora	-8.84273
▁caso	-8.84291
▁its	-8.84327
▁took	-8.8469
▁Era	-8.84747
▁verso	-8.84778
▁number	-8.84784
less	-8.84848
▁five	-8.84937
rli	-8.85066
▁aver	-8.85182
▁everything	-8.85188
▁TED	-8.85293
▁become	-8.85573
▁numero	-8.8561
anno	-8.85677
▁One	-8.85727
▁sense	-8.85829
5	-8.8602
▁p	-8.86256
tor	-8.86323
io	-8.86451
▁My	-8.86765
▁best	-8.86853
tive	-8.86881
▁abbastanza	-8.87372
Applause	-8.87479
▁She	-8.87555
cca	-8.87706
▁facendo	-8.88064
▁3	-8.88264
▁enough	-8.88455
▁attraverso	-8.88509
▁film	-8.88547
▁auto	-8.88577
▁dollari	-8.88614
▁foto	-8.88735
▁global	-8.88741
ata	-8.88782
▁Con	-8.88894
▁Ri	-8.8894
▁funziona	-8.88978
▁left	-8.89097
▁penso	-8.89238
hi	-8.89266
▁com	-8.8936
▁quale	-8.89649
menti	-8.89745
nza	-8.90168
▁less	-8.90733
▁ricerca	-8.9074
▁ask	-8.9083
▁fi	-8.90866
▁men	-8.90919
▁hand	-8.91086
▁trovare	-8.91251
▁quasi	-8.91352
llo	-8.91387
am	-8.91393
▁dai	-8.91619
▁getting	-8.91637
▁possibile	-8.91664
up	-8.91768
▁futuro	-8.91781
ster	-8.91808
▁posto	-8.91839
▁trova	-8.91938
ble	-8.92046
as	-8.92232
ous	-8.92297
▁siano	-8.92392
▁play	-8.92436
▁corpo	-8.92563
▁grado	-8.92596
▁vero	-8.92658
▁mo	-8.92679
▁tanto	-8.92696
bili	-8.92861
tic	-8.92936
▁bring	-8.92973
▁comunità	-8.93085
▁head	-8.93097
▁Internet	-8.93259
▁food	-8.9348
son	-8.9374
▁J	-8.93788
▁fe	-8.93795
acqua	-8.93934
▁sto	-8.93987
▁tutta	-8.94119
▁care	-8.94344
▁making	-8.94424
▁imp	-8.94427
▁avevo	-8.94471
▁secondo	-8.94637
▁quali	-8.94795
Applausi	-8.94863
ia	-8.94871
▁causa	-8.94985
▁Ba	-8.94996
▁sarà	-8.9503
▁K	-8.95074
▁disse	-8.95098
▁gra	-8.95417
▁lives	-8.95466
▁società	-8.95504
▁without	-8.9552
▁open	-8.95682
▁These	-8.95705
tri	-8.95751
▁Ne	-8.95769
▁poter	-8.95834
▁Pa	-8.95887
▁dura	-8.95951
▁America	-8.96053
z	-8.96079
▁super	-8.9615
▁interesting	-8.96162
▁York	-8.96288
4	-8.96333
zia	-8.96583
▁process	-8.96591
▁under	-8.96597
▁usare	-8.96614
▁diversi	-8.96712
nda	-8.96911
▁difficile	-8.96916
▁spazio	-8.97017
▁parti	-8.97102
▁base	-8.9721
▁side	-8.97247
▁talking	-8.974
▁Do	-8.97555
▁4	-8.97568
▁quite	-8.9776
▁alcune	-8.97897
▁maggior	-8.97967
▁body	-8.98061
min	-8.98119
▁energy	-8.98168
▁probably	-8.98228
▁happened	-8.98241
7	-8.98247
▁room	-8.98267
▁Ro	-8.98269
▁chiama	-8.98324
▁ragazzi	-8.98409
▁set	-8.98623
▁pe	-8.98827
▁told	-8.99049
▁F	-8.99061
▁progetto	-8.99133
▁build	-8.99221
▁certo	-8.99257
L	-8.99458
ling	-8.99757
G	-9.00185
▁As	-9.00465
▁vedete	-9.00532
6	-9.00624
▁form	-9.00643
▁business	-9.00655
▁move	-9.00689
▁countries	-9.00723
▁invece	-9.0073
rd	-9.00948
▁reason	-9.01261
▁Me	-9.01297
▁experience	-9.01326
ute	-9.01406
▁science	-9.01588
▁facciamo	-9.0181
▁Re	-9.0185
▁building	-9.01925
▁times	-9.01926
▁robot	-9.02054
▁family	-9.02085
▁gruppo	-9.02209
▁niente	-9.02585
▁across	-9.02711
▁pretty	-9.02837
N	-9.02968
▁quattro	-9.03214
▁Fa	-9.03312
nde	-9.03462
▁luce	-9.03595
▁anything	-9.03657
▁simple	-9.03659
▁bad	-9.03708
▁Poi	-9.03854
▁billion	-9.03915
▁such	-9.03925
▁To	-9.03942
oni	-9.03981
▁succede	-9.04037
▁coming	-9.04166
it	-9.04185
▁diverse	-9.04496
▁vostro	-9.04518
▁spesso	-9.04869
▁stuff	-9.04877
▁happen	-9.04942
▁semplice	-9.04953
▁young	-9.0504
▁half	-9.05086
▁control	-9.05219
▁Che	-9.05311
▁dollars	-9.05521
▁M	-9.05526
▁migliore	-9.05552
▁mano	-9.05567
▁mu	-9.0559
tica	-9.05613
▁prendere	-9.05886
ture	-9.05909
▁health	-9.05918
age	-9.0604
▁agli	-9.0609
▁umani	-9.06369
▁paese	-9.06426
▁contro	-9.06498
op	-9.06639
cco	-9.06642
▁learn	-9.06786
▁uomini	-9.06878
fo	-9.07174
▁Li	-9.07348
▁saw	-9.07386
gra	-9.07572
▁war	-9.07578
▁Let	-9.0765
]	-9.07732
▁40	-9.07788
ad	-9.07884
red	-9.07902
▁cost	-9.07955
▁asked	-9.08046
▁having	-9.081
tico	-9.08139
▁scuola	-9.08197
▁ecco	-9.08277
▁bi	-9.08323
▁later	-9.08373
▁lungo	-9.08441
▁18	-9.08542
▁strada	-9.08544
▁living	-9.08552
mer	-9.08576
▁age	-9.08665
▁else	-9.09002
0	-9.09131
▁[	-9.09132
▁cambiare	-9.09167
▁posso	-9.09212
ber	-9.09326
▁single	-9.09467
▁project	-9.09473
▁sembra	-9.0955
▁Po	-9.09589
ero	-9.09631
▁Co	-9.09689
▁CA	-9.09693
▁planet	-9.09848
▁é	-9.09874
▁while	-9.09962
▁Sa	-9.0998
▁quelli	-9.10006
",	-9.10067
▁sco	-9.10521
▁fra	-9.10588
▁team	-9.10611
3	-9.10829
▁past	-9.11011
nto	-9.11136
stra	-9.11316
00	-9.11547
▁Su	-9.11582
▁vostra	-9.11593
▁answer	-9.1176
ando	-9.11771
▁Here	-9.11849
▁remember	-9.11981
▁parole	-9.1212
▁mind	-9.12162
▁bar	-9.12177
▁5	-9.12184
▁ex	-9.12254
▁often	-9.12267
▁Gli	-9.12335
▁livello	-9.1235
▁Stati	-9.12421
▁lei	-9.1255
▁seen	-9.1271
▁sulle	-9.1272
▁Earth	-9.12951
▁rende	-9.13128
ine	-9.13156
▁public	-9.13159
▁sui	-9.13548
▁hope	-9.13729
▁vede	-9.13761
▁adesso	-9.13861
▁city	-9.13913
▁stessi	-9.13938
▁iniziato	-9.1394
▁piccolo	-9.1407
col	-9.14095
▁mezzo	-9.14095
▁almost	-9.1416
ssa	-9.14377
rle	-9.1439
▁keep	-9.14451
▁Be	-9.14456
▁1	-9.1468
sca	-9.14789
ally	-9.15136
qui	-9.15267
▁DNA	-9.15273
▁nuova	-9.15273
amente	-9.15305
▁informazioni	-9.15344
▁community	-9.15346
▁fr	-9.15367
▁vengono	-9.15428
vamo	-9.15443
▁both	-9.15482
▁paesi	-9.15494
▁deve	-9.15564
▁troppo	-9.15704
der	-9.15714
▁read	-9.15715
▁Ra	-9.15788
▁piace	-9.15933
▁fo	-9.15998
▁OK	-9.16252
▁picture	-9.16272
cri	-9.16384
▁effetti	-9.16419
9	-9.16575
▁inside	-9.16633
▁interessante	-9.16739
gna	-9.16992
ico	-9.17071
▁India	-9.17134
▁makes	-9.17278
▁giorni	-9.17287
▁days	-9.17298
line	-9.17303
▁sapete	-9.17359
▁happens	-9.17381
bu	-9.17388
▁goes	-9.17415
▁famiglia	-9.17432
ssimo	-9.17444
▁scoperto	-9.17505
▁imagine	-9.17578
▁Io	-9.17607
zio	-9.1773
wa	-9.17836
ol	-9.17857
▁Uniti	-9.17959
▁quei	-9.18017
▁already	-9.18235
▁ways	-9.18242
▁sappiamo	-9.18391
▁matter	-9.18534
▁Quello	-9.18784
enti	-9.18793
▁siete	-9.18915
▁testa	-9.19002
▁bu	-9.19015
▁wrong	-9.19268
▁avevano	-9.19348
▁someone	-9.19608
▁yet	-9.1964
▁Voglio	-9.19656
,000	-9.19737
▁sub	-9.19826
▁cinque	-9.19937
ari	-9.20034
bb	-9.2009
▁inizia	-9.20131
rti	-9.20191
▁oltre	-9.20236
ze	-9.20568
▁Ca	-9.20596
▁suoi	-9.20656
dy	-9.20671
▁12	-9.20713
ut	-9.20834
gno	-9.20841
▁run	-9.20968
▁saying	-9.21013
▁name	-9.21076
▁risposta	-9.21213
▁b	-9.21257
▁dato	-9.21389
▁myself	-9.2144
▁says	-9.2155
▁nothing	-9.21669
K	-9.21764
▁miliardi	-9.21972
▁amazing	-9.22124
▁idee	-9.22129
ther	-9.22246
▁six	-9.22397
▁problems	-9.22398
▁possible	-9.22429
▁looked	-9.22443
▁gran	-9.22512
▁job	-9.2262
▁order	-9.22649
▁macchina	-9.22659
▁fall	-9.22688
▁whether	-9.22736
uti	-9.22872
▁nessuno	-9.22981
▁cancer	-9.23263
▁pensato	-9.23267
▁programma	-9.23421
▁once	-9.2346
▁turn	-9.23502
▁capacità	-9.2351
▁pubblico	-9.23583
▁occhi	-9.23858
▁potere	-9.23919
ì	-9.23939
▁semplicemente	-9.23946
ggi	-9.23965
▁male	-9.24008
▁sure	-9.24031
▁figli	-9.24069
ir	-9.24204
▁2	-9.24259
▁piuttosto	-9.2436
▁pianeta	-9.2436
▁model	-9.24411
glia	-9.24643
▁research	-9.24646
uta	-9.24661
▁cibo	-9.24661
▁Why	-9.24825
F	-9.24958
▁months	-9.24986
▁costruire	-9.2502
ai	-9.25116
ssero	-9.2525
▁lavorare	-9.25335
▁Cosa	-9.25362
▁mesi	-9.25367
tiva	-9.25493
ora	-9.25707
▁cento	-9.25717
▁R	-9.25749
▁Na	-9.25773
que	-9.25791
▁sapere	-9.25853
ring	-9.2602
▁history	-9.26027
▁self	-9.26057
nze	-9.26082
▁Or	-9.26096
▁mette	-9.26156
▁book	-9.2622
▁arriva	-9.2625
ron	-9.26373
▁possa	-9.26592
tivo	-9.2667
▁economic	-9.27034
we	-9.2706
▁chiede	-9.27123
▁couple	-9.27127
ene	-9.27143
ized	-9.27347
.000	-9.27358
king	-9.27411
▁group	-9.27588
▁language	-9.27609
▁comincia	-9.27709
▁culture	-9.2777
▁senti	-9.27967
▁appena	-9.28014
▁avanti	-9.28019
land	-9.28043
▁Bo	-9.28161
▁true	-9.28175
▁cambiamento	-9.28196
▁within	-9.28291
▁words	-9.2833
▁government	-9.28342
ndi	-9.28407
▁mente	-9.28421
▁beautiful	-9.28743
▁education	-9.28743
▁since	-9.28878
▁top	-9.28963
▁child	-9.29149
gen	-9.29428
▁night	-9.29464
ful	-9.29478
▁vediamo	-9.2949
▁bambino	-9.29808
▁storie	-9.29841
▁studio	-9.29851
▁cells	-9.29856
▁cura	-9.29859
ac	-9.29971
▁giusto	-9.29975
▁heart	-9.29999
▁United	-9.30093
rio	-9.30144
The	-9.30185
ner	-9.3021
▁probabilmente	-9.3022
▁creato	-9.30352
▁Beh	-9.30486
▁processo	-9.30487
▁bio	-9.30549
▁quest	-9.30578
cchi	-9.3079
▁art	-9.30794
▁stop	-9.30799
▁guy	-9.3086
▁heard	-9.3093
cia	-9.30949
▁mother	-9.31149
▁ultimi	-9.31217
▁esiste	-9.31569
▁soldi	-9.31652
▁donna	-9.31783
ure	-9.31953
▁line	-9.32034
▁large	-9.32306
▁cellule	-9.32394
▁Pro	-9.32584
▁wasn	-9.32654
▁music	-9.32775
com	-9.32967
▁modi	-9.332
▁dello	-9.33201
▁basically	-9.33247
▁learned	-9.33255
ian	-9.33276
▁musica	-9.33453
▁allo	-9.33472
▁dare	-9.33583
▁completamente	-9.33768
fer	-9.33786
▁share	-9.33796
rne	-9.33809
ina	-9.33852
▁gu	-9.33913
▁genere	-9.34065
▁natura	-9.34226
▁close	-9.34236
ito	-9.34244
▁mostra	-9.34416
▁serve	-9.34677
▁Te	-9.34778
▁figure	-9.34799
for	-9.3482
▁umano	-9.34961
▁terra	-9.3499
enza	-9.35021
ning	-9.35062
▁ragione	-9.35135
gg	-9.35145
rebbe	-9.35177
▁environment	-9.35233
▁comes	-9.35284
▁cell	-9.35506
▁Questi	-9.35534
▁knew	-9.3557
▁animali	-9.35588
▁support	-9.35601
endo	-9.35743
▁abbia	-9.35797
▁madre	-9.3586
▁until	-9.35942
▁American	-9.35951
ism	-9.35979
▁opera	-9.3603
▁ideas	-9.36037
▁front	-9.3605
▁Sta	-9.36164
▁built	-9.3627
▁parla	-9.36334
▁rest	-9.3645
▁ten	-9.36517
▁color	-9.36564
id	-9.36934
▁25	-9.36967
ary	-9.36975
▁guerra	-9.37064
▁amici	-9.37072
▁St	-9.37091
▁decided	-9.37191
▁libro	-9.37432
▁w	-9.37488
▁prova	-9.3754
▁dentro	-9.37543
▁piccola	-9.37596
▁stories	-9.37675
cio	-9.37679
▁permette	-9.37706
▁must	-9.37735
▁nome	-9.378
▁legge	-9.37819
▁ocean	-9.37844
▁house	-9.37873
▁forza	-9.37928
▁piccoli	-9.37953
▁became	-9.37953
▁diverso	-9.37954
tter	-9.38031
▁poco	-9.3815
▁sound	-9.38161
mme	-9.38227
▁looks	-9.38249
▁study	-9.38281
▁woman	-9.38311
▁studenti	-9.38323
▁Chi	-9.38346
▁scienza	-9.38403
▁grazie	-9.38404
▁passa	-9.38446
▁guarda	-9.38622
▁spend	-9.38737
▁primi	-9.38941
nk	-9.3906
▁energia	-9.39081
▁produce	-9.3912
▁vive	-9.39123
ance	-9.39144
▁view	-9.39162
eri	-9.39201
▁rispetto	-9.39302
▁continua	-9.39567
▁conto	-9.3961
▁friends	-9.39632
▁word	-9.39696
▁free	-9.397
▁though	-9.3971
▁immagini	-9.39846
U	-9.39878
▁completely	-9.39892
▁Siamo	-9.39896
▁vista	-9.40141
▁modello	-9.40209
▁qualsiasi	-9.40211
▁vogliamo	-9.40227
▁exactly	-9.40325
▁personal	-9.40337
▁vivere	-9.40366
H	-9.4039
su	-9.40486
▁avrebbe	-9.40585
▁cercando	-9.40589
ente	-9.40708
pro	-9.40714
▁diventa	-9.40872
▁governo	-9.40944
▁hear	-9.41007
▁leave	-9.41331
▁land	-9.41366
▁Google	-9.41406
▁possibilità	-9.41503
mbi	-9.41525
▁piece	-9.41571
▁company	-9.41591
▁60	-9.41621
▁sopra	-9.41622
fica	-9.41673
▁species	-9.41678
les	-9.41851
remo	-9.41926
▁States	-9.41932
ving	-9.41951
▁sh	-9.41965
▁cercare	-9.41976
qua	-9.42031
▁sì	-9.42153
ors	-9.42211
ding	-9.42225
▁passato	-9.42226
ton	-9.42318
▁ourselves	-9.42428
▁prende	-9.42546
▁taking	-9.42635
▁themselves	-9.42709
▁Terra	-9.42709
▁sviluppo	-9.42753
▁step	-9.42795
▁Qui	-9.42904
▁phone	-9.42944
▁everybody	-9.43085
▁online	-9.43089
▁sca	-9.43309
▁nature	-9.43379
▁places	-9.43498
old	-9.43536
▁society	-9.43556
▁sometimes	-9.43556
▁huge	-9.43745
▁somebody	-9.4384
▁dovuto	-9.43844
▁local	-9.43863
ui	-9.43891
▁nuove	-9.43935
▁scale	-9.43946
▁questions	-9.44025
ping	-9.4407
ant	-9.44098
▁happening	-9.44157
▁lascia	-9.44194
▁6	-9.44234
▁against	-9.44239
▁air	-9.4437
▁rappresenta	-9.44371
za	-9.44377
inizio	-9.44469
▁particolare	-9.44505
▁giro	-9.44588
▁act	-9.44649
▁quell	-9.44768
▁paio	-9.44919
▁works	-9.44966
▁Allora	-9.45002
▁na	-9.45011
bra	-9.45023
▁campo	-9.45115
▁fish	-9.4519
▁domande	-9.4556
▁stava	-9.4561
▁seconda	-9.45612
▁7	-9.45754
scono	-9.45877
tions	-9.45944
sia	-9.4603
▁gas	-9.46079
▁diventare	-9.46092
▁crea	-9.46126
rge	-9.46147
▁faccia	-9.46227
▁level	-9.46251
pre	-9.46534
▁cerca	-9.46677
▁students	-9.46764
▁Possiamo	-9.46821
▁gioco	-9.46919
▁trovato	-9.46999
▁chiamato	-9.47006
▁vuole	-9.47168
▁micro	-9.47193
▁At	-9.4728
▁entra	-9.47305
▁globale	-9.47472
▁walk	-9.47576
▁sentito	-9.47602
▁San	-9.47805
▁collega	-9.479
ione	-9.47984
▁mettere	-9.48046
▁N	-9.48161
▁luogo	-9.48197
▁disease	-9.48204
interno	-9.48249
▁pu	-9.48372
▁struttura	-9.48395
V	-9.48438
▁everyone	-9.48475
▁migliaia	-9.48498
▁preoccupa	-9.48519
▁hours	-9.48578
▁itself	-9.48593
oso	-9.48692
▁difficult	-9.48792
ran	-9.4888
ap	-9.48942
▁migliori	-9.48981
▁isn	-9.49002
▁instead	-9.49191
▁concentra	-9.49211
▁chiesto	-9.49292
▁rather	-9.49319
▁aiuta	-9.49381
▁arm	-9.49468
▁record	-9.49793
▁black	-9.49805
▁serie	-9.49808
▁minuti	-9.49893
the	-9.49977
▁universe	-9.49994
▁Credo	-9.49997
▁animals	-9.50194
▁indietro	-9.50297
▁learning	-9.50326
▁couldn	-9.50331
▁created	-9.50407
rie	-9.50444
▁usa	-9.50513
rr	-9.50519
▁worked	-9.50672
▁hai	-9.50682
▁centro	-9.50716
ction	-9.50978
▁population	-9.51211
▁parola	-9.51317
▁differenza	-9.51415
▁along	-9.51505
ist	-9.51625
▁motivo	-9.51636
▁fin	-9.51798
vrei	-9.51876
▁risk	-9.51892
ana	-9.51963
▁image	-9.52007
▁least	-9.52037
▁early	-9.52137
▁tipi	-9.52219
▁mie	-9.52292
▁entire	-9.52356
▁W	-9.52376
▁machine	-9.52637
▁accade	-9.52756
▁turns	-9.52757
▁Go	-9.52788
side	-9.5279
nne	-9.52817
gni	-9.52828
▁intorno	-9.52863
▁Queste	-9.52924
port	-9.52927
▁individual	-9.52929
W	-9.52936
▁Some	-9.52951
fu	-9.53043
ach	-9.53046
▁salute	-9.53271
▁ovviamente	-9.53275
gono	-9.53287
▁stra	-9.53295
▁minutes	-9.53461
▁paura	-9.53493
▁periodo	-9.53623
▁imparato	-9.53695
▁para	-9.53768
ici	-9.53801
▁grow	-9.53804
▁pay	-9.53819
▁9	-9.53834
aria	-9.53934
▁behavior	-9.54003
▁software	-9.54003
▁thousands	-9.54006
▁t	-9.54113
▁short	-9.54319
and	-9.54426
zi	-9.54443
▁alto	-9.54457
ries	-9.54602
▁ben	-9.54652
▁Bene	-9.54745
▁outside	-9.54851
arte	-9.54877
▁ore	-9.54895
▁Ciò	-9.54944
▁buy	-9.54997
▁secolo	-9.55157
cul	-9.55342
una	-9.55373
▁cancro	-9.55378
▁padre	-9.55379
▁area	-9.5542
▁game	-9.55506
auto	-9.55612
tiche	-9.55614
▁11	-9.55717
way	-9.55985
▁tuo	-9.56162
▁du	-9.56219
▁morte	-9.56233
▁buona	-9.56393
ug	-9.56471
▁won	-9.5668
▁breve	-9.56769
▁Ga	-9.56783
▁third	-9.56875
▁field	-9.56907
▁political	-9.56993
▁importanti	-9.5716
▁crescita	-9.57199
▁common	-9.57214
▁pensa	-9.57261
▁capito	-9.57307
▁nulla	-9.57437
▁friend	-9.5751
▁potuto	-9.57528
▁anti	-9.57545
▁changed	-9.57593
▁sociale	-9.57751
▁quanti	-9.5776
▁kinds	-9.57842
erano	-9.57978
▁particular	-9.58064
▁market	-9.58072
▁fortuna	-9.58185
▁corre	-9.58228
▁gave	-9.58298
▁full	-9.58393
ono	-9.58462
▁genitori	-9.58532
ggio	-9.58636
▁acqua	-9.5875
▁lavora	-9.58847
And	-9.589
▁modern	-9.58933
▁cominciato	-9.58935
hu	-9.5899
▁success	-9.59079
ies	-9.59093
▁ones	-9.59236
▁Then	-9.5924
▁cambia	-9.59263
stro	-9.59295
gio	-9.59301
▁scritto	-9.59302
▁devo	-9.59418
▁taken	-9.59422
▁amount	-9.59434
▁feeling	-9.59594
▁Perciò	-9.59611
▁sign	-9.59667
▁middle	-9.59722
ence	-9.59754
▁esattamente	-9.59833
▁qualunque	-9.59834
mon	-9.59892
▁paper	-9.59995
▁dicono	-9.60004
▁companies	-9.60167
▁settimana	-9.60167
▁nuovi	-9.60167
▁Ka	-9.60202
▁reale	-9.60237
▁guardare	-9.6025
▁dovrebbe	-9.60295
▁rec	-9.60389
▁mercato	-9.6039
▁death	-9.60391
▁felt	-9.60391
▁sistemi	-9.60393
ante	-9.60403
▁Dobbiamo	-9.60502
cent	-9.60508
▁preso	-9.6053
ize	-9.60561
▁special	-9.60634
▁linea	-9.60756
▁controllo	-9.60879
▁fun	-9.60941
ating	-9.60969
▁metà	-9.60997
▁pensate	-9.61053
▁200	-9.611
ated	-9.61141
etto	-9.61216
▁fear	-9.61249
▁systems	-9.61296
▁imparare	-9.61355
▁continue	-9.61401
▁Dunque	-9.61407
▁facile	-9.61516
▁aspetta	-9.61526
▁powerful	-9.61536
▁sentire	-9.61539
tamente	-9.61548
▁China	-9.61613
▁Qual	-9.61622
▁scala	-9.61777
▁resto	-9.61785
▁vicino	-9.61856
▁God	-9.62035
▁reality	-9.62148
uto	-9.62171
ps	-9.62192
▁difference	-9.62258
▁giovani	-9.62309
tivi	-9.62338
▁news	-9.62413
▁behind	-9.62423
▁Oggi	-9.6246
▁seven	-9.62462
▁politica	-9.62535
▁cultura	-9.62537
▁faccio	-9.62591
▁post	-9.62607
▁là	-9.62747
▁easy	-9.62768
▁others	-9.62968
uomo	-9.63039
ard	-9.63187
▁natural	-9.63251
▁prove	-9.63255
▁dovremmo	-9.63343
▁On	-9.63345
▁comune	-9.63455
tare	-9.63465
▁spa	-9.63491
ite	-9.63778
▁needed	-9.6402
▁document	-9.64033
ismo	-9.64049
▁vite	-9.64227
▁vorrei	-9.64265
▁Penso	-9.64283
▁pass	-9.64486
▁yourself	-9.64498
▁umana	-9.64498
▁hi	-9.64517
▁deal	-9.64526
tiamo	-9.64657
ny	-9.64701
ward	-9.64845
▁popolazione	-9.64848
▁rete	-9.64896
▁network	-9.64965
▁size	-9.65094
▁given	-9.65095
ose	-9.65184
▁guida	-9.65192
▁gets	-9.65343
▁Ad	-9.65413
▁center	-9.65438
▁solve	-9.65446
▁low	-9.6554
▁realized	-9.65552
▁century	-9.65585
▁virus	-9.65609
▁turned	-9.65631
▁uomo	-9.65682
▁8	-9.65742
▁spent	-9.65785
▁valore	-9.6579
▁pen	-9.65831
▁seeing	-9.6585
▁cities	-9.65869
▁eyes	-9.65883
ghe	-9.65884
▁puoi	-9.65907
dono	-9.65971
▁mani	-9.66021
▁16	-9.66044
▁Bu	-9.66048
▁began	-9.66145
▁batteri	-9.66164
▁Ok	-9.66219
▁present	-9.6622
▁red	-9.66273
▁aziende	-9.66379
▁nu	-9.66457
ntro	-9.66489
▁tua	-9.66626
▁guys	-9.66683
▁conta	-9.66868
▁genetic	-9.66889
year	-9.66974
▁saranno	-9.67039
nch	-9.67238
▁simply	-9.67334
ler	-9.67422
▁portare	-9.67432
udi	-9.67539
▁torna	-9.67544
▁beginning	-9.67582
led	-9.677
uri	-9.67725
forma	-9.67732
▁Dio	-9.67826
▁happy	-9.67974
by	-9.68013
tici	-9.68029
men	-9.68048
▁situazione	-9.68176
▁program	-9.682
Potete	-9.68243
▁soli	-9.68289
▁camera	-9.68402
▁measure	-9.68418
▁parents	-9.68461
▁14	-9.68468
▁metri	-9.68532
▁Chris	-9.68539
▁zero	-9.68546
▁cannot	-9.68567
nder	-9.68659
▁shape	-9.68664
▁key	-9.68837
▁longer	-9.689
▁cuore	-9.68904
▁leader	-9.68925
▁risultato	-9.68965
▁devono	-9.68999
▁Sp	-9.69085
ub	-9.69116
▁explain	-9.69147
▁riguarda	-9.69147
▁propria	-9.69203
▁finally	-9.69218
▁pratica	-9.69225
▁punti	-9.69265
osi	-9.69267
▁Fu	-9.69289
zzo	-9.69309
▁Not	-9.69348
▁week	-9.69398
▁standard	-9.69398
▁voice	-9.69429
▁dagli	-9.69463
▁sicuro	-9.69514
immagine	-9.69518
▁Va	-9.69538
▁certain	-9.69541
▁web	-9.69584
▁pubblica	-9.69646
▁rate	-9.69714
iti	-9.69766
▁Anche	-9.6991
iche	-9.6995
▁multi	-9.70128
▁stay	-9.7025
▁perhaps	-9.70252
▁Cina	-9.70259
▁poor	-9.70344
▁photograph	-9.70376
▁capi	-9.70424
▁Tutti	-9.70432
▁♪	-9.705
ghi	-9.70551
▁strumenti	-9.70622
anti	-9.70713
▁Forse	-9.70785
▁pazienti	-9.7087
▁dietro	-9.70893
▁exist	-9.709
ppo	-9.7094
▁moving	-9.71012
ggia	-9.71092
▁father	-9.71102
▁challenge	-9.71111
▁Can	-9.71153
▁portato	-9.71221
▁piano	-9.71256
▁arrivare	-9.71308
▁sue	-9.71314
ista	-9.7134
▁geni	-9.71385
mmi	-9.71428
▁eight	-9.71484
▁value	-9.71495
▁sole	-9.71609
▁begin	-9.71614
▁experiment	-9.71747
▁ball	-9.71759
Oh	-9.71959
▁perchè	-9.71966
▁movimento	-9.71994
▁urban	-9.72245
▁Okay	-9.7228
▁potrebbero	-9.72369
▁Noi	-9.72424
▁posti	-9.72426
▁vol	-9.72532
▁tanti	-9.72595
▁People	-9.72624
▁vogliono	-9.72672
No	-9.72733
▁pochi	-9.72765
▁Dopo	-9.72813
▁protect	-9.72846
▁sicurezza	-9.72877
▁Fi	-9.72898
▁17	-9.73026
▁cos	-9.73053
▁90	-9.73072
uo	-9.7309
▁class	-9.73097
▁Gi	-9.73116
▁terms	-9.73175
pen	-9.73187
▁messo	-9.73204
▁cre	-9.73244
ude	-9.73295
▁lots	-9.733
▁focus	-9.73312
▁risultati	-9.73425
ging	-9.73434
ger	-9.73497
▁ottenere	-9.73532
▁wonderful	-9.73562
▁speak	-9.7364
▁approach	-9.73767
▁sola	-9.73769
▁80	-9.7378
▁costrui	-9.73849
▁sfida	-9.73895
▁map	-9.73935
▁blood	-9.74023
▁corso	-9.74024
▁stesse	-9.74045
▁Z	-9.74075
zzi	-9.74238
logi	-9.74276
▁V	-9.74296
cer	-9.74377
▁generation	-9.74384
▁movement	-9.74435
▁pick	-9.74457
▁forte	-9.74459
▁takes	-9.74594
▁blue	-9.74682
▁Ta	-9.74683
ization	-9.74801
▁ground	-9.74801
▁quantità	-9.74813
▁usando	-9.74838
cal	-9.74856
▁needs	-9.74866
▁surface	-9.74924
▁hands	-9.74934
tch	-9.74958
cche	-9.74993
rai	-9.7504
▁deciso	-9.75054
ani	-9.75211
▁break	-9.75235
mba	-9.75282
▁potremmo	-9.75315
▁impact	-9.7532
▁incredibile	-9.7536
ura	-9.75384
▁enorme	-9.7539
▁simile	-9.75446
car	-9.75485
ak	-9.75505
ola	-9.75578
▁sala	-9.75587
▁scar	-9.75651
▁gene	-9.75679
▁Just	-9.75762
▁fl	-9.75836
▁access	-9.7592
▁questione	-9.7606
ino	-9.76107
▁parlando	-9.76125
▁stand	-9.76129
▁th	-9.76159
▁quickly	-9.76271
▁plan	-9.76329
▁rischio	-9.76362
cy	-9.7643
nic	-9.76437
▁tante	-9.76555
▁lost	-9.76617
▁basso	-9.76663
▁ability	-9.76668
▁almeno	-9.76753
ja	-9.76754
▁stress	-9.76923
▁stare	-9.77138
▁guardate	-9.7746
▁oil	-9.77471
▁stanza	-9.77526
▁Our	-9.77551
▁climate	-9.77644
▁par	-9.77671
é	-9.77733
▁World	-9.77809
nia	-9.77988
▁tried	-9.78007
▁travel	-9.78117
▁cut	-9.78184
▁risorse	-9.78209
elli	-9.78269
▁radio	-9.78283
▁qua	-9.78397
▁deep	-9.7843
▁drive	-9.78574
▁centinaia	-9.78611
▁Ti	-9.78655
▁visual	-9.7872
▁period	-9.78729
▁kid	-9.78899
▁interested	-9.78902
▁Ogni	-9.78912
▁verità	-9.79036
▁dark	-9.7906
▁presenta	-9.79109
▁win	-9.79124
▁John	-9.79136
▁whatever	-9.79154
▁lead	-9.79183
rc	-9.79189
Non	-9.79361
▁situation	-9.79419
▁Oh	-9.79757
▁known	-9.79856
▁region	-9.79874
▁allow	-9.79874
▁risolvere	-9.79903
▁sea	-9.79927
▁offer	-9.79948
▁70	-9.80031
▁stavo	-9.80106
▁Uno	-9.80163
▁opportunity	-9.80234
▁spin	-9.80254
▁notte	-9.80274
ncy	-9.80295
▁dicendo	-9.80326
▁rot	-9.8034
▁fast	-9.80349
▁fatti	-9.8044
▁considera	-9.80446
▁met	-9.80484
▁parts	-9.80488
▁hit	-9.80513
val	-9.80552
▁emerge	-9.80611
▁fronte	-9.80678
▁weeks	-9.80692
ccia	-9.80768
▁passo	-9.80797
▁misura	-9.8087
▁humans	-9.80897
ultima	-9.80918
▁girl	-9.80968
▁costo	-9.80992
▁Sì	-9.81192
▁sinistra	-9.81193
▁immaginare	-9.81266
▁pensiamo	-9.81341
▁gone	-9.81428
▁complex	-9.81449
ice	-9.81461
during	-9.81463
▁oggetti	-9.81468
▁provide	-9.81471
▁sposta	-9.81474
▁malattie	-9.81606
▁vostri	-9.81747
azioni	-9.81833
▁character	-9.81883
▁tecnologie	-9.81883
pia	-9.81986
▁X	-9.82125
▁sitting	-9.8215
▁either	-9.82168
▁clear	-9.82187
▁material	-9.82201
▁growth	-9.82207
▁blu	-9.82287
▁write	-9.82403
▁chance	-9.82452
onda	-9.82516
▁tro	-9.82642
▁conversation	-9.82718
▁prodotto	-9.82718
▁fondo	-9.82783
▁moral	-9.82785
▁attention	-9.82858
You	-9.82899
▁letto	-9.82909
▁TV	-9.83022
▁dimostra	-9.83046
▁sex	-9.83087
▁patients	-9.83103
▁message	-9.83151
▁report	-9.83215
▁Bi	-9.83255
▁aiutare	-9.83276
etta	-9.83277
▁average	-9.83312
▁fire	-9.8333
▁medicina	-9.83536
erà	-9.8354
▁economy	-9.8356
▁usato	-9.8358
unica	-9.83656
▁tri	-9.8369
▁soluzione	-9.83702
ario	-9.83741
▁white	-9.83799
▁based	-9.83827
bri	-9.83836
▁viaggio	-9.83838
▁cause	-9.83858
uro	-9.83877
tato	-9.83914
▁progetti	-9.83984
zze	-9.83997
▁indica	-9.84032
gue	-9.84036
▁realize	-9.8405
▁Tutto	-9.84197
▁Right	-9.84277
zo	-9.84387
▁rip	-9.84398
Africa	-9.84453
▁libera	-9.84516
▁result	-9.84527
▁volete	-9.84553
nato	-9.84579
▁carbon	-9.84615
gre	-9.84619
▁fossero	-9.84641
▁hold	-9.84694
▁volevo	-9.84695
▁laboratorio	-9.8478
▁leg	-9.84788
ore	-9.84893
▁13	-9.84947
▁eat	-9.84988
spect	-9.84993
!"	-9.85205
▁destra	-9.85227
▁An	-9.85308
▁alta	-9.8531
▁stage	-9.85386
▁reach	-9.85425
ccio	-9.85514
▁South	-9.85524
▁sacco	-9.85614
▁avevamo	-9.85623
▁lab	-9.85668
▁ferma	-9.8582
▁chiamata	-9.85823
▁nemmeno	-9.85842
wn	-9.85914
▁Y	-9.86136
▁scienziati	-9.86275
▁piedi	-9.86283
▁H	-9.86341
▁trust	-9.8642
▁solito	-9.86421
zz	-9.86424
▁growing	-9.86428
▁shows	-9.86432
▁nessun	-9.86548
osa	-9.86576
▁understanding	-9.86579
▁scoprire	-9.86672
▁Facebook	-9.86856
eremo	-9.86955
▁zone	-9.87015
▁cap	-9.87041
▁casi	-9.8715
▁parlato	-9.87259
▁Europe	-9.87259
▁Pre	-9.87293
▁knowledge	-9.87294
▁partner	-9.87335
▁Ve	-9.87347
lin	-9.87409
lly	-9.87427
ide	-9.87432
ities	-9.87434
▁piccole	-9.8744
▁voce	-9.87442
▁vera	-9.87498
▁interessa	-9.87548
▁scientists	-9.8758
▁born	-9.87608
▁qualità	-9.87642
▁action	-9.87665
▁settimane	-9.87734
▁fate	-9.87752
▁sé	-9.87824
▁consider	-9.87881
stica	-9.87979
▁morning	-9.88035
▁alone	-9.88048
esperienza	-9.88082
ori	-9.88277
▁African	-9.88393
▁numbers	-9.88422
▁wouldn	-9.88425
trice	-9.88462
▁davanti	-9.88473
▁Tra	-9.88522
What	-9.88526
▁connect	-9.88531
▁issue	-9.88581
▁represent	-9.88607
▁green	-9.88619
imp	-9.88637
▁sociali	-9.88645
▁structure	-9.88689
▁thank	-9.88695
▁literally	-9.88768
▁nice	-9.88786
▁safe	-9.88862
▁naturale	-9.8904
▁stampa	-9.89077
bor	-9.89214
▁brought	-9.89214
▁cool	-9.89291
▁college	-9.89364
▁vision	-9.89437
▁giu	-9.89457
▁mental	-9.89488
▁magic	-9.89498
▁invest	-9.8951
▁libri	-9.89548
▁Ero	-9.89624
isce	-9.89637
▁Wa	-9.89784
▁add	-9.89804
▁prodotti	-9.89821
▁poteva	-9.89861
▁superficie	-9.89908
▁rico	-9.90106
▁Dove	-9.90261
▁truth	-9.90264
▁termine	-9.90273
▁Wi	-9.9033
ight	-9.90373
▁termini	-9.90415
▁bel	-9.90498
▁incredible	-9.90566
▁similar	-9.90566
▁macchine	-9.90566
▁changes	-9.90573
▁hundreds	-9.90575
▁occupa	-9.90588
▁classe	-9.90597
▁rendere	-9.90688
▁reso	-9.90692
▁physical	-9.90754
time	-9.90778
▁prepara	-9.90873
▁numeri	-9.90901
izzazione	-9.91063
▁seem	-9.91106
▁bottom	-9.91172
▁medicine	-9.91216
▁muove	-9.91287
▁fatta	-9.91318
▁esseri	-9.91396
▁telling	-9.91404
nse	-9.91406
▁source	-9.91411
▁Ni	-9.91457
▁integra	-9.91483
▁areas	-9.91555
▁gruppi	-9.91629
▁general	-9.91705
▁iniziare	-9.9177
▁Sapete	-9.91782
▁21	-9.91812
▁24	-9.91826
ties	-9.91912
▁Tu	-9.91923
▁screen	-9.91964
bel	-9.92039
▁ragazzo	-9.92089
▁normal	-9.92133
▁stu	-9.92153
▁tend	-9.92171
ka	-9.92197
▁hospital	-9.92242
▁mappa	-9.92272
▁seems	-9.92348
▁development	-9.92354
▁buon	-9.92384
ped	-9.92404
▁Hu	-9.92498
pri	-9.92516
▁assolutamente	-9.9255
▁solar	-9.92562
▁watch	-9.92595
▁dov	-9.92609
▁road	-9.92705
▁tools	-9.92851
▁audience	-9.92859
▁teoria	-9.9286
▁feet	-9.92863
▁wrote	-9.93014
▁giving	-9.93021
▁ricorda	-9.93049
energia	-9.93083
like	-9.9317
ex	-9.93278
▁riguardo	-9.93324
▁affrontare	-9.93391
rry	-9.93393
▁denaro	-9.93481
▁comunque	-9.93486
▁spiega	-9.93589
▁goal	-9.93777
▁malattia	-9.93792
vole	-9.93836
ned	-9.93924
La	-9.93927
▁touch	-9.93958
rk	-9.94029
atto	-9.94037
▁attenzione	-9.94057
▁animal	-9.94096
▁scientific	-9.94178
▁visit	-9.94205
▁semplici	-9.94261
▁vanno	-9.94273
▁running	-9.9428
▁500	-9.94308
▁Ja	-9.94338
ki	-9.94428
▁starting	-9.94473
▁dream	-9.94539
▁incontra	-9.94595
vvi	-9.94641
mbo	-9.94643
▁possano	-9.9465
▁conoscenza	-9.94745
▁esperienza	-9.94833
▁pezzo	-9.94907
▁comportamento	-9.94908
Well	-9.95028
▁forward	-9.95072
▁paga	-9.95078
▁medical	-9.95089
▁girls	-9.95151
▁bomb	-9.9535
▁digital	-9.95383
▁Car	-9.95448
▁figlio	-9.95469
▁anyone	-9.95472
▁diversa	-9.95482
▁rich	-9.95608
▁scorso	-9.957
▁developed	-9.95715
▁ga	-9.95791
▁movie	-9.95844
ship	-9.95879
▁limita	-9.96003
app	-9.96011
▁sanno	-9.96019
▁scelta	-9.96161
▁innovation	-9.96161
▁devi	-9.96208
nna	-9.96221
ual	-9.96244
ché	-9.96289
▁photo	-9.96321
▁tempi	-9.96325
hy	-9.96354
▁specific	-9.96454
▁eye	-9.96511
▁mangia	-9.96641
out	-9.96653
▁sette	-9.96705
▁carta	-9.96759
opera	-9.96771
▁likely	-9.96846
▁books	-9.96926
▁discovered	-9.96931
▁cat	-9.96944
▁ice	-9.96961
▁main	-9.96965
▁registra	-9.96967
accordo	-9.96989
denti	-9.97004
lia	-9.97005
▁meet	-9.97019
universo	-9.97045
▁ver	-9.97205
▁dead	-9.9725
▁legal	-9.97255
ello	-9.97284
▁strumento	-9.97287
▁fantastico	-9.97352
▁type	-9.97386
▁scrivere	-9.97411
▁technologies	-9.97449
▁worth	-9.97499
par	-9.97615
▁spread	-9.97619
▁dico	-9.97667
▁rim	-9.97697
▁millions	-9.97766
▁tornare	-9.97788
▁images	-9.97811
▁prefer	-9.97887
almente	-9.97973
▁amico	-9.97997
▁radical	-9.98046
bbi	-9.98048
▁pan	-9.98113
▁soon	-9.98123
ow	-9.98131
ugh	-9.98168
▁studi	-9.98178
▁relationship	-9.98182
▁Mu	-9.98336
▁lavorato	-9.98415
▁California	-9.98425
uso	-9.98462
▁With	-9.98467
Video	-9.9849
▁visione	-9.98499
▁passare	-9.98582
▁guess	-9.98592
▁miles	-9.98606
▁tiny	-9.98631
▁pal	-9.98637
▁strong	-9.9867
▁table	-9.98674
ambiente	-9.98675
▁racconta	-9.98795
▁forest	-9.98971
my	-9.99001
▁poll	-9.99152
▁teach	-9.9917
▁provare	-9.99208
▁lavorando	-9.99244
cing	-9.99245
▁gioca	-9.99447
economia	-9.99666
han	-9.99681
▁especially	-9.99742
fin	-9.99815
▁né	-9.99914
▁baby	-9.99928
▁materiale	-9.99933
▁Prima	-9.99943
▁Sto	-10.0007
▁chiunque	-10.0009
▁Com	-10.0013
▁basic	-10.0015
▁push	-10.0016
▁amp	-10.002
▁/	-10.0024
▁recognize	-10.0024
▁listen	-10.0026
▁aumenta	-10.0031
▁maggiore	-10.0043
▁colore	-10.0051
▁ar	-10.0051
▁solution	-10.0054
▁avrebbero	-10.0059
▁send	-10.0063
schi	-10.0065
▁choice	-10.0071
fra	-10.0072
▁asking	-10.0074
▁matematica	-10.0074
▁suggest	-10.0074
▁regola	-10.0076
▁subito	-10.0093
▁plant	-10.0095
▁star	-10.0097
▁massa	-10.0106
med	-10.0107
day	-10.0109
▁Quel	-10.0111
▁sarebbero	-10.0114
▁save	-10.0116
rato	-10.0123
bbe	-10.0124
▁creating	-10.013
▁importa	-10.0131
▁son	-10.0131
▁suono	-10.0146
▁office	-10.0153
▁persino	-10.016
▁recently	-10.0167
▁condividere	-10.017
▁cambiamenti	-10.0177
▁creative	-10.0178
▁changing	-10.018
▁costruito	-10.0189
▁predict	-10.0203
▁follow	-10.0218
▁smart	-10.0226
▁personale	-10.0233
▁press	-10.0236
mette	-10.024
▁content	-10.0245
▁conosce	-10.0249
zionale	-10.0261
▁door	-10.0272
▁vivono	-10.0273
▁designed	-10.0278
iscono	-10.0279
ists	-10.0282
▁wonder	-10.0285
▁trans	-10.0287
riamo	-10.0288
▁mine	-10.0288
rate	-10.029
▁Pe	-10.0293
età	-10.0296
▁fly	-10.0304
▁famiglie	-10.0311
▁industry	-10.0311
▁email	-10.0311
gger	-10.0323
▁develop	-10.0326
▁showed	-10.0326
▁Ki	-10.0329
▁role	-10.033
▁cambiato	-10.0332
ft	-10.0335
▁code	-10.0341
etti	-10.0344
▁neanche	-10.0346
▁force	-10.0349
mini	-10.0358
▁decide	-10.0359
▁modelli	-10.0361
▁nuclear	-10.0361
▁forme	-10.0363
em	-10.0371
▁Vedete	-10.038
▁Ven	-10.0402
gua	-10.0408
mate	-10.041
▁bella	-10.0422
ology	-10.0425
▁300	-10.0434
▁positive	-10.0436
▁mille	-10.0443
▁box	-10.0457
▁issues	-10.0461
▁pur	-10.0462
▁velocità	-10.0485
▁patient	-10.0488
▁tale	-10.05
▁journey	-10.0502
▁among	-10.0502
▁product	-10.0503
▁street	-10.0503
▁account	-10.0519
▁absolutely	-10.0522
▁national	-10.053
▁expect	-10.0533
▁evidence	-10.0537
▁ovunque	-10.0537
▁response	-10.0537
▁terzo	-10.0537
▁crescere	-10.0538
▁k	-10.0541
▁agree	-10.0542
▁extra	-10.0549
colo	-10.0551
▁theory	-10.0558
▁leggere	-10.0566
▁cars	-10.0569
▁soprattutto	-10.0572
▁Cha	-10.0572
▁page	-10.0573
▁Yeah	-10.0576
▁yes	-10.0578
▁molta	-10.0589
▁cioè	-10.059
▁Ju	-10.0592
▁pat	-10.0602
▁mass	-10.0616
▁Hann	-10.0621
▁decision	-10.0623
▁clean	-10.0625
▁accetta	-10.0625
▁interest	-10.0625
ability	-10.0629
nger	-10.0645
▁law	-10.0653
▁genera	-10.0654
▁incredibly	-10.066
▁North	-10.066
▁dà	-10.0663
▁n	-10.0663
dere	-10.0669
▁resources	-10.0673
▁major	-10.0676
ever	-10.0676
▁sleep	-10.0678
▁op	-10.0685
▁perfect	-10.0687
ultimo	-10.0689
▁wi	-10.0694
▁text	-10.0698
▁maniera	-10.07
▁Dr	-10.071
▁raggiungere	-10.0712
▁realmente	-10.0722
▁First	-10.0731
Ma	-10.0736
▁Han	-10.0736
▁attack	-10.0737
▁generazione	-10.0738
▁By	-10.0743
▁playing	-10.0745
ig	-10.0748
▁beyond	-10.0749
▁concept	-10.0752
▁relazione	-10.0752
▁cha	-10.0753
▁attività	-10.0765
▁lingua	-10.0766
▁include	-10.0767
▁linguaggio	-10.0768
eranno	-10.0769
▁dog	-10.0771
▁talked	-10.0782
▁mese	-10.0788
▁towards	-10.0788
▁trasforma	-10.0792
▁organizza	-10.0798
▁English	-10.0803
▁magari	-10.0803
▁search	-10.0804
▁assist	-10.0805
▁increase	-10.0814
▁subject	-10.0821
▁Alcuni	-10.0821
▁revolution	-10.0821
▁condizioni	-10.0821
▁performance	-10.0822
▁controlla	-10.0825
▁developing	-10.0826
▁treatment	-10.0828
▁Aveva	-10.0829
flu	-10.0831
▁andato	-10.0833
▁salva	-10.0835
▁applica	-10.0836
art	-10.0851
▁capo	-10.0855
▁regole	-10.0857
▁otto	-10.0863
▁stabili	-10.0883
▁term	-10.0887
▁track	-10.0897
▁presente	-10.0907
▁capital	-10.0911
▁violenza	-10.0912
▁alza	-10.092
▁sviluppa	-10.092
▁costa	-10.094
▁determina	-10.0948
▁religion	-10.0948
▁bigger	-10.0953
▁sport	-10.0956
izing	-10.0959
lan	-10.0963
▁Fe	-10.0964
▁produzione	-10.0966
▁communities	-10.0966
▁opportunità	-10.0967
j	-10.0971
▁fisica	-10.098
▁000	-10.0985
▁guardando	-10.0986
▁aspetto	-10.0997
urante	-10.0998
asse	-10.0999
▁nutri	-10.1005
▁pace	-10.1005
cus	-10.1007
▁Alla	-10.1007
▁groups	-10.1008
▁several	-10.1021
▁drug	-10.1021
form	-10.1022
▁deliver	-10.1022
▁lived	-10.1024
ments	-10.1024
▁link	-10.103
▁sounds	-10.1034
▁nessuna	-10.1039
▁simili	-10.104
▁reasons	-10.1044
▁card	-10.1053
▁dovete	-10.1056
▁prime	-10.1065
rgi	-10.1071
▁Every	-10.1075
▁"(	-10.1077
▁felice	-10.1077
▁familiar	-10.1077
▁vari	-10.1081
▁separa	-10.1086
J	-10.109
▁gi	-10.1094
▁putting	-10.1095
stri	-10.1107
industria	-10.1112
▁giusta	-10.112
▁element	-10.1122
▁crede	-10.1126
▁tira	-10.1131
▁available	-10.1132
istic	-10.1141
ish	-10.1143
▁hundred	-10.115
▁flow	-10.1155
▁list	-10.1163
abbiamo	-10.1166
▁osserva	-10.1168
▁velocemente	-10.1173
▁Vorrei	-10.1207
▁scuole	-10.1207
▁appear	-10.1207
▁favorite	-10.1207
▁block	-10.1208
▁month	-10.1209
▁gives	-10.1217
▁effect	-10.1226
▁origin	-10.1234
▁materiali	-10.1236
▁fight	-10.1242
▁Maybe	-10.1244
▁sperimenta	-10.1245
▁Jo	-10.125
▁r	-10.1252
▁slow	-10.126
▁pr	-10.1263
▁produrre	-10.1266
▁convince	-10.1276
low	-10.1279
temi	-10.1284
rebbero	-10.1285
use	-10.129
▁influenza	-10.1291
▁mal	-10.1296
▁achieve	-10.1301
▁speranza	-10.1302
▁sito	-10.1306
▁blog	-10.1307
▁treat	-10.1307
▁nation	-10.131
▁potential	-10.1312
▁violence	-10.132
▁Man	-10.1322
▁sorta	-10.1324
esi	-10.1324
▁tele	-10.1326
▁sun	-10.1332
▁potreste	-10.1339
▁maschi	-10.1341
▁object	-10.1342
▁rice	-10.135
▁slide	-10.1358
epoca	-10.1359
lato	-10.1364
▁wait	-10.1376
▁village	-10.1377
▁giù	-10.1377
▁ran	-10.1379
▁generale	-10.1381
sum	-10.1386
▁bra	-10.1388
▁cure	-10.1389
▁feed	-10.139
▁giovane	-10.1396
▁crisi	-10.14
▁immagine	-10.1415
evoluzione	-10.1415
▁meaning	-10.1421
▁poli	-10.1427
▁investi	-10.1427
▁danno	-10.1434
▁petrolio	-10.1435
▁Posso	-10.144
▁dedica	-10.1454
▁diceva	-10.1463
▁involved	-10.1464
▁normale	-10.1464
▁War	-10.1465
▁discorso	-10.1473
▁Of	-10.1474
ffer	-10.1475
▁benefici	-10.1475
▁Sc	-10.1475
▁connection	-10.1477
▁pelle	-10.1479
▁practice	-10.1492
▁però	-10.1497
▁fonda	-10.1499
▁designer	-10.1505
cci	-10.1505
▁depend	-10.1509
▁messaggio	-10.1511
▁zona	-10.1512
▁concetto	-10.1512
▁settore	-10.1519
▁Mars	-10.1526
▁vast	-10.1529
▁attraversa	-10.1531
▁rileva	-10.1532
mu	-10.1533
▁assume	-10.1534
▁version	-10.154
dia	-10.1541
▁professional	-10.1544
▁fit	-10.1549
▁pull	-10.1549
▁naturalmente	-10.1559
▁City	-10.1575
▁strade	-10.1578
▁site	-10.1579
▁West	-10.1582
▁transform	-10.1588
▁lavori	-10.1588
▁ruolo	-10.1589
▁successful	-10.1596
umanità	-10.1602
nni	-10.1603
▁store	-10.1605
▁bank	-10.161
▁dimensioni	-10.1612
▁visita	-10.1614
▁Most	-10.1616
▁colla	-10.1619
lic	-10.1625
▁favore	-10.1625
▁chiamiamo	-10.1628
▁ragazze	-10.1628
org	-10.1631
▁Who	-10.1632
▁stupid	-10.1648
▁nine	-10.1649
▁ban	-10.1654
▁meeting	-10.1655
▁becomes	-10.1655
▁Immaginate	-10.1667
▁bisogna	-10.1667
▁writing	-10.1667
▁Chinese	-10.1668
▁venne	-10.1671
▁computers	-10.1677
▁mor	-10.168
end	-10.1682
▁fiducia	-10.1687
▁pun	-10.1689
▁jobs	-10.1697
▁programmi	-10.1698
▁wish	-10.1699
▁sent	-10.1701
▁perspective	-10.1707
volt	-10.1711
ative	-10.1711
▁vend	-10.1723
▁ognuno	-10.1726
▁pictures	-10.1727
▁eravamo	-10.1729
▁bus	-10.1732
▁accesso	-10.174
▁stri	-10.174
▁device	-10.1743
▁criminal	-10.1746
▁After	-10.1746
▁speed	-10.1747
▁Lu	-10.1747
intera	-10.1758
▁haven	-10.176
▁riuni	-10.1763
▁wind	-10.1763
▁aspetti	-10.1766
▁secret	-10.1767
▁peggio	-10.1768
▁function	-10.1768
▁Pensate	-10.1778
▁lose	-10.1782
▁luoghi	-10.1786
▁economica	-10.1789
▁simula	-10.1792
▁insegna	-10.1794
▁fix	-10.1794
▁Ge	-10.1795
sk	-10.18
▁posizione	-10.1801
▁breath	-10.1806
▁David	-10.1806
▁chiave	-10.1806
▁altra	-10.1808
▁student	-10.182
▁propri	-10.1821
▁particularly	-10.1827
▁path	-10.1832
▁University	-10.1846
▁paziente	-10.1846
▁Yes	-10.1846
▁esempi	-10.1854
▁pericolo	-10.1863
uno	-10.1867
▁near	-10.1873
▁Sud	-10.1876
▁pensando	-10.1896
▁capita	-10.1904
▁families	-10.1906
▁choose	-10.1906
▁Molti	-10.1906
▁mostrato	-10.1906
essere	-10.1919
area	-10.1919
▁CO	-10.1926
▁entrare	-10.193
▁vedo	-10.1941
▁bru	-10.1946
▁prison	-10.1946
▁aren	-10.1948
▁politici	-10.1956
▁Mentre	-10.1966
▁pensiero	-10.1967
ins	-10.1967
▁progress	-10.1969
▁skin	-10.1971
isti	-10.1974
▁scopo	-10.1975
▁finding	-10.1981
unico	-10.1982
▁recente	-10.1985
▁rivela	-10.1986
▁remain	-10.1987
▁avesse	-10.1999
▁anybody	-10.2007
▁drugs	-10.2011
▁vale	-10.2013
▁wall	-10.2014
▁plastic	-10.2019
▁higher	-10.2023
oli	-10.2027
▁valori	-10.2028
▁flu	-10.2032
▁cover	-10.2033
▁faceva	-10.2034
gh	-10.2035
smo	-10.2039
▁impegn	-10.2043
▁2000	-10.2043
▁certainly	-10.2046
▁biggest	-10.2047
▁relazioni	-10.2047
▁roba	-10.2054
▁scr	-10.2067
▁adatta	-10.2068
▁return	-10.2069
▁train	-10.207
▁stia	-10.2086
oceano	-10.2088
▁farm	-10.2088
▁cross	-10.2089
▁mondiale	-10.2089
Se	-10.209
▁walking	-10.2092
mar	-10.2093
▁voleva	-10.2104
ssima	-10.2105
▁isola	-10.2106
▁stick	-10.211
au	-10.2113
▁aree	-10.2118
diamo	-10.2119
▁fuel	-10.2121
▁leaders	-10.2121
▁profit	-10.2126
esimo	-10.2129
▁poverty	-10.2129
▁gira	-10.2136
▁prossimo	-10.2139
gri	-10.2144
▁intelligence	-10.215
▁libertà	-10.215
▁poveri	-10.215
inter	-10.215
▁moved	-10.2151
▁americani	-10.2154
▁y	-10.216
▁pensano	-10.2167
We	-10.2168
▁throw	-10.2171
▁prevent	-10.2173
▁USA	-10.2175
tory	-10.2185
▁draw	-10.2191
ologia	-10.2192
ular	-10.2195
fici	-10.2207
▁mare	-10.2211
▁usano	-10.2211
▁pare	-10.2211
▁violent	-10.2212
post	-10.2216
▁fini	-10.2216
▁Nord	-10.2218
▁HIV	-10.2222
▁resi	-10.2226
avo	-10.2229
Do	-10.2229
▁democrazia	-10.2233
▁povertà	-10.2233
▁sapevo	-10.2233
▁grew	-10.2233
▁vostr	-10.2235
light	-10.2239
▁passi	-10.2243
▁Washington	-10.2253
▁Adesso	-10.2253
▁venire	-10.2254
▁organization	-10.2254
work	-10.2255
olo	-10.226
▁watching	-10.2262
▁Second	-10.2265
▁adult	-10.2266
▁inseri	-10.2267
▁opinion	-10.2267
▁crazy	-10.2274
▁further	-10.2274
▁private	-10.2276
▁fece	-10.2284
ssimi	-10.2285
▁largest	-10.2286
▁direzione	-10.2289
▁rules	-10.2292
▁accept	-10.2295
▁reti	-10.2296
▁showing	-10.2297
▁results	-10.2299
▁bello	-10.23
ppe	-10.2305
▁credere	-10.2309
▁security	-10.2316
▁taglia	-10.2322
▁position	-10.2329
▁sit	-10.233
▁realizzare	-10.2335
▁exciting	-10.2337
▁virtual	-10.2343
▁clinic	-10.2349
▁defin	-10.2354
▁milione	-10.2359
▁ride	-10.2359
▁boy	-10.2362
▁count	-10.2362
▁demo	-10.2364
▁ju	-10.2367
▁realizza	-10.2371
▁trovano	-10.2374
▁organ	-10.2377
remmo	-10.2377
▁memoria	-10.2379
▁Don	-10.2383
▁supposed	-10.2386
▁cresce	-10.2392
▁context	-10.24
▁potente	-10.2401
▁presto	-10.2404
bilità	-10.2405
▁cominciare	-10.2407
▁quality	-10.2412
▁compassione	-10.2414
▁lunga	-10.2415
▁rock	-10.2419
▁”	-10.2421
▁chiaro	-10.2422
▁pain	-10.2423
▁Fin	-10.2426
▁totally	-10.2432
▁piante	-10.2437
▁chiedere	-10.2442
▁democracy	-10.2442
▁detail	-10.2443
ese	-10.2443
▁doctor	-10.2446
ical	-10.2446
▁motiva	-10.2448
▁drop	-10.245
▁qual	-10.2458
▁ascolta	-10.2465
▁connected	-10.2472
▁river	-10.2481
uck	-10.2486
▁price	-10.2486
▁Ar	-10.2487
▁z	-10.2495
▁associa	-10.2495
▁decisioni	-10.2496
▁potesse	-10.2496
▁mini	-10.2497
lità	-10.2505
▁mountain	-10.2506
▁sensazione	-10.2506
▁elimina	-10.2506
▁uccide	-10.2506
▁insegnanti	-10.251
▁solare	-10.2511
▁utilizza	-10.2513
▁rise	-10.2515
▁diventato	-10.2518
▁detect	-10.2518
▁basa	-10.2521
lmente	-10.2527
ley	-10.2528
▁rapidamente	-10.2529
▁ready	-10.2539
aggio	-10.2543
▁hour	-10.2544
▁dovrebbero	-10.2548
▁oppure	-10.2549
▁National	-10.2549
▁attorno	-10.2549
▁notice	-10.2551
anza	-10.2555
▁coral	-10.2556
▁police	-10.2565
▁Twitter	-10.2571
▁conflict	-10.2571
▁pattern	-10.2576
▁ambiente	-10.2581
▁avvicina	-10.2584
▁evolution	-10.2592
▁leadership	-10.2593
▁muta	-10.2593
▁migliorare	-10.2605
▁nazione	-10.261
rch	-10.2616
▁recent	-10.262
uring	-10.262
▁shown	-10.2624
erò	-10.263
ue	-10.2632
pped	-10.2632
▁percento	-10.2634
▁entro	-10.2638
▁Even	-10.2641
▁studiare	-10.2642
▁Ru	-10.2645
▁kill	-10.2654
▁eventually	-10.2657
▁shift	-10.2657
▁ricordo	-10.2657
▁lato	-10.2658
▁servi	-10.266
▁minor	-10.2662
▁enter	-10.2663
▁trip	-10.2666
▁original	-10.2671
▁elect	-10.2676
lica	-10.2686
▁improve	-10.2691
▁require	-10.2697
▁risparmi	-10.27
▁worse	-10.27
▁memory	-10.27
▁peace	-10.27
▁facili	-10.2705
▁standing	-10.2714
▁tool	-10.2715
▁colpi	-10.2717
▁telefono	-10.2722
▁dissi	-10.2722
▁diritti	-10.2723
▁schools	-10.2726
▁Afghanistan	-10.2727
▁commercial	-10.2729
▁letter	-10.273
▁tumor	-10.2732
▁lontano	-10.2744
So	-10.2745
▁direction	-10.2754
▁note	-10.2755
▁sesso	-10.2757
ndiamo	-10.2762
▁significato	-10.2768
▁sky	-10.2773
▁fundamental	-10.2776
▁veloce	-10.2783
ile	-10.2784
▁usiamo	-10.2785
▁letteralmente	-10.2788
▁individuals	-10.2793
▁plants	-10.2793
amore	-10.2793
▁scegliere	-10.2794
▁named	-10.2795
iere	-10.2808
▁everywhere	-10.281
▁nobody	-10.281
▁sangue	-10.281
▁malaria	-10.2811
▁Nell	-10.2812
▁400	-10.2812
▁Col	-10.2816
▁sud	-10.282
▁Cos	-10.2822
▁Solo	-10.2823
▁including	-10.2832
▁Sembra	-10.2832
▁ragioni	-10.2832
▁female	-10.2832
▁address	-10.2832
▁alberi	-10.2832
▁sento	-10.2836
▁sviluppato	-10.2836
▁viaggia	-10.2843
▁allowed	-10.2843
late	-10.2847
▁compassion	-10.2862
▁equal	-10.2865
In	-10.2867
▁fondamentale	-10.2876
▁monitor	-10.2876
▁band	-10.2876
▁affect	-10.2877
▁cultural	-10.2878
▁task	-10.2878
▁chemical	-10.2879
▁assicura	-10.2887
▁giocare	-10.289
▁career	-10.2891
▁signal	-10.2892
▁daughter	-10.2898
▁suggeri	-10.2901
pping	-10.2904
▁necessario	-10.2905
▁perform	-10.2917
▁gesti	-10.2919
▁international	-10.292
▁nano	-10.2924
▁examples	-10.2927
press	-10.2932
▁ingegneri	-10.2936
▁perso	-10.294
▁lower	-10.2941
▁incredibilmente	-10.2943
▁taught	-10.2943
▁mamma	-10.2945
▁divide	-10.2947
metri	-10.2948
▁Where	-10.2948
bro	-10.295
▁Bill	-10.2955
▁Mar	-10.2959
▁teachers	-10.2966
dut	-10.2968
▁Qu	-10.2983
rete	-10.2986
▁divertente	-10.2987
▁notizia	-10.2988
▁brains	-10.2991
▁protein	-10.2997
ab	-10.3
▁valuta	-10.301
▁diciamo	-10.3012
▁bed	-10.3013
▁cellula	-10.3016
▁circuit	-10.3032
▁excited	-10.3032
▁sali	-10.3043
cked	-10.3057
▁central	-10.3064
▁parent	-10.3068
▁servizi	-10.307
▁disturb	-10.3077
▁meant	-10.3083
▁verde	-10.3084
▁spinge	-10.3087
dom	-10.3089
▁comment	-10.3096
▁cittadini	-10.31
▁medico	-10.31
▁fantastic	-10.3101
▁extraordinary	-10.3101
▁entrambi	-10.3102
▁tocca	-10.3107
▁lie	-10.3109
▁loved	-10.3128
sten	-10.3132
ko	-10.3133
▁foresta	-10.3141
▁leggi	-10.3145
▁bacteria	-10.3145
▁singolo	-10.3145
▁install	-10.3149
rgli	-10.315
▁extremely	-10.3153
▁trees	-10.3155
▁stavano	-10.3158
▁vent	-10.3159
▁sede	-10.3164
▁finanziari	-10.3169
▁check	-10.3169
▁anima	-10.317
▁Infatti	-10.3171
lus	-10.3178
▁spazi	-10.3189
▁respond	-10.3191
▁v	-10.3196
▁lotta	-10.32
▁products	-10.3208
▁impatto	-10.3209
▁internet	-10.3215
▁essentially	-10.3219
▁esperimento	-10.3221
▁obviously	-10.3223
▁tasso	-10.3223
▁costi	-10.3224
▁colleghi	-10.3237
▁survive	-10.3237
▁protest	-10.3246
▁explore	-10.326
▁ragazza	-10.326
▁shot	-10.326
▁training	-10.3261
▁tenere	-10.3277
▁wave	-10.3279
India	-10.3282
▁tardi	-10.3286
▁camp	-10.3286
▁principale	-10.3289
▁complete	-10.3296
▁contesto	-10.3298
opportunità	-10.3305
▁soluzioni	-10.3306
▁accelera	-10.3306
▁reduce	-10.3306
ava	-10.3317
▁materials	-10.3317
▁dance	-10.3328
▁killed	-10.3328
▁temperature	-10.3329
▁Today	-10.3331
▁join	-10.3331
▁traditional	-10.3335
▁provato	-10.3344
▁Russia	-10.3352
▁emozioni	-10.3353
▁squadra	-10.3354
▁critic	-10.3356
▁laugh	-10.3366
▁crisis	-10.3371
▁soltanto	-10.3375
▁trasferi	-10.3375
▁moglie	-10.3375
▁distanza	-10.3376
▁Those	-10.3376
▁bunch	-10.3377
▁verifica	-10.3383
ray	-10.3385
▁objects	-10.3396
▁thousand	-10.3398
▁potenziale	-10.3399
▁basta	-10.3404
lina	-10.3407
▁controllare	-10.3407
▁rid	-10.3407
▁vuol	-10.3409
▁pet	-10.3411
▁Avev	-10.3414
▁starts	-10.3421
▁ricevuto	-10.3422
▁liquid	-10.3423
▁mobile	-10.343
ney	-10.344
▁faster	-10.3442
▁conditions	-10.3445
▁rivoluzione	-10.3446
▁aperto	-10.3448
▁Australia	-10.345
▁decisions	-10.346
▁talent	-10.3468
▁Ex	-10.3479
▁mission	-10.3483
▁serious	-10.3483
▁chiamo	-10.3486
▁factor	-10.3489
▁finché	-10.3494
▁differenti	-10.3495
▁machines	-10.3495
▁sai	-10.3497
▁dipende	-10.3501
▁oggetto	-10.3502
▁locale	-10.3513
ker	-10.3514
mine	-10.3515
▁fan	-10.3515
▁schermo	-10.3516
▁locali	-10.3517
▁manca	-10.3517
cho	-10.352
▁governi	-10.3527
▁tenta	-10.3536
▁immagina	-10.3537
nale	-10.354
▁percorso	-10.354
▁Ce	-10.3544
▁coloro	-10.3554
▁allows	-10.3556
▁rischi	-10.3562
let	-10.3564
▁institutions	-10.3566
▁manda	-10.3568
▁ghiaccio	-10.3571
America	-10.3574
▁teacher	-10.3578
▁Guardate	-10.358
▁Am	-10.3582
▁Asia	-10.3584
▁interact	-10.3584
▁felici	-10.3586
azienda	-10.3587
▁mom	-10.3587
▁estremamente	-10.3587
▁financial	-10.3587
▁truly	-10.3587
▁proprietà	-10.3589
▁board	-10.3589
▁stai	-10.3596
▁ignora	-10.3598
ef	-10.3599
▁Cor	-10.3604
intero	-10.3609
▁funzionare	-10.361
▁finanzia	-10.3611
▁kept	-10.3611
▁somewhere	-10.3611
▁above	-10.3613
▁prossima	-10.3615
▁finger	-10.3615
▁comuni	-10.3627
▁projects	-10.3632
▁floor	-10.3635
▁stelle	-10.3635
▁attacca	-10.3635
▁burn	-10.3637
▁wife	-10.3637
▁migliora	-10.3639
▁impara	-10.3643
▁East	-10.3644
ah	-10.365
rba	-10.3655
▁blind	-10.3659
▁potevo	-10.3659
▁alternative	-10.3659
▁resta	-10.3659
▁minute	-10.3663
zionali	-10.3663
▁sviluppare	-10.3667
▁critical	-10.3676
▁Lei	-10.3676
▁bodies	-10.3683
▁avremmo	-10.3683
▁robots	-10.3683
▁unique	-10.3684
▁cielo	-10.3684
▁coltiva	-10.3688
▁respect	-10.3692
▁older	-10.3697
▁riuscire	-10.3699
▁remind	-10.3708
▁osservare	-10.371
▁contatto	-10.3714
▁potevano	-10.3714
▁disc	-10.3715
▁andando	-10.3724
▁US	-10.3726
▁famous	-10.3732
▁abbiano	-10.3737
▁final	-10.3737
▁suddenly	-10.3737
▁150	-10.3744
▁conserva	-10.375
istruzione	-10.375
▁reading	-10.3755
▁creature	-10.3764
anni	-10.3771
stitution	-10.3777
▁usually	-10.3779
▁wealth	-10.378
▁Arab	-10.3782
▁tree	-10.3793
▁okay	-10.3804
vate	-10.3811
▁Steve	-10.3814
Le	-10.3814
ham	-10.3815
▁trial	-10.3817
▁separate	-10.3821
▁nord	-10.3823
mato	-10.3825
▁hole	-10.3827
▁seguito	-10.3827
▁George	-10.3828
▁felicità	-10.3829
▁complicated	-10.3833
▁song	-10.3835
▁nonostante	-10.3843
▁lesson	-10.3843
▁furono	-10.3845
▁Marte	-10.3845
▁models	-10.3848
▁solid	-10.3852
▁difficili	-10.3852
▁impossible	-10.3852
▁istituzioni	-10.3852
▁Invece	-10.3853
kin	-10.3859
▁ship	-10.386
fied	-10.3865
▁hot	-10.3866
▁sensi	-10.3871
abile	-10.3872
▁range	-10.3872
▁guadagna	-10.3873
▁classic	-10.3876
▁rispondere	-10.3876
reste	-10.3876
▁uscire	-10.3876
▁policy	-10.3878
▁necessari	-10.3882
▁scopri	-10.3887
▁sera	-10.3888
▁fai	-10.3893
▁wide	-10.3903
▁polizia	-10.3903
▁attiva	-10.3909
▁service	-10.3916
▁succedendo	-10.3917
▁rapid	-10.3924
▁onto	-10.3924
▁collect	-10.3927
▁indeed	-10.393
▁finito	-10.3931
▁morti	-10.3937
▁games	-10.3941
ung	-10.3945
▁efficient	-10.3946
▁sbagliato	-10.3947
▁arte	-10.3949
▁Nigeria	-10.395
▁spot	-10.3953
▁jump	-10.3954
▁vicini	-10.3954
▁component	-10.3959
▁window	-10.3976
30	-10.3977
▁codice	-10.3978
niamo	-10.3978
▁prossimi	-10.3979
▁scan	-10.3985
▁genes	-10.3986
▁35	-10.3987
▁larger	-10.3989
▁mix	-10.3996
▁responsabilità	-10.4001
▁race	-10.4002
▁invita	-10.4011
▁continuare	-10.4014
Il	-10.4015
▁industrial	-10.4015
▁alcun	-10.4018
▁psicologi	-10.402
care	-10.4023
▁accident	-10.4025
▁target	-10.4025
▁wild	-10.4025
▁vola	-10.4026
▁giochi	-10.4026
▁Paul	-10.4032
▁Sh	-10.4035
▁foot	-10.4036
▁lasciato	-10.4036
chia	-10.4044
▁purpose	-10.405
▁vecchio	-10.4054
rchi	-10.4057
▁mari	-10.406
▁gradi	-10.4069
▁ended	-10.4074
▁effort	-10.4075
▁esperimenti	-10.4075
▁military	-10.4075
▁permesso	-10.4075
▁circonda	-10.4075
▁dolore	-10.4077
▁cold	-10.4078
▁Iraq	-10.408
▁spera	-10.4087
▁dieci	-10.4087
▁peso	-10.4094
▁mostrare	-10.4099
▁square	-10.41
▁progressi	-10.4107
har	-10.4107
ky	-10.4109
▁servizio	-10.4111
▁vote	-10.4114
▁Nessuno	-10.4115
▁healthy	-10.4117
▁mobili	-10.4117
state	-10.412
viamo	-10.4123
▁communication	-10.4125
▁sfrutta	-10.4125
▁mostrarvi	-10.4129
▁studente	-10.4143
▁skills	-10.4145
▁afford	-10.415
▁nazionale	-10.4151
▁dimentica	-10.4153
▁sale	-10.4156
▁45	-10.4156
▁andata	-10.4159
▁humanity	-10.4168
▁date	-10.4174
▁satellite	-10.4175
▁Israel	-10.4175
▁website	-10.4175
▁pezzi	-10.4177
▁rad	-10.418
▁strange	-10.4193
net	-10.4195
cell	-10.4197
▁economist	-10.42
▁parliamo	-10.42
▁Kenya	-10.42
▁massive	-10.4201
▁affronta	-10.4201
▁modifica	-10.4203
▁waste	-10.4206
▁uso	-10.4209
▁income	-10.4209
term	-10.4209
▁ridurre	-10.4215
▁rimane	-10.4217
▁somehow	-10.4225
ook	-10.4241
stan	-10.4247
▁inglese	-10.4251
▁richiede	-10.4251
ically	-10.4254
▁alive	-10.4263
ible	-10.4269
▁fase	-10.4276
▁anymore	-10.4277
▁dangerous	-10.428
board	-10.4284
▁funzione	-10.4292
▁raccontare	-10.4293
▁patterns	-10.4295
rati	-10.4301
▁please	-10.4302
▁worry	-10.4302
▁electricity	-10.4303
▁oceani	-10.4309
▁pensava	-10.4316
▁town	-10.4318
▁decade	-10.4319
▁unit	-10.4319
ula	-10.4321
▁sell	-10.4325
▁significant	-10.4327
▁riso	-10.4336
▁Lui	-10.4341
▁pensavo	-10.4343
ndosi	-10.4348
ustra	-10.4349
▁versione	-10.435
▁algorithm	-10.4353
▁reflect	-10.4353
▁livelli	-10.4353
▁sat	-10.4354
▁biology	-10.4355
tano	-10.4359
▁neuro	-10.4366
▁lancia	-10.4375
▁pianta	-10.4378
▁risposte	-10.4379
▁scelte	-10.4379
▁freedom	-10.438
her	-10.438
informazione	-10.438
▁scatta	-10.4389
▁nazioni	-10.439
▁esperienze	-10.4404
▁happiness	-10.4404
▁prospettiva	-10.4404
▁vuoi	-10.4404
▁roll	-10.4405
▁Avete	-10.4405
ucci	-10.4414
▁current	-10.4419
▁workers	-10.442
amento	-10.442
▁resist	-10.442
▁lista	-10.4422
gram	-10.4422
▁doctors	-10.4426
▁budget	-10.443
▁Più	-10.443
▁politiche	-10.4431
▁contain	-10.4433
chiamo	-10.4434
▁finire	-10.4436
▁totale	-10.4436
▁carriera	-10.4436
▁pieces	-10.4436
▁scu	-10.4436
▁microbi	-10.4437
▁utili	-10.4437
▁digitale	-10.4438
▁forze	-10.4438
dge	-10.4441
▁approccio	-10.4442
▁rep	-10.4445
mia	-10.4452
▁Port	-10.4453
▁aiuto	-10.4453
meter	-10.4454
▁economico	-10.4455
▁cima	-10.4455
▁becoming	-10.4456
▁enormi	-10.4458
▁cases	-10.4459
▁buildings	-10.4459
▁vedono	-10.446
▁decades	-10.4465
▁'80	-10.4466
▁varia	-10.447
▁cammina	-10.4474
▁direttamente	-10.4482
▁activity	-10.4483
▁Du	-10.4485
▁pesce	-10.449
zzare	-10.4494
▁trick	-10.4497
▁continent	-10.4498
▁cook	-10.4499
▁greatest	-10.45
▁discover	-10.4504
▁pressure	-10.451
▁consent	-10.4513
▁trade	-10.4519
▁bla	-10.4528
▁comporta	-10.4531
▁expensive	-10.4534
▁demand	-10.4535
▁Certo	-10.4535
▁Sha	-10.4538
angolo	-10.4539
▁Like	-10.4541
▁total	-10.4542
▁riceve	-10.4543
▁upon	-10.4545
zing	-10.4545
▁studies	-10.4545
off	-10.4558
▁neighborhood	-10.4561
0,000	-10.4571
▁lines	-10.4573
▁cellulare	-10.4578
▁enjoy	-10.4587
▁frequent	-10.4587
▁cloud	-10.4587
▁notizie	-10.4587
▁architecture	-10.4587
▁waiting	-10.459
▁piu	-10.4591
▁His	-10.4592
▁fund	-10.4595
▁emotional	-10.4598
▁match	-10.4598
▁actual	-10.4603
▁pot	-10.4603
▁edifici	-10.4608
▁ascoltare	-10.4608
architettura	-10.4613
▁democratic	-10.4613
▁print	-10.4618
▁prezzo	-10.4619
▁praticamente	-10.4623
▁tax	-10.4627
▁effective	-10.4632
▁mangiare	-10.4633
▁Ovviamente	-10.4639
▁compito	-10.4646
▁stars	-10.4651
▁desiderio	-10.4653
qu	-10.4656
▁bat	-10.4664
▁Sappiamo	-10.4666
▁sorprendente	-10.467
▁solutions	-10.4672
▁punta	-10.4674
▁intelligente	-10.4687
▁biologia	-10.4687
▁traffic	-10.4688
▁clearly	-10.4688
▁ricerche	-10.4692
▁Canada	-10.4692
▁Ph	-10.4694
▁troviamo	-10.4694
hanno	-10.4696
▁75	-10.4697
▁Times	-10.4697
▁viviamo	-10.4701
▁rain	-10.4704
af	-10.4709
▁cucina	-10.4719
▁politics	-10.4719
▁Pu	-10.4719
educazione	-10.472
▁raise	-10.4723
▁spero	-10.4727
mal	-10.473
▁vivo	-10.4736
▁morire	-10.474
▁bone	-10.4741
▁stre	-10.4745
▁probabilità	-10.4746
▁glass	-10.4746
dici	-10.4747
:"	-10.4751
▁scrive	-10.4752
▁interessanti	-10.4753
▁eleva	-10.4762
poli	-10.4763
▁terza	-10.4773
▁brother	-10.4773
▁voluto	-10.4774
▁compete	-10.4775
▁dunque	-10.4776
▁perdere	-10.4777
Mi	-10.4781
▁wa	-10.4786
top	-10.4793
▁argument	-10.4799
logo	-10.4803
▁intendo	-10.4804
▁sogno	-10.4805
tevi	-10.481
▁Europa	-10.4815
▁dettagli	-10.4821
▁materia	-10.4822
▁enormous	-10.4826
Ho	-10.4831
▁listening	-10.4834
tz	-10.4838
▁pieno	-10.4854
▁shock	-10.4854
erete	-10.4856
▁option	-10.486
▁Look	-10.4867
▁proprie	-10.4874
▁intelligenti	-10.4877
▁oh	-10.488
▁written	-10.488
▁drink	-10.488
▁percepi	-10.4881
▁caccia	-10.4885
▁elementi	-10.4886
gia	-10.4893
▁shared	-10.4905
▁illustra	-10.4907
▁individui	-10.4907
▁farmaci	-10.4907
▁comprare	-10.4908
▁lasciare	-10.4914
▁villaggio	-10.4919
anima	-10.4926
▁figlia	-10.4928
▁studia	-10.4929
grafia	-10.4933
▁earlier	-10.4934
▁values	-10.4935
izzato	-10.4939
▁medici	-10.4949
▁weren	-10.495
▁smaller	-10.4951
ordi	-10.496
▁Harvard	-10.4962
▁grafico	-10.4962
▁coraggio	-10.4962
vita	-10.4966
▁lezione	-10.4967
▁clima	-10.4968
▁points	-10.4968
▁terreno	-10.4975
▁Tre	-10.498
▁painting	-10.4985
▁vecchi	-10.4989
▁–	-10.4989
▁bag	-10.4993
▁gross	-10.5
▁conseguenze	-10.5016
▁pagina	-10.5016
▁riesce	-10.5017
▁tramite	-10.5017
▁rural	-10.5017
▁Bra	-10.5022
▁rule	-10.5023
▁Quella	-10.5032
▁gay	-10.5035
▁sembrano	-10.5043
▁Imagine	-10.5044
▁effettivamente	-10.5044
▁instance	-10.5044
berg	-10.5046
uca	-10.5047
▁comunicazione	-10.505
▁tells	-10.505
▁sbaglia	-10.5058
▁hum	-10.5064
▁passion	-10.5067
▁raggi	-10.5069
▁invia	-10.507
▁pesca	-10.5078
▁armi	-10.5092
▁Americans	-10.5093
atmosfera	-10.5099
▁impossibile	-10.5099
▁mattina	-10.5099
▁forget	-10.5102
▁carbonio	-10.5102
▁citizens	-10.5103
▁porte	-10.5111
▁sente	-10.5111
gon	-10.5114
▁Indian	-10.512
▁utile	-10.5127
▁rosso	-10.5127
▁amore	-10.5128
▁walked	-10.513
▁secondi	-10.5132
▁corner	-10.5143
▁hair	-10.5143
▁lavorano	-10.5149
▁environmental	-10.5151
▁anywhere	-10.5155
▁pop	-10.516
▁services	-10.5172
▁chilometri	-10.5182
▁meraviglioso	-10.5182
▁strutture	-10.5182
▁vedrete	-10.5182
▁mistake	-10.5182
▁riporta	-10.5183
▁Francisco	-10.5183
▁diritto	-10.5184
▁series	-10.5185
▁immediately	-10.5186
▁diventano	-10.5186
▁throughout	-10.5188
▁fail	-10.519
▁incontrato	-10.5197
vision	-10.5199
▁park	-10.52
▁strano	-10.5207
▁physics	-10.521
▁affi	-10.5211
▁pressione	-10.5212
▁challenges	-10.5212
▁cattura	-10.5213
ua	-10.5223
▁helped	-10.5223
▁sembrava	-10.5233
▁NASA	-10.5238
▁babies	-10.5238
▁biological	-10.5239
▁voler	-10.5244
▁cercato	-10.5244
▁forms	-10.5247
▁Are	-10.525
▁apply	-10.5261
▁heat	-10.5263
▁neuroni	-10.5265
▁oppos	-10.5266
▁scene	-10.5267
▁honest	-10.5267
▁piena	-10.5268
▁farò	-10.528
▁meta	-10.528
▁età	-10.5281
▁comprendere	-10.5281
▁aiuti	-10.5283
tengono	-10.5286
▁efficace	-10.5295
▁influence	-10.5295
▁minaccia	-10.5295
▁fuoco	-10.5295
▁indossa	-10.5295
▁metodo	-10.53
▁pensi	-10.5301
▁levels	-10.5303
▁geo	-10.5308
▁sad	-10.5315
▁perde	-10.5315
▁nove	-10.5315
▁professor	-10.5322
▁scena	-10.5322
▁communicate	-10.5323
▁scoperta	-10.5323
▁pesci	-10.5324
▁avanza	-10.5324
▁sexual	-10.5324
▁limit	-10.5325
▁doveva	-10.5328
▁funzioni	-10.5333
▁accor	-10.5347
▁rapporto	-10.5351
▁animale	-10.536
▁Secondo	-10.5366
▁andati	-10.5373
▁generate	-10.5374
▁discussion	-10.5374
▁willing	-10.5375
▁semi	-10.5377
▁math	-10.5379
▁silenzio	-10.538
▁driving	-10.538
▁elabora	-10.538
▁bellezza	-10.5381
▁speciale	-10.5387
▁late	-10.5388
▁plastica	-10.539
lock	-10.5394
cato	-10.5399
▁dirvi	-10.5402
▁superiore	-10.5408
▁interview	-10.5409
▁“	-10.5414
▁greater	-10.5425
▁colleagues	-10.5426
▁Many	-10.5428
▁diventata	-10.5433
▁himself	-10.5437
▁prop	-10.5437
▁replica	-10.5439
▁paint	-10.544
▁Mc	-10.5455
place	-10.5458
idi	-10.5462
izzare	-10.5463
▁landscape	-10.5465
▁molecola	-10.5465
▁infinite	-10.5465
▁gambe	-10.5465
agin	-10.5471
▁momenti	-10.5476
▁artificial	-10.5486
▁farvi	-10.5488
▁method	-10.5494
▁braccio	-10.5495
▁grass	-10.5515
▁esser	-10.552
▁birth	-10.5522
▁sorts	-10.5523
▁Richard	-10.5523
▁London	-10.5523
▁Ver	-10.5524
▁arrest	-10.5529
▁teaching	-10.5532
dice	-10.5535
▁relationships	-10.5537
▁convert	-10.5538
gene	-10.5539
▁types	-10.5545
▁tende	-10.5545
▁completa	-10.5548
▁sembrare	-10.5551
▁blocca	-10.5552
▁negative	-10.5552
▁Two	-10.5552
▁organizations	-10.5552
durre	-10.5553
▁illegal	-10.5553
▁totalmente	-10.5558
bling	-10.5562
nata	-10.5564
come	-10.5565
▁segui	-10.5566
▁sold	-10.557
▁Cu	-10.5573
▁dimensione	-10.5575
▁trend	-10.5579
▁express	-10.5579
▁suona	-10.558
▁terrible	-10.5581
▁reddito	-10.5581
▁azienda	-10.5581
▁rare	-10.5585
▁neurons	-10.5587
▁sister	-10.5594
▁pena	-10.5597
▁capaci	-10.5606
▁campagna	-10.561
▁costruzione	-10.561
▁Another	-10.561
▁carica	-10.5625
pensa	-10.5627
▁obiettivo	-10.5628
▁infatti	-10.5631
▁nor	-10.5637
▁neighbor	-10.5639
▁infrastructure	-10.5639
▁Street	-10.5639
▁volume	-10.5639
▁bear	-10.564
▁contrario	-10.564
▁weight	-10.5641
dimensional	-10.5642
università	-10.5644
zzati	-10.5646
▁diamo	-10.5658
▁speaking	-10.5659
▁minds	-10.5659
▁nero	-10.566
▁television	-10.5661
▁arrivati	-10.5664
▁except	-10.5665
▁diseases	-10.5666
▁random	-10.5669
▁abbandona	-10.5675
▁fila	-10.5676
▁costs	-10.5677
▁raccogliere	-10.5677
▁Los	-10.5679
▁22	-10.5688
▁morale	-10.5689
▁Darwin	-10.5697
▁Tuttavia	-10.5697
▁custom	-10.5698
▁collective	-10.5698
▁governments	-10.57
▁production	-10.5703
▁core	-10.5703
▁atmosphere	-10.5706
▁rive	-10.5712
▁engineering	-10.5716
▁cheap	-10.5725
▁therefore	-10.5727
▁consuma	-10.5728
▁politico	-10.5729
▁preserv	-10.5729
attività	-10.5732
▁Gu	-10.5733
▁colori	-10.5742
▁spiegare	-10.5752
▁Think	-10.5756
▁catch	-10.5758
rendono	-10.5758
▁reazione	-10.5761
▁guardiamo	-10.5761
▁insegnato	-10.5763
▁prosper	-10.5765
▁obvious	-10.5775
▁adapt	-10.5786
▁conversazione	-10.5786
▁beauty	-10.5786
▁pianeti	-10.5786
▁sfide	-10.5786
▁medio	-10.5789
▁conosciamo	-10.579
▁paid	-10.5792
▁artist	-10.5802
▁useful	-10.5804
▁rap	-10.5805
▁forth	-10.5808
▁cop	-10.5811
▁vissuto	-10.5816
▁Which	-10.5816
▁election	-10.5821
▁event	-10.5822
▁veniva	-10.5826
▁Bar	-10.5828
vità	-10.5837
▁incident	-10.5841
▁laws	-10.5842
▁riusciti	-10.5845
▁esperti	-10.5845
▁spoke	-10.5845
▁double	-10.5846
▁failure	-10.5846
▁stile	-10.5847
craft	-10.5848
▁collabor	-10.5848
▁certamente	-10.5849
▁Big	-10.5851
▁salvare	-10.5855
▁occasion	-10.5865
▁partecipa	-10.5872
▁tissue	-10.5875
▁vehicle	-10.5875
▁chip	-10.588
▁seguire	-10.5882
▁compra	-10.5884
▁creando	-10.5887
▁Tom	-10.5896
▁soddisfa	-10.5905
▁Instead	-10.5905
▁naviga	-10.5905
▁particelle	-10.5905
▁perciò	-10.5906
▁pure	-10.5906
▁Sal	-10.5907
▁sposa	-10.5909
▁esistono	-10.5912
▁traccia	-10.5919
▁campi	-10.5934
▁MIT	-10.5935
▁profondo	-10.5935
▁summer	-10.5935
▁Sun	-10.5935
▁master	-10.5941
▁andava	-10.5941
▁AIDS	-10.5946
▁organic	-10.5959
▁universal	-10.5959
ù	-10.5963
▁formazione	-10.5967
▁organizzazioni	-10.5972
isco	-10.5977
hand	-10.5981
▁Hi	-10.5986
▁Einstein	-10.5996
▁°	-10.5996
▁conoscere	-10.6001
▁president	-10.6003
▁Due	-10.601
cop	-10.6014
▁abilità	-10.6016
▁arrivato	-10.6024
▁Th	-10.6025
▁uccelli	-10.6026
▁belief	-10.6026
▁complesso	-10.6026
▁experiences	-10.6032
zie	-10.6055
▁partire	-10.6055
▁Angeles	-10.6056
▁sostanza	-10.6056
▁fisico	-10.6056
▁americano	-10.606
▁Part	-10.6061
▁choices	-10.6063
metro	-10.6064
▁saving	-10.6066
▁broken	-10.6066
▁mon	-10.6068
▁straordinaria	-10.6077
▁straight	-10.6078
▁salta	-10.608
▁varie	-10.6087
right	-10.6087
▁string	-10.6088
tting	-10.6088
▁active	-10.6088
▁interesse	-10.6095
▁layer	-10.61
night	-10.6104
▁unico	-10.6106
▁client	-10.6111
uff	-10.6114
▁alien	-10.6116
▁sanitari	-10.6116
▁trouble	-10.6117
▁Western	-10.6118
à	-10.6118
▁distance	-10.6118
all	-10.6119
visi	-10.6125
▁trasformare	-10.6129
▁whose	-10.6131
ise	-10.6135
▁Inoltre	-10.6148
▁differenze	-10.6148
▁crucial	-10.6148
▁Gra	-10.615
▁domina	-10.615
▁wants	-10.6152
▁ahead	-10.6162
▁buone	-10.6166
▁cari	-10.6167
omi	-10.6172
▁streets	-10.6177
▁difficoltà	-10.6179
▁singola	-10.6179
▁capture	-10.6181
over	-10.6183
Come	-10.6186
▁Devo	-10.6188
▁palco	-10.619
alto	-10.6192
posizione	-10.6205
▁arti	-10.6205
ella	-10.6208
▁desert	-10.6209
▁genome	-10.621
▁giornata	-10.621
▁speech	-10.621
▁telefoni	-10.621
▁identity	-10.621
▁minuto	-10.621
▁scende	-10.621
▁domestic	-10.6211
▁climatico	-10.6211
rico	-10.6215
▁avver	-10.6216
▁gestire	-10.6216
▁Fo	-10.6224
▁Ben	-10.6226
▁expand	-10.6241
▁charge	-10.6242
bly	-10.6248
abili	-10.6253
shed	-10.6257
▁muro	-10.6258
▁porti	-10.626
▁net	-10.6267
▁governa	-10.6269
▁campaign	-10.6272
▁mantenere	-10.6272
▁understood	-10.6272
▁tavolo	-10.6272
▁mostrerò	-10.6272
▁casual	-10.6272
▁Potrebbe	-10.6273
▁stopped	-10.6276
▁interaction	-10.6276
▁gun	-10.6276
▁replace	-10.6278
▁describe	-10.6278
▁deriva	-10.6278
▁following	-10.628
▁illumina	-10.6284
▁investment	-10.6286
▁mostly	-10.6297
▁Ya	-10.6298
▁alti	-10.6298
▁worst	-10.6303
▁afraid	-10.6303
▁diploma	-10.6303
▁player	-10.631
▁discussione	-10.6312
▁gain	-10.6321
ett	-10.6326
▁beings	-10.633
▁popular	-10.6334
▁venga	-10.6337
▁Può	-10.6337
▁various	-10.6337
▁poche	-10.6338
ju	-10.634
▁brand	-10.6342
▁presenti	-10.6346
▁comunica	-10.6356
▁magnetic	-10.6356
▁frase	-10.636
zzata	-10.6361
▁proposito	-10.6365
▁struggle	-10.6365
▁fenomeno	-10.6365
▁Lasciate	-10.6365
▁attimo	-10.6367
rian	-10.6368
tenti	-10.6378
cina	-10.6378
▁compar	-10.6381
▁polar	-10.6384
▁party	-10.6387
▁arrive	-10.6387
tò	-10.6393
▁2010	-10.6397
▁antibiotic	-10.6397
▁determine	-10.6397
▁societies	-10.6397
▁destroy	-10.6397
▁Giusto	-10.6397
▁scientist	-10.6398
▁scor	-10.6398
▁condition	-10.6399
▁guardi	-10.6407
▁vibra	-10.6418
▁fonte	-10.6425
lazione	-10.6426
▁qualcun	-10.6428
▁background	-10.6428
▁damage	-10.6429
▁luci	-10.6429
▁evolve	-10.6435
He	-10.6435
enso	-10.6439
▁cave	-10.6446
▁incoraggia	-10.646
▁technique	-10.646
▁circle	-10.646
How	-10.6461
▁argue	-10.6462
▁km	-10.6463
▁99	-10.6463
▁mono	-10.6466
▁affida	-10.6467
▁flying	-10.6468
cher	-10.647
▁cambi	-10.6471
▁led	-10.6482
▁Reg	-10.6482
▁presta	-10.6491
▁disponibili	-10.6492
▁giustizia	-10.6492
▁privacy	-10.6492
▁yeah	-10.6492
▁earth	-10.6492
▁ossia	-10.6493
▁risposto	-10.6494
▁grid	-10.6494
▁combina	-10.6506
▁fattori	-10.652
▁possibly	-10.6524
▁decisione	-10.6527
▁directly	-10.6533
▁riconoscere	-10.6536
▁metal	-10.6539
▁impedi	-10.655
entra	-10.6551
▁fair	-10.6551
▁effects	-10.6555
▁disappear	-10.6556
▁instrument	-10.6556
▁energetic	-10.6556
▁mark	-10.6556
▁2008	-10.656
▁analizza	-10.6562
▁quegl	-10.6562
It	-10.6566
▁volo	-10.6572
▁programs	-10.6572
▁progetta	-10.6572
▁invented	-10.6574
▁funzionano	-10.6575
▁although	-10.6588
▁remarkable	-10.6588
▁Chicago	-10.6588
▁fiume	-10.6588
▁Great	-10.6588
▁promise	-10.6588
▁below	-10.659
▁realizzato	-10.6594
▁poiché	-10.6596
▁diversity	-10.6602
▁threat	-10.6615
▁Your	-10.6617
rap	-10.662
▁diffonde	-10.662
▁surprising	-10.662
▁easier	-10.662
▁feature	-10.662
▁crime	-10.662
▁gather	-10.6622
▁sin	-10.6624
▁straordinario	-10.6631
▁specialmente	-10.6633
▁impa	-10.6637
▁piacere	-10.6645
▁Qualcuno	-10.6652
▁climb	-10.6652
▁elettroni	-10.6652
▁sample	-10.6652
▁Anderson	-10.6652
Perché	-10.6661
▁anyway	-10.6661
▁edge	-10.6664
▁knows	-10.6665
▁mentale	-10.6666
▁rights	-10.6669
▁fede	-10.6669
▁puli	-10.6674
▁Muslim	-10.6684
▁From	-10.6685
▁Iran	-10.6688
▁laurea	-10.6699
▁closer	-10.6702
▁nearly	-10.6703
▁artisti	-10.6703
▁planets	-10.671
▁edificio	-10.671
▁riusciamo	-10.6717
▁cardiac	-10.672
essa	-10.6722
▁alimenta	-10.6722
X	-10.6725
▁camminare	-10.6727
▁highly	-10.6733
▁gap	-10.6734
▁impression	-10.6737
▁boat	-10.6738
▁civil	-10.6742
▁creazione	-10.6745
▁emotions	-10.6749
▁avrà	-10.675
▁Sco	-10.675
▁avoid	-10.675
▁creatività	-10.675
▁evitare	-10.675
▁Vediamo	-10.675
▁serio	-10.675
▁chiaramente	-10.6752
▁intero	-10.6753
▁parlarvi	-10.6755
bus	-10.6756
▁finalmente	-10.6757
▁Nei	-10.6758
organizzazione	-10.6758
▁beat	-10.6763
▁beh	-10.6765
▁robotic	-10.6766
ably	-10.6773
▁decidere	-10.6775
▁seconds	-10.6776
▁fossi	-10.6777
▁religione	-10.6782
▁refugee	-10.6782
▁supply	-10.6782
▁Londra	-10.6782
▁conference	-10.6782
▁definizione	-10.6782
▁profound	-10.6783
▁messaggi	-10.6785
▁quick	-10.6785
▁noticed	-10.6788
cut	-10.679
▁reali	-10.6791
stato	-10.6791
▁aid	-10.6793
▁ripe	-10.6798
▁effetto	-10.68
▁cord	-10.6804
▁dinosaur	-10.6806
▁menti	-10.6806
▁Comp	-10.6807
▁errori	-10.681
▁23	-10.6813
▁avessi	-10.6813
▁contribui	-10.6815
▁dynamic	-10.6815
▁particolarmente	-10.6815
▁responsibility	-10.6815
▁bianco	-10.6815
▁diagnosi	-10.6815
▁gender	-10.6815
▁addition	-10.6815
▁Green	-10.6815
▁Frank	-10.6815
▁contrast	-10.6818
▁Her	-10.6826
▁entr	-10.6831
▁miglia	-10.6832
try	-10.6833
▁Dan	-10.6835
▁sogni	-10.6836
▁pagare	-10.6841
▁volevano	-10.6847
▁grave	-10.6848
▁scatola	-10.6848
▁combat	-10.6848
▁insegnare	-10.685
▁loss	-10.6855
▁ritrova	-10.686
▁respira	-10.6868
▁Over	-10.6874
▁School	-10.6881
▁schema	-10.6882
▁insect	-10.6882
▁desire	-10.6882
▁miss	-10.6882
▁salt	-10.6885
▁morto	-10.6887
▁ispira	-10.6888
distribu	-10.6889
innovazione	-10.689
▁passione	-10.6897
▁legs	-10.6903
▁suoni	-10.6913
▁Michael	-10.6914
▁cycle	-10.6914
▁conferenza	-10.6914
▁graduate	-10.6914
▁James	-10.6914
▁Tutt	-10.6921
▁apart	-10.6921
▁centrale	-10.6934
▁missing	-10.6936
▁finale	-10.6938
▁sick	-10.694
▁possibili	-10.6942
▁informazione	-10.6945
▁experiments	-10.6946
▁YouTube	-10.6947
▁switch	-10.6947
▁ancient	-10.6947
▁membri	-10.6947
▁segnali	-10.6947
▁remote	-10.6948
▁status	-10.6948
▁sentence	-10.695
▁nucleare	-10.6951
ssime	-10.697
atori	-10.6973
▁ricordare	-10.6976
▁limiti	-10.6977
▁scelto	-10.6981
▁Brazil	-10.6981
▁curve	-10.6981
▁creativity	-10.6982
▁enable	-10.6982
▁giant	-10.6984
▁trauma	-10.6985
▁react	-10.6986
▁farci	-10.6986
▁sapeva	-10.6989
▁State	-10.6991
▁published	-10.6993
occhiata	-10.6998
▁inizi	-10.6999
▁miglior	-10.7
ek	-10.7005
▁members	-10.7007
▁notato	-10.701
usa	-10.7012
▁temperatura	-10.7014
▁sequence	-10.7014
▁notare	-10.7021
▁file	-10.7029
▁volare	-10.7039
▁costitu	-10.7046
▁Volevo	-10.7048
▁border	-10.7048
▁sector	-10.7048
▁shoot	-10.7049
▁capacity	-10.7051
▁sand	-10.7053
▁Life	-10.7056
▁causes	-10.7056
▁anzi	-10.7057
▁principali	-10.7058
▁cinese	-10.7058
▁profession	-10.7058
jo	-10.7061
▁quante	-10.7064
trici	-10.7069
▁extreme	-10.707
▁certa	-10.7072
▁seemed	-10.7079
arco	-10.708
▁oxygen	-10.7081
▁sharing	-10.7081
▁feedback	-10.7081
▁adulti	-10.7082
▁recover	-10.7082
▁infine	-10.7083
ida	-10.7098
▁grosso	-10.7107
▁volontari	-10.7108
▁utilizzare	-10.7109
▁plane	-10.7114
▁negozi	-10.7117
▁engage	-10.712
▁fill	-10.7124
▁linee	-10.7127
▁riescono	-10.7128
▁forti	-10.7128
ternal	-10.7137
▁seat	-10.7138
▁0	-10.7147
▁muscle	-10.7149
▁terribile	-10.7149
▁easily	-10.7149
▁classroom	-10.7149
▁dying	-10.715
▁sustainable	-10.7151
▁Park	-10.7153
▁driver	-10.7153
▁quote	-10.7167
▁played	-10.7171
▁occur	-10.7182
▁boys	-10.7182
▁husband	-10.7183
▁slightly	-10.7183
▁Boston	-10.7183
▁remove	-10.7183
▁orienta	-10.7191
▁outcome	-10.7196
▁migr	-10.721
▁voglia	-10.7211
▁justice	-10.7212
head	-10.7215
▁facilmente	-10.7217
▁combine	-10.7218
▁complessità	-10.7218
▁pari	-10.7219
▁credi	-10.7221
▁lettera	-10.7225
Beh	-10.7228
yn	-10.7229
▁pack	-10.7231
▁tap	-10.7235
▁differently	-10.7237
▁poet	-10.7238
▁credit	-10.7242
▁crowd	-10.7251
▁encourage	-10.7251
▁symbol	-10.7251
▁bought	-10.7251
▁gotten	-10.7252
▁feels	-10.7256
▁esplora	-10.7259
▁inspired	-10.7264
▁disco	-10.7264
▁pò	-10.7267
▁prese	-10.7272
▁regione	-10.7274
▁den	-10.728
▁narra	-10.7285
▁Eppure	-10.7286
▁movimenti	-10.7286
▁sicuri	-10.7286
▁decenni	-10.7288
▁aware	-10.7289
▁veri	-10.7291
▁triste	-10.7291
attenzione	-10.7296
▁denti	-10.7297
▁consiste	-10.7298
▁sopravvivere	-10.73
▁chiedo	-10.7301
▁moon	-10.7302
▁irre	-10.7302
▁coinvolge	-10.7304
▁analog	-10.7308
pan	-10.731
▁motor	-10.7312
▁piacerebbe	-10.7318
▁station	-10.7319
▁coscienza	-10.732
▁fabbrica	-10.732
▁reaction	-10.7324
▁gold	-10.7328
▁engineer	-10.7333
▁BG	-10.7334
▁Pensa	-10.7335
▁focused	-10.7342
▁comunicare	-10.7352
▁studiato	-10.7354
▁claim	-10.7355
▁imagination	-10.7355
▁obiettivi	-10.7355
▁Charles	-10.7355
▁smell	-10.7355
▁profondamente	-10.7358
▁pill	-10.7367
▁birds	-10.737
sarei	-10.7377
▁helping	-10.7378
▁calcola	-10.7389
▁trasporta	-10.7389
erebbe	-10.7394
▁talmente	-10.7394
▁maggiori	-10.7396
▁answers	-10.7397
▁hearing	-10.7402
plan	-10.7407
▁PM	-10.7408
▁fully	-10.7415
▁poster	-10.742
▁conseguenza	-10.7424
▁despite	-10.7424
▁ovvero	-10.7424
▁mouse	-10.7427
▁disposizione	-10.7427
▁morta	-10.7429
rata	-10.7433
▁lack	-10.7437
▁consumer	-10.744
▁personali	-10.7447
▁engine	-10.7448
unque	-10.7449
▁vento	-10.7453
▁pubblici	-10.7457
▁labor	-10.7458
▁noise	-10.7459
▁comprensione	-10.7459
▁shark	-10.7459
▁mercati	-10.7459
▁joy	-10.7459
▁gia	-10.7459
▁devasta	-10.746
▁predator	-10.7461
▁held	-10.7461
zzato	-10.7461
Why	-10.7472
▁studying	-10.7473
▁fatte	-10.7486
▁veloci	-10.7493
▁stimola	-10.7494
▁sci	-10.7495
▁spiritual	-10.7495
▁irri	-10.75
▁habitat	-10.7502
▁bassa	-10.7502
▁bravi	-10.7505
▁benefit	-10.7519
▁ricchezza	-10.753
▁Valley	-10.753
▁umane	-10.753
▁basis	-10.7533
ets	-10.7536
▁Center	-10.7537
▁inventa	-10.7537
▁diversità	-10.7539
▁mostrano	-10.754
of	-10.7543
▁economia	-10.7546
rum	-10.7546
▁island	-10.7546
▁proteggere	-10.7549
▁chain	-10.755
quest	-10.7551
abilità	-10.7557
▁evolved	-10.7557
▁dover	-10.7564
▁fondi	-10.7564
▁employ	-10.7565
▁quartiere	-10.7565
▁Comunque	-10.7565
▁Voi	-10.7569
▁priv	-10.7574
ndoci	-10.7583
▁harm	-10.7585
▁appare	-10.7599
▁addirittura	-10.76
▁coordina	-10.76
▁genoma	-10.76
▁surgery	-10.76
▁article	-10.76
pul	-10.7601
▁parlo	-10.7604
profit	-10.7604
▁farà	-10.7606
▁Island	-10.7607
▁stavamo	-10.761
▁click	-10.763
▁suffer	-10.7632
▁molecole	-10.7636
▁tremendous	-10.7636
▁affari	-10.7636
▁produced	-10.7636
▁misurare	-10.7649
▁aperta	-10.7651
life	-10.7651
▁arrivano	-10.7653
▁copia	-10.7653
▁venivano	-10.766
well	-10.766
▁staff	-10.7668
▁segue	-10.767
▁immediatamente	-10.7672
▁networks	-10.7672
▁esprime	-10.7673
▁opposite	-10.7673
▁funny	-10.7676
▁application	-10.7684
▁hang	-10.7686
▁10,000	-10.7688
▁devices	-10.7689
▁regular	-10.7707
▁platform	-10.7707
▁British	-10.7708
▁sovra	-10.7709
▁manage	-10.7711
▁incontro	-10.7712
Hey	-10.7715
▁sensori	-10.773
▁dimension	-10.7742
▁meravigliosa	-10.7743
▁twice	-10.7743
▁vertical	-10.7744
▁ufficio	-10.7745
▁vantaggio	-10.7746
▁tratti	-10.7747
▁insetti	-10.7749
erei	-10.7751
▁carry	-10.7753
▁Web	-10.7754
▁circo	-10.7759
▁guard	-10.7761
▁afferma	-10.7762
▁dovevo	-10.7768
ological	-10.7778
▁Amazon	-10.778
▁blow	-10.7782
▁entirely	-10.7784
▁contact	-10.7785
▁Take	-10.7787
▁gang	-10.7788
▁torn	-10.7812
▁bambina	-10.7816
▁coffee	-10.7816
▁opportunities	-10.7816
▁victim	-10.7816
▁mouth	-10.7816
▁balance	-10.7816
▁successiva	-10.7816
▁minus	-10.7816
▁weird	-10.7819
▁grade	-10.7821
▁Ber	-10.7827
win	-10.783
▁gal	-10.7832
▁wood	-10.7834
read	-10.7843
▁passed	-10.7844
▁King	-10.7848
▁Pakistan	-10.7852
▁accumula	-10.7852
▁economie	-10.7852
▁caratteristiche	-10.7852
▁puzzle	-10.7852
elettro	-10.7852
▁profondità	-10.7853
▁definition	-10.7854
matic	-10.7857
▁forces	-10.7863
▁nato	-10.7865
▁ottimi	-10.7867
▁knowing	-10.7873
Music	-10.7879
▁viola	-10.7883
▁ingredient	-10.7889
▁miliardo	-10.7889
▁servono	-10.7889
▁asteroid	-10.7889
▁lucky	-10.7889
▁accadendo	-10.7889
▁nuota	-10.789
▁consciousness	-10.789
▁European	-10.7897
▁rese	-10.7898
▁venuto	-10.7902
▁banca	-10.7906
▁Ab	-10.7908
▁entrepreneur	-10.7909
▁progresso	-10.791
▁suffering	-10.7911
▁strength	-10.7925
▁provoca	-10.7926
▁operation	-10.7928
▁Mia	-10.7928
▁root	-10.7931
▁portati	-10.7935
▁rimanere	-10.7939
▁patent	-10.7945
▁wire	-10.795
▁diverti	-10.7952
▁invent	-10.7954
▁discuss	-10.7958
▁complessi	-10.7961
improvviso	-10.7962
▁accanto	-10.7962
▁password	-10.7962
▁Molte	-10.7962
▁Cap	-10.7962
▁ciclo	-10.7963
▁seduti	-10.7963
▁cerchiamo	-10.7963
▁chair	-10.7964
▁However	-10.7965
▁ricercatori	-10.7981
▁avessero	-10.7982
▁facevano	-10.799
▁strani	-10.7993
▁rub	-10.7997
▁author	-10.7997
▁basi	-10.7999
▁Obama	-10.7999
▁corpi	-10.7999
▁potrei	-10.7999
▁connessione	-10.8
▁retro	-10.8001
▁2009	-10.8002
▁36	-10.8007
▁parlano	-10.8008
▁fossil	-10.8011
▁importantly	-10.8013
▁ph	-10.8016
▁correct	-10.8017
▁mise	-10.8022
▁tough	-10.8023
▁trattamento	-10.8025
▁capitale	-10.8026
iano	-10.8029
▁matters	-10.803
▁raised	-10.8033
▁incredibili	-10.8036
▁mechanism	-10.8036
▁segnale	-10.8036
▁drawing	-10.8038
▁dottore	-10.8038
▁motivi	-10.8041
▁prendiamo	-10.8041
▁diventando	-10.8041
aspetto	-10.8049
▁ideal	-10.805
▁necessarily	-10.8053
▁esplorare	-10.8063
▁Wal	-10.8067
▁faremo	-10.8072
▁bottle	-10.8073
▁Sometimes	-10.8073
▁perfetto	-10.8073
▁consumo	-10.8073
▁scompar	-10.8073
▁chose	-10.8074
▁whi	-10.8074
▁mancanza	-10.8075
▁1,000	-10.8078
▁principi	-10.8079
▁creano	-10.808
icamente	-10.8081
round	-10.8082
oh	-10.8085
▁Any	-10.8091
▁600	-10.8092
▁missione	-10.8104
hood	-10.8107
▁Ze	-10.8108
▁conflitto	-10.811
▁identify	-10.811
▁internazionale	-10.811
▁ottenuto	-10.811
▁successivo	-10.8111
▁destina	-10.8111
▁bridge	-10.8111
▁risponde	-10.8112
▁guide	-10.8113
▁vecchia	-10.8113
▁ritorna	-10.8116
▁proven	-10.8116
▁traffico	-10.8118
▁App	-10.8121
▁clienti	-10.8124
▁spending	-10.8125
▁organism	-10.8127
▁fantastica	-10.8128
del	-10.813
▁cognitive	-10.8148
▁strategia	-10.8148
▁parlerò	-10.8148
▁multiple	-10.8148
▁Again	-10.8148
▁prendono	-10.815
▁perdita	-10.815
▁27	-10.8154
▁batte	-10.8165
▁designers	-10.8166
▁inizio	-10.817
hal	-10.8174
▁agire	-10.8177
▁avremo	-10.8179
▁biologi	-10.818
&	-10.8186
▁Alcune	-10.8186
▁chimica	-10.8186
▁arma	-10.8188
test	-10.8189
▁termina	-10.8191
▁buono	-10.8192
▁chiese	-10.8194
bin	-10.8194
▁genetica	-10.8197
based	-10.82
▁equivalent	-10.8204
▁fame	-10.8204
▁degrees	-10.821
▁marito	-10.8222
▁tessuto	-10.8223
▁civilization	-10.8224
▁depression	-10.8227
▁stem	-10.8227
▁agent	-10.8234
obiettivo	-10.8237
▁Tim	-10.8238
▁tizio	-10.8238
▁motore	-10.8238
▁molecules	-10.824
nga	-10.8241
▁occup	-10.8244
▁ricchi	-10.8246
▁tema	-10.8248
▁deeply	-10.8256
▁Institute	-10.8261
▁religious	-10.8261
▁poesia	-10.8261
esercito	-10.8261
▁testo	-10.8262
▁majority	-10.8265
▁250	-10.8273
This	-10.8275
▁compagnia	-10.8276
▁differences	-10.8278
▁intensi	-10.8282
▁organi	-10.8286
▁tumore	-10.8287
▁formula	-10.829
▁laser	-10.8294
▁cresciuto	-10.8299
▁tecnica	-10.8299
▁scenario	-10.83
▁permanent	-10.8303
▁ultimately	-10.8306
▁meters	-10.8312
▁Dal	-10.8314
▁impar	-10.8316
gging	-10.8317
▁favor	-10.832
▁ok	-10.8321
Cosa	-10.8322
20	-10.8326
risate	-10.833
▁principio	-10.8332
▁pubblicato	-10.8334
▁tuoi	-10.8335
▁motion	-10.8337
▁assomiglia	-10.8337
▁empower	-10.8337
▁compare	-10.8338
▁certe	-10.8339
▁Martin	-10.834
▁guidare	-10.8341
▁notion	-10.8345
▁confine	-10.8346
point	-10.8349
▁sped	-10.8349
▁bias	-10.835
▁tanta	-10.8353
▁disegna	-10.8354
▁mess	-10.8363
▁corsi	-10.8364
▁attivi	-10.8365
▁portata	-10.837
▁san	-10.8373
room	-10.8374
▁Actually	-10.8376
▁responsible	-10.8376
▁fondamentali	-10.8376
▁implement	-10.8376
▁estimate	-10.8376
▁cosi	-10.8386
arma	-10.8389
▁surprise	-10.8389
▁mettiamo	-10.839
▁carte	-10.8392
▁forever	-10.8394
▁giornali	-10.8398
▁strana	-10.8401
▁fida	-10.8405
▁refer	-10.8405
▁etc	-10.8405
▁coralli	-10.8409
▁marketing	-10.8413
▁magazine	-10.8414
▁debate	-10.8415
▁flight	-10.8416
▁fretta	-10.8417
▁mostro	-10.8419
▁farmers	-10.8419
▁complexity	-10.8419
▁stuck	-10.8422
▁reward	-10.8432
▁host	-10.8436
▁stream	-10.8437
▁Pri	-10.8444
▁sentivo	-10.8445
▁dicevano	-10.8448
▁merit	-10.8451
▁ecosystem	-10.8453
▁organismi	-10.8456
▁iPhone	-10.8457
rrow	-10.8459
▁atomi	-10.8474
▁fri	-10.8475
▁neri	-10.8476
list	-10.8478
▁venti	-10.8479
▁vivi	-10.8483
▁sicura	-10.8487
▁advantage	-10.8491
▁strategy	-10.8491
▁dubbio	-10.8491
▁Pacific	-10.8491
▁crash	-10.8492
▁collaborazione	-10.8494
▁2007	-10.8496
▁messi	-10.8499
▁spirit	-10.8502
▁onde	-10.8504
▁identifica	-10.8509
▁scientifica	-10.8509
▁finish	-10.8516
▁luna	-10.8517
▁Ko	-10.8523
▁figured	-10.8525
▁capitalism	-10.8527
▁sostenibile	-10.853
▁ruota	-10.853
▁conosciuto	-10.8531
▁bright	-10.8533
▁Korea	-10.8535
▁Apple	-10.8546
▁presidente	-10.8547
bar	-10.8549
▁tea	-10.8553
▁supporto	-10.8555
▁farsi	-10.8569
▁Wikipedia	-10.8569
▁strategie	-10.8569
▁GPS	-10.8569
▁proud	-10.857
▁debba	-10.857
▁court	-10.857
▁parallel	-10.857
▁markets	-10.8571
▁dichiara	-10.8571
▁repeat	-10.8572
▁psico	-10.8578
▁dreams	-10.8579
▁distant	-10.8587
cum	-10.8591
▁eating	-10.8592
▁Giappone	-10.8609
▁rimasto	-10.8609
▁Au	-10.8612
▁fotografia	-10.8613
▁More	-10.8614
▁faith	-10.8615
▁bocca	-10.862
▁autori	-10.8621
▁liberal	-10.8622
▁certi	-10.8624
vu	-10.864
▁Mondiale	-10.8648
▁paradigm	-10.8648
▁riuscito	-10.8648
▁gift	-10.8649
Y	-10.8655
▁chiamano	-10.8658
burg	-10.8662
position	-10.8675
▁tradition	-10.8678
▁turning	-10.8679
▁rifle	-10.8682
▁immaginate	-10.8682
▁competition	-10.8688
▁ritual	-10.8689
▁elezioni	-10.869
▁riferi	-10.8696
▁spari	-10.87
▁direct	-10.87
▁benefits	-10.8701
▁belong	-10.8702
▁identità	-10.8703
▁guardato	-10.8714
▁earn	-10.8718
▁negozio	-10.8725
▁filosofi	-10.8727
▁pagine	-10.8727
▁sguardo	-10.8727
▁avviene	-10.8727
▁roof	-10.8727
▁sufficiente	-10.8727
▁segreto	-10.8727
▁Japan	-10.8727
▁quiet	-10.8728
▁piani	-10.8728
▁Potrest	-10.8729
▁confronta	-10.8737
▁fissa	-10.8737
▁naturali	-10.8741
Q	-10.8742
▁Inter	-10.8751
▁ring	-10.8751
▁buoni	-10.8753
▁predic	-10.8757
▁lasciate	-10.8763
▁disgust	-10.8767
▁confini	-10.8769
▁possibility	-10.877
▁stima	-10.877
▁Haiti	-10.8775
leg	-10.8781
▁graph	-10.8787
▁spaventa	-10.8792
▁Gran	-10.8797
▁usate	-10.8802
▁counter	-10.8804
▁depressione	-10.8806
▁disponibile	-10.8807
▁desidera	-10.8807
▁nata	-10.8807
▁terrorist	-10.8809
uda	-10.8809
▁diagram	-10.881
▁abita	-10.8813
▁warm	-10.8817
▁compared	-10.882
▁voti	-10.8821
That	-10.8823
impatto	-10.8825
▁trovo	-10.8825
▁believed	-10.8828
▁holding	-10.8828
▁interpreta	-10.8831
▁apri	-10.8834
▁relative	-10.8836
▁cominc	-10.8838
▁Middle	-10.8847
▁Comincia	-10.8847
▁extend	-10.8847
▁technical	-10.8847
▁caldo	-10.8847
dding	-10.8848
▁Mr	-10.885
▁arrivi	-10.8851
▁alcuna	-10.8853
▁darvi	-10.8854
verse	-10.8858
▁aereo	-10.8859
▁fornire	-10.886
▁solamente	-10.8862
Europa	-10.8863
▁nomi	-10.8868
▁impiega	-10.8873
▁bird	-10.8877
▁promot	-10.8877
▁lettere	-10.8877
▁metro	-10.8878
▁hurt	-10.8888
▁tradizionale	-10.8888
▁stella	-10.8888
▁Molto	-10.8888
▁previous	-10.8888
▁brucia	-10.8891
▁portano	-10.8896
▁celebra	-10.8901
▁degree	-10.8902
▁manager	-10.8906
▁Congo	-10.8908
yard	-10.8909
▁novel	-10.8912
▁terre	-10.8923
▁cambiando	-10.8928
▁potenti	-10.8928
▁garden	-10.8928
▁fashion	-10.8928
▁abitua	-10.8928
▁expression	-10.8933
▁studied	-10.894
enorme	-10.8945
grade	-10.8945
▁raggiunge	-10.8955
▁logica	-10.8956
nny	-10.8959
▁nati	-10.8962
▁architect	-10.8968
▁raggiunto	-10.8969
▁attempt	-10.8969
▁laptop	-10.8969
▁location	-10.8969
▁Adam	-10.8969
▁crack	-10.897
▁ricordi	-10.8971
▁civili	-10.8972
▁nasce	-10.8978
▁engineers	-10.8989
▁opened	-10.899
▁leading	-10.8994
▁flower	-10.9003
▁capisco	-10.9008
▁pit	-10.9008
▁exercise	-10.9009
▁rallenta	-10.9009
▁airplane	-10.901
▁trillion	-10.901
▁scoperte	-10.901
▁romantic	-10.901
▁succeed	-10.901
▁essa	-10.9013
▁database	-10.9013
▁Primo	-10.9016
▁pair	-10.9021
▁hacker	-10.9023
▁foreste	-10.9026
▁autism	-10.903
▁considerare	-10.903
▁Joe	-10.9031
▁componenti	-10.9038
▁credono	-10.9041
▁sorprende	-10.9044
▁collo	-10.9045
▁truck	-10.905
▁French	-10.9051
▁tunnel	-10.9051
▁schemi	-10.9051
▁whale	-10.9051
▁vittime	-10.9051
▁reveal	-10.9051
▁dozen	-10.9051
▁pubblicità	-10.9052
▁Paesi	-10.9054
▁consequences	-10.9056
mark	-10.9061
▁aspettare	-10.9063
▁feci	-10.907
▁Red	-10.9075
▁structures	-10.9077
▁failed	-10.9083
▁carne	-10.9084
▁progettare	-10.9086
▁Thomas	-10.9092
▁metaphor	-10.9092
▁rilascia	-10.9092
▁yellow	-10.9092
▁distribuzione	-10.9092
▁childhood	-10.9093
▁broad	-10.9094
▁improvvisamente	-10.9094
▁coast	-10.9095
▁Parla	-10.9103
▁dirige	-10.9107
▁emoziona	-10.9107
▁suit	-10.9108
50	-10.9112
esistenza	-10.9128
▁65	-10.9129
▁vende	-10.913
▁emissioni	-10.9133
▁gigante	-10.9133
▁imprenditori	-10.9133
▁raccolto	-10.9133
▁disorder	-10.9133
espressione	-10.9133
▁automatic	-10.9135
▁particles	-10.9135
▁narrative	-10.9135
▁americana	-10.9137
▁valid	-10.9145
▁interno	-10.9147
▁toglie	-10.9151
▁argomento	-10.9153
▁spar	-10.9157
▁aumentare	-10.9158
ilicon	-10.9168
▁avrete	-10.9174
▁Probabilmente	-10.9174
▁tecniche	-10.9174
▁university	-10.9174
▁precise	-10.9175
▁crediamo	-10.9178
▁passaggio	-10.9179
▁coi	-10.9179
▁odd	-10.9181
▁May	-10.9183
▁watched	-10.9189
edificio	-10.9192
known	-10.9192
▁gel	-10.9201
▁Pass	-10.9212
▁adolescent	-10.9216
▁nascita	-10.9216
▁probabile	-10.9216
▁electronic	-10.9216
▁dottori	-10.9217
▁individua	-10.9219
▁immers	-10.922
▁funzionato	-10.9229
▁eventi	-10.9233
▁ski	-10.9238
▁concern	-10.9239
Ha	-10.9243
▁scorre	-10.9243
▁dimostrato	-10.9244
▁managed	-10.9245
▁Pen	-10.9252
uscita	-10.9256
▁cervelli	-10.9258
▁foreign	-10.9258
▁innovative	-10.9258
▁museum	-10.9258
▁vaccine	-10.9258
▁Good	-10.9259
▁transformation	-10.9263
▁sicuramente	-10.9263
▁bug	-10.9264
▁Torn	-10.927
▁stranger	-10.9272
▁aumento	-10.9272
▁vota	-10.9272
▁apprendimento	-10.9281
▁ricevere	-10.9286
guard	-10.9288
▁creatures	-10.929
▁construct	-10.9297
▁marriage	-10.93
▁fratello	-10.93
▁leaving	-10.93
▁Once	-10.93
▁consapevolezza	-10.9301
▁trained	-10.9301
▁icon	-10.9304
bilmente	-10.9305
▁regime	-10.9311
▁aiutato	-10.9315
ago	-10.9328
▁wear	-10.9334
▁poem	-10.9336
▁ricordate	-10.9338
▁sessuale	-10.9342
▁caught	-10.9342
▁percezione	-10.9343
▁dinner	-10.9344
▁processi	-10.9349
Musica	-10.9352
▁walls	-10.9353
▁artificiale	-10.9353
▁clip	-10.9354
▁fairly	-10.9357
▁highest	-10.9362
▁fold	-10.9362
▁premi	-10.9365
▁coal	-10.9368
▁reag	-10.9371
▁typical	-10.9373
▁inventato	-10.9373
occhio	-10.9377
▁affascina	-10.9378
▁riemp	-10.9382
▁necessary	-10.9385
▁survey	-10.9385
▁flusso	-10.9388
▁illusion	-10.9392
▁limited	-10.9396
▁copy	-10.9401
▁progettato	-10.9401
ivity	-10.9413
▁Did	-10.9417
▁creation	-10.9422
▁conscious	-10.9425
▁sveglia	-10.9426
▁prior	-10.9426
▁married	-10.9427
▁Ancora	-10.9427
▁accus	-10.9427
▁mattino	-10.9428
▁increment	-10.9428
▁display	-10.9428
▁benessere	-10.9429
▁unfortunately	-10.9429
▁shop	-10.9434
▁combattere	-10.9434
gy	-10.9438
source	-10.944
▁tech	-10.9442
▁journalist	-10.9447
▁pronto	-10.9449
▁foundation	-10.9451
▁presi	-10.9455
▁errore	-10.9459
▁Dice	-10.9464
▁decisi	-10.9464
▁pin	-10.9466
ified	-10.9467
▁perception	-10.9467
▁brilliant	-10.947
▁hidden	-10.947
▁occidentale	-10.947
▁responsabile	-10.947
range	-10.9473
▁insight	-10.9476
▁farmaco	-10.9477
▁articolo	-10.948
▁score	-10.9481
▁scarpe	-10.9481
▁condivide	-10.9482
▁sedia	-10.9483
▁esserci	-10.9483
▁accurate	-10.9483
▁grown	-10.9492
water	-10.9501
▁fasci	-10.9502
▁events	-10.9503
▁esamina	-10.9506
▁cast	-10.9508
▁Brasile	-10.9513
▁bubble	-10.9513
▁adults	-10.9513
▁battle	-10.9513
▁intitola	-10.9513
▁curva	-10.9513
▁'90	-10.9514
▁larga	-10.9515
▁editor	-10.9515
ji	-10.9526
▁stereo	-10.9528
▁release	-10.9531
▁ospedale	-10.9532
▁confronti	-10.9533
ppy	-10.9538
stone	-10.9542
media	-10.9548
▁fluid	-10.9549
fy	-10.9555
▁sorpresa	-10.9556
▁trasporto	-10.9556
▁battaglia	-10.9556
▁Talk	-10.9556
▁adotta	-10.9557
▁presenza	-10.9558
altezza	-10.9558
▁grand	-10.9559
▁Jim	-10.956
▁2005	-10.9561
▁tar	-10.9562
▁constantly	-10.9564
▁centri	-10.9569
▁artists	-10.9572
▁discovery	-10.9574
▁potessero	-10.9576
▁received	-10.9579
▁wearing	-10.9581
anzi	-10.9582
▁Facciamo	-10.9599
▁mathematics	-10.9599
▁curious	-10.9599
▁fresh	-10.9599
▁catena	-10.96
▁seduto	-10.96
stata	-10.96
▁sorella	-10.9601
▁conduct	-10.9601
▁dress	-10.9602
▁fighting	-10.9605
▁scal	-10.9608
▁generazioni	-10.9608
▁strato	-10.961
▁matrimonio	-10.9611
▁currently	-10.9618
tech	-10.9625
▁harder	-10.9625
▁adopt	-10.9627
dipendenti	-10.9628
▁sudden	-10.9631
▁Microsoft	-10.9643
▁breast	-10.9643
▁freddo	-10.9643
▁libero	-10.9643
▁urge	-10.9643
▁solleva	-10.9644
omb	-10.9646
▁sonno	-10.9654
path	-10.9656
▁chiedendo	-10.9657
apprendimento	-10.9662
▁pig	-10.9669
▁passati	-10.9678
▁parlava	-10.9678
▁sostenere	-10.9678
▁conosci	-10.9684
▁distrugge	-10.9686
▁allontana	-10.9686
▁acque	-10.9687
▁vendere	-10.9688
▁translate	-10.9689
▁horse	-10.9689
▁flag	-10.9691
▁imita	-10.9692
gola	-10.9699
angu	-10.9701
▁weak	-10.9708
▁verb	-10.9711
▁calm	-10.9716
▁danza	-10.9719
▁fusion	-10.9724
▁evoluti	-10.9727
▁partecipare	-10.973
▁epidemic	-10.973
▁gioia	-10.973
▁cercano	-10.9731
cini	-10.9732
▁resistenza	-10.9732
▁federal	-10.9732
▁Paese	-10.9733
▁hotel	-10.9736
intelligenza	-10.9737
▁qualcos	-10.9746
▁orbit	-10.9748
▁drag	-10.975
pper	-10.9751
▁soil	-10.9751
▁launch	-10.9755
▁diventati	-10.9757
▁logic	-10.9758
▁described	-10.9765
▁continuo	-10.9771
▁oscura	-10.9774
▁restaurant	-10.9774
▁experienced	-10.9774
▁contiene	-10.9774
▁pounds	-10.9774
▁concludere	-10.9775
▁everyday	-10.9783
▁toilet	-10.9783
▁Will	-10.9787
▁Capi	-10.9789
assistenza	-10.979
▁concerned	-10.9796
▁carbone	-10.9802
▁related	-10.9803
▁pronti	-10.9804
▁ricon	-10.9805
▁Art	-10.9812
Sì	-10.9814
▁rumore	-10.9815
▁algoritmi	-10.9818
▁fascinating	-10.9818
▁prigione	-10.9818
▁avranno	-10.9819
▁kilo	-10.9819
▁France	-10.982
▁voci	-10.9821
▁apprezza	-10.9822
▁capable	-10.9824
ball	-10.9827
▁statistics	-10.9829
▁north	-10.9835
▁introduce	-10.9838
aiuto	-10.9843
ades	-10.9847
▁alimentare	-10.9856
▁firm	-10.9861
▁Global	-10.9863
▁cresciuta	-10.9863
▁elettrica	-10.9863
▁ospedali	-10.9863
▁volunteer	-10.9863
▁automobili	-10.9863
▁canzone	-10.9863
▁lunch	-10.9863
▁ordina	-10.9864
▁eccita	-10.9865
▁Bob	-10.9869
▁questioni	-10.9869
▁affascinante	-10.987
▁safety	-10.9871
▁weapons	-10.9871
▁manual	-10.9872
▁duro	-10.9875
▁Tri	-10.9875
▁operate	-10.9875
▁normali	-10.9878
spirazione	-10.9883
▁frame	-10.9884
▁elements	-10.9891
▁spirito	-10.9894
▁organisms	-10.99
▁deposit	-10.9902
▁Vogliamo	-10.9908
▁newspaper	-10.9908
▁acid	-10.9908
▁interface	-10.9909
▁anziani	-10.9909
▁otherwise	-10.9912
fully	-10.9917
▁ecc	-10.9917
▁bill	-10.992
▁Ah	-10.9922
▁consigli	-10.9923
even	-10.9925
▁permettere	-10.9926
40	-10.9926
▁honor	-10.9926
effetto	-10.9928
▁fell	-10.9929
▁independent	-10.9942
▁tail	-10.995
▁vinto	-10.9951
▁istruzione	-10.9952
▁contenuto	-10.9952
▁worried	-10.9952
▁channel	-10.9952
▁rifiuti	-10.9952
▁situazioni	-10.9952
▁cartoon	-10.9952
▁montagna	-10.9953
▁pianifica	-10.9954
▁businesses	-10.9956
▁neural	-10.9958
▁aprire	-10.9971
▁conclusion	-10.9971
▁industriale	-10.9974
▁Mark	-10.9974
▁finished	-10.9977
▁forced	-10.9978
▁x	-10.9986
▁pensai	-10.9992
▁Texas	-10.9997
▁accaduto	-10.9997
▁terapia	-10.9997
▁smile	-10.9999
▁Sarebbe	-11.0001
▁colpito	-11.0001
▁garanti	-11.0001
▁nasconde	-11.0004
▁Germany	-11.0006
▁sentiamo	-11.0017
▁surprised	-11.0027
▁collaborato	-11.0029
letti	-11.0038
agricoltura	-11.0043
▁exchange	-11.0043
▁phenomenon	-11.0043
▁kilometers	-11.0043
▁Robert	-11.0043
most	-11.0044
▁precedenti	-11.0045
▁tetto	-11.0046
▁signore	-11.0047
▁fiori	-11.0048
▁contract	-11.005
▁compiti	-11.0051
▁daily	-11.0051
▁expected	-11.0051
part	-11.0053
▁volevamo	-11.0055
▁dollar	-11.0066
▁correre	-11.0073
But	-11.0074
▁caused	-11.0077
▁observe	-11.0088
▁dispositivo	-11.0088
▁anticipa	-11.0088
▁hunt	-11.0088
▁admit	-11.009
▁Nobel	-11.0093
▁shut	-11.0095
▁buio	-11.0098
▁followed	-11.0098
▁soul	-11.0105
▁considered	-11.0108
▁cellulari	-11.0108
▁colpa	-11.0109
stream	-11.011
▁universo	-11.0111
▁tragic	-11.0111
▁cavi	-11.0113
▁pale	-11.0126
▁sentono	-11.0131
▁corrisponde	-11.0134
▁vuoto	-11.0134
▁shoes	-11.0134
▁maggioranza	-11.0136
▁potessimo	-11.0138
▁perfettamente	-11.0138
▁cup	-11.0141
▁attend	-11.0144
▁writer	-11.0146
▁clinical	-11.0151
isola	-11.016
▁slowly	-11.0162
▁topic	-11.0164
▁intervento	-11.0172
▁avvia	-11.0173
▁interagi	-11.0175
▁vulnerabili	-11.0178
▁Oppure	-11.018
▁contribute	-11.018
▁infrastrutture	-11.018
▁ricostrui	-11.018
▁distribution	-11.018
▁invisible	-11.018
▁mirror	-11.018
▁principles	-11.0182
▁researchers	-11.0195
▁analisi	-11.0196
power	-11.0202
▁utilizzando	-11.0202
ously	-11.0203
▁marine	-11.0204
▁aspira	-11.0205
▁superare	-11.0207
nish	-11.021
▁exact	-11.0214
▁tall	-11.0215
▁define	-11.0217
▁cow	-11.0218
▁lavoratori	-11.0219
▁africani	-11.0226
▁survival	-11.0226
▁ovvio	-11.0226
▁decine	-11.0226
▁condizione	-11.0226
▁plate	-11.0229
▁sabbia	-11.0231
▁risulta	-11.0234
▁flat	-11.0236
▁lift	-11.0238
▁usata	-11.0242
▁theater	-11.0242
▁vederlo	-11.0244
▁corrente	-11.0253
Di	-11.0256
▁lung	-11.0256
▁profonda	-11.0268
▁principle	-11.027
▁familiare	-11.027
▁Manhattan	-11.0272
▁acquisi	-11.0272
▁folks	-11.0272
▁disaster	-11.0272
▁Germania	-11.0273
▁sentite	-11.0273
▁nazionali	-11.0274
▁civiltà	-11.0274
▁desk	-11.0284
▁coin	-11.0285
▁renderl	-11.0286
▁mentioned	-11.029
▁invited	-11.029
▁receive	-11.0294
▁importanza	-11.0296
maker	-11.0299
nese	-11.0307
ordine	-11.0308
▁cambio	-11.0318
▁intellectual	-11.0319
▁symptom	-11.0319
▁tradizionali	-11.0319
▁quadro	-11.0319
▁piega	-11.0319
▁row	-11.0321
▁sorry	-11.0322
▁ignore	-11.0322
▁tribu	-11.0323
▁William	-11.0323
▁civile	-11.0325
seguire	-11.0327
▁uffici	-11.0328
▁95	-11.0331
▁intelligent	-11.0334
▁potevamo	-11.0337
▁pilot	-11.0339
▁filled	-11.0347
▁responsabili	-11.0364
▁32	-11.0364
▁rispetta	-11.0365
▁sostanzialmente	-11.0365
▁Ghana	-11.0365
▁extinct	-11.0365
▁monkey	-11.0366
▁input	-11.0366
▁pensieri	-11.0367
▁golf	-11.037
▁insist	-11.037
▁mode	-11.0371
gged	-11.0376
▁Mary	-11.038
▁Unito	-11.038
anca	-11.0383
▁zoom	-11.0389
▁tantissim	-11.0394
▁perfectly	-11.0395
▁round	-11.0396
▁innovazione	-11.04
▁premio	-11.0401
▁limite	-11.0404
▁decennio	-11.0409
▁specifico	-11.0411
Università	-11.0412
▁entrambe	-11.0412
▁positivo	-11.0412
▁fisici	-11.0412
▁interessi	-11.0412
▁smartphone	-11.0413
▁metodi	-11.0414
▁comportamenti	-11.0415
▁existence	-11.0415
▁official	-11.0415
▁wake	-11.0415
▁Perchè	-11.0415
▁select	-11.0417
Proprio	-11.0418
▁diventi	-11.0421
▁inclusi	-11.0423
▁operating	-11.0425
▁Other	-11.0428
▁continuamente	-11.0435
esterno	-11.0436
▁Very	-11.0438
▁aggiungere	-11.0439
▁emotion	-11.0442
Go	-11.0453
▁buco	-11.0457
▁brief	-11.0459
▁diabete	-11.0459
▁Higgs	-11.0459
▁lentamente	-11.046
equilibrio	-11.046
▁President	-11.046
▁provenient	-11.0462
▁piange	-11.0462
▁Bank	-11.0466
▁verrà	-11.0467
▁razzi	-11.047
▁vicina	-11.0471
▁lifetime	-11.0473
▁posta	-11.0477
▁losing	-11.0488
▁deeper	-11.0489
▁proteine	-11.0489
▁picked	-11.0492
▁dealing	-11.05
▁Cal	-11.0501
ception	-11.0502
▁motori	-11.0506
sufficient	-11.0507
▁Stanford	-11.0507
▁piacciono	-11.0507
▁stood	-11.0507
▁Central	-11.0508
▁comfortable	-11.0508
▁sanitario	-11.0508
▁statistiche	-11.0509
▁necessariamente	-11.0509
▁ripara	-11.051
▁scopre	-11.0513
▁Human	-11.0513
▁allena	-11.0526
▁protegge	-11.0528
▁myth	-11.0532
▁mandare	-11.0533
▁experts	-11.0535
▁bro	-11.0547
▁closed	-11.0549
▁Rob	-11.0549
▁culturale	-11.055
▁abuse	-11.0553
If	-11.0554
▁transport	-11.0554
▁2011	-11.0554
▁doppio	-11.0554
▁telescopi	-11.0554
▁wheel	-11.0554
▁England	-11.0554
▁affatto	-11.0555
▁microbes	-11.0555
▁nervous	-11.0556
▁parecchi	-11.0557
▁paying	-11.0558
▁somma	-11.0558
▁invention	-11.0559
▁tension	-11.0564
▁progettazione	-11.0565
▁Air	-11.0566
▁saremo	-11.0569
▁albero	-11.0571
▁Have	-11.0574
▁stone	-11.0576
▁usati	-11.058
▁Loro	-11.059
▁università	-11.0594
▁cerebrale	-11.0602
▁internazionali	-11.0602
▁piattaforma	-11.0602
▁capace	-11.0602
▁lingue	-11.0602
▁lawyer	-11.0602
▁collapse	-11.0603
▁illness	-11.0603
▁ormai	-11.0604
▁Spero	-11.0607
▁increasingly	-11.0612
▁mandato	-11.0617
▁Circ	-11.0619
▁dry	-11.062
▁treated	-11.062
▁trasformazione	-11.0622
▁stock	-11.0622
▁risolve	-11.0623
▁launched	-11.0625
▁seriously	-11.0626
wood	-11.0626
▁ciascuno	-11.0627
▁moderna	-11.0629
▁digitali	-11.0631
▁Ten	-11.0638
▁Significa	-11.065
▁Guerra	-11.065
▁rifiuta	-11.065
▁droga	-11.065
▁ferro	-11.0651
▁Three	-11.0651
▁fellow	-11.0651
▁connette	-11.0651
▁EM	-11.0652
▁apparecchi	-11.0652
▁associated	-11.0656
▁collection	-11.0657
▁spalle	-11.0658
▁pericoloso	-11.0658
▁dovreste	-11.0663
▁calling	-11.0673
▁button	-11.0673
▁moda	-11.0677
▁conosco	-11.0679
▁capite	-11.0687
▁incontr	-11.0691
▁cena	-11.0692
▁credete	-11.0696
▁1980	-11.0699
▁analysis	-11.0699
▁scienziato	-11.0699
▁utenti	-11.0699
▁titolo	-11.0699
▁popolo	-11.0699
▁Sch	-11.0701
▁potrà	-11.0703
▁processes	-11.0704
▁fiction	-11.0705
▁26	-11.0706
▁guardo	-11.0708
▁member	-11.071
▁reef	-11.0711
▁mezzi	-11.0712
▁Però	-11.0716
▁attach	-11.0717
▁Senza	-11.0717
▁altrimenti	-11.0725
▁inoltre	-11.0747
▁Black	-11.0747
▁club	-11.0747
▁sopravvivenza	-11.0748
▁ritmo	-11.0748
▁altrui	-11.075
▁precedente	-11.0751
▁tratto	-11.0759
▁teenager	-11.0766
▁involve	-11.0771
▁Latin	-11.0772
▁classifica	-11.0778
▁basata	-11.0787
▁ambientali	-11.0796
▁appassiona	-11.0796
▁bellissima	-11.0796
▁galassie	-11.0796
▁tonnellate	-11.0796
▁bianchi	-11.0796
▁famoso	-11.0796
▁corsa	-11.0796
▁drone	-11.0797
▁General	-11.0797
▁Inizia	-11.0798
▁tendenza	-11.0801
▁season	-11.0801
▁gravi	-11.0804
ification	-11.0804
▁28	-11.0805
▁palla	-11.0805
Che	-11.0814
▁sott	-11.0828
▁virtuale	-11.0832
▁ripete	-11.0832
cker	-11.0834
▁personaggio	-11.0837
▁setting	-11.0843
▁corruzione	-11.0845
▁muoiono	-11.0845
▁scienze	-11.0845
▁wisdom	-11.0845
▁superiori	-11.0845
▁nurse	-11.0845
▁descrive	-11.0846
ify	-11.0849
▁fossili	-11.085
▁1000	-11.0855
▁facevo	-11.086
▁advance	-11.0869
HIV	-11.087
▁iniziano	-11.0876
▁consiglio	-11.088
▁normally	-11.0882
▁caratteri	-11.0894
▁Bisogna	-11.0894
▁Mexico	-11.0894
▁Potremmo	-11.0894
▁conflitti	-11.0894
▁sequenza	-11.0894
▁Quanto	-11.0894
▁bread	-11.0896
▁messa	-11.09
▁lanciato	-11.0902
▁speaker	-11.0909
▁Their	-11.0911
▁continente	-11.0914
▁error	-11.0916
friend	-11.092
▁Bang	-11.0923
tutto	-11.0926
Yes	-11.093
▁analizzare	-11.0938
▁mathematical	-11.0944
▁montagne	-11.0944
▁vulnerable	-11.0944
▁fratelli	-11.0944
▁Health	-11.0944
▁parcheggi	-11.0944
▁doubt	-11.0945
▁hopefully	-11.0945
▁adora	-11.0946
▁ordinary	-11.0946
▁madri	-11.0946
▁planning	-11.0947
▁pane	-11.095
▁attuale	-11.0954
▁aggiunge	-11.0965
▁taste	-11.0974
estate	-11.0979
▁manifesta	-11.0986
▁sappia	-11.0988
▁peer	-11.0989
▁bagno	-11.099
▁bisogni	-11.0993
▁calcolo	-11.0994
infanzia	-11.0994
▁quarto	-11.0994
▁judge	-11.0994
▁equation	-11.0994
▁rifugiati	-11.0995
▁wireless	-11.0996
American	-11.0996
tempo	-11.0996
▁gravità	-11.0997
▁chart	-11.0997
impresa	-11.0998
▁attract	-11.1002
▁Super	-11.101
▁ultimo	-11.1011
▁parco	-11.1017
Da	-11.1025
▁sbagliata	-11.1025
▁commerciale	-11.1027
▁electric	-11.1037
▁Would	-11.1044
▁bellissimo	-11.1044
▁dibattito	-11.1044
▁calore	-11.1044
▁peggiore	-11.1044
▁soffi	-11.1052
▁Altri	-11.1057
▁muoversi	-11.1058
▁resource	-11.1063
▁hide	-11.1064
▁skill	-11.1064
▁contest	-11.1065
▁barriere	-11.1069
argomento	-11.107
graph	-11.1086
▁120	-11.109
▁killing	-11.1094
▁discrimina	-11.1094
▁practical	-11.1094
▁arrabbia	-11.1094
▁divenne	-11.1095
▁capelli	-11.1096
▁boom	-11.1097
▁Jack	-11.1104
margin	-11.1108
▁limb	-11.1108
▁combination	-11.1111
▁tag	-11.1112
▁crescendo	-11.1119
È	-11.112
▁artistic	-11.1126
▁fourth	-11.1131
▁bike	-11.1132
▁trovate	-11.1143
▁costruendo	-11.1144
▁essenzialmente	-11.1144
▁manufacturing	-11.1144
▁pocket	-11.1144
▁percentuale	-11.1144
▁educate	-11.1145
▁varietà	-11.1148
▁formiche	-11.115
▁scarica	-11.1153
▁Wall	-11.1156
uthern	-11.116
Lo	-11.1162
▁reform	-11.1168
letto	-11.1172
▁riconosce	-11.1175
▁contrar	-11.1177
▁presentazione	-11.1177
house	-11.118
▁encounter	-11.1195
▁grandmother	-11.1195
▁reinvent	-11.1195
▁telescope	-11.1195
▁2012	-11.1195
▁altrettanto	-11.1195
▁debole	-11.1195
fondamentalmente	-11.1195
▁vorrebbe	-11.1195
▁versus	-11.1195
▁rappresentano	-11.1199
▁raccontarvi	-11.12
▁Does	-11.1201
▁sembr	-11.1202
▁ossigeno	-11.1207
▁Trov	-11.1215
▁factory	-11.1218
▁saved	-11.122
▁cala	-11.1224
▁dovrei	-11.1225
▁riesco	-11.1227
▁insegnante	-11.1228
▁faranno	-11.124
▁Sam	-11.124
▁continui	-11.1244
▁rinnova	-11.1246
Inghilterra	-11.1246
▁GDP	-11.1246
▁galaxy	-11.1246
▁soggetti	-11.1246
▁Science	-11.1246
▁fianco	-11.1246
▁maintain	-11.1246
▁ambienti	-11.1246
▁Medio	-11.1246
▁imprese	-11.1246
▁mettono	-11.1247
▁tornato	-11.1248
▁construction	-11.125
▁electrical	-11.1251
▁spec	-11.1251
▁Siet	-11.1252
▁prendete	-11.1253
▁fermare	-11.1254
▁spara	-11.1255
▁vestiti	-11.1259
▁conoscete	-11.1263
▁finestra	-11.1264
▁iniziando	-11.1267
▁Crea	-11.1276
correre	-11.1277
▁instant	-11.1285
zon	-11.1287
▁ethic	-11.1288
▁efficaci	-11.1293
▁broke	-11.1296
▁1990	-11.1297
▁emissions	-11.1297
▁fallimento	-11.1297
▁empty	-11.1298
▁transition	-11.13
▁keeping	-11.13
▁escape	-11.13
▁management	-11.1301
▁legno	-11.1304
▁threaten	-11.1305
▁wondering	-11.1311
▁chiamate	-11.1318
▁loud	-11.132
influenza	-11.1325
▁identificare	-11.1325
▁personaggi	-11.1328
▁opening	-11.1332
▁essential	-11.1337
▁mettendo	-11.1343
▁habit	-11.1344
▁south	-11.1346
▁discipline	-11.1349
▁elephant	-11.1349
▁embrace	-11.1349
▁courage	-11.1349
▁scherz	-11.1349
▁accende	-11.1349
▁scientifico	-11.135
▁professore	-11.1351
▁spaziale	-11.1353
▁spavent	-11.1369
▁Nessun	-11.1369
▁dicevo	-11.137
▁initial	-11.1372
▁efficiente	-11.1374
▁testing	-11.1375
▁mori	-11.1388
▁conclusione	-11.1391
▁mezza	-11.1391
▁Grand	-11.1392
▁dovevamo	-11.1392
▁ottene	-11.1393
▁perfetta	-11.1396
▁1960	-11.1401
▁heavy	-11.1401
▁permettono	-11.1401
▁complicato	-11.1401
▁volontà	-11.1401
▁sostanze	-11.1401
▁decise	-11.1401
▁false	-11.1401
▁campioni	-11.1403
▁riferimento	-11.1404
▁iniziò	-11.1405
▁variety	-11.1405
▁kit	-11.1406
▁2006	-11.1406
▁sapevamo	-11.141
▁arrivata	-11.141
▁massimo	-11.1414
▁arrived	-11.1417
▁advanced	-11.1427
▁released	-11.1431
ography	-11.1434
wit	-11.1442
Sono	-11.1443
▁Dall	-11.1444
▁load	-11.1451
epidemia	-11.1453
▁galaxies	-11.1453
▁PIL	-11.1453
▁leggermente	-11.1453
▁attacchi	-11.1453
▁piede	-11.1454
▁fruit	-11.1454
▁glu	-11.1456
▁riflettere	-11.1459
▁Peter	-11.146
▁Wh	-11.1465
▁director	-11.1472
▁crop	-11.1473
▁organized	-11.1474
▁facing	-11.1475
▁avendo	-11.1477
▁ruba	-11.1478
▁surround	-11.1484
▁vedi	-11.1489
▁Usa	-11.149
▁danger	-11.1504
▁Everybody	-11.1505
▁establish	-11.1505
▁meccanismo	-11.1505
▁raccolta	-11.1505
▁quarter	-11.1505
▁consegna	-11.1505
▁float	-11.1508
▁suonare	-11.151
down	-11.1512
▁tener	-11.1512
▁definiti	-11.1513
▁ossa	-11.1513
▁belle	-11.1523
scale	-11.1523
▁statistica	-11.1532
▁warming	-11.1534
▁girare	-11.1554
▁participate	-11.1558
▁privilegi	-11.1558
▁caffè	-11.1558
▁espande	-11.1558
▁regard	-11.1558
▁gamma	-11.1558
▁spettro	-11.1558
▁museo	-11.1558
▁necessità	-11.1558
empatia	-11.1558
▁weather	-11.1559
▁title	-11.1562
▁odor	-11.1564
▁2,000	-11.1565
▁cutting	-11.1567
▁magnet	-11.1574
▁specializza	-11.1584
phone	-11.1586
▁magia	-11.1591
tanti	-11.1596
▁appreciate	-11.1611
▁assieme	-11.1611
▁disastro	-11.1611
▁vetro	-11.1611
▁silence	-11.1611
▁interessati	-11.1612
▁kick	-11.1612
▁vada	-11.1613
▁confusi	-11.1615
▁interagire	-11.1617
▁Alzheimer	-11.1623
▁laboratori	-11.1632
▁addict	-11.1634
▁publish	-11.1643
▁church	-11.1664
▁equipment	-11.1664
▁inequality	-11.1664
▁riusciva	-11.1664
▁command	-11.1665
▁baseball	-11.1665
▁fertili	-11.1665
▁potenza	-11.1666
▁propose	-11.1666
▁scia	-11.1667
▁campione	-11.1669
▁session	-11.1674
▁folle	-11.1677
▁vedendo	-11.1691
▁brave	-11.1697
▁Star	-11.1705
▁swim	-11.1717
▁2015	-11.1717
▁cosiddett	-11.1717
▁pleasure	-11.1717
▁riuscivo	-11.1717
▁settembre	-11.1717
▁'70	-11.1717
▁tuttavia	-11.1717
▁according	-11.1719
▁storm	-11.172
▁preferito	-11.1721
▁specifically	-11.1721
▁raccoglie	-11.1724
▁celebrate	-11.1725
▁presa	-11.1741
▁severe	-11.1742
▁sight	-11.1748
▁concert	-11.1755
▁barca	-11.176
▁Florida	-11.1771
▁commercio	-11.1771
▁fotografa	-11.1771
▁dispiace	-11.1771
▁sweet	-11.1771
▁filter	-11.1771
▁Christian	-11.1771
▁vessel	-11.1771
▁lunghe	-11.1771
▁rational	-11.1772
▁Quanti	-11.1773
▁perfino	-11.1773
▁Niente	-11.1774
▁ampio	-11.1777
▁exception	-11.1778
▁ritorno	-11.1786
▁SW	-11.1789
ospedale	-11.1801
▁odia	-11.1801
▁Guarda	-11.1809
▁increasing	-11.1814
▁nave	-11.1817
ottima	-11.1821
disciplina	-11.1825
▁underneath	-11.1825
▁Everything	-11.1825
▁colonia	-11.1827
▁basato	-11.1831
long	-11.1833
▁organizzazione	-11.1833
▁Grande	-11.1835
Sahara	-11.1835
▁suolo	-11.1837
▁sending	-11.1842
informatica	-11.1843
▁Stavo	-11.1848
▁Congress	-11.1848
view	-11.1849
▁molecule	-11.1855
▁osservando	-11.1859
▁mention	-11.1862
▁Since	-11.1868
▁discutere	-11.1874
▁dovevano	-11.1877
▁quantum	-11.1879
▁sforzo	-11.1879
▁valuable	-11.1879
▁property	-11.188
▁rivista	-11.188
▁ultra	-11.188
▁giudizi	-11.188
▁distinct	-11.188
▁pray	-11.1883
▁importance	-11.1885
▁tear	-11.1888
▁Bush	-11.1888
▁carefully	-11.1889
▁avessimo	-11.1891
▁100,000	-11.1898
ologists	-11.1908
key	-11.191
▁grab	-11.1924
▁'8	-11.1925
▁Ricordo	-11.1934
▁explanation	-11.1934
▁vergogna	-11.1934
▁popolare	-11.1934
▁reject	-11.1934
▁abstract	-11.1934
proporzion	-11.1934
▁complessa	-11.1934
▁tradizione	-11.1934
▁disrupt	-11.1935
▁consume	-11.1935
▁intense	-11.1935
▁covered	-11.1935
▁plot	-11.1936
▁2004	-11.194
▁rocket	-11.1942
▁increased	-11.1955
▁rapidly	-11.196
▁disegnare	-11.1965
▁razza	-11.1968
▁dollaro	-11.1973
▁prendendo	-11.1973
ridge	-11.1978
▁Unite	-11.1979
fold	-11.1984
cenza	-11.1987
▁Hollywood	-11.1989
▁assumption	-11.1989
▁scimpanzé	-11.1989
▁talvolta	-11.1989
▁joke	-11.1989
▁diagnose	-11.1989
▁militari	-11.1989
▁riduce	-11.1989
▁tomorrow	-11.1989
▁sintomi	-11.1989
▁bordo	-11.1989
▁politicians	-11.1989
▁disegno	-11.199
▁possibilities	-11.199
SA	-11.1992
▁rigid	-11.1995
▁Islam	-11.1996
▁marcia	-11.1996
▁Quest	-11.1997
▁paesaggio	-11.2004
▁corro	-11.2005
▁700	-11.2007
▁succederà	-11.201
▁elettricità	-11.2012
▁however	-11.2015
▁Ku	-11.202
▁interessato	-11.2023
▁fili	-11.2041
▁fotografi	-11.2044
▁agriculture	-11.2044
▁chemistry	-11.2044
▁properties	-11.2044
▁metafora	-11.2044
▁crimine	-11.2044
▁relativa	-11.2044
▁robust	-11.2045
▁circola	-11.2045
▁contamina	-11.2046
▁definire	-11.2046
▁pian	-11.2046
▁sugar	-11.2047
▁peak	-11.205
▁confront	-11.2051
▁soft	-11.2053
▁Disse	-11.2055
▁corn	-11.2056
▁protection	-11.2058
▁relatively	-11.206
▁utilizzato	-11.2061
▁ieri	-11.2063
▁meaningful	-11.2063
▁diet	-11.207
valu	-11.2071
▁celebr	-11.2073
▁ampia	-11.2073
▁Nazioni	-11.2075
▁considerazione	-11.2078
oots	-11.2083
▁vincere	-11.2084
▁exam	-11.2086
▁prof	-11.2095
▁academic	-11.21
▁consumption	-11.21
▁svolge	-11.21
▁technological	-11.21
▁Britain	-11.21
▁chicken	-11.21
▁Smith	-11.21
▁Oriente	-11.21
▁annual	-11.21
▁riserva	-11.21
▁mortalità	-11.21
▁riscaldamento	-11.2101
▁1950	-11.2102
▁transfer	-11.2103
▁minima	-11.2104
▁Studi	-11.2105
▁essendo	-11.2105
▁finisce	-11.2107
▁brutal	-11.211
▁pretend	-11.2111
logica	-11.2124
▁medica	-11.2127
▁citizen	-11.2148
▁selling	-11.215
Per	-11.2152
▁recuper	-11.2153
▁witness	-11.2156
▁somiglia	-11.2156
▁Space	-11.2156
▁medium	-11.2156
▁Puoi	-11.2156
▁protezione	-11.2156
▁completo	-11.2156
▁deserto	-11.2157
▁approva	-11.2158
▁sanità	-11.2159
▁awful	-11.216
▁cinema	-11.2161
▁review	-11.2161
▁significativo	-11.2167
▁convinced	-11.2173
▁viso	-11.2177
▁gara	-11.2181
▁Fino	-11.2182
▁attira	-11.2185
▁fonti	-11.2185
▁dorm	-11.2185
▁dots	-11.2191
ostante	-11.2191
vremo	-11.2197
▁mentor	-11.2198
▁ambientale	-11.2212
▁inspiration	-11.2212
▁ricicla	-11.2212
▁accomplish	-11.2212
▁prigioni	-11.2212
▁Messico	-11.2212
▁kitchen	-11.2212
▁announce	-11.2212
▁scambia	-11.2212
▁High	-11.2213
▁branch	-11.2214
▁Voleva	-11.2215
▁investimenti	-11.2216
▁appropriate	-11.2217
▁interpret	-11.222
▁Stanno	-11.2222
▁intervista	-11.2222
▁televisione	-11.2226
▁apartment	-11.2227
▁interior	-11.2229
▁soldiers	-11.223
▁extract	-11.2246
▁trasmett	-11.2247
▁frontier	-11.225
▁intende	-11.2256
▁Project	-11.2268
▁empathy	-11.2268
▁Women	-11.2268
▁Could	-11.2268
▁employees	-11.2268
▁visiva	-11.2269
▁healthcare	-11.2271
▁abitanti	-11.2274
▁roughly	-11.2275
▁House	-11.228
▁danni	-11.2284
▁personalità	-11.2286
▁conoscono	-11.2292
▁investire	-11.2293
▁dominant	-11.23
importanza	-11.2301
▁Cent	-11.231
▁engaged	-11.231
▁ricco	-11.2312
▁cambiano	-11.2317
▁march	-11.2322
▁Oxford	-11.2325
▁activities	-11.2325
▁categorie	-11.2325
▁circumstance	-11.2325
▁definitely	-11.2325
▁spettacolo	-11.2325
▁incentive	-11.2325
▁Prendete	-11.2325
▁manipola	-11.2325
▁Cioè	-11.2326
▁misteri	-11.2326
interazione	-11.2327
▁coda	-11.2327
▁scanner	-11.2328
▁soldati	-11.2329
▁privato	-11.2329
▁diagnostica	-11.2335
ville	-11.2337
▁visualizza	-11.2337
▁rabbia	-11.2347
▁superfici	-11.235
▁terrorismo	-11.2353
▁German	-11.237
▁statement	-11.2377
▁affected	-11.2379
assembla	-11.2382
▁microscope	-11.2382
▁universitari	-11.2382
▁staminali	-11.2382
▁route	-11.2383
▁relation	-11.2383
▁Yet	-11.2384
▁tape	-11.2386
▁Scott	-11.2387
▁spring	-11.2396
▁pension	-11.2406
▁added	-11.2408
▁colpo	-11.2418
▁specialist	-11.2422
logico	-11.2423
▁statistic	-11.2428
▁funding	-11.2434
▁preme	-11.2435
▁Foundation	-11.244
▁giardino	-11.244
▁privilege	-11.244
▁producing	-11.244
▁racconto	-11.244
▁sofferenza	-11.244
▁perceive	-11.244
▁prototype	-11.244
▁balloon	-11.244
▁Pensiamo	-11.244
▁Infine	-11.244
▁historical	-11.244
▁cerco	-11.2441
▁direttore	-11.2441
▁precisione	-11.2441
▁domani	-11.2441
▁innocent	-11.2442
▁Gates	-11.2443
▁comprato	-11.2443
▁vado	-11.2444
▁2003	-11.2446
▁evil	-11.2446
▁offrire	-11.2449
▁campus	-11.245
▁reside	-11.245
▁compress	-11.2462
▁effectively	-11.2465
hold	-11.2472
▁bassi	-11.2479
▁originale	-11.2485
▁tube	-11.2486
▁thin	-11.2489
▁implica	-11.2497
▁Vietnam	-11.2498
▁Naturalmente	-11.2498
▁coinvolti	-11.2498
▁eppure	-11.2498
▁worldwide	-11.2498
▁psycho	-11.2498
▁football	-11.2498
▁snow	-11.2498
▁dolce	-11.2499
▁signori	-11.2501
▁serra	-11.2501
▁scorsa	-11.2505
▁passionate	-11.2505
▁combinazione	-11.251
chè	-11.2514
apertura	-11.252
▁raggiung	-11.2524
▁confronto	-11.2531
figura	-11.2532
▁volto	-11.2545
▁cerchio	-11.2546
▁cosmo	-11.2556
▁collettiva	-11.2556
▁inferiore	-11.2556
▁physicist	-11.2556
▁strategic	-11.2556
▁deserve	-11.2556
▁scappa	-11.2556
▁innamora	-11.2556
▁flash	-11.2556
▁legislat	-11.2556
▁Gene	-11.2558
▁clinica	-11.2561
▁guadagn	-11.2565
▁800	-11.2567
▁Day	-11.2571
▁dinosauri	-11.2572
▁ordine	-11.2587
▁intelligenza	-11.2588
▁Matt	-11.2594
▁melt	-11.2597
▁relate	-11.2606
▁graphic	-11.2613
▁descrivere	-11.2613
▁Presidente	-11.2613
▁demonstrate	-11.2614
▁pranzo	-11.2614
▁Brown	-11.2614
▁surgeon	-11.2614
▁decline	-11.2614
▁advice	-11.2614
▁ottimo	-11.2614
▁Magari	-11.2615
▁Japanese	-11.2615
▁connessioni	-11.2615
▁manipulat	-11.2615
▁trasformato	-11.2616
▁brillante	-11.2618
▁gravity	-11.2618
ificazione	-11.2618
▁opere	-11.2618
▁handle	-11.2619
▁Alex	-11.262
▁tribe	-11.2622
▁riuscir	-11.2635
▁trovi	-11.2636
▁vince	-11.2654
▁International	-11.2673
▁dispositivi	-11.2673
▁riuscite	-11.2673
▁industrie	-11.2673
▁ottiene	-11.2673
▁propaga	-11.2673
▁'60	-11.2674
▁potremo	-11.2675
▁Fra	-11.2676
▁pulled	-11.2677
▁settle	-11.2678
shirt	-11.2679
▁ants	-11.2685
▁recentemente	-11.2686
▁flip	-11.2704
▁Congresso	-11.2708
poniamo	-11.2712
▁merita	-11.2712
▁sceglie	-11.2715
▁Ken	-11.2717
▁beach	-11.2732
▁1970	-11.2732
▁Number	-11.2732
▁tessuti	-11.2732
▁ucciso	-11.2732
▁jail	-11.2732
▁length	-11.2733
▁inventor	-11.2733
▁shame	-11.2733
▁corruption	-11.2734
▁elegant	-11.2734
▁tentativo	-11.2735
▁priorità	-11.2735
▁piatto	-11.274
▁wrap	-11.2746
▁Four	-11.2748
▁minimo	-11.2749
▁sheet	-11.2749
▁bravo	-11.2752
▁sensibili	-11.2753
▁shoulder	-11.2758
▁fundamentally	-11.2763
▁primary	-11.2765
elettricità	-11.2768
foot	-11.2771
▁legame	-11.2772
▁scared	-11.2775
▁riflette	-11.279
efficienza	-11.2792
▁activist	-11.2792
▁esercizi	-11.2792
▁emerging	-11.2792
▁hardware	-11.2792
▁conduce	-11.2792
▁Cerca	-11.2792
Audience	-11.2793
▁braccia	-11.2794
▁versa	-11.2799
▁cadere	-11.2799
▁required	-11.28
fun	-11.2811
▁reached	-11.2818
▁comprende	-11.282
accesso	-11.2828
break	-11.2828
Wow	-11.283
izzate	-11.2831
▁fondato	-11.2842
▁comfort	-11.285
▁Rwanda	-11.2852
▁galassia	-11.2852
▁observation	-11.2852
▁risoluzione	-11.2852
▁rispose	-11.2852
Universo	-11.2852
▁militare	-11.2852
▁infection	-11.2852
▁intention	-11.2852
▁notevole	-11.2853
▁producono	-11.2855
▁2001	-11.286
▁chiuso	-11.2863
▁universale	-11.2864
▁civic	-11.2865
▁pump	-11.2868
▁vesti	-11.2871
▁cavo	-11.2876
▁verdi	-11.2877
oggetto	-11.288
identità	-11.2888
▁potentially	-11.289
▁diede	-11.2891
▁existing	-11.2895
▁generally	-11.2899
▁absolute	-11.29
▁finita	-11.2902
▁osservato	-11.2906
uguaglianza	-11.2912
▁mosquito	-11.2912
▁spectrum	-11.2912
▁splendid	-11.2912
▁awesome	-11.2912
▁repair	-11.2912
interfaccia	-11.2912
▁riprende	-11.2912
▁costantemente	-11.2916
▁cade	-11.2917
▁consumatori	-11.2918
▁Titan	-11.2928
▁smettere	-11.2933
▁comic	-11.2946
▁Yorker	-11.295
▁terror	-11.296
▁conclude	-11.2972
▁Ricordate	-11.2973
▁molecular	-11.2973
▁obbliga	-11.2973
▁yesterday	-11.2973
▁danneggia	-11.2973
▁productive	-11.2973
▁While	-11.2973
affi	-11.2976
▁crescono	-11.2977
▁cancella	-11.2978
▁corteccia	-11.298
▁critica	-11.2982
▁neuron	-11.2983
▁capisce	-11.2983
▁typically	-11.2989
▁mappe	-11.2995
alternativa	-11.3001
▁ciascun	-11.3002
▁compagnie	-11.3003
▁hip	-11.3007
▁panel	-11.3008
lash	-11.3018
▁basket	-11.3034
ecosistema	-11.3034
▁biblioteca	-11.3034
▁femminile	-11.3034
▁sforzi	-11.3034
▁vedremo	-11.3034
▁Consider	-11.3034
▁simboli	-11.3035
orgoglio	-11.3036
▁29	-11.3042
▁Islamic	-11.3042
▁dettaglio	-11.3045
▁temporal	-11.3048
▁artista	-11.3057
▁Vien	-11.3061
▁costante	-11.307
▁height	-11.307
▁section	-11.307
▁tranne	-11.3071
▁Also	-11.3076
▁physically	-11.308
back	-11.3082
▁grain	-11.3092
▁quotidiana	-11.3095
algoritmo	-11.3095
▁challenging	-11.3095
▁competizione	-11.3095
▁contenuti	-11.3095
▁meraviglia	-11.3095
▁muovono	-11.3095
▁procedure	-11.3095
▁psychological	-11.3095
▁phrase	-11.3095
▁hyper	-11.3095
▁sconfi	-11.3095
▁camion	-11.3095
▁teeth	-11.3095
▁visivo	-11.3095
▁clever	-11.3095
▁behave	-11.3096
▁seduta	-11.3096
▁uscito	-11.3096
▁veteran	-11.3097
▁battery	-11.3099
▁scusa	-11.3101
▁aspettative	-11.3103
▁fake	-11.3105
▁copie	-11.3108
▁creiamo	-11.3113
making	-11.3114
▁naso	-11.3116
▁giornalisti	-11.3116
▁viventi	-11.3121
▁geologi	-11.3124
▁clic	-11.3127
dotti	-11.3155
▁chimpanzee	-11.3157
▁frequenza	-11.3157
▁Museum	-11.3157
▁CEO	-11.3157
▁focalizza	-11.3157
▁veicoli	-11.3157
▁squali	-11.3157
▁concrete	-11.3157
▁successivi	-11.3157
▁cyber	-11.3157
▁steel	-11.3157
ipartimento	-11.3157
▁principalmente	-11.3159
▁transportation	-11.3159
▁poetry	-11.3161
▁tenuto	-11.3161
▁gestione	-11.3162
▁cerchi	-11.3171
▁prepared	-11.3171
front	-11.3194
▁prevedere	-11.3194
▁impegnati	-11.3204
▁rom	-11.3213
▁analyze	-11.3219
▁dolphin	-11.3219
▁rescue	-11.3219
▁saggezza	-11.3219
▁sessuali	-11.3219
▁venuta	-11.3219
▁pregnant	-11.3219
▁rossa	-11.3219
▁ragiona	-11.3219
▁condotto	-11.3219
▁moneta	-11.3219
▁evolutionary	-11.3221
▁garage	-11.3222
▁collaboration	-11.3223
▁minister	-11.3224
▁finance	-11.3224
▁creativo	-11.3225
▁lavoriamo	-11.3225
▁Eravamo	-11.3232
▁winter	-11.3232
attiva	-11.3237
▁driven	-11.3239
▁asset	-11.3244
▁spiegazione	-11.3247
▁defined	-11.3251
▁introduced	-11.3254
▁germ	-11.3255
▁papà	-11.3281
▁scimmie	-11.3281
▁sophisticated	-11.3281
▁murder	-11.3281
▁penetra	-11.3281
▁applied	-11.3282
▁guerre	-11.3282
▁Prendiamo	-11.3283
▁gratis	-11.3284
olf	-11.3285
▁rompe	-11.3286
▁giuste	-11.329
▁aiutarci	-11.33
▁Hill	-11.3305
▁barriera	-11.3306
▁filmato	-11.331
▁journal	-11.3315
print	-11.332
▁persist	-11.332
▁pitch	-11.3329
investimento	-11.3341
▁relie	-11.3343
▁dramatic	-11.3343
▁ringrazia	-11.3344
▁attitude	-11.3344
▁department	-11.3344
▁raddoppia	-11.3344
▁Uganda	-11.3344
▁antenati	-11.3344
▁condanna	-11.3344
▁sebbene	-11.3344
▁ospita	-11.3344
▁commission	-11.3345
▁secoli	-11.3346
▁urla	-11.3346
invenzione	-11.3348
▁script	-11.3354
▁millenni	-11.3365
▁spinal	-11.3372
▁33	-11.3373
wise	-11.3374
▁Eric	-11.3388
▁terroristi	-11.3388
▁pilota	-11.339
▁parking	-11.3397
izziamo	-11.3404
▁palm	-11.3407
▁fabric	-11.3407
▁visible	-11.3408
▁White	-11.3408
▁scrisse	-11.3409
▁condiziona	-11.341
▁quo	-11.341
▁Corea	-11.3413
▁dense	-11.3416
▁cattiva	-11.3423
▁improvement	-11.3435
▁Union	-11.3435
▁imparando	-11.3437
venuto	-11.3441
▁affront	-11.3442
▁chiedono	-11.3444
▁Perhaps	-11.3471
▁distingue	-11.3471
▁exploration	-11.3471
▁giornale	-11.3471
▁hydrogen	-11.3471
▁pregiudizi	-11.3471
▁routine	-11.3471
▁struck	-11.3471
▁acquista	-11.3471
▁intenzione	-11.3471
▁mystery	-11.3471
assemble	-11.3471
▁stretch	-11.3473
▁Paris	-11.3473
▁ridicol	-11.3475
▁reverse	-11.348
▁territorio	-11.3489
▁specifica	-11.3491
▁chiari	-11.3501
▁desideri	-11.3505
▁officer	-11.3506
▁estremi	-11.3519
odio	-11.3527
▁joined	-11.3528
▁Bangladesh	-11.3535
▁deploy	-11.3535
▁microscopio	-11.3535
▁computation	-11.3535
▁previsioni	-11.3535
▁astronomi	-11.3535
▁veicolo	-11.3535
▁radiation	-11.3535
▁memories	-11.3535
▁delibera	-11.3535
▁secure	-11.3535
▁sphere	-11.3535
▁gentlemen	-11.3536
▁reference	-11.3536
▁plus	-11.3539
▁cosmic	-11.3542
▁Nuov	-11.3546
▁chiesi	-11.3547
▁killer	-11.3548
▁normalmente	-11.3554
▁viaggi	-11.3557
▁Wow	-11.3564
attesa	-11.3567
▁carrying	-11.3574
▁busy	-11.3574
esempio	-11.3576
spera	-11.3583
▁printing	-11.3588
▁constant	-11.3596
▁sustain	-11.3597
▁conversazioni	-11.36
▁glamour	-11.36
▁physician	-11.36
▁promuove	-11.36
▁harvest	-11.36
▁attualmente	-11.36
▁cominciò	-11.36
▁pioggia	-11.36
▁quadrato	-11.36
▁generosi	-11.36
▁narrow	-11.3601
▁naturally	-11.3604
▁disabilità	-11.3604
▁presentation	-11.3605
▁rumor	-11.3605
box	-11.362
ingegneria	-11.362
▁viruses	-11.3636
▁fotografie	-11.3641
oom	-11.3645
▁firma	-11.3646
▁variation	-11.3654
▁Francia	-11.3665
▁Republic	-11.3665
▁arrivò	-11.3665
▁astronaut	-11.3665
▁essenziale	-11.3665
▁prevenire	-11.3665
▁relevant	-11.3665
▁computing	-11.3665
▁spider	-11.3665
▁professionisti	-11.3665
▁angry	-11.3666
▁bianca	-11.3666
▁monta	-11.3667
▁confess	-11.3668
▁awareness	-11.3668
unità	-11.367
some	-11.3671
▁biologico	-11.3676
▁festa	-11.3693
▁percentage	-11.3694
vreste	-11.3695
type	-11.3695
▁equally	-11.3698
half	-11.3713
▁Guard	-11.3715
▁collected	-11.3719
▁clothes	-11.373
▁grandfather	-11.373
▁mechanical	-11.373
▁shadow	-11.373
▁swimming	-11.373
▁unusual	-11.373
▁rimasta	-11.373
▁vocal	-11.373
▁housing	-11.3731
▁mistero	-11.3731
RNA	-11.3731
▁chiesa	-11.3731
▁Soviet	-11.3731
▁Saturn	-11.3731
▁transmit	-11.3731
▁nerve	-11.3731
face	-11.3733
class	-11.3734
▁interventi	-11.3741
▁autorità	-11.3745
ounce	-11.3746
▁mineral	-11.3757
▁fecero	-11.3762
▁terrorism	-11.3765
▁sapevano	-11.3769
▁spendere	-11.3779
▁meccanica	-11.3796
▁ognuna	-11.3796
▁ristorante	-11.3796
▁videogiochi	-11.3796
▁pollution	-11.3796
▁riduzione	-11.3796
▁phase	-11.3796
▁Natale	-11.3796
▁therapy	-11.3796
▁knee	-11.3796
▁uniform	-11.3797
▁dropped	-11.3797
▁Syria	-11.3798
▁silk	-11.3798
▁governance	-11.38
▁giornalista	-11.38
Questo	-11.3802
▁musician	-11.3803
▁porto	-11.3804
▁proviamo	-11.3805
▁tank	-11.3809
▁mondi	-11.3818
▁bolle	-11.3824
incredibile	-11.3838
ombra	-11.3838
▁bond	-11.3839
▁ancor	-11.3851
▁Cambridge	-11.3862
▁architetto	-11.3862
▁centuries	-11.3862
▁evidente	-11.3862
▁immune	-11.3862
▁scrittura	-11.3862
▁trascorso	-11.3862
▁polvere	-11.3862
▁colonie	-11.3862
▁povero	-11.3863
▁tasse	-11.3864
▁ascoltato	-11.387
▁soggetto	-11.3871
▁boring	-11.3875
mental	-11.3881
▁ispirato	-11.3884
prime	-11.3886
▁10.000	-11.3888
▁prize	-11.3895
▁painful	-11.3897
▁immaginazione	-11.3903
▁credeva	-11.3909
avventura	-11.3929
▁Design	-11.3929
▁Research	-11.3929
▁calculate	-11.3929
▁confidence	-11.3929
▁telecamera	-11.3929
▁policies	-11.3929
▁racconti	-11.3929
▁saputo	-11.3929
▁articoli	-11.3929
▁posiziona	-11.3929
▁uova	-11.3929
▁convinto	-11.3929
▁conferma	-11.393
▁shopping	-11.393
▁underwater	-11.3931
▁flies	-11.3932
▁dipendenza	-11.3933
▁parlarne	-11.3936
▁giocatori	-11.394
▁viral	-11.3941
▁intervention	-11.3949
▁50%	-11.3951
intuitiv	-11.3954
▁abusi	-11.396
▁dieta	-11.3962
▁biologist	-11.3979
▁Dott	-11.3982
▁ultimate	-11.3985
▁instruction	-11.3996
▁origami	-11.3996
▁providing	-11.3996
▁dilemma	-11.3996
▁portò	-11.3996
▁Disney	-11.3996
▁siccome	-11.3996
▁solving	-11.3996
▁sfera	-11.3996
▁toxic	-11.3998
▁trigger	-11.3998
▁split	-11.3999
▁authority	-11.3999
▁colpisce	-11.4001
ifying	-11.4001
▁55	-11.4002
▁soffri	-11.4002
▁Mike	-11.4004
▁sentimenti	-11.4007
▁shall	-11.4013
▁impiegati	-11.4021
▁straordinarie	-11.4023
▁Howard	-11.4025
▁organize	-11.4043
▁85	-11.4047
▁Hy	-11.4048
book	-11.4049
ducono	-11.406
á	-11.4063
▁manufacture	-11.4063
▁abbassa	-11.4063
▁attentamente	-11.4063
▁cerebrali	-11.4063
▁effettua	-11.4063
▁pubbliche	-11.4063
▁specchio	-11.4063
▁positiva	-11.4063
▁vicenda	-11.4063
▁assign	-11.4063
▁afternoon	-11.4063
▁diavolo	-11.4064
▁framework	-11.4064
▁stadio	-11.4064
▁steal	-11.4065
▁Dur	-11.4073
fish	-11.408
▁River	-11.4096
▁svilupp	-11.4097
▁pulita	-11.41
▁copri	-11.4105
▁aggrega	-11.4131
▁muscoli	-11.4131
▁foglio	-11.4131
▁complain	-11.4131
▁complesse	-11.4132
▁borsa	-11.4132
▁calda	-11.4132
▁sculpture	-11.4132
▁autistic	-11.4135
▁3,000	-11.4144
▁biologica	-11.4145
▁fisicamente	-11.4148
▁quota	-11.416
▁esterno	-11.4169
▁combatte	-11.4169
▁carico	-11.4175
▁invite	-11.4189
▁Parliamo	-11.42
▁contributo	-11.42
▁curiosità	-11.42
▁flood	-11.42
▁psychology	-11.42
▁globe	-11.42
atteggiamento	-11.42
▁cavallo	-11.42
▁Spesso	-11.42
▁preciso	-11.42
▁densità	-11.42
▁criteri	-11.42
▁defend	-11.42
▁lecture	-11.42
▁thick	-11.42
▁carcere	-11.4201
FBI	-11.4201
▁conoscenze	-11.4204
▁cattivo	-11.4204
▁giunt	-11.4205
▁mentalità	-11.4208
▁conservation	-11.421
▁emozionante	-11.4211
▁Yu	-11.4212
Quest	-11.4213
▁Nick	-11.4214
▁generato	-11.4215
Chi	-11.4215
dependent	-11.4227
▁capiamo	-11.4227
▁stronger	-11.4234
▁motivation	-11.424
▁inspire	-11.4244
AIDS	-11.4245
analisi	-11.4245
temporaneamente	-11.4253
▁commit	-11.4264
▁coincide	-11.4265
▁chiara	-11.4265
▁condiviso	-11.4269
▁destruction	-11.4269
▁efficiency	-11.4269
▁entusiasma	-11.4269
▁literature	-11.4269
▁tribù	-11.4269
▁incorpora	-11.4269
▁incentivi	-11.4269
▁arrivo	-11.4269
▁rivolg	-11.4269
▁pesante	-11.4269
▁style	-11.4269
▁Anyway	-11.427
▁gamba	-11.4271
▁quanta	-11.4276
▁dormire	-11.4276
▁orchestra	-11.428
▁Gold	-11.4283
▁Ann	-11.4284
▁fiber	-11.4289
grandi	-11.429
▁boxes	-11.4295
▁Nu	-11.4327
OK	-11.4329
pongono	-11.4332
▁femmina	-11.4338
▁somewhat	-11.4338
▁'11	-11.4338
▁cluster	-11.4338
▁teatro	-11.4338
▁scoppi	-11.4339
▁creativi	-11.4339
▁lunghi	-11.434
▁sondaggi	-11.4343
▁audio	-11.4343
▁commitment	-11.4345
▁Tony	-11.4346
▁consideriamo	-11.4355
▁realistic	-11.4358
▁surrounded	-11.4366
▁clock	-11.4367
ulation	-11.4368
▁Jane	-11.4374
▁Bell	-11.4393
▁potessi	-11.4403
idrogeno	-11.4408
▁bicycle	-11.4408
▁candidate	-11.4408
▁centesimi	-11.4408
▁decisamente	-11.4408
▁exploit	-11.4408
▁mammiferi	-11.4408
▁pomeriggio	-11.4408
▁psychologist	-11.4408
▁sostituir	-11.4408
▁uguale	-11.4408
▁calcoli	-11.4408
▁francese	-11.4408
▁laggiù	-11.4408
▁scream	-11.4408
▁risolto	-11.4408
▁saluta	-11.4408
▁lontani	-11.4408
▁objective	-11.4408
▁smoke	-11.4409
▁cinesi	-11.4409
▁attacco	-11.4409
▁weigh	-11.441
,500	-11.4411
▁agenda	-11.4422
▁guar	-11.4423
▁37	-11.4425
▁31	-11.4428
▁diversamente	-11.4428
▁atterra	-11.4433
fatti	-11.4444
▁consistent	-11.4454
▁Gen	-11.4463
▁pool	-11.4465
▁metropolitan	-11.4479
▁penguin	-11.4479
▁uguali	-11.4479
▁library	-11.4479
▁LED	-11.4479
▁download	-11.4479
▁Something	-11.4479
▁chimiche	-11.4479
▁causing	-11.4479
▁chimici	-11.4479
▁Jeff	-11.4479
▁istrui	-11.4479
▁dramatically	-11.448
▁coppia	-11.448
▁cortex	-11.4481
▁voto	-11.4482
▁Everyone	-11.4486
▁barrier	-11.4486
▁Johnson	-11.4486
▁discorsi	-11.4488
▁legati	-11.449
▁distruzione	-11.4492
▁rising	-11.4498
▁fossimo	-11.4501
albero	-11.4526
▁abbraccia	-11.455
▁aggiunto	-11.455
▁circostanze	-11.455
▁dioxide	-11.455
▁immigrati	-11.455
▁unexpected	-11.455
▁desperate	-11.455
▁dinamica	-11.455
▁simbolo	-11.455
▁rimasti	-11.455
▁ought	-11.455
▁crolla	-11.455
▁emotiva	-11.455
▁precisa	-11.455
▁speso	-11.455
▁Ebola	-11.455
▁estende	-11.4551
▁piazza	-11.4551
▁afferra	-11.4552
▁milk	-11.4552
▁voluti	-11.4555
▁povere	-11.4556
▁tendono	-11.4559
▁sarete	-11.4562
▁Free	-11.4572
▁genius	-11.4574
▁possess	-11.4575
▁colleague	-11.4576
▁ironic	-11.4576
▁tipica	-11.4596
▁terrific	-11.4621
▁affinché	-11.4621
▁assoluto	-11.4621
▁laboratory	-11.4621
▁prototipo	-11.4621
▁neutral	-11.4621
▁transplant	-11.4621
▁ultime	-11.4621
▁pavimento	-11.4621
▁Before	-11.4621
▁vagina	-11.4621
▁lontana	-11.4621
▁refuse	-11.4621
▁selezione	-11.4623
▁rush	-11.4623
▁archivi	-11.4623
▁weekend	-11.4623
▁emergency	-11.4624
▁ipotesi	-11.4635
▁costoso	-11.4646
▁figura	-11.4651
▁rifugi	-11.4691
Occidente	-11.4693
▁September	-11.4693
▁Unfortunately	-11.4693
▁horrible	-11.4693
▁meravigliose	-11.4693
▁fragile	-11.4693
▁segreti	-11.4693
▁concetti	-11.4693
▁crude	-11.4694
▁climatici	-11.4695
▁occurred	-11.4696
▁liberi	-11.4699
▁creatura	-11.4704
▁overall	-11.4707
▁buchi	-11.4708
▁gatto	-11.4717
▁expert	-11.4722
▁sensors	-11.4722
▁42	-11.4726
Z	-11.4741
▁Ross	-11.4745
play	-11.4747
For	-11.476
▁banco	-11.4764
í	-11.4765
▁Davvero	-11.4765
▁polmoni	-11.4765
▁precipita	-11.4765
▁estrarre	-11.4765
▁richiesta	-11.4765
▁coppie	-11.4765
▁sostegno	-11.4765
▁composto	-11.4765
▁individuo	-11.4765
▁interroga	-11.4765
▁drill	-11.4766
▁partnership	-11.4768
▁conservative	-11.477
▁continuous	-11.477
▁2050	-11.4771
▁Anzi	-11.4773
▁radici	-11.4774
▁miglioramento	-11.4775
origine	-11.4778
▁spill	-11.478
▁economiche	-11.4785
▁motivazione	-11.4789
▁menzion	-11.4791
▁retina	-11.4791
▁Rice	-11.4794
▁intend	-11.48
▁espor	-11.4803
▁Emma	-11.4823
▁functional	-11.4835
▁Christmas	-11.4838
▁Nobody	-11.4838
▁Remember	-11.4838
▁revenue	-11.4838
▁testimonia	-11.4838
▁wound	-11.4838
▁Carolina	-11.4838
▁mortality	-11.4838
▁Parigi	-11.4838
▁introdott	-11.4838
▁Square	-11.4839
▁pietra	-11.4839
▁Louis	-11.4839
▁greenhouse	-11.4839
equazione	-11.4839
▁lancio	-11.4839
▁stip	-11.4839
▁sunlight	-11.484
▁peggiora	-11.484
▁presence	-11.4842
▁invisibili	-11.4843
▁Media	-11.4844
▁smette	-11.4848
▁banche	-11.485
▁Pensavo	-11.4852
ogramma	-11.4859
▁tiene	-11.4866
▁trasmettere	-11.4868
digit	-11.487
▁annuncia	-11.4872
▁infant	-11.4888
called	-11.4894
▁necessit	-11.4912
▁registr	-11.4912
▁meccanismi	-11.4912
▁recommend	-11.4912
▁gentile	-11.4912
▁license	-11.4912
▁sorride	-11.4912
▁quadri	-11.4912
▁mescola	-11.4912
▁compreso	-11.4912
▁debt	-11.4913
▁decora	-11.4913
▁senior	-11.4913
▁proprietari	-11.4914
▁letteratura	-11.4915
▁compagni	-11.4921
▁orbita	-11.4925
▁sostene	-11.4927
▁prezzi	-11.4929
▁privati	-11.4948
Ok	-11.4958
▁Atlantic	-11.4963
opposto	-11.4981
sistono	-11.4983
▁jihad	-11.4986
▁matematico	-11.4986
▁ossessiona	-11.4986
▁engaging	-11.4986
▁rovina	-11.4986
▁hydr	-11.4986
▁scritta	-11.4986
▁quadrati	-11.4986
▁prestito	-11.4986
▁spesa	-11.4987
▁precisi	-11.4987
estinzione	-11.4987
▁birthday	-11.4987
▁svegli	-11.4989
sposto	-11.499
▁cents	-11.4993
▁overcome	-11.5
▁Moore	-11.5
▁eggs	-11.5001
▁elite	-11.5006
▁silent	-11.5006
▁fiore	-11.5007
mettiamo	-11.502
▁villaggi	-11.5029
▁interven	-11.5029
insegnante	-11.5036
▁rabbi	-11.5043
inquinamento	-11.5046
▁diagnostic	-11.5047
▁Egypt	-11.506
▁Tanzania	-11.5061
▁diventò	-11.5061
▁philosophy	-11.5061
▁rivoluziona	-11.5061
▁trasparenza	-11.5061
▁frankly	-11.5061
▁collision	-11.5061
▁stagione	-11.5061
▁membro	-11.5061
▁extent	-11.5061
▁relativi	-11.5061
▁inject	-11.5061
▁dancing	-11.5061
▁giudica	-11.5061
▁paragona	-11.5061
▁nowhere	-11.5061
▁sostenibilità	-11.5062
▁sottolinea	-11.5062
▁implications	-11.5062
▁resistance	-11.5063
▁sensitive	-11.5065
▁cattive	-11.5068
▁creativa	-11.5068
▁interazioni	-11.5069
grammi	-11.5078
▁conventional	-11.5079
▁MT	-11.508
▁angle	-11.5081
▁arrang	-11.509
autismo	-11.5108
▁suppose	-11.5111
design	-11.5112
▁dust	-11.5118
▁Sfortunatamente	-11.5136
▁bottiglia	-11.5136
▁curiosity	-11.5136
▁curriculum	-11.5136
▁ostacoli	-11.5136
▁energie	-11.5136
▁tweet	-11.5136
▁Osserv	-11.5136
▁invisibile	-11.5136
▁depth	-11.5136
▁seriamente	-11.5136
▁destino	-11.5136
▁telephone	-11.5136
▁produttività	-11.5136
▁productivity	-11.5137
▁caratteristica	-11.5137
orologio	-11.5137
▁committed	-11.5139
▁autobus	-11.5139
▁potranno	-11.514
▁spezza	-11.5142
▁manifest	-11.5147
▁Abou	-11.5147
▁commun	-11.5148
▁caos	-11.5149
▁applicazioni	-11.5152
▁medication	-11.5158
▁generic	-11.5175
immaginazione	-11.5187
Qual	-11.5189
▁serviva	-11.5192
▁$1	-11.5212
▁riconoscimento	-11.5212
▁tsunami	-11.5212
▁attribut	-11.5212
▁chapter	-11.5212
▁negativo	-11.5212
▁proviene	-11.5212
▁visibile	-11.5212
▁protocol	-11.5212
▁roccia	-11.5212
▁welcome	-11.5212
▁knock	-11.5212
▁incendi	-11.5212
▁difesa	-11.5212
▁diffusione	-11.5212
▁sottile	-11.5213
▁marchio	-11.5214
▁brillanti	-11.5214
▁preferiti	-11.5215
▁grigi	-11.5215
▁corporate	-11.5218
▁torniamo	-11.5219
▁5,000	-11.5223
▁seguente	-11.5225
▁opzioni	-11.5229
▁kg	-11.5232
▁metallo	-11.5233
▁possia	-11.5235
▁segment	-11.5235
zu	-11.5245
▁trasform	-11.5268
▁precede	-11.5278
abbia	-11.5281
▁gentle	-11.5287
▁Bretagna	-11.5288
▁nascosto	-11.5288
▁Hawaii	-11.5288
▁nucleo	-11.5288
▁tecnologica	-11.5288
▁pratiche	-11.5288
▁orecchie	-11.5288
▁instinct	-11.5288
▁flew	-11.5288
▁tavola	-11.5288
▁orribile	-11.5288
▁calorie	-11.5288
▁dipinto	-11.5288
▁carried	-11.5288
▁Arriva	-11.5289
▁specula	-11.529
▁competenze	-11.5291
▁nervoso	-11.5291
▁collaborare	-11.5297
▁Vol	-11.5299
▁humor	-11.5301
control	-11.5328
version	-11.534
esperimento	-11.5341
▁absorb	-11.5365
▁architetti	-11.5365
▁authentic	-11.5365
▁giganti	-11.5365
▁imbarazza	-11.5365
▁Giu	-11.5365
▁Next	-11.5365
▁spiral	-11.5365
▁appeal	-11.5366
▁NSA	-11.5366
▁potrete	-11.5366
▁citazione	-11.5367
seguono	-11.5371
▁ricava	-11.5371
▁singing	-11.5372
▁controlled	-11.5374
▁2002	-11.5377
▁'50	-11.5377
▁surf	-11.538
▁norma	-11.5389
▁visibili	-11.5392
▁Woo	-11.5394
efficient	-11.5418
▁concentr	-11.5435
▁informal	-11.5442
▁Brooklyn	-11.5442
▁Revolution	-11.5442
▁intellettuale	-11.5442
▁judgment	-11.5442
▁nipoti	-11.5442
▁ricompensa	-11.5442
▁scholar	-11.5442
▁Bronx	-11.5442
▁insurance	-11.5442
▁Greek	-11.5442
▁consulta	-11.5442
▁proposta	-11.5442
▁confident	-11.5443
▁chiediamo	-11.5443
▁Ocean	-11.5443
▁dialogo	-11.5443
▁cifre	-11.5445
▁Finally	-11.5446
▁riuscita	-11.5452
▁assorbi	-11.5455
▁insegn	-11.5457
▁distort	-11.5467
acciaio	-11.5471
▁esami	-11.5478
▁ideologi	-11.5484
worth	-11.5496
invecchiamento	-11.5504
level	-11.5519
▁Philip	-11.552
▁infected	-11.552
▁respiro	-11.552
▁vorremmo	-11.552
▁zucchero	-11.552
▁2014	-11.552
▁Continu	-11.552
▁reserve	-11.5521
▁esperto	-11.5521
▁regret	-11.5521
▁disagio	-11.5521
▁sweat	-11.5521
▁exhibition	-11.5522
▁continuiamo	-11.5524
▁descritto	-11.5524
▁recita	-11.5527
▁stunt	-11.5536
▁lesion	-11.5547
q	-11.556
vrete	-11.5565
free	-11.5583
utilizzo	-11.5594
infrastruttura	-11.5599
▁anxiety	-11.5599
▁lifestyle	-11.5599
▁mathematician	-11.5599
▁phenomena	-11.5599
▁recognition	-11.5599
▁ridiculous	-11.5599
▁rinuncia	-11.5599
▁sindrome	-11.5599
▁spazzatura	-11.5599
▁sponsor	-11.5599
▁frattempo	-11.5599
▁plasma	-11.5599
▁vaccini	-11.5599
▁Minister	-11.5599
▁mosche	-11.56
▁drove	-11.56
▁distribuit	-11.56
▁povera	-11.56
▁careful	-11.5601
▁watt	-11.5603
▁ladies	-11.5603
▁venisse	-11.5604
▁selection	-11.5605
▁spese	-11.5607
emozione	-11.5613
Look	-11.5658
avete	-11.5666
aumento	-11.5667
▁addestra	-11.5678
▁hormone	-11.5679
▁osserviamo	-11.5679
▁Oltre	-11.5679
▁profonde	-11.5679
▁scambio	-11.5679
▁negativi	-11.5679
▁positivi	-11.5679
▁risorsa	-11.5679
▁diffusa	-11.5679
▁implant	-11.5679
▁infantile	-11.5679
▁sustainability	-11.5679
▁compound	-11.568
▁automatically	-11.5681
▁Brian	-11.5686
▁Saudi	-11.5686
▁fantastiche	-11.5686
impianto	-11.5687
▁scientifiche	-11.569
▁190	-11.5691
▁pause	-11.5691
▁buff	-11.5692
▁transit	-11.573
material	-11.5737
▁apparire	-11.5744
espansione	-11.5759
▁Clinton	-11.5759
▁conferenze	-11.5759
▁dappertutto	-11.5759
▁esplode	-11.5759
▁obstacle	-11.5759
▁philosopher	-11.5759
▁scolastico	-11.5759
▁spegne	-11.5759
▁spiaggia	-11.5759
▁tropical	-11.5759
▁trucco	-11.5759
▁Numero	-11.5759
▁frutta	-11.5759
▁rapporti	-11.5759
▁imaging	-11.5759
▁Henry	-11.5759
▁grateful	-11.5759
▁famosa	-11.5759
▁aggiorn	-11.5759
▁sfortunatamente	-11.5759
▁slum	-11.5759
▁corporation	-11.5759
▁conquista	-11.5759
▁Lavora	-11.576
▁tight	-11.5762
▁Albert	-11.5762
▁imbatt	-11.5763
▁ritira	-11.5764
▁Berlin	-11.5772
▁inquina	-11.5779
Pubblico	-11.5839
▁chirurgia	-11.5839
▁exploring	-11.5839
▁surveillance	-11.5839
▁otteniamo	-11.5839
▁Atlanta	-11.5839
▁College	-11.5839
▁distributed	-11.5839
▁proportion	-11.5839
▁sensazioni	-11.5839
▁suicide	-11.5839
▁shelter	-11.5839
▁expectations	-11.5839
▁modest	-11.5839
▁jet	-11.5839
▁preferita	-11.584
▁picchia	-11.5841
▁largo	-11.5842
▁external	-11.5842
▁pausa	-11.5843
▁aperti	-11.5845
▁Bab	-11.585
▁costruiamo	-11.5852
▁poorest	-11.5853
▁personality	-11.5863
field	-11.5897
turn	-11.5901
▁nomina	-11.5917
▁argomenti	-11.5921
▁centinaio	-11.5921
▁evidenzia	-11.5921
▁musulmani	-11.5921
▁rispondo	-11.5921
▁transparency	-11.5921
▁blocco	-11.5921
▁identical	-11.5921
▁venuti	-11.5921
▁saperlo	-11.5921
▁column	-11.5921
▁guarantee	-11.5921
▁abbatt	-11.5921
▁Kong	-11.5927
▁globalizzazione	-11.5928
▁Arch	-11.5935
▁paure	-11.5937
▁legato	-11.5939
▁agita	-11.5941
▁blame	-11.5954
ttuali	-11.5959
quadra	-11.596
▁Indonesia	-11.6002
▁Industrial	-11.6002
▁correspond	-11.6002
▁diventerà	-11.6002
▁exposed	-11.6002
▁miracle	-11.6002
▁obsessed	-11.6002
▁occidentali	-11.6002
▁previsto	-11.6002
▁miracolo	-11.6003
▁squalo	-11.6003
▁lassù	-11.6003
▁Quasi	-11.6003
▁rigenera	-11.6003
▁Derek	-11.6003
▁fiumi	-11.6003
osphere	-11.6003
▁ministro	-11.6005
▁lunghezza	-11.6006
▁consumi	-11.6011
▁porre	-11.6022
▁rag	-11.603
▁corte	-11.6084
▁Olympic	-11.6085
▁coinvolto	-11.6085
▁potenzialmente	-11.6085
▁seleziona	-11.6085
▁ensure	-11.6085
▁plug	-11.6085
▁brown	-11.6086
▁Prize	-11.6087
▁2020	-11.6091
▁strike	-11.6092
insegnamento	-11.6093
▁cicli	-11.6096
▁representation	-11.6097
esame	-11.6105
atomic	-11.6121
molto	-11.6147
mministrazione	-11.6149
▁east	-11.6168
▁Dovremmo	-11.6168
▁Parkinson	-11.6168
▁carattere	-11.6168
▁particolari	-11.6168
▁renewable	-11.6168
▁accompagna	-11.6168
▁abandon	-11.6169
▁ingegnere	-11.6169
▁dignità	-11.6169
▁speriamo	-11.6169
▁canzoni	-11.6169
▁vaccino	-11.6169
▁crying	-11.6169
▁legami	-11.6169
▁household	-11.617
▁breed	-11.617
▁muore	-11.6178
▁engagement	-11.6178
▁hook	-11.6179
▁isolated	-11.6179
▁Medica	-11.6182
▁piov	-11.6214
▁Seattle	-11.6252
▁agricoltori	-11.6252
▁chromosome	-11.6252
▁hunger	-11.6253
▁mucchio	-11.6253
▁raising	-11.6253
▁bandiera	-11.6253
▁teorie	-11.6253
▁accedere	-11.6253
▁enemy	-11.6253
▁difende	-11.6253
▁protesi	-11.6254
▁subtle	-11.6254
▁accessible	-11.6254
▁spell	-11.6255
esplorazione	-11.6256
▁borrow	-11.6256
▁blank	-11.6256
▁storico	-11.6256
▁Brit	-11.6258
▁implicazioni	-11.6258
▁verranno	-11.626
▁ferme	-11.6266
▁Trans	-11.6269
opinione	-11.6281
aspettativa	-11.6292
pound	-11.6307
century	-11.6313
▁tutt	-11.6313
▁spark	-11.6319
▁Stephen	-11.6337
▁decrease	-11.6337
▁eccetera	-11.6337
▁istruzioni	-11.6337
▁matematici	-11.6337
▁quartieri	-11.6337
▁regulation	-11.6337
▁schiena	-11.6337
▁underground	-11.6337
▁Narrator	-11.6337
▁convenient	-11.6337
Qaeda	-11.6337
▁activate	-11.6337
▁sfondo	-11.6337
▁Mandela	-11.6337
▁bullet	-11.6337
▁vendita	-11.6338
▁foglie	-11.6338
▁Guardiamo	-11.6342
▁gusto	-11.6343
▁umanitari	-11.6347
▁partecipanti	-11.6348
▁brutto	-11.6352
▁weapon	-11.6406
▁intermedi	-11.6416
▁Gandhi	-11.6423
▁NGO	-11.6423
▁combustibili	-11.6423
▁fulfill	-11.6423
▁sandwich	-11.6423
▁2013	-11.6423
▁pixel	-11.6423
▁rimangono	-11.6423
▁thumb	-11.6423
▁Blue	-11.6423
▁stroke	-11.6423
▁eccezionale	-11.6423
▁episodi	-11.6423
▁slip	-11.6423
▁trascina	-11.6423
▁rocce	-11.6423
▁fornisce	-11.6423
▁giallo	-11.6426
anthrop	-11.6426
▁Q	-11.6428
▁tower	-11.6459
▁neurologic	-11.6464
changing	-11.6485
▁disegni	-11.6489
▁altera	-11.6503
▁1999	-11.6509
▁January	-11.6509
▁bicicletta	-11.6509
▁exponential	-11.6509
▁herself	-11.6509
▁possiede	-11.6509
▁produttori	-11.6509
▁rebuild	-11.6509
▁struggling	-11.6509
▁terribili	-11.6509
▁zampe	-11.6509
▁measuring	-11.6509
▁reduction	-11.6509
▁africano	-11.6509
▁compleanno	-11.6509
▁ticket	-11.6509
▁accoglie	-11.6509
▁Funziona	-11.6509
▁Basically	-11.6509
▁transizione	-11.6509
▁ugly	-11.6509
▁codifica	-11.6509
▁drastic	-11.651
▁assegna	-11.651
▁procede	-11.651
▁mammals	-11.651
▁heroes	-11.6511
▁certifica	-11.6511
▁alarm	-11.6511
▁automaticamente	-11.6511
▁risale	-11.6511
▁ufficiale	-11.6512
rvelo	-11.6519
▁wage	-11.6521
infinito	-11.6524
inverno	-11.655
▁immediate	-11.6584
▁Alexander	-11.6596
▁Ethiopia	-11.6596
▁embedded	-11.6596
▁stigma	-11.6596
▁uncomfortable	-11.6596
▁universities	-11.6596
▁innovazioni	-11.6596
▁recruit	-11.6596
▁tragedia	-11.6596
▁droghe	-11.6596
▁properly	-11.6596
▁posizioni	-11.6596
▁shake	-11.6596
africa	-11.6596
▁monument	-11.6596
▁facial	-11.6596
▁backwards	-11.6597
▁comanda	-11.6597
▁ritengo	-11.6598
▁Tesla	-11.6598
▁cartello	-11.66
▁recuperare	-11.6601
▁proof	-11.6605
▁Julia	-11.6606
▁ritrov	-11.6652
ufficio	-11.6659
artista	-11.6663
▁consequence	-11.6672
▁indicator	-11.6678
▁nervo	-11.6678
▁1998	-11.6684
▁Insomma	-11.6684
▁accadde	-11.6684
▁adventure	-11.6684
▁elefanti	-11.6684
▁fascinated	-11.6684
▁optimistic	-11.6684
▁plenty	-11.6684
▁popolazioni	-11.6684
▁carburante	-11.6684
▁cooperation	-11.6684
▁scratch	-11.6684
▁trilioni	-11.6684
▁disagree	-11.6684
▁esercita	-11.6684
▁Watson	-11.6684
▁riserve	-11.6684
▁singoli	-11.6684
▁Daniel	-11.6684
▁scrivo	-11.6684
▁utter	-11.6684
▁ceiling	-11.6684
▁falso	-11.6684
▁debito	-11.6684
▁nuvole	-11.6687
▁congela	-11.6688
▁mindset	-11.6689
▁piacevole	-11.669
▁Viviamo	-11.6691
▁riflessi	-11.6692
▁invert	-11.6695
essenza	-11.6707
occupazione	-11.671
▁tappe	-11.6718
mmut	-11.6719
▁rod	-11.6728
▁straordinari	-11.6733
▁govern	-11.6734
illusione	-11.6758
applicazione	-11.6762
▁Shakespeare	-11.6772
▁dramma	-11.6772
▁portrait	-11.6772
▁refriger	-11.6772
▁immense	-11.6772
▁Delhi	-11.6772
▁procura	-11.6772
▁accessibile	-11.6772
▁acquire	-11.6772
▁adjust	-11.6772
▁ridotto	-11.6772
▁dignity	-11.6772
▁nemico	-11.6772
▁accada	-11.6773
▁pieni	-11.6773
▁consenso	-11.6773
▁Turn	-11.6776
▁rosa	-11.6776
▁preleva	-11.6778
▁Nations	-11.6782
ambito	-11.6809
▁zoo	-11.6831
Okay	-11.6837
▁accorge	-11.6858
▁chocolate	-11.6861
▁combustibile	-11.6861
▁elsewhere	-11.6861
▁satelliti	-11.6861
▁survivor	-11.6861
▁Singapore	-11.6861
▁ultraviolet	-11.6861
▁defense	-11.6861
▁correttamente	-11.6861
▁previsione	-11.6861
▁sacred	-11.6861
▁sinistro	-11.6862
▁svolta	-11.6862
▁ricrea	-11.6862
▁footprint	-11.6862
▁infetta	-11.6862
▁pathway	-11.6865
▁airport	-11.6868
▁binari	-11.6871
▁cubi	-11.6876
Fantastic	-11.6876
▁invecchia	-11.688
esplosione	-11.6903
▁accent	-11.6919
aereo	-11.6928
▁350	-11.6934
▁Intel	-11.6936
▁Lincoln	-11.6951
▁declino	-11.6951
▁differenzia	-11.6951
▁hungry	-11.6951
▁sequenzia	-11.6951
Applauso	-11.6951
▁Special	-11.6951
▁femmine	-11.6951
▁Gulf	-11.6951
▁degrada	-11.6952
▁ricevono	-11.6952
▁uccisi	-11.6952
▁scettic	-11.6952
▁immuni	-11.6952
▁tentativi	-11.6954
▁dirty	-11.6957
▁pessimi	-11.6957
▁discute	-11.6966
▁Potev	-11.6986
▁cattivi	-11.6992
▁decim	-11.7001
▁distract	-11.701
Yeah	-11.7018
▁autonomous	-11.7042
▁champion	-11.7042
▁spectacular	-11.7042
▁cresciuti	-11.7042
▁forgotten	-11.7042
▁reconstruct	-11.7042
▁schiavitù	-11.7042
▁scimmia	-11.7042
▁sorveglianza	-11.7042
▁tecnologico	-11.7042
▁transparent	-11.7042
▁biglietto	-11.7042
▁moltiplica	-11.7042
▁risonanza	-11.7042
▁tridimensionale	-11.7042
▁legacy	-11.7042
▁intuitive	-11.7042
▁density	-11.7043
▁diffuso	-11.7043
▁fegato	-11.7043
▁birra	-11.7043
▁connessi	-11.7043
▁pursue	-11.7043
▁liceo	-11.7044
▁ammettere	-11.7084
▁alterna	-11.7091
ovest	-11.7109
computer	-11.711
dollar	-11.7114
▁particle	-11.7131
▁aggressive	-11.7134
▁bathroom	-11.7134
▁rhythm	-11.7134
▁skeptic	-11.7134
▁vegetable	-11.7134
▁americane	-11.7134
▁distrutto	-11.7134
▁earthquake	-11.7134
▁significhi	-11.7134
▁sorriso	-11.7134
▁palazzo	-11.7134
▁scontato	-11.7134
▁ripresa	-11.7134
▁farcela	-11.7134
istituzione	-11.7134
▁rossi	-11.7135
▁oppress	-11.7136
▁slavery	-11.7136
▁twin	-11.7136
▁definito	-11.7138
▁Marine	-11.7143
▁upset	-11.7145
▁chiamer	-11.7181
▁preferisco	-11.7195
▁lamenta	-11.7206
▁rough	-11.7215
▁Berkeley	-11.7227
▁acknowledge	-11.7227
▁biodiversità	-11.7227
▁disparità	-11.7227
▁entertainment	-11.7227
▁experiencing	-11.7227
▁frozen	-11.7227
▁potenziali	-11.7227
▁Arctic	-11.7227
▁zanzare	-11.7227
▁heaven	-11.7227
▁depressed	-11.7227
▁trasporti	-11.7227
▁clue	-11.7227
▁proietta	-11.7227
▁trasmissione	-11.7227
▁suburb	-11.7227
▁Geographic	-11.7227
▁modalità	-11.7227
▁Cambia	-11.7228
▁futuri	-11.7228
▁chaos	-11.723
▁brevi	-11.7232
▁Banca	-11.7232
▁assess	-11.7235
▁Inizi	-11.7283
▁assicur	-11.7288
word	-11.7296
▁consapevoli	-11.732
▁convinzione	-11.732
▁description	-11.732
▁fluorescent	-11.732
▁inevitable	-11.732
▁neuroscience	-11.732
▁skull	-11.732
▁synthetic	-11.732
▁enhance	-11.732
▁gesture	-11.732
▁Golfo	-11.732
▁dottorato	-11.732
▁sciocca	-11.732
▁disposti	-11.732
▁minacce	-11.732
▁Child	-11.732
▁interactive	-11.732
▁delfini	-11.7321
▁domain	-11.7321
▁scatena	-11.7322
▁paralizza	-11.7322
▁scivol	-11.7322
▁soffre	-11.7323
▁idiot	-11.7323
▁vulnerabilità	-11.7323
▁package	-11.7324
▁misure	-11.7324
▁Crede	-11.7324
▁spreca	-11.7326
▁afro	-11.7326
second	-11.7329
▁amministra	-11.7333
▁terrorizza	-11.7362
▁titan	-11.7365
Islam	-11.739
▁explode	-11.7415
▁August	-11.7415
▁Leonardo	-11.7415
▁boundaries	-11.7415
▁cittadina	-11.7415
▁elettrico	-11.7415
▁jazz	-11.7415
▁Gabby	-11.7415
▁intuition	-11.7415
▁tragedy	-11.7415
▁contadini	-11.7415
▁promessa	-11.7415
▁freak	-11.7415
▁schiavi	-11.7415
▁Church	-11.7415
▁compagno	-11.7415
▁Cinque	-11.7415
▁Children	-11.7415
▁dozzine	-11.7415
▁district	-11.7415
▁assassin	-11.7415
▁Nothing	-11.7415
▁recipe	-11.7415
▁Esiste	-11.7415
▁essence	-11.7415
▁finestre	-11.7415
▁glad	-11.7417
▁contribution	-11.7417
▁macro	-11.7419
▁volesse	-11.7426
missione	-11.7432
ocratic	-11.7433
aveva	-11.7437
estremità	-11.7438
▁improvvisa	-11.7441
ingresso	-11.7442
▁pigment	-11.7457
eccezione	-11.7468
present	-11.7471
▁vantaggi	-11.7502
▁contributi	-11.7507
▁accadrà	-11.751
▁competitive	-11.751
▁festival	-11.751
▁popolari	-11.751
▁pyramid	-11.751
▁tecnico	-11.751
▁confirm	-11.751
▁inspiring	-11.751
▁pannelli	-11.751
▁complicata	-11.751
▁riassum	-11.751
▁initiative	-11.751
▁sensation	-11.751
▁quarta	-11.751
▁benissimo	-11.751
▁Sierra	-11.751
▁Sudafrica	-11.751
▁textbook	-11.751
▁chiesti	-11.7511
▁esalta	-11.7511
▁divisione	-11.7511
▁Jones	-11.7512
▁mondiali	-11.7513
▁Sapeva	-11.7515
orecchio	-11.7515
▁polline	-11.7516
▁storica	-11.7518
▁insult	-11.7524
▁restrict	-11.7525
When	-11.7582
▁import	-11.7586
▁Detroit	-11.7606
▁Semplicemente	-11.7606
▁Sweden	-11.7606
▁agricultural	-11.7606
▁cricket	-11.7606
▁pinguini	-11.7606
▁reputation	-11.7606
▁contraddi	-11.7606
▁passenger	-11.7606
▁smesso	-11.7606
▁colony	-11.7606
obesità	-11.7606
▁caduta	-11.7606
▁balene	-11.7606
▁ethnic	-11.7606
▁tackle	-11.7606
▁sync	-11.7606
▁ritene	-11.7607
▁mutila	-11.7608
▁discoveries	-11.7609
▁capability	-11.7609
▁Indeed	-11.7609
▁folli	-11.7612
▁esclus	-11.7617
▁vinco	-11.7619
interesse	-11.7679
▁CRISPR	-11.7703
▁Kennedy	-11.7703
▁Neanderthal	-11.7703
▁Virginia	-11.7703
▁avvocati	-11.7703
▁explosion	-11.7703
▁intrappola	-11.7703
▁smooth	-11.7703
▁Business	-11.7703
▁apparently	-11.7703
▁radiazioni	-11.7703
▁midollo	-11.7703
▁inherent	-11.7703
▁deficit	-11.7703
▁impianti	-11.7703
▁Signore	-11.7703
▁ghiacciai	-11.7705
▁tribal	-11.7705
▁sorelle	-11.7705
▁segreta	-11.7707
▁musicisti	-11.7708
▁reagire	-11.771
Aspetta	-11.7711
eredità	-11.7756
normal	-11.778
▁Purtroppo	-11.7801
▁Shanghai	-11.7801
▁arrampica	-11.7801
▁avvocato	-11.7801
▁corridoi	-11.7801
▁figuring	-11.7801
▁galleggia	-11.7801
▁immagino	-11.7801
▁obesity	-11.7801
▁2016	-11.7801
▁ONG	-11.7801
▁Repubblica	-11.7801
▁Potrei	-11.7801
▁contempla	-11.7801
▁sketch	-11.7801
▁Qualcosa	-11.7801
▁Diciamo	-11.7801
▁sindaco	-11.7801
▁mediche	-11.7802
▁percorsi	-11.7803
▁kidney	-11.7804
▁rose	-11.7807
▁rob	-11.7815
▁avvicin	-11.7837
impegno	-11.7853
equivalente	-11.7889
▁Philadelphia	-11.79
▁furniture	-11.79
▁participants	-11.79
▁permission	-11.79
▁reputazione	-11.79
▁yield	-11.79
▁iPod	-11.79
▁spontaneo	-11.79
▁substance	-11.79
▁charity	-11.79
▁nuvola	-11.79
▁muscolo	-11.79
▁underlying	-11.79
▁copyright	-11.7901
▁burst	-11.7901
▁battito	-11.7901
▁collaborative	-11.7901
▁profile	-11.7902
▁biomass	-11.7902
▁violin	-11.791
▁Social	-11.7939
▁prevede	-11.794
▁mimic	-11.7946
▁Jordan	-11.8
▁Monterey	-11.8
▁Mountain	-11.8
▁affair	-11.8
▁agencies	-11.8
▁chirurgo	-11.8
▁frustrated	-11.8
▁garbage	-11.8
▁happier	-11.8
▁immortal	-11.8
▁procedura	-11.8
▁rainforest	-11.8
▁schiaccia	-11.8
▁skeleton	-11.8
▁demographic	-11.8
▁athlete	-11.8
▁twist	-11.8
▁Charlie	-11.8
▁geek	-11.8
▁terrestre	-11.8
▁Svezia	-11.8
▁ottengono	-11.8
▁fisiche	-11.8
▁regalo	-11.8
▁impress	-11.8001
▁Walk	-11.8001
▁cambierà	-11.8002
▁sheep	-11.8002
▁sharp	-11.8003
impulso	-11.8003
▁accessibili	-11.801
▁snap	-11.8036
▁evaluat	-11.8057
Quant	-11.8061
▁impazz	-11.8064
▁preoccup	-11.8078
▁elettrici	-11.81
▁slave	-11.8101
▁Feynman	-11.8101
▁Kevin	-11.8101
▁Through	-11.8101
▁advertising	-11.8101
▁breakthrough	-11.8101
▁categoria	-11.8101
▁demonstration	-11.8101
▁piramide	-11.8101
▁apparentemente	-11.8101
▁fifth	-11.8101
▁gratuita	-11.8101
▁passeggia	-11.8101
▁sintetizza	-11.8101
▁filtra	-11.8101
▁terzi	-11.8101
▁Somalia	-11.8101
▁ammala	-11.8102
▁Già	-11.8103
▁mold	-11.8104
Risata	-11.8109
▁slice	-11.8111
▁Democratic	-11.8111
organizz	-11.8175
Where	-11.8179
▁Benjamin	-11.8203
▁Copenhagen	-11.8203
▁DVD	-11.8203
▁Department	-11.8203
▁mysterious	-11.8203
▁troverete	-11.8203
▁Arthur	-11.8203
▁probability	-11.8203
▁persuade	-11.8203
▁frammenti	-11.8203
▁protocell	-11.8203
▁Queen	-11.8203
▁sostiene	-11.8203
▁injury	-11.8203
▁naked	-11.8203
▁leverage	-11.8203
▁Ebbene	-11.8203
▁frog	-11.8203
▁senzatetto	-11.8203
▁immobili	-11.8208
ographic	-11.8208
▁flee	-11.821
Voglio	-11.8282
▁migrant	-11.8289
▁horizon	-11.8305
▁Hospital	-11.8306
▁TEDTalk	-11.8306
▁flexible	-11.8306
▁raccolti	-11.8306
▁sneaker	-11.8306
▁soccorso	-11.8306
▁feminist	-11.8306
▁paradox	-11.8306
▁peculiar	-11.8306
▁comparison	-11.8306
▁copertura	-11.8306
▁Yemen	-11.8306
▁northern	-11.8306
▁persuasi	-11.8306
▁fragment	-11.8306
▁vittima	-11.8306
▁begun	-11.8307
▁Things	-11.8308
related	-11.8325
▁rappresent	-11.8339
resistant	-11.8346
ossigeno	-11.8386
▁riscalda	-11.8407
+	-11.841
▁Jersey	-11.841
▁Joseph	-11.841
▁Michigan	-11.841
▁System	-11.841
▁anonymous	-11.841
▁dialogue	-11.841
▁espressioni	-11.841
▁fabbriche	-11.841
▁pronuncia	-11.841
▁scrivania	-11.841
▁MRI	-11.841
▁bambine	-11.841
▁fought	-11.841
▁uccise	-11.841
▁Bruno	-11.8411
▁buried	-11.8411
▁lacrime	-11.8411
▁nido	-11.8411
Signor	-11.8434
▁Civil	-11.8438
▁coinvolg	-11.8459
▁raccogli	-11.847
orbita	-11.8475
▁equivale	-11.8475
natural	-11.8492
▁prepare	-11.8492
▁consapevole	-11.8513
umorismo	-11.8516
▁McDonald	-11.8516
▁October	-11.8516
▁Rivoluzione	-11.8516
▁Zimbabwe	-11.8516
▁calculation	-11.8516
▁copertina	-11.8516
▁ecosistemi	-11.8516
▁purtroppo	-11.8516
▁sconosciuto	-11.8516
▁centimetri	-11.8516
▁semplifica	-11.8516
▁Terzo	-11.8516
▁calendar	-11.8516
▁Eastern	-11.8516
▁smoking	-11.8516
▁schermi	-11.8516
▁impianta	-11.8516
▁chimico	-11.8516
▁fastidio	-11.8516
▁cousin	-11.8516
▁album	-11.8516
▁spunta	-11.8516
▁fortune	-11.8516
▁angoli	-11.8516
▁Egyptian	-11.8517
▁informed	-11.8517
▁divario	-11.8518
▁algae	-11.8519
▁array	-11.8519
▁Progett	-11.8519
LHC	-11.852
▁marca	-11.8531
▁genital	-11.8556
found	-11.8598
Afghanistan	-11.8598
▁protagonist	-11.8622
ó	-11.8622
▁Columbia	-11.8622
▁Tunisia	-11.8622
▁advocate	-11.8622
▁condividono	-11.8622
▁confused	-11.8622
▁convinzioni	-11.8622
▁grandchildren	-11.8622
▁interconnect	-11.8622
▁nuclei	-11.8622
▁simplicity	-11.8622
▁structural	-11.8622
▁terapie	-11.8622
▁transistor	-11.8622
▁trasparente	-11.8622
▁bianche	-11.8622
▁recession	-11.8622
▁improving	-11.8622
▁Sapevo	-11.8622
▁vittoria	-11.8622
▁raramente	-11.8622
▁thrive	-11.8622
▁attractive	-11.8622
▁relax	-11.8622
▁afterwards	-11.8622
▁famosi	-11.8622
▁gear	-11.8623
▁vicine	-11.8623
▁Nepal	-11.8623
▁imposta	-11.8624
▁dipingere	-11.863
▁vigil	-11.866
ssociazione	-11.8665
Alzheimer	-11.8705
importante	-11.8705
▁1995	-11.873
▁Insieme	-11.873
▁Jewish	-11.873
▁Obviously	-11.873
▁Tasmania	-11.873
▁astonishing	-11.873
▁chronic	-11.873
▁esponenziale	-11.873
▁fotografo	-11.873
▁gennaio	-11.873
▁genomic	-11.873
▁humanitarian	-11.873
▁meravigliosi	-11.873
▁ritardo	-11.873
▁sorpreso	-11.873
▁benzina	-11.873
▁reducing	-11.873
▁shrink	-11.873
▁Third	-11.873
▁visceral	-11.873
▁woke	-11.873
▁suicidi	-11.873
▁resolve	-11.873
▁balena	-11.873
▁scatole	-11.873
▁estremo	-11.873
▁titoli	-11.8731
▁intimate	-11.8731
▁favela	-11.8731
▁catalog	-11.8731
▁esibi	-11.8732
equilibr	-11.8732
▁mood	-11.8732
intuizione	-11.8734
▁sediment	-11.8765
▁rigor	-11.877
mount	-11.8773
aggiunta	-11.8782
economic	-11.8814
intervento	-11.8814
articolo	-11.8814
▁vengo	-11.8819
positive	-11.8821
▁immigrant	-11.8838
▁microscopic	-11.8838
▁rafforza	-11.8838
▁ringrazio	-11.8838
▁burden	-11.8838
▁siccità	-11.8838
orizzonte	-11.8838
▁rotelle	-11.8838
▁giustifica	-11.8838
▁profilo	-11.8838
▁plain	-11.8838
▁collezione	-11.8838
▁expertise	-11.8839
▁protetti	-11.8839
▁infezioni	-11.8839
▁innovator	-11.8839
▁ruin	-11.884
▁autonomi	-11.8841
▁fragili	-11.8841
▁educato	-11.8841
▁statue	-11.8842
▁rope	-11.8842
▁esegu	-11.8864
ightened	-11.8888
clusion	-11.8897
ignoranza	-11.8901
▁esterna	-11.8927
iziarono	-11.8947
▁Nairobi	-11.8948
▁capabilities	-11.8948
▁choosing	-11.8948
▁collettivo	-11.8948
▁expansion	-11.8948
▁mushroom	-11.8948
▁overwhelming	-11.8948
▁resilience	-11.8948
▁romanzo	-11.8948
▁wheelchair	-11.8948
▁Tokyo	-11.8948
▁drift	-11.8948
▁shrimp	-11.8948
▁stomach	-11.8948
▁disconnect	-11.8948
▁whistle	-11.8948
▁fredda	-11.8948
▁addosso	-11.8948
▁indirizza	-11.8948
▁potresti	-11.8948
▁colonna	-11.8948
▁abilities	-11.8948
▁tradizioni	-11.8948
▁pioneer	-11.8948
▁intervenire	-11.8948
▁supernova	-11.8948
▁esagera	-11.8949
▁fibre	-11.8949
▁fraud	-11.8949
▁kiss	-11.8949
▁allarga	-11.8949
▁Show	-11.895
▁April	-11.8953
▁pompa	-11.8954
▁funeral	-11.8955
▁gesto	-11.8955
osservazione	-11.8997
affermazione	-11.9004
approccio	-11.9035
individu	-11.9056
▁1994	-11.9059
▁Mozart	-11.9059
▁aesthetic	-11.9059
▁blockchain	-11.9059
▁entusiasta	-11.9059
▁expedition	-11.9059
▁giapponese	-11.9059
▁glacier	-11.9059
▁helicopter	-11.9059
▁incluso	-11.9059
▁linguistic	-11.9059
▁malapena	-11.9059
▁mechanics	-11.9059
▁participation	-11.9059
▁pipistrelli	-11.9059
▁sacrifice	-11.9059
▁slogan	-11.9059
▁richieste	-11.9059
▁paradiso	-11.9059
▁ruoli	-11.9059
▁progredi	-11.9059
▁excuse	-11.9059
▁broadcast	-11.9059
▁forniscono	-11.906
▁emotivo	-11.906
▁primarily	-11.906
▁converge	-11.906
placing	-11.9063
allarme	-11.9067
▁compliment	-11.9068
▁complicati	-11.9104
ossido	-11.9116
▁depressi	-11.9118
▁ritorn	-11.9129
▁ghiacci	-11.9135
▁drought	-11.9172
▁metabolism	-11.9172
▁Attravers	-11.9172
▁Kepler	-11.9172
▁cioccolato	-11.9172
▁condividiamo	-11.9172
▁condivisione	-11.9172
▁diapositiva	-11.9172
▁frequency	-11.9172
▁ginocchio	-11.9172
▁magnitude	-11.9172
▁receptor	-11.9172
▁storytelling	-11.9172
▁tecnici	-11.9172
▁transmission	-11.9172
▁vacuum	-11.9172
▁alcohol	-11.9172
▁attribui	-11.9172
▁insomma	-11.9172
▁intersection	-11.9172
▁scultura	-11.9172
▁evapora	-11.9172
▁Certamente	-11.9172
▁stomaco	-11.9172
▁soffrono	-11.9172
▁pulse	-11.9172
▁contratto	-11.9172
▁bombarda	-11.9172
▁rimase	-11.9173
▁Laden	-11.9174
▁gallon	-11.9174
▁riempire	-11.918
impronta	-11.9186
▁coloniz	-11.9215
incidente	-11.9246
▁Bitcoin	-11.9285
▁Quattro	-11.9285
▁Should	-11.9285
▁browser	-11.9285
▁coinvolte	-11.9285
▁compromise	-11.9285
▁fabulous	-11.9285
▁omicidi	-11.9285
▁purchase	-11.9285
▁raffredda	-11.9285
▁sanguigni	-11.9285
▁spontanea	-11.9285
▁squadre	-11.9285
▁terrifying	-11.9285
▁umili	-11.9285
▁unbelievable	-11.9285
▁videocamera	-11.9285
emisfero	-11.9285
▁Bibbia	-11.9285
▁Georgia	-11.9285
▁Spanish	-11.9285
▁counsel	-11.9285
▁curioso	-11.9285
▁richiesto	-11.9285
▁exhaust	-11.9285
▁giocattolo	-11.9285
▁Craig	-11.9285
▁vacanza	-11.9285
▁translation	-11.9285
▁dozzina	-11.9285
▁screw	-11.9285
▁beetle	-11.9285
▁Play	-11.9286
▁cliff	-11.9286
centric	-11.9287
Inglese	-11.9287
▁temper	-11.9287
▁ammira	-11.9292
Audio	-11.9297
scritto	-11.9301
social	-11.9329
▁teneva	-11.9342
impressione	-11.9353
locate	-11.9368
▁territori	-11.9368
Iraq	-11.9376
americani	-11.9376
school	-11.9376
▁brilla	-11.939
onosciamo	-11.9391
▁Council	-11.94
▁bilancia	-11.94
▁dinamiche	-11.94
▁entusiasti	-11.94
▁excitement	-11.94
▁fantasma	-11.94
▁improbabile	-11.94
▁indigenous	-11.94
▁prescindere	-11.94
▁sconosciuti	-11.94
▁scoprì	-11.94
▁simmetria	-11.94
▁trovò	-11.94
▁blocchi	-11.94
▁crystal	-11.94
▁Mumbai	-11.94
▁flessibili	-11.94
▁immerge	-11.94
▁recluta	-11.94
▁microfono	-11.94
▁SMS	-11.94
▁Apollo	-11.94
▁aggiunti	-11.94
▁memorizza	-11.94
▁crimini	-11.94
estensione	-11.94
▁queen	-11.94
▁distanze	-11.9401
▁inherit	-11.9401
▁costume	-11.9401
▁mutual	-11.9402
▁dumb	-11.9403
▁relaziona	-11.9408
▁rimuovere	-11.9427
▁crater	-11.944
occasione	-11.9441
▁somministr	-11.9451
élite	-11.9485
Guarda	-11.9492
insieme	-11.9492
croce	-11.9493
attuale	-11.9495
ottimismo	-11.9499
▁bottiglie	-11.9516
▁cittadino	-11.9516
▁trascura	-11.9516
#	-11.9516
▁Academy	-11.9516
▁Snowden	-11.9516
▁biodiversity	-11.9516
▁breakfast	-11.9516
▁category	-11.9516
▁currency	-11.9516
▁default	-11.9516
▁gravidanza	-11.9516
▁immagazzina	-11.9516
▁simultaneously	-11.9516
▁transcend	-11.9516
▁Jesus	-11.9516
▁Sarah	-11.9516
▁gonfia	-11.9516
▁fumetti	-11.9517
▁divertenti	-11.9517
▁dictionary	-11.9517
▁reliable	-11.9517
▁impulsi	-11.9517
▁applaud	-11.9518
▁scandal	-11.952
▁paesaggi	-11.9602
“	-11.961
Quando	-11.961
avanguardia	-11.9634
entusiasmo	-11.9634
▁SETI	-11.9634
▁Society	-11.9634
▁educativo	-11.9634
▁enterprise	-11.9634
▁episode	-11.9634
▁extension	-11.9634
▁genocide	-11.9634
▁membrane	-11.9634
▁primordial	-11.9634
▁sopravvissuti	-11.9634
▁Hubble	-11.9634
▁facoltà	-11.9634
▁Canyon	-11.9634
▁filantropi	-11.9634
▁regolarmente	-11.9634
▁precious	-11.9634
▁spiace	-11.9634
aeroporto	-11.9634
incertezza	-11.9634
▁deboli	-11.9634
▁Tibet	-11.9634
▁nutrients	-11.9634
▁perpetua	-11.9634
▁salmon	-11.9634
▁Jobs	-11.9635
▁prevalent	-11.9635
▁appreso	-11.9635
▁harness	-11.9635
▁bulb	-11.9636
▁sauce	-11.9636
▁primavera	-11.9636
▁regala	-11.9637
count	-11.9685
▁matrimoni	-11.9721
▁religiosi	-11.9753
▁bizarre	-11.9753
▁gradually	-11.9753
▁scheletro	-11.9753
▁schizofreni	-11.9753
▁telecamere	-11.9753
▁threshold	-11.9753
▁Little	-11.9753
▁Ruanda	-11.9753
▁chiarezza	-11.9753
▁terremoto	-11.9753
▁selvaggi	-11.9753
▁agenzie	-11.9753
▁assunto	-11.9753
▁rilassa	-11.9753
▁Liberia	-11.9753
▁snake	-11.9753
▁bonus	-11.9753
▁Girl	-11.9753
Etiopia	-11.9753
▁anziane	-11.9753
▁IBM	-11.9754
▁ferite	-11.9754
▁outrage	-11.9754
▁submit	-11.9754
▁eredita	-11.9754
▁tutela	-11.9754
▁rivolta	-11.9754
▁crush	-11.9756
▁Ascolt	-11.9756
▁ricopert	-11.9763
▁grin	-11.982
Everest	-11.982
▁1997	-11.9874
▁Bhutan	-11.9874
▁appartamento	-11.9874
▁awkward	-11.9874
▁catastrofi	-11.9874
▁cocktail	-11.9874
▁elettriche	-11.9874
▁exposure	-11.9874
▁immunitario	-11.9874
▁occorre	-11.9874
▁County	-11.9874
▁biglietti	-11.9874
▁compelling	-11.9874
▁battuta	-11.9874
▁transaction	-11.9874
▁bottone	-11.9874
▁proposto	-11.9874
▁signature	-11.9874
▁remix	-11.9874
▁cuori	-11.9874
▁temple	-11.9874
▁augment	-11.9875
autostrada	-11.9875
▁multipli	-11.9875
▁Jean	-11.9876
▁hub	-11.9877
▁Avrebbe	-11.9877
infezione	-11.9902
▁malign	-11.9919
▁esplosi	-11.9939
▁prosegui	-11.9981
▁Beijing	-11.9996
▁Buddha	-11.9996
▁December	-11.9996
▁Jefferson	-11.9996
▁Pennsylvania	-11.9996
▁Technology	-11.9996
▁contemporary	-11.9996
▁distinguish	-11.9996
▁genocidio	-11.9996
▁inevitabile	-11.9996
▁pandemic	-11.9996
▁supermarket	-11.9996
▁symmetry	-11.9996
▁Colombia	-11.9996
▁crawl	-11.9996
▁inhabit	-11.9996
▁pistola	-11.9996
▁register	-11.9996
▁Company	-11.9996
▁giocattoli	-11.9996
▁intenzioni	-11.9996
▁Volete	-11.9996
▁disperazione	-11.9996
indirizzo	-11.9996
▁Food	-11.9996
▁coperto	-11.9996
▁beneath	-11.9996
▁Warren	-11.9996
▁amplifica	-11.9996
▁antenna	-11.9997
▁campiona	-12
plice	-12.0022
▁rimetter	-12.0045
▁riprese	-12.0062
autorità	-12.0095
technology	-12.0095
comprensibile	-12.0119
▁Fortunatamente	-12.0119
▁Journal	-12.0119
▁astronomer	-12.0119
▁campagne	-12.0119
▁distrutti	-12.0119
▁executive	-12.0119
▁hypothesis	-12.0119
▁panorama	-12.0119
▁plankton	-12.0119
▁prosthetic	-12.0119
▁racconterò	-12.0119
▁richiedono	-12.0119
▁cosciente	-12.0119
▁metabolic	-12.0119
▁sopporta	-12.0119
▁prototipi	-12.0119
▁tastiera	-12.0119
▁Northern	-12.0119
▁implicit	-12.0119
▁appoggia	-12.0119
▁lobby	-12.0119
▁poesie	-12.0119
▁proibi	-12.012
▁Uomo	-12.012
▁Dovrebbe	-12.012
▁intensa	-12.012
▁marginal	-12.012
▁align	-12.012
▁ripuli	-12.0123
▁trasformarl	-12.0125
▁cube	-12.0129
▁Legge	-12.021
ipotesi	-12.022
▁exhibit	-12.0241
Antartide	-12.0244
intrattenimento	-12.0244
▁Christopher	-12.0244
▁abitudini	-12.0244
▁apprendere	-12.0244
▁optimism	-12.0244
▁scioglie	-12.0244
▁punteggio	-12.0244
▁cavalli	-12.0244
▁strappa	-12.0244
▁whatsoever	-12.0244
▁esclusiva	-12.0244
▁gallerie	-12.0244
▁grotta	-12.0244
▁Bosnia	-12.0244
▁parasite	-12.0244
▁lusso	-12.0245
nidrid	-12.0251
▁Riuscit	-12.026
credit	-12.0289
▁sopravvive	-12.0316
iniziativa	-12.0338
▁fiscal	-12.0338
▁complicate	-12.0346
▁sostenibili	-12.0369
▁profondi	-12.0369
▁descrizione	-12.0371
▁infermiere	-12.0371
▁jeans	-12.0371
▁pharmaceutical	-12.0371
▁absence	-12.0371
▁eBay	-12.0371
▁sbarazz	-12.0371
▁veterinari	-12.0371
▁welfare	-12.0371
▁bestiame	-12.0371
▁disperatamente	-12.0371
▁inglesi	-12.0371
▁ronzio	-12.0371
▁Entramb	-12.0371
▁prolifera	-12.0371
▁spedizione	-12.0371
▁flaw	-12.0371
▁vaiolo	-12.0371
▁Voce	-12.0371
▁descend	-12.0371
▁infinita	-12.0371
▁located	-12.0371
▁storici	-12.0371
▁jar	-12.0371
▁circulat	-12.0373
▁pubblicitari	-12.0374
Tutt	-12.0376
emergenza	-12.0399
▁ovvia	-12.0495
procrastinat	-12.0499
▁aggiusta	-12.0499
▁encrypt	-12.0499
▁February	-12.0499
▁Twenty	-12.0499
▁cardiovasc	-12.0499
▁chiacchier	-12.0499
▁colpevole	-12.0499
▁genuine	-12.0499
▁neppure	-12.0499
▁piaciuto	-12.0499
▁pluviale	-12.0499
▁reciproca	-12.0499
▁reproduce	-12.0499
▁syndrome	-12.0499
▁unprecedented	-12.0499
▁1984	-12.0499
▁Friday	-12.0499
▁curiosa	-12.0499
▁ownership	-12.0499
▁pietre	-12.0499
▁Costrui	-12.0499
▁geographic	-12.0499
▁impressive	-12.0499
▁Donald	-12.0499
▁scritti	-12.0499
▁Peace	-12.0499
▁striscia	-12.0499
▁generous	-12.0499
unclear	-12.0499
▁geometric	-12.0499
▁interfere	-12.0506
▁sapesse	-12.0506
▁approcci	-12.0597
▁accoppia	-12.06
screen	-12.0605
looking	-12.0605
segniamo	-12.0606
ingiustizia	-12.0629
ossitocina	-12.0629
▁Kansas	-12.0629
▁Michelangelo	-12.0629
▁Senegal	-12.0629
▁Turkey	-12.0629
▁essenziali	-12.0629
▁europei	-12.0629
▁hallucinat	-12.0629
▁procedimento	-12.0629
▁quotidiano	-12.0629
▁regulate	-12.0629
▁scintilla	-12.0629
▁spettacolare	-12.0629
▁stupefacente	-12.0629
▁trapianto	-12.0629
▁offshore	-12.0629
▁alquanto	-12.0629
▁congestion	-12.0629
▁troppi	-12.0629
▁methane	-12.0629
▁minimum	-12.0629
▁schifo	-12.0629
▁hobby	-12.0629
▁Diego	-12.0629
▁carrier	-12.0638
grafiche	-12.0673
▁festeggia	-12.076
▁jewel	-12.076
▁Although	-12.076
▁Improvvisamente	-12.076
▁Namibia	-12.076
▁Princeton	-12.076
▁fantascienza	-12.076
▁flessibile	-12.076
▁impossibili	-12.076
▁injustice	-12.076
▁lampadina	-12.076
▁ristoranti	-12.076
▁trajectory	-12.076
▁1945	-12.076
▁arricchi	-12.076
▁paradosso	-12.076
▁Norway	-12.076
▁architectural	-12.076
▁estranei	-12.076
▁traduzione	-12.076
▁avatar	-12.076
▁temporary	-12.076
▁diffuse	-12.076
▁interrupt	-12.0761
▁spike	-12.0761
ercherò	-12.0761
ocracy	-12.0761
▁riesca	-12.0761
▁Work	-12.0761
indagine	-12.0761
▁Vuol	-12.0762
▁skate	-12.0763
keeper	-12.0832
intensità	-12.0833
illuminazione	-12.0841
engineer	-12.0869
Himalaya	-12.0894
attrezzatura	-12.0894
oscurità	-12.0894
▁Joshua	-12.0894
▁Linux	-12.0894
▁Magazine	-12.0894
▁Orleans	-12.0894
▁Praticamente	-12.0894
▁Sylvia	-12.0894
▁religiose	-12.0894
▁tempesta	-12.0894
▁terrified	-12.0894
▁profughi	-12.0894
▁chamber	-12.0894
▁chiamò	-12.0894
▁ruote	-12.0894
▁smallpox	-12.0894
▁costruzioni	-12.0894
▁Doctor	-12.0894
▁redditi	-12.0894
▁Crediamo	-12.0894
▁costringe	-12.0894
evidenza	-12.0894
opportun	-12.0901
anatomia	-12.0901
avrebbe	-12.1022
Amazzonia	-12.1029
angiogenesi	-12.1029
▁Amsterdam	-12.1029
▁Carnegie	-12.1029
▁Galileo	-12.1029
▁Medicine	-12.1029
▁appartiene	-12.1029
▁denuncia	-12.1029
▁encouraging	-12.1029
▁fenomeni	-12.1029
▁grandparents	-12.1029
▁prospettive	-12.1029
▁receiving	-12.1029
▁terribilmente	-12.1029
▁venerdì	-12.1029
▁yourselves	-12.1029
▁expectancy	-12.1029
▁distretto	-12.1029
▁Ministro	-12.1029
▁sequenze	-12.1029
▁griglia	-12.1029
▁preparing	-12.1029
▁Mettiamo	-12.1029
▁matrix	-12.1029
▁disabled	-12.1029
▁avvolt	-12.1029
▁fermo	-12.1029
▁Court	-12.1029
▁defeat	-12.103
▁blend	-12.1036
Australia	-12.1142
▁padrone	-12.1166
«	-12.1166
▁Canadian	-12.1166
▁Connecticut	-12.1166
▁Internazionale	-12.1166
▁Occidentale	-12.1166
▁Telescope	-12.1166
▁ambitious	-12.1166
▁appropriato	-12.1166
▁clarity	-12.1166
▁compromesso	-12.1166
▁consulente	-12.1166
▁disabilities	-12.1166
▁dizionario	-12.1166
▁excellent	-12.1166
▁flourish	-12.1166
▁francamente	-12.1166
▁pursuit	-12.1166
▁religiosa	-12.1166
▁solitudine	-12.1166
▁straightforward	-12.1166
▁terribly	-12.1166
▁virtue	-12.1166
▁1991	-12.1166
▁fluttua	-12.1166
▁proposal	-12.1166
▁Kosovo	-12.1166
▁Turchia	-12.1166
▁Trump	-12.1166
▁workforce	-12.1166
▁Brother	-12.1166
▁pigeon	-12.1166
▁downtown	-12.1166
▁Federal	-12.1166
▁cruel	-12.1166
▁leopard	-12.1166
▁dorsale	-12.1166
▁riviste	-12.1166
ISIS	-12.1166
▁bribe	-12.1166
▁suicida	-12.1166
▁Conosce	-12.1166
▁horizontal	-12.1167
hhh	-12.1194
interpretazione	-12.121
▁principal	-12.1222
▁sociologi	-12.124
▁teenage	-12.1251
Ѐ	-12.1305
▁accurata	-12.1305
▁acoustic	-12.1305
▁avvenendo	-12.1305
▁censura	-12.1305
▁corridor	-12.1305
▁exclusive	-12.1305
▁femminista	-12.1305
▁gradualmente	-12.1305
▁paralyzed	-12.1305
▁pazienza	-12.1305
▁prescription	-12.1305
▁produttivo	-12.1305
▁ricomincia	-12.1305
▁sconvolge	-12.1305
▁Accord	-12.1305
▁FDA	-12.1305
▁altitude	-12.1305
▁approssima	-12.1305
▁africana	-12.1305
▁prodotta	-12.1305
▁closing	-12.1305
▁insolito	-12.1305
▁parassiti	-12.1305
▁theoretical	-12.1305
▁residents	-12.1305
▁Museo	-12.1305
▁sapone	-12.1305
▁divorce	-12.1305
▁therapist	-12.1305
▁censor	-12.1308
invasive	-12.1311
É	-12.203
=	-12.2181
ã	-12.4782
ç	-12.4782
ö	-12.4982
—	-12.537
	-12.6988
^	-13.123
ü	-13.2014
@	-13.2866
[	-13.4272
ā	-13.4823
ï	-13.5378
­	-13.9575
ê	-14.0484
ä	-14.3845
♪	-14.525
â	-14.694
̊	-14.694
ô	-14.894
ć	-14.894
ī	-14.894
ū	-14.894
Á	-14.8941
♫	-15.1416
•	-15.144
”	-15.475
æ	-15.4774
û	-15.4774
Ó	-15.9774
Å	-15.9774
ś	-15.9774
š	-15.9774
ŧ	-15.9774
Ō	-16.9748
ě	-16.9749
ð	-16.975
̈	-16.9751
ë	-16.9752
Ö	-16.9753
Ç	-16.9754
£	-16.9755
€	-16.9756
ʾ	-16.9757
Č	-16.9758
⁄	-16.9759
‘	-16.976
ō	-16.9761
ø	-16.9762
́	-16.9763
ñ	-16.9764
*	-16.9765
_	-16.9766
»	-16.9767
ú	-16.9768
°	-16.9769
–	-16.977
$	-16.9771
/	-16.9772
’	-16.9773
¢	-16.9774
ž	-16.9774
	-16.9774
	-16.9774
	-16.9774
¥	-16.9774
©	-16.9774
®	-16.9774
Ì	-16.9774
Ă	-16.9774
ē	-16.9774
İ	-16.9774
ł	-16.9774
Ť	-16.9774
ȏ	-16.9774
ʿ	-16.9774
π	-16.9774
ѐ	-16.9774
‒	-16.9774
─	-16.9774
你	-16.9774
葱	-16.9774
(	-16.9774
¡	-16.9774
