<s>	0
<pad>	0
</s>	0
<unk>	0
,	-3.08726
.	-3.25449
s	-3.45598
'	-3.48052
▁the	-4.18535
▁de	-4.18815
▁a	-4.39229
▁to	-4.60217
▁of	-4.72282
▁and	-4.78213
▁la	-4.87531
▁et	-4.91235
▁that	-4.96291
▁I	-5.01108
▁que	-5.05308
▁in	-5.05666
▁le	-5.07195
▁les	-5.12063
▁à	-5.12606
▁l	-5.13161
t	-5.21337
▁d	-5.2937
-	-5.29456
▁is	-5.33252
▁un	-5.34628
▁it	-5.35199
▁you	-5.36274
▁des	-5.39532
e	-5.39621
▁we	-5.43635
▁en	-5.46634
est	-5.59037
▁nous	-5.59517
▁une	-5.6286
▁qui	-5.67526
▁vous	-5.69333
▁	-5.70869
▁pour	-5.748
▁pas	-5.75165
▁ce	-5.75525
▁And	-5.75549
▁dans	-5.76074
▁this	-5.7722
▁on	-5.78778
▁est	-5.79856
r	-5.8031
▁—	-5.8597
re	-5.94989
▁c	-5.96411
▁je	-5.97609
▁qu	-6.00728
▁was	-6.02075
▁for	-6.04614
d	-6.06496
er	-6.07848
ing	-6.08583
▁"	-6.08969
▁du	-6.09854
▁Et	-6.109
▁are	-6.14103
▁plus	-6.14211
▁n	-6.15744
▁have	-6.16058
▁ne	-6.17305
ed	-6.19127
▁they	-6.21176
▁with	-6.25486
▁can	-6.28114
▁me	-6.29808
▁sur	-6.2987
ai	-6.30563
▁s	-6.3149
▁be	-6.32105
▁C	-6.33618
▁So	-6.34327
y	-6.34972
a	-6.35178
▁il	-6.35197
▁j	-6.37252
é	-6.38726
▁what	-6.39906
▁about	-6.41338
m	-6.42339
il	-6.4309
es	-6.4427
▁?	-6.44403
?	-6.45968
▁:	-6.49322
▁not	-6.50899
▁sont	-6.50948
▁se	-6.51945
▁do	-6.5226
▁all	-6.52924
▁at	-6.54843
▁au	-6.55771
▁avec	-6.56172
▁so	-6.58656
▁my	-6.62577
▁Je	-6.63328
▁y	-6.63421
)	-6.64466
▁an	-6.64761
▁people	-6.66073
▁par	-6.66214
▁like	-6.67057
▁(	-6.67292
▁one	-6.67661
▁fait	-6.68009
on	-6.68163
▁there	-6.69902
c	-6.70113
▁from	-6.726
▁but	-6.72953
▁comme	-6.73536
▁as	-6.73884
▁si	-6.74535
▁It	-6.74749
ve	-6.75708
▁our	-6.75919
▁ces	-6.7707
▁or	-6.77566
▁Il	-6.78715
un	-6.79376
▁cette	-6.80175
▁’	-6.80523
ly	-6.82239
▁mais	-6.83041
▁just	-6.8459
▁faire	-6.84782
▁ça	-6.84933
▁ou	-6.87242
▁ont	-6.88003
ment	-6.88281
:	-6.88726
▁We	-6.88766
▁But	-6.91178
en	-6.91308
▁out	-6.91328
n	-6.93285
al	-6.94044
▁Nous	-6.94252
▁tout	-6.94644
▁if	-6.94995
▁Mais	-6.95218
▁avons	-6.95741
▁these	-6.95848
▁J	-6.96126
▁The	-6.98993
▁up	-6.99793
▁by	-7.00507
▁know	-7.00526
▁very	-7.01511
nt	-7.01537
▁them	-7.02535
▁when	-7.02769
▁he	-7.02921
▁more	-7.04945
▁had	-7.05194
▁going	-7.06379
▁because	-7.0706
▁m	-7.08553
ent	-7.0899
ant	-7.09632
▁who	-7.10923
▁their	-7.11035
▁très	-7.11403
▁peut	-7.11416
▁think	-7.12238
▁«	-7.12884
▁see	-7.13019
▁were	-7.13862
p	-7.14932
▁your	-7.16607
▁us	-7.16864
▁monde	-7.16999
▁bien	-7.17443
▁gens	-7.17521
▁ils	-7.18005
▁would	-7.18038
▁how	-7.18354
in	-7.18614
l	-7.20157
▁really	-7.21181
▁get	-7.21487
▁which	-7.22731
▁être	-7.24375
▁time	-7.24716
▁»	-7.24755
▁leur	-7.25582
▁mon	-7.25905
une	-7.26267
▁chose	-7.27725
le	-7.29031
▁notre	-7.29192
ce	-7.29332
▁A	-7.29397
▁même	-7.30891
▁world	-7.31243
."	-7.31296
▁La	-7.32493
u	-7.3283
▁has	-7.3318
▁don	-7.33481
▁cela	-7.33959
▁re	-7.34187
ll	-7.3499
▁dit	-7.3661
ons	-7.37311
▁some	-7.37971
▁suis	-7.38333
▁here	-7.38793
▁way	-7.39071
▁then	-7.39106
▁était	-7.39332
▁This	-7.39513
▁ma	-7.39524
▁into	-7.39744
▁aux	-7.40322
▁Le	-7.40569
▁go	-7.40723
▁quand	-7.41643
▁will	-7.42725
▁You	-7.42827
▁où	-7.42876
▁want	-7.43744
▁where	-7.44635
▁other	-7.44998
z	-7.45061
▁été	-7.4536
ait	-7.45814
▁tous	-7.45865
▁years	-7.45988
▁actually	-7.46042
▁aussi	-7.46966
▁son	-7.47628
▁could	-7.48337
▁now	-7.49474
▁make	-7.49715
▁Ce	-7.49724
g	-7.49761
▁things	-7.50093
▁Les	-7.51676
ation	-7.52232
▁been	-7.52367
▁Vous	-7.52369
▁Now	-7.52854
ur	-7.53039
▁They	-7.53997
o	-7.5408
▁beaucoup	-7.55525
▁no	-7.56033
▁nos	-7.56128
▁vie	-7.57763
▁vraiment	-7.57901
ils	-7.58109
▁L	-7.58352
f	-7.59209
▁On	-7.59519
▁donc	-7.60079
▁deux	-7.60397
était	-7.61514
or	-7.61575
▁parce	-7.61813
▁elle	-7.62562
être	-7.64303
▁En	-7.64309
▁over	-7.64774
▁than	-7.6478
▁right	-7.65008
▁something	-7.65597
▁said	-7.65617
▁those	-7.6591
it	-7.66304
▁choses	-7.66779
▁In	-7.68337
▁voir	-7.6889
li	-7.6935
▁ans	-7.69457
▁first	-7.69694
ra	-7.69783
▁two	-7.69784
▁Donc	-7.7
▁votre	-7.70377
▁sa	-7.70433
▁work	-7.71221
▁much	-7.71971
▁also	-7.72042
"	-7.73955
▁thing	-7.74779
▁dire	-7.74864
▁quelque	-7.7488
h	-7.75267
ez	-7.75664
b	-7.75753
▁back	-7.76052
Laughter	-7.76466
▁look	-7.76796
▁car	-7.76974
▁she	-7.7703
▁moi	-7.77416
▁là	-7.77451
▁need	-7.78461
▁even	-7.78666
an	-7.78902
▁say	-7.79036
▁peu	-7.79401
▁Ils	-7.79466
▁got	-7.79795
▁temps	-7.80053
▁question	-7.80637
▁little	-7.8068
i	-7.80838
ic	-7.80958
▁life	-7.815
ci	-7.81762
ro	-7.82371
▁his	-7.82665
▁Si	-7.82692
▁point	-7.82859
▁most	-7.82911
▁only	-7.83488
▁important	-7.83734
▁fois	-7.83784
▁That	-7.84531
▁avait	-7.856
ée	-7.86209
age	-7.87542
▁take	-7.87784
▁many	-7.87851
▁comment	-7.87989
▁lot	-7.88192
th	-7.88735
▁S	-7.8925
Rires	-7.90464
ion	-7.91214
▁new	-7.91497
te	-7.9167
elle	-7.93111
A	-7.93557
ar	-7.93946
▁kind	-7.94431
▁g	-7.94567
able	-7.94846
▁moment	-7.95437
▁her	-7.95467
ie	-7.95969
▁ici	-7.96044
▁did	-7.96107
▁good	-7.9621
ri	-7.96559
▁pouvez	-7.97061
▁around	-7.97489
▁part	-7.98055
aient	-7.98072
▁What	-7.9826
▁va	-7.98974
▁personnes	-7.99066
▁different	-7.9943
▁non	-7.99714
▁sommes	-7.99811
ir	-7.99874
▁He	-8.00578
▁being	-8.01427
▁place	-8.03039
▁There	-8.03335
▁down	-8.0388
▁encore	-8.03897
▁pense	-8.03959
▁leurs	-8.04467
▁every	-8.04679
▁façon	-8.0527
▁through	-8.06115
S	-8.06149
▁same	-8.06207
▁autre	-8.0627
▁avoir	-8.06368
▁change	-8.06622
▁use	-8.07037
I	-8.0735
▁come	-8.07449
▁dont	-8.08069
v	-8.08292
▁10	-8.08665
la	-8.08834
;	-8.09568
▁Alors	-8.10388
▁besoin	-8.10919
ter	-8.11241
▁sans	-8.11506
▁day	-8.11606
is	-8.12474
▁pays	-8.12625
at	-8.13041
▁entre	-8.13373
▁lui	-8.13657
▁long	-8.14457
ul	-8.15332
us	-8.1608
lo	-8.16088
w	-8.16167
▁avez	-8.16362
▁D	-8.16443
x	-8.16629
ité	-8.17413
ont	-8.17833
▁put	-8.18261
▁alors	-8.18379
▁human	-8.19471
▁juste	-8.1951
▁doing	-8.1985
▁jamais	-8.20173
hui	-8.20254
▁enfants	-8.20639
▁three	-8.20861
▁percent	-8.2089
▁toutes	-8.20902
ais	-8.21063
ive	-8.2148
▁maintenant	-8.22076
C	-8.22221
▁mes	-8.22326
▁années	-8.22503
▁vais	-8.22853
▁ré	-8.22964
▁eu	-8.2301
▁If	-8.23334
▁dis	-8.23439
▁20	-8.24454
▁own	-8.24784
és	-8.25146
▁any	-8.25797
▁problème	-8.26161
nce	-8.2621
▁well	-8.26591
me	-8.26768
▁T	-8.27145
▁tell	-8.27354
▁fact	-8.274
▁called	-8.27801
▁pouvons	-8.28172
▁toujours	-8.2857
k	-8.28714
▁moins	-8.28862
▁made	-8.29125
▁Elle	-8.29202
ch	-8.29323
▁quelques	-8.29667
▁grand	-8.29803
▁t	-8.29969
▁find	-8.30019
▁-	-8.30256
▁G	-8.30629
▁should	-8.31406
▁dé	-8.31654
▁M	-8.31752
▁peuvent	-8.32238
▁E	-8.32718
▁why	-8.32761
▁year	-8.33013
▁didn	-8.33064
ne	-8.33387
,"	-8.34069
▁veux	-8.34248
▁Well	-8.34387
▁chaque	-8.3472
ions	-8.35266
▁talk	-8.35312
▁jour	-8.3547
au	-8.35812
▁today	-8.36266
▁personne	-8.36373
autres	-8.3639
▁travail	-8.36424
▁seulement	-8.36439
eau	-8.36956
▁B	-8.37526
ate	-8.37614
à	-8.37636
▁idea	-8.3768
el	-8.37858
ad	-8.38246
▁parler	-8.38385
▁partie	-8.38682
▁thought	-8.38781
▁dollars	-8.3884
▁started	-8.38927
▁after	-8.38973
▁simple	-8.39245
vous	-8.39384
▁après	-8.39665
▁great	-8.39704
di	-8.39883
▁;	-8.4028
ity	-8.40382
▁autres	-8.40609
▁soit	-8.41162
ou	-8.41289
▁possible	-8.41546
▁Voici	-8.41669
▁étaient	-8.4216
▁pendant	-8.42215
ine	-8.42284
▁science	-8.42398
▁Un	-8.42457
ta	-8.42515
ers	-8.42563
▁might	-8.42628
▁off	-8.43165
▁before	-8.43166
▁better	-8.43229
étais	-8.43338
▁course	-8.43761
ique	-8.43975
▁première	-8.44147
▁never	-8.44159
▁%	-8.44565
▁give	-8.44921
▁problem	-8.45073
▁last	-8.45102
▁face	-8.45146
▁trois	-8.45472
▁exemple	-8.45594
▁vers	-8.45805
▁système	-8.46017
▁P	-8.46755
▁start	-8.46857
▁big	-8.46914
ement	-8.47043
té	-8.4715
▁bit	-8.47216
▁end	-8.4744
▁elles	-8.48163
▁quoi	-8.4846
aux	-8.48503
▁still	-8.48612
D	-8.48725
que	-8.48745
▁con	-8.48768
▁cas	-8.48924
am	-8.491
▁together	-8.491
▁tant	-8.49253
▁ai	-8.50071
▁system	-8.50393
M	-8.50396
▁able	-8.50443
▁aujourd	-8.50559
▁public	-8.51008
ance	-8.51088
▁millions	-8.51224
▁commencé	-8.5123
▁sûr	-8.51328
▁♫	-8.51784
▁went	-8.51994
▁few	-8.52365
▁him	-8.52703
▁tu	-8.52736
▁another	-8.52933
autre	-8.53095
im	-8.5331
▁Quand	-8.53313
ma	-8.53495
▁show	-8.53514
▁brain	-8.53879
▁De	-8.53901
▁savez	-8.53931
▁toute	-8.54165
▁sort	-8.54363
▁manière	-8.54381
ut	-8.54457
▁ses	-8.54765
ées	-8.54805
▁story	-8.54819
▁man	-8.55001
▁came	-8.55164
▁puis	-8.55254
▁help	-8.55675
▁avant	-8.55731
▁femmes	-8.55885
▁four	-8.55932
eur	-8.5638
entre	-8.56421
▁When	-8.56613
if	-8.56657
▁next	-8.56673
avais	-8.5682
ig	-8.57073
▁pro	-8.5722
no	-8.57307
▁too	-8.57395
id	-8.57503
▁F	-8.57563
▁ago	-8.57598
▁Ma	-8.57698
▁found	-8.57703
▁voyez	-8.57985
▁let	-8.58006
ill	-8.58125
▁New	-8.58194
▁love	-8.58217
▁women	-8.58306
▁real	-8.58399
▁Cela	-8.58399
▁million	-8.58584
▁mean	-8.58682
▁each	-8.58854
tra	-8.59014
vi	-8.59124
▁water	-8.59269
▁data	-8.59552
▁feel	-8.59822
▁grande	-8.5983
▁bon	-8.59972
▁jusqu	-8.60079
▁design	-8.60122
E	-8.6029
▁trouver	-8.60344
▁pourquoi	-8.60517
▁Ça	-8.60664
de	-8.61195
▁cet	-8.61268
▁é	-8.61639
▁vu	-8.61673
▁call	-8.6173
▁social	-8.61749
▁used	-8.62233
▁depuis	-8.62554
▁again	-8.62575
▁does	-8.62579
▁êtes	-8.6286
▁Une	-8.62992
▁live	-8.63116
▁sous	-8.63141
▁sens	-8.63299
qu	-8.63771
▁co	-8.63825
▁between	-8.63985
▁données	-8.64012
op	-8.6406
▁faut	-8.64256
...	-8.64385
▁!	-8.64517
sse	-8.64642
ies	-8.64814
▁font	-8.65133
▁example	-8.65191
▁K	-8.65449
▁home	-8.65466
ag	-8.6556
▁Dans	-8.65778
▁second	-8.65836
▁technology	-8.66183
▁rien	-8.66435
▁Pour	-8.66815
▁cerveau	-8.66883
▁passe	-8.66957
▁30	-8.67461
mo	-8.675
▁understand	-8.67705
ck	-8.67882
▁quelqu	-8.67965
▁cancer	-8.681
co	-8.68168
▁petit	-8.6819
ry	-8.68289
P	-8.68393
tu	-8.68425
▁travers	-8.68532
▁p	-8.68552
man	-8.68619
B	-8.68775
▁r	-8.68803
▁19	-8.69157
▁3	-8.69444
▁assez	-8.69663
as	-8.69778
▁pourrait	-8.69861
2	-8.69866
to	-8.70136
ette	-8.70162
▁créer	-8.70476
▁devons	-8.7072
T	-8.70755
▁pouvoir	-8.71101
ge	-8.71579
?"	-8.71678
▁technologie	-8.71777
ni	-8.71876
up	-8.71899
▁doesn	-8.72273
▁per	-8.72401
▁person	-8.72459
▁prendre	-8.72543
▁wanted	-8.72577
▁50	-8.72692
▁train	-8.73237
▁school	-8.73549
ti	-8.73561
mi	-8.73573
▁passé	-8.73757
▁information	-8.73865
ner	-8.73953
▁believe	-8.74139
▁looking	-8.74144
▁may	-8.74392
hi	-8.74682
▁always	-8.74709
▁children	-8.75008
▁idée	-8.75109
▁am	-8.75296
▁For	-8.75386
▁vos	-8.75813
ha	-8.75899
ac	-8.76009
▁ever	-8.76232
▁create	-8.76311
▁space	-8.7635
ist	-8.76428
▁eux	-8.7648
▁questions	-8.76502
▁Au	-8.77172
ho	-8.77192
▁nature	-8.77198
▁high	-8.773
▁ch	-8.77411
▁sais	-8.7762
▁100	-8.7778
po	-8.7779
▁done	-8.77793
na	-8.78143
R	-8.78445
▁comprendre	-8.7845
▁genre	-8.78454
▁country	-8.78677
▁six	-8.78709
be	-8.78809
▁light	-8.7892
▁working	-8.79118
▁nouveau	-8.7935
▁W	-8.7945
▁sorte	-8.79485
▁f	-8.79824
▁away	-8.79873
▁U	-8.8042
▁power	-8.8047
▁fin	-8.80511
▁whole	-8.80616
ol	-8.80654
▁crois	-8.80843
▁premier	-8.81001
▁main	-8.81487
▁Because	-8.81762
▁trying	-8.81792
▁histoire	-8.82491
▁trop	-8.82738
▁b	-8.82787
▁déjà	-8.828
▁population	-8.828
nous	-8.82862
▁mal	-8.82932
▁future	-8.82975
tic	-8.83036
▁R	-8.83378
eux	-8.83684
ia	-8.83691
▁Merci	-8.83813
▁image	-8.83938
ton	-8.83954
▁e	-8.83996
▁mis	-8.84082
les	-8.84119
▁br	-8.84175
che	-8.84329
▁try	-8.84638
▁ceux	-8.84668
▁peux	-8.84844
▁chez	-8.84882
▁global	-8.84976
▁Thank	-8.84987
um	-8.85289
▁cause	-8.8567
et	-8.85914
ru	-8.86016
▁N	-8.86034
▁Maintenant	-8.86058
▁contre	-8.86274
ness	-8.86367
▁using	-8.86441
▁hard	-8.86691
▁bonne	-8.86897
▁thinking	-8.87071
▁000	-8.87154
▁maybe	-8.87218
▁donner	-8.87328
▁pu	-8.87375
ver	-8.87537
▁money	-8.87607
▁old	-8.87657
▁How	-8.87927
mp	-8.88031
elles	-8.881
▁small	-8.88174
▁savoir	-8.88183
▁become	-8.88572
▁plan	-8.88606
▁plutôt	-8.88646
pi	-8.88786
he	-8.88831
▁corps	-8.89673
ated	-8.89674
ard	-8.89768
▁4	-8.8979
▁took	-8.89836
▁nombre	-8.89841
▁type	-8.89979
▁means	-8.90088
▁everything	-8.90212
▁My	-8.90275
▁raison	-8.90287
▁minutes	-8.90333
min	-8.90339
▁15	-8.90373
Applause	-8.90459
per	-8.90658
▁compte	-8.90879
▁men	-8.90889
▁kids	-8.91007
▁TED	-8.91054
▁She	-8.91181
art	-8.91217
iv	-8.91393
▁plupart	-8.91454
▁number	-8.91466
▁five	-8.91548
▁vrai	-8.91693
▁parents	-8.92209
▁enough	-8.92749
O	-8.92912
▁nouvelle	-8.92929
eurs	-8.93075
▁mieux	-8.9317
1	-8.93196
▁sense	-8.93357
▁best	-8.93403
va	-8.93417
nd	-8.93461
pe	-8.93528
▁1	-8.93628
ting	-8.93666
ale	-8.9384
ot	-8.93939
▁Par	-8.94252
▁changer	-8.94566
▁left	-8.94633
▁ask	-8.95017
ure	-8.95089
▁jours	-8.95112
▁problèmes	-8.95198
bi	-8.95253
ex	-8.9538
▁culture	-8.9542
▁machine	-8.95515
▁simplement	-8.95658
aire	-8.95738
ap	-8.95743
▁One	-8.95819
▁Tout	-8.95914
▁photo	-8.95939
▁Mon	-8.96047
ating	-8.96152
▁art	-8.96208
Applaudissements	-8.96253
▁environ	-8.96343
▁aller	-8.96365
▁2	-8.96661
▁projet	-8.96706
▁avaient	-8.96709
5	-8.96801
▁getting	-8.96922
▁côté	-8.96997
ère	-8.97266
▁York	-8.97739
▁ainsi	-8.9774
▁lieu	-8.97766
▁mettre	-8.97953
▁mois	-8.98052
▁super	-8.98074
▁ceci	-8.98228
▁test	-8.98327
8	-8.98363
▁serait	-8.98666
▁play	-8.98672
▁santé	-8.98865
▁bring	-8.98921
▁Parce	-8.98935
▁hand	-8.99007
histoire	-8.99071
▁food	-8.99188
▁doit	-8.99248
▁montrer	-8.99256
▁head	-8.99355
tte	-8.99424
▁answer	-9.00053
▁femme	-9.00127
▁pris	-9.00164
7	-9.00382
▁ville	-9.0046
▁making	-9.00507
▁pré	-9.00549
▁maison	-9.00648
▁These	-9.00705
▁Re	-9.00892
▁No	-9.01053
▁large	-9.0106
▁OK	-9.01184
▁process	-9.01437
▁without	-9.01585
Unis	-9.01698
▁told	-9.01787
▁passer	-9.0179
ue	-9.01835
▁pre	-9.02023
bo	-9.02189
▁body	-9.02205
▁film	-9.02309
ian	-9.02343
▁talking	-9.02363
▁seule	-9.02363
▁care	-9.02401
▁under	-9.02539
▁met	-9.02786
▁veut	-9.02932
▁souvent	-9.02979
▁side	-9.03009
▁quel	-9.03103
▁As	-9.03272
▁local	-9.03316
ff	-9.03568
▁interesting	-9.03616
▁sujet	-9.0371
▁family	-9.03766
▁lives	-9.03946
▁sera	-9.04007
lu	-9.04081
▁far	-9.04099
▁propos	-9.04104
▁petite	-9.0414
▁young	-9.04148
▁planète	-9.04166
▁voici	-9.04282
▁penser	-9.04408
▁happened	-9.0447
▁laquelle	-9.04504
▁open	-9.04505
▁probably	-9.0456
▁build	-9.04561
L	-9.04616
▁room	-9.04674
▁Comment	-9.04678
ab	-9.04804
▁O	-9.04924
là	-9.04936
4	-9.04938
▁matter	-9.05095
▁quite	-9.05174
▁chance	-9.05178
▁energy	-9.05189
tion	-9.05289
même	-9.05348
▁move	-9.05942
▁form	-9.05996
con	-9.0602
tor	-9.06067
▁5	-9.06147
▁health	-9.06166
▁forme	-9.06216
lé	-9.06428
N	-9.06442
▁famille	-9.06457
▁reason	-9.06637
▁po	-9.06771
urs	-9.06856
▁experience	-9.0688
▁building	-9.07292
▁countries	-9.07567
▁réalité	-9.07573
avoir	-9.0766
vo	-9.07672
▁Africa	-9.07738
▁comes	-9.07853
▁propre	-9.07946
▁certains	-9.07984
▁trouvé	-9.08038
▁anything	-9.08213
G	-9.08222
go	-9.08245
▁All	-9.0844
▁difficile	-9.08517
▁utiliser	-9.08555
▁vont	-9.08587
▁cours	-9.08625
idée	-9.08635
▁Mo	-9.08751
▁ensemble	-9.08821
▁across	-9.08924
▁ensuite	-9.08984
▁pretty	-9.09162
▁H	-9.09188
▁comp	-9.09217
▁such	-9.09455
▁mère	-9.09462
▁coup	-9.09582
▁happen	-9.09604
ations	-9.1024
▁surface	-9.10271
rait	-9.10548
▁lorsque	-9.10634
▁bad	-9.10739
▁coming	-9.10959
ous	-9.10972
fi	-9.11635
▁billion	-9.11848
▁learn	-9.11884
▁gros	-9.12013
▁certain	-9.12074
agit	-9.12097
od	-9.12497
▁Qu	-9.12543
▁asked	-9.12556
▁base	-9.12628
▁CA	-9.12646
▁trouve	-9.12648
▁stuff	-9.12867
▁saw	-9.12939
ally	-9.12946
▁40	-9.12955
ow	-9.13127
▁living	-9.1324
▁Pourquoi	-9.13264
▁half	-9.13334
ary	-9.13437
▁18	-9.13551
▁hommes	-9.13826
der	-9.14018
]	-9.14049
mer	-9.14066
▁Internet	-9.14106
▁Let	-9.14344
ling	-9.14402
▁else	-9.14429
▁près	-9.14662
▁marché	-9.14712
▁tard	-9.14769
▁nom	-9.14908
▁début	-9.14992
▁force	-9.15035
▁having	-9.1512
H	-9.15135
▁ligne	-9.15143
ke	-9.15201
use	-9.15227
▁[	-9.15249
gi	-9.15277
▁war	-9.15333
▁bas	-9.15368
▁remember	-9.15372
▁fond	-9.15393
▁celui	-9.15563
▁while	-9.15638
os	-9.1567
and	-9.15713
▁case	-9.1573
▁hope	-9.15897
air	-9.16148
▁Here	-9.16238
▁autour	-9.16392
▁patients	-9.1642
▁often	-9.16442
▁single	-9.16587
▁appris	-9.16609
ach	-9.16748
argent	-9.16757
▁keep	-9.16823
▁times	-9.1691
▁vision	-9.17024
6	-9.17116
▁city	-9.17204
iez	-9.17421
▁lumière	-9.17423
▁project	-9.17424
ux	-9.17525
▁donné	-9.17636
▁seul	-9.17667
▁ni	-9.17691
!	-9.17705
▁mind	-9.1774
▁groupe	-9.1797
▁community	-9.18021
▁société	-9.18065
▁imagine	-9.1807
3	-9.18382
▁age	-9.18384
▁images	-9.18388
▁both	-9.18524
▁structure	-9.18554
▁changement	-9.18649
▁reste	-9.18674
▁bo	-9.18713
ted	-9.18724
▁later	-9.18878
▁produit	-9.18942
cu	-9.18993
▁Ro	-9.19007
▁To	-9.19061
▁seen	-9.19159
com	-9.19222
▁ex	-9.1924
▁di	-9.19278
▁différentes	-9.19615
▁St	-9.19765
je	-9.19827
avons	-9.1984
▁couple	-9.19976
▁w	-9.2002
▁solution	-9.20034
▁almost	-9.20047
▁planet	-9.20178
▁read	-9.20335
out	-9.20364
▁demandé	-9.20381
▁picture	-9.20518
ud	-9.20539
▁Earth	-9.2058
gu	-9.20635
▁ho	-9.20866
less	-9.20907
mon	-9.2099
▁business	-9.21009
ative	-9.21026
▁situation	-9.21142
▁control	-9.2127
ler	-9.21283
▁job	-9.21419
▁mort	-9.2152
▁parle	-9.21685
end	-9.22092
par	-9.22176
▁quatre	-9.22266
▁allons	-9.22448
ial	-9.22512
▁air	-9.22737
sh	-9.22871
▁presque	-9.22947
▁rend	-9.22995
▁music	-9.23253
▁already	-9.23289
iser	-9.23415
▁someone	-9.23544
▁computer	-9.23597
▁celle	-9.23625
rons	-9.23668
▁signifie	-9.23853
▁inside	-9.2394
▁goes	-9.24034
▁set	-9.24084
▁Do	-9.24086
▁recherche	-9.24097
▁myself	-9.24116
▁Ces	-9.24649
ors	-9.24651
▁vue	-9.24664
▁happens	-9.24699
do	-9.24793
▁travailler	-9.24829
▁name	-9.24936
▁réponse	-9.25031
▁wrong	-9.253
▁saying	-9.25301
▁attention	-9.25306
▁Des	-9.25325
ante	-9.25342
▁faisons	-9.25849
ise	-9.25968
▁yet	-9.26027
em	-9.26054
▁difficult	-9.26074
▁peur	-9.26186
▁homme	-9.26319
▁days	-9.26328
▁V	-9.26513
ns	-9.26525
▁sub	-9.26616
▁niveau	-9.26968
ep	-9.26997
▁12	-9.27286
▁Or	-9.27296
,000	-9.27324
▁looked	-9.27418
▁run	-9.27563
▁support	-9.27567
ici	-9.27782
▁v	-9.27956
▁mo	-9.28027
▁stop	-9.28163
▁history	-9.28215
moi	-9.28326
▁nothing	-9.28406
▁guerre	-9.28431
▁order	-9.28502
ier	-9.28539
▁États	-9.28605
énergie	-9.28608
▁également	-9.28656
ction	-9.28661
ized	-9.28726
▁Que	-9.28784
ign	-9.28809
isme	-9.28851
▁mother	-9.29023
ast	-9.29111
▁research	-9.29127
▁mot	-9.29298
▁whether	-9.29375
▁savons	-9.29448
▁technologies	-9.29481
ateur	-9.29593
▁milliards	-9.29612
▁state	-9.29671
▁donne	-9.29707
▁amazing	-9.29741
▁problems	-9.29873
▁group	-9.29948
▁politique	-9.29984
▁rest	-9.29991
▁sure	-9.30077
ster	-9.30185
▁book	-9.30321
▁once	-9.30322
land	-9.3039
act	-9.30409
▁arrive	-9.30577
▁enfant	-9.30584
▁année	-9.30849
▁front	-9.31049
▁Why	-9.31081
▁self	-9.31085
K	-9.31154
▁tête	-9.31919
▁ways	-9.32091
▁quelle	-9.32144
ins	-9.32248
▁months	-9.32311
▁makes	-9.32376
iens	-9.32385
▁haut	-9.32454
▁capacité	-9.32488
▁says	-9.32504
▁tellement	-9.32668
▁nouvelles	-9.32783
▁top	-9.32876
▁wasn	-9.32997
▁government	-9.33074
▁stories	-9.33092
▁inter	-9.33098
da	-9.33116
ator	-9.33173
▁partir	-9.33203
▁education	-9.33319
▁plusieurs	-9.33471
▁true	-9.33492
▁exist	-9.33498
▁continue	-9.33524
▁voulez	-9.33776
▁humain	-9.33922
▁Ba	-9.3402
▁beautiful	-9.34081
▁cent	-9.34098
▁child	-9.34151
▁robot	-9.34221
abord	-9.34269
▁language	-9.34387
appelle	-9.34406
▁night	-9.34496
▁dernière	-9.34634
▁cinq	-9.3466
▁Elles	-9.34695
old	-9.34725
▁video	-9.34807
▁pouvait	-9.34849
▁line	-9.34969
00	-9.35032
▁communauté	-9.35033
▁within	-9.35127
importe	-9.35448
▁commencer	-9.35551
F	-9.35603
9	-9.35739
dy	-9.35844
▁words	-9.35852
▁figure	-9.35856
▁cellules	-9.3592
▁terre	-9.35975
▁dernier	-9.36013
▁humains	-9.36098
▁heart	-9.36117
▁gouvernement	-9.36318
ib	-9.36337
ism	-9.36389
ful	-9.36397
▁guy	-9.36397
▁livre	-9.36561
▁».	-9.36566
▁impact	-9.36647
▁United	-9.36795
▁Bien	-9.36838
▁heard	-9.36991
▁créé	-9.37012
ca	-9.37049
▁model	-9.3714
▁imp	-9.37148
▁Be	-9.37203
▁différents	-9.37304
qui	-9.37405
ize	-9.37515
om	-9.37714
▁learned	-9.3777
▁6	-9.37775
▁incroyable	-9.37903
▁Terre	-9.37907
ég	-9.37928
▁Ne	-9.38077
we	-9.38117
▁knew	-9.38139
▁semble	-9.38234
▁market	-9.38245
▁expérience	-9.38361
▁faites	-9.38395
▁construire	-9.38458
▁probablement	-9.38553
▁aider	-9.38554
▁turn	-9.38607
▁cells	-9.38835
▁moyen	-9.39023
cent	-9.39029
▁prison	-9.39047
▁mesure	-9.39302
tes	-9.39379
▁vivre	-9.39522
▁woman	-9.39664
▁black	-9.3967
▁heures	-9.39679
▁60	-9.39696
▁share	-9.39838
ice	-9.40007
ga	-9.40088
▁pay	-9.40127
▁concept	-9.40128
▁idées	-9.40242
▁until	-9.40283
hy	-9.40309
ront	-9.40367
▁regarder	-9.40445
ob	-9.40468
▁voiture	-9.40786
▁7	-9.40796
▁close	-9.40832
▁table	-9.40836
line	-9.40891
▁difference	-9.41131
▁America	-9.4114
▁entendu	-9.41221
▁basically	-9.41223
▁fais	-9.41241
▁Bo	-9.41308
▁marche	-9.41441
▁Eh	-9.41514
▁arm	-9.4161
▁must	-9.41709
▁rendre	-9.41787
▁became	-9.42037
▁allez	-9.42072
▁25	-9.42078
▁siècle	-9.4212
▁mots	-9.42162
accord	-9.42205
▁decided	-9.42284
▁Comme	-9.42508
▁Y	-9.42528
▁message	-9.4257
The	-9.42571
▁violence	-9.42786
▁study	-9.42809
▁though	-9.42826
men	-9.42833
▁gr	-9.4286
▁père	-9.42889
▁futur	-9.42972
▁built	-9.43204
▁bi	-9.43215
▁te	-9.43227
▁patient	-9.43252
▁endroit	-9.43287
nu	-9.43319
▁écrit	-9.43443
ord	-9.43481
▁meilleur	-9.43577
▁modèle	-9.43599
▁free	-9.43613
▁color	-9.43755
▁Tu	-9.43779
▁environment	-9.43808
▁ideas	-9.43826
▁app	-9.44006
▁team	-9.44007
▁universe	-9.44092
pa	-9.4411
▁découvert	-9.44189
▁petits	-9.44318
▁présent	-9.44322
ite	-9.44476
▁friends	-9.44538
▁word	-9.44567
▁devez	-9.44569
all	-9.44604
▁San	-9.44679
▁house	-9.4471
▁grâce	-9.44723
▁développement	-9.44997
▁land	-9.4511
▁processus	-9.45111
▁voyage	-9.4515
▁view	-9.45204
▁centre	-9.45252
▁Voilà	-9.45321
▁Al	-9.45459
▁porte	-9.45484
ade	-9.45571
▁village	-9.45663
▁ourselves	-9.45749
▁11	-9.45772
▁vient	-9.45818
▁against	-9.45875
▁yeux	-9.45912
iques	-9.46008
▁code	-9.46107
▁hear	-9.4634
▁appelé	-9.46364
▁sound	-9.46373
▁commence	-9.4646
▁species	-9.46616
▁site	-9.46638
▁Car	-9.46668
▁Sa	-9.46904
▁intéressant	-9.46959
▁completely	-9.46999
▁décidé	-9.47058
▁devenir	-9.47103
▁afin	-9.47163
▁partout	-9.47268
▁voulais	-9.47309
▁disent	-9.47319
▁red	-9.47418
▁jeu	-9.47504
▁since	-9.47719
▁Bon	-9.47952
▁amis	-9.47957
▁Ra	-9.48134
▁exactly	-9.48136
▁themselves	-9.48185
▁Est	-9.48234
▁ba	-9.48265
▁im	-9.48385
▁phone	-9.48421
▁company	-9.4845
▁leave	-9.48467
▁80	-9.48492
▁permet	-9.485
▁choix	-9.48538
▁everybody	-9.48538
▁programme	-9.48669
▁fer	-9.4872
▁society	-9.48804
ical	-9.48824
▁States	-9.48834
ang	-9.49025
▁arrivé	-9.4907
▁taking	-9.49083
▁animal	-9.49085
▁bio	-9.49118
▁jeunes	-9.49211
▁somebody	-9.49337
▁step	-9.49424
▁demande	-9.4949
▁piece	-9.49503
▁disease	-9.49687
▁Google	-9.49694
▁sometimes	-9.49695
▁dur	-9.49782
dé	-9.4992
espace	-9.49944
▁utilisé	-9.50048
▁record	-9.50142
â	-9.50367
▁Ou	-9.50394
▁huge	-9.50604
fe	-9.50669
▁h	-9.50731
▁cell	-9.50766
▁isn	-9.50778
▁economic	-9.50786
▁At	-9.50879
▁Co	-9.51061
▁voilà	-9.51135
▁8	-9.51302
▁complètement	-9.51426
0	-9.51435
▁die	-9.51449
▁happening	-9.51661
und	-9.51784
information	-9.51899
▁looks	-9.5204
▁tr	-9.52154
▁Oui	-9.52221
ran	-9.52232
▁parfois	-9.52413
▁everyone	-9.52446
▁places	-9.5248
▁fi	-9.52503
▁fille	-9.52513
▁Puis	-9.52517
école	-9.52543
▁instead	-9.52596
▁post	-9.52868
▁level	-9.52932
rie	-9.53009
▁demand	-9.53107
▁facile	-9.5314
iste	-9.53157
▁walk	-9.53181
▁milliers	-9.53243
io	-9.53312
▁ta	-9.53396
▁hours	-9.53402
▁students	-9.53527
▁regardez	-9.53602
▁o	-9.53606
▁pensé	-9.53675
▁act	-9.53845
▁Ha	-9.53961
▁Non	-9.54021
▁loin	-9.54039
▁capable	-9.54053
▁micro	-9.54067
ng	-9.54124
▁ro	-9.54212
▁compris	-9.54582
tique	-9.54659
▁9	-9.54676
né	-9.54731
▁avions	-9.54741
▁certaines	-9.54743
app	-9.54788
▁worked	-9.54986
▁risk	-9.55053
▁itself	-9.55113
du	-9.55127
▁unique	-9.55254
▁police	-9.55333
▁tour	-9.55355
one	-9.55375
▁direction	-9.5539
▁montre	-9.55407
ible	-9.55599
W	-9.55754
▁position	-9.55846
▁source	-9.55846
rr	-9.55861
▁voit	-9.55896
ba	-9.5601
▁couldn	-9.56067
ateurs	-9.56094
ide	-9.56122
▁photograph	-9.56203
▁fish	-9.56353
▁created	-9.56389
▁connect	-9.56461
▁rapport	-9.56665
▁Mars	-9.56695
▁along	-9.5681
▁rather	-9.56829
▁sta	-9.56946
▁physique	-9.57012
▁plein	-9.57055
▁American	-9.57099
▁animaux	-9.57156
▁énorme	-9.57191
▁progress	-9.57404
▁early	-9.57433
▁aurait	-9.57462
▁taille	-9.57533
ning	-9.57553
▁Some	-9.57629
▁nourriture	-9.57694
▁thousands	-9.57743
▁classe	-9.57792
ring	-9.57861
▁su	-9.57947
▁ressemble	-9.58012
▁grow	-9.58046
▁musique	-9.58083
▁learning	-9.58152
▁conversation	-9.58157
isation	-9.58168
▁comportement	-9.58213
ç	-9.58255
▁aucune	-9.585
ssent	-9.58618
▁essayer	-9.58708
▁voulons	-9.58765
▁ha	-9.58807
▁histoires	-9.58948
▁sp	-9.58995
▁entire	-9.59152
▁maladie	-9.59165
▁économique	-9.59174
ities	-9.59257
▁short	-9.59355
ther	-9.59459
▁vidéo	-9.59676
gue	-9.5969
▁least	-9.59826
▁common	-9.59857
▁political	-9.59948
▁outside	-9.60048
▁meilleure	-9.60104
▁prend	-9.60138
▁fear	-9.60175
▁aucun	-9.60192
ick	-9.60207
▁virus	-9.60245
▁game	-9.60302
▁vo	-9.60314
▁dernières	-9.60423
▁demander	-9.60439
▁behavior	-9.60444
▁photos	-9.6046
▁robots	-9.60639
▁works	-9.60681
aires	-9.60687
▁Europe	-9.60793
▁lequel	-9.60848
▁sait	-9.60936
▁respect	-9.60981
lin	-9.60988
ème	-9.60994
▁version	-9.61033
è	-9.61069
▁feeling	-9.61166
▁vol	-9.61183
▁poor	-9.61229
▁trans	-9.61395
lle	-9.61435
▁friend	-9.61437
▁normal	-9.61465
▁animals	-9.61477
▁sh	-9.6171
▁dû	-9.61808
intérieur	-9.61921
▁Ca	-9.61946
▁won	-9.62027
bu	-9.62118
rais	-9.6212
▁turns	-9.62127
▁Me	-9.62286
pro	-9.62314
our	-9.62338
ber	-9.62365
▁impossible	-9.6237
ay	-9.62391
▁ocean	-9.62455
▁?"	-9.62515
▁particular	-9.6255
▁milieu	-9.62558
▁exactement	-9.62565
ute	-9.62616
▁buy	-9.6262
way	-9.6263
▁past	-9.62805
▁Pas	-9.62832
▁rapidement	-9.62833
▁Then	-9.62935
▁third	-9.62964
ger	-9.63064
▁ten	-9.63073
▁apprendre	-9.63183
aime	-9.63307
▁villes	-9.63314
nne	-9.63335
▁collect	-9.63391
▁fonctionne	-9.63425
▁machines	-9.63506
side	-9.63528
avez	-9.63565
▁mondiale	-9.63595
▁/	-9.63681
▁téléphone	-9.63682
▁jouer	-9.63782
▁gave	-9.63786
▁commun	-9.63799
▁arriver	-9.63832
▁fut	-9.63895
▁attend	-9.63941
▁full	-9.63969
▁changé	-9.6399
▁grands	-9.641
▁défi	-9.6422
▁cities	-9.64261
▁religion	-9.643
▁calcul	-9.64333
ug	-9.64341
▁cool	-9.64344
ome	-9.64362
▁felt	-9.64404
▁points	-9.64438
▁changed	-9.64494
▁sécurité	-9.64507
▁scale	-9.64597
car	-9.64698
▁contrôle	-9.6473
▁affect	-9.6475
port	-9.64778
▁entier	-9.64829
▁fonction	-9.64919
▁devrait	-9.64924
And	-9.64928
ire	-9.64941
▁salle	-9.64983
▁compassion	-9.65027
▁death	-9.65046
▁longtemps	-9.65135
▁200	-9.65223
ô	-9.65235
▁secret	-9.65236
▁Oh	-9.65276
▁field	-9.6528
▁équipe	-9.65324
▁Se	-9.65557
▁importante	-9.65631
▁companies	-9.65654
▁bou	-9.65699
▁accept	-9.65705
gen	-9.65803
▁taken	-9.65804
▁voyons	-9.65864
▁existe	-9.65999
▁devant	-9.66049
▁mé	-9.66069
▁droit	-9.66082
ish	-9.66173
wa	-9.66275
▁amount	-9.66286
▁fall	-9.66377
rez	-9.66403
▁middle	-9.66497
▁natural	-9.66705
▁easy	-9.66815
▁powerful	-9.6684
▁nuit	-9.66872
ienne	-9.66982
vis	-9.67033
▁India	-9.67109
▁humaine	-9.67124
▁Di	-9.67141
▁media	-9.6715
▁transform	-9.67419
the	-9.67458
▁90	-9.67508
▁fini	-9.67525
À	-9.6756
▁construit	-9.67667
▁behind	-9.67667
▁environnement	-9.67671
▁dois	-9.67864
▁national	-9.6797
og	-9.67978
red	-9.67996
▁appelle	-9.68025
▁Z	-9.68128
▁needed	-9.68186
▁veulent	-9.68203
▁conditions	-9.68336
▁pen	-9.68521
▁ver	-9.68567
▁week	-9.68572
aide	-9.68592
▁pensez	-9.68615
▁mouvement	-9.68632
▁fix	-9.68783
▁God	-9.68824
▁cost	-9.68924
uring	-9.6914
▁pi	-9.69142
▁transport	-9.69238
val	-9.69254
▁coût	-9.69257
▁seven	-9.69366
▁Ceci	-9.69562
▁reality	-9.69571
ble	-9.69606
▁selon	-9.69615
▁China	-9.69618
avait	-9.69975
▁perspective	-9.70049
year	-9.70053
▁paper	-9.70059
by	-9.702
▁seeing	-9.70409
▁systems	-9.70441
▁began	-9.7049
▁given	-9.70522
▁différence	-9.70546
▁service	-9.70571
▁bu	-9.70582
▁réalisé	-9.70616
▁yourself	-9.70709
▁vite	-9.7076
▁70	-9.70787
▁kinds	-9.70834
&	-9.71041
▁allé	-9.71102
▁news	-9.71186
▁entreprises	-9.71232
▁types	-9.71234
ization	-9.71262
ière	-9.71353
▁particulier	-9.71373
▁protect	-9.715
ché	-9.71505
▁scientifiques	-9.71509
▁parti	-9.71546
▁challenge	-9.71574
▁gauche	-9.71596
▁doivent	-9.71596
ward	-9.71618
▁realized	-9.71705
▁auto	-9.71788
▁k	-9.71809
▁domaine	-9.71836
▁devenu	-9.71874
▁access	-9.71923
▁mer	-9.72018
▁tend	-9.72171
▁low	-9.72187
▁An	-9.72274
▁grandes	-9.72299
".	-9.72326
▁puisse	-9.72361
hé	-9.72469
▁happy	-9.7249
▁century	-9.72536
▁turned	-9.72665
▁mine	-9.72715
▁size	-9.72961
▁guys	-9.73062
▁jeune	-9.73092
▁spend	-9.73177
uff	-9.73198
▁eyes	-9.73218
ition	-9.73219
▁prix	-9.73302
▁simply	-9.73393
▁traitement	-9.73409
time	-9.73428
▁14	-9.7349
▁chacun	-9.73508
▁combien	-9.73508
▁route	-9.73573
▁father	-9.73628
homme	-9.7363
▁trou	-9.73679
▁bar	-9.73729
▁Dieu	-9.73767
▁beginning	-9.73853
▁voice	-9.73857
▁rate	-9.73931
▁stay	-9.7394
▁oui	-9.73987
▁production	-9.74009
▁class	-9.74038
ien	-9.74138
▁génération	-9.74165
▁shape	-9.74192
▁différent	-9.74209
▁deuxième	-9.7421
▁parlé	-9.74212
▁Chine	-9.74299
▁Chris	-9.74303
▁stress	-9.74303
▁cannot	-9.74307
▁17	-9.74331
▁anti	-9.74422
▁communication	-9.74445
▁solve	-9.74512
▁longer	-9.74527
rop	-9.74532
▁réellement	-9.74578
ables	-9.74614
tant	-9.74662
▁center	-9.74671
▁Mi	-9.74676
▁measure	-9.74762
▁movement	-9.74817
▁explain	-9.74876
▁pouvais	-9.74876
▁cap	-9.74905
▁innovation	-9.74926
▁regarde	-9.75155
des	-9.75184
▁réussi	-9.75316
▁key	-9.75343
▁travaille	-9.75389
▁visual	-9.75458
▁Ho	-9.75733
▁sign	-9.75762
▁fun	-9.75953
▁Po	-9.75979
▁effet	-9.76022
▁represent	-9.76033
▁16	-9.76087
U	-9.76133
▁regard	-9.76156
▁sex	-9.76251
▁finally	-9.76282
▁Our	-9.76319
ak	-9.76349
▁capital	-9.76364
▁personal	-9.76398
▁program	-9.764
org	-9.76407
▁area	-9.76427
▁solutions	-9.76639
▁terme	-9.76704
ê	-9.76705
▁services	-9.76792
▁Da	-9.76804
▁espace	-9.76815
▁stand	-9.76863
▁nouveaux	-9.76926
nant	-9.76961
▁croissance	-9.7697
▁signal	-9.76995
▁white	-9.77
▁value	-9.77006
▁Just	-9.77011
cle	-9.7704
▁eight	-9.77332
▁prochaine	-9.77359
▁Ainsi	-9.77439
nes	-9.77551
▁generation	-9.77589
aimerais	-9.77656
▁institutions	-9.77657
▁People	-9.77675
ès	-9.77719
▁produits	-9.77759
▁suite	-9.77779
industrie	-9.77793
▁perhaps	-9.77794
▁venir	-9.77821
▁fa	-9.77881
▁bout	-9.77882
▁hands	-9.77911
▁port	-9.78022
▁nécessaire	-9.78031
▁speak	-9.78072
▁Te	-9.78179
▁confiance	-9.78274
▁map	-9.78347
▁réseau	-9.78365
▁sortir	-9.78424
▁voix	-9.7851
▁devient	-9.78594
▁begin	-9.7867
▁terms	-9.78729
▁moving	-9.78746
▁zone	-9.78841
▁informations	-9.7887
▁climate	-9.78962
▁action	-9.79139
▁lost	-9.79232
ah	-9.79361
▁experiment	-9.79459
▁sent	-9.79588
▁kid	-9.79606
esprit	-9.79618
▁centaines	-9.79676
▁present	-9.79817
bas	-9.79865
raient	-9.79909
ments	-9.80022
▁carte	-9.80045
▁blood	-9.80069
▁chemin	-9.8007
▁mission	-9.80171
▁others	-9.80259
▁sol	-9.8031
▁systèmes	-9.80404
année	-9.80514
▁special	-9.8068
▁Go	-9.80801
▁perdu	-9.80835
▁pick	-9.80842
▁strong	-9.80921
▁individual	-9.81023
▁rendu	-9.8105
▁fe	-9.8106
▁break	-9.81119
▁ve	-9.8112
▁filles	-9.81141
ious	-9.81155
▁document	-9.81166
V	-9.81167
▁rare	-9.81188
▁petites	-9.81272
▁spent	-9.81394
▁wonderful	-9.81459
▁product	-9.81473
▁hu	-9.81566
ship	-9.81582
▁final	-9.81583
▁fil	-9.81823
▁semaine	-9.81847
▁pratique	-9.81902
▁contact	-9.81903
▁♪	-9.81904
lement	-9.81915
▁plant	-9.81925
▁ground	-9.81951
▁sold	-9.81959
iff	-9.82046
fu	-9.82048
▁dessus	-9.82134
▁résoudre	-9.82274
▁John	-9.82395
▁quickly	-9.82444
▁étudiants	-9.82508
mar	-9.82521
▁ability	-9.82547
▁tried	-9.82558
▁bus	-9.8272
▁blue	-9.82771
▁vivant	-9.82856
duc	-9.82863
▁fire	-9.82892
▁prise	-9.82903
▁produce	-9.82916
▁com	-9.82971
king	-9.83041
▁cut	-9.83066
▁autant	-9.83192
▁approach	-9.8327
▁cœur	-9.8327
▁moitié	-9.8327
▁born	-9.83343
▁mode	-9.83351
mêmes	-9.83379
▁droite	-9.83415
▁sentiment	-9.83455
▁partager	-9.83461
▁report	-9.83475
▁girl	-9.83517
▁ob	-9.83648
▁choisi	-9.83731
▁lit	-9.83889
▁focus	-9.83943
▁travel	-9.84023
▁relation	-9.8403
▁endroits	-9.84081
▁vent	-9.84108
▁issue	-9.84232
riez	-9.84302
▁Dr	-9.84334
inter	-9.84412
▁opportunity	-9.84528
▁dés	-9.84562
▁whatever	-9.84565
▁offer	-9.84576
▁semaines	-9.84586
ual	-9.84606
▁known	-9.84696
▁radio	-9.84756
▁efficace	-9.84782
▁moral	-9.84838
▁ri	-9.84911
▁wall	-9.84939
▁page	-9.85006
▁hit	-9.85013
▁prêt	-9.85097
naire	-9.85161
▁oil	-9.8517
▁allow	-9.85183
▁valeur	-9.85239
▁fast	-9.85242
▁mur	-9.85243
▁ca	-9.85258
années	-9.85277
▁rep	-9.85335
Afrique	-9.85344
▁série	-9.85539
éducation	-9.85601
▁tel	-9.85662
▁distance	-9.85676
ami	-9.85678
▁rôle	-9.85803
▁complex	-9.85838
▁minute	-9.85873
▁win	-9.85913
▁article	-9.85991
▁visage	-9.85996
form	-9.86219
▁interested	-9.86344
▁profit	-9.8639
▁rouge	-9.86451
▁court	-9.86457
▁pe	-9.86576
▁fr	-9.86609
led	-9.86636
▁soient	-9.86641
▁résultats	-9.86683
▁multi	-9.867
▁World	-9.86705
▁montré	-9.86705
▁étions	-9.86726
▁risque	-9.86941
▁eat	-9.86972
▁13	-9.86975
vers	-9.87025
▁état	-9.87045
▁charge	-9.87066
▁derrière	-9.87094
▁gone	-9.87097
▁weeks	-9.8711
▁stage	-9.87131
▁né	-9.87149
fo	-9.87233
▁content	-9.8726
▁Right	-9.87366
▁pourraient	-9.87444
tive	-9.87492
▁web	-9.87565
You	-9.87607
▁laisser	-9.87647
▁hold	-9.8774
cy	-9.87768
ole	-9.87958
▁Not	-9.87991
▁African	-9.88056
▁character	-9.88139
▁positive	-9.88166
▁instant	-9.88239
▁DNA	-9.88271
iers	-9.88289
mes	-9.88362
▁lead	-9.88384
▁reach	-9.88389
▁either	-9.88402
▁justice	-9.88442
▁habit	-9.88491
▁provide	-9.88534
J	-9.88542
▁clear	-9.88558
▁500	-9.88573
▁matin	-9.8859
ever	-9.8862
▁gets	-9.88661
▁Okay	-9.88711
▁growth	-9.88717
▁sitting	-9.88732
lan	-9.88754
▁write	-9.88798
▁Can	-9.88799
ok	-9.88926
▁conférence	-9.8893
▁21	-9.88964
▁based	-9.89067
▁Mar	-9.8911
▁qualité	-9.8921
ures	-9.89236
▁Afrique	-9.89273
▁result	-9.89383
▁extra	-9.89391
▁deep	-9.89417
▁esprit	-9.89426
▁terrible	-9.89461
▁voudrais	-9.89461
▁durant	-9.8947
▁rencontré	-9.89554
▁Facebook	-9.89594
ase	-9.89614
▁Après	-9.89614
espère	-9.8963
▁venu	-9.89648
▁déc	-9.89718
▁lots	-9.89719
▁needs	-9.8977
▁Aujourd	-9.89861
▁quantité	-9.89878
▁lorsqu	-9.8996
pp	-9.90031
▁propres	-9.90035
▁camera	-9.90041
▁Pro	-9.90166
▁pensent	-9.90181
▁réel	-9.90191
▁maladies	-9.90253
tation	-9.90345
▁vérité	-9.90397
▁trust	-9.90397
▁box	-9.90403
▁théorie	-9.90531
▁visit	-9.90548
▁economy	-9.90666
▁ac	-9.90723
▁realize	-9.90734
▁Li	-9.90785
▁lu	-9.90793
▁touch	-9.90799
euse	-9.90893
▁sea	-9.9094
▁audience	-9.90956
▁tendance	-9.9096
▁takes	-9.90964
▁serve	-9.90998
▁scientifique	-9.91075
▁fu	-9.91117
▁construction	-9.91259
▁material	-9.91321
▁similar	-9.91342
▁réalis	-9.91393
▁average	-9.91479
▁pr	-9.9156
▁safe	-9.91561
▁nombreux	-9.91641
▁growing	-9.91659
▁truth	-9.91749
▁scientists	-9.91855
▁digital	-9.91886
▁pain	-9.91924
▁crise	-9.92014
izing	-9.92072
▁différente	-9.92139
▁sociale	-9.92144
▁passion	-9.92212
▁Peut	-9.92217
amour	-9.92231
utiliser	-9.92238
▁medical	-9.92302
▁développé	-9.92404
▁lire	-9.92445
▁drive	-9.92459
ping	-9.92498
▁standard	-9.92585
ray	-9.92725
▁South	-9.92787
▁télé	-9.92853
nait	-9.92956
▁knowledge	-9.92982
▁alone	-9.92995
▁understanding	-9.93088
▁camp	-9.93094
▁organ	-9.93148
▁accident	-9.93167
▁network	-9.93301
▁humans	-9.93342
▁wouldn	-9.93384
▁morning	-9.93535
▁invest	-9.93673
▁thank	-9.93675
▁effect	-9.93697
▁seconde	-9.93777
▁nombreuses	-9.93814
▁leaders	-9.93888
▁mou	-9.93936
ny	-9.93943
▁X	-9.93952
▁Sp	-9.94079
▁hospital	-9.94091
▁deal	-9.9418
▁Notre	-9.94234
▁finalement	-9.94255
▁pièce	-9.94304
▁literally	-9.9437
▁movie	-9.94371
▁performance	-9.94385
▁physical	-9.94541
▁Avec	-9.94792
ult	-9.94855
rap	-9.94882
▁brought	-9.94931
▁parts	-9.94994
▁es	-9.95021
▁troisième	-9.95223
▁emb	-9.95236
▁Cha	-9.9524
▁gas	-9.95259
▁dessin	-9.95314
▁intelligent	-9.95321
ium	-9.95398
▁pourrions	-9.95428
What	-9.95447
▁termes	-9.95465
▁pan	-9.95588
▁incredible	-9.95636
▁descend	-9.95655
▁watch	-9.9577
▁matière	-9.95778
époque	-9.95873
univers	-9.95984
▁telling	-9.9602
▁Br	-9.96027
▁Vi	-9.96103
▁reli	-9.96213
ête	-9.9629
▁green	-9.96347
▁shows	-9.96573
▁ordinateur	-9.96582
Oh	-9.9672
▁dream	-9.96792
▁journée	-9.96797
▁hundreds	-9.96812
▁soi	-9.96906
▁devrions	-9.96918
▁connaissance	-9.96918
▁langue	-9.9692
▁parmi	-9.96924
ding	-9.97026
▁professeur	-9.97061
▁disait	-9.97114
off	-9.9716
▁cou	-9.97227
▁résultat	-9.9723
ologie	-9.9724
ages	-9.97246
▁livres	-9.9735
▁surtout	-9.97351
▁mental	-9.97479
istic	-9.97488
▁strange	-9.97497
▁direct	-9.97516
▁tools	-9.97593
▁mauvais	-9.97603
▁girls	-9.97642
▁essayé	-9.97667
▁produire	-9.97683
▁ban	-9.97712
▁development	-9.97742
▁24	-9.97769
▁scène	-9.97782
▁nice	-9.97796
▁continu	-9.97861
▁Na	-9.97898
▁faisant	-9.97933
issent	-9.97963
▁étant	-9.98022
▁Ensuite	-9.98217
gram	-9.98276
ris	-9.98341
▁doute	-9.9843
cal	-9.98454
▁extraordinaire	-9.98507
▁pensons	-9.9851
her	-9.98553
▁seems	-9.9857
▁voie	-9.98651
▁wrote	-9.98653
▁giving	-9.98654
▁climatique	-9.9868
▁heureux	-9.98805
lon	-9.9883
rent	-9.98919
▁dépend	-9.98946
ule	-9.98992
▁ressources	-9.99069
▁race	-9.99096
▁fou	-9.99165
▁influence	-9.99172
avi	-9.99207
▁encourage	-9.99276
like	-9.99353
▁faible	-9.99394
ja	-9.99435
▁likely	-9.99474
▁numbers	-9.99495
ose	-9.99514
Well	-9.99546
▁général	-9.99652
▁taux	-9.99671
▁starting	-9.99708
▁crée	-9.9971
ren	-9.99755
ham	-9.99765
bra	-9.99787
▁bottom	-9.99827
▁pose	-9.99854
ps	-9.99861
ake	-9.9997
▁reçu	-9.99975
▁baby	-10.0013
▁forward	-10.0014
▁feet	-10.0014
▁raisons	-10.0019
vé	-10.002
▁Pa	-10.0021
fin	-10.0022
▁trait	-10.0024
▁running	-10.0029
▁areas	-10.0029
▁époque	-10.0032
▁developed	-10.0032
▁ami	-10.0034
▁travaillé	-10.0036
▁goal	-10.0039
▁nation	-10.0048
▁meet	-10.005
▁dark	-10.0056
▁continent	-10.0072
▁road	-10.0075
nel	-10.0097
▁pla	-10.01
▁vis	-10.0101
ros	-10.0113
▁vitesse	-10.0119
▁anyone	-10.0121
▁faisait	-10.0127
ability	-10.0128
▁char	-10.0129
▁développer	-10.0131
▁longue	-10.0131
▁industry	-10.0131
▁vois	-10.0134
▁issues	-10.0144
▁star	-10.0146
▁modern	-10.015
aller	-10.015
▁success	-10.0151
▁push	-10.0153
▁blanc	-10.016
▁intelligence	-10.0163
▁Hu	-10.0176
▁discovered	-10.0177
▁ait	-10.018
▁viv	-10.0196
▁Sud	-10.0207
▁miles	-10.0211
▁teach	-10.0215
▁major	-10.0217
▁rapide	-10.0221
▁especially	-10.0222
row	-10.0229
▁obtenir	-10.0233
▁listen	-10.0244
▁mètres	-10.0253
▁entreprise	-10.0262
amb	-10.0267
▁Ka	-10.0282
aï	-10.0284
▁vies	-10.0287
▁asking	-10.0293
▁seront	-10.0295
▁aura	-10.0299
▁Sur	-10.0311
océan	-10.0312
emb	-10.0318
ka	-10.0321
▁worth	-10.0335
▁books	-10.0338
ets	-10.0338
▁spread	-10.0359
▁Ni	-10.0362
▁lab	-10.0363
▁lors	-10.0367
▁Du	-10.0371
▁soon	-10.0375
▁belle	-10.0379
▁importe	-10.0379
▁moyenne	-10.0388
▁commercial	-10.0389
cho	-10.0396
▁outils	-10.0398
▁eye	-10.0399
expérience	-10.0403
▁génétique	-10.0405
lock	-10.0407
▁vraie	-10.0413
▁conscience	-10.042
▁voulait	-10.042
▁rester	-10.0421
ana	-10.0421
▁guess	-10.0436
ient	-10.0437
▁voitures	-10.0442
▁save	-10.0444
▁role	-10.0445
qué	-10.045
▁terrain	-10.0451
▁période	-10.0451
▁creating	-10.0451
▁réfléchir	-10.0453
▁ice	-10.0456
▁develop	-10.0459
▁subject	-10.0467
▁recognize	-10.0482
▁With	-10.0486
▁send	-10.0488
▁etc	-10.0488
▁crime	-10.0489
▁choice	-10.0494
ification	-10.0498
▁règles	-10.0501
▁demi	-10.0503
▁pa	-10.0516
▁Yeah	-10.0519
▁mi	-10.0521
▁fils	-10.0527
▁relations	-10.0527
▁relationship	-10.0527
tch	-10.0527
imp	-10.0528
atif	-10.0538
évolution	-10.0541
▁vivent	-10.0553
cher	-10.0555
▁nu	-10.0557
▁raconter	-10.0557
▁cru	-10.0561
▁succès	-10.0576
▁Qui	-10.0577
▁chercher	-10.0578
for	-10.059
▁viennent	-10.0591
▁soleil	-10.0592
▁communities	-10.0592
▁assis	-10.0595
▁pire	-10.06
▁premiers	-10.0601
▁pauvres	-10.0618
▁active	-10.0627
▁pensée	-10.063
light	-10.0631
▁prop	-10.0634
▁pé	-10.0644
van	-10.0651
▁mass	-10.0653
▁papier	-10.0654
▁atteint	-10.0655
▁carbon	-10.0656
▁utilisant	-10.0674
▁designed	-10.068
nge	-10.068
▁path	-10.068
▁total	-10.0686
née	-10.0688
▁utilise	-10.0689
▁tiny	-10.0702
▁trouble	-10.0703
▁online	-10.0714
▁ir	-10.0719
▁office	-10.0724
▁manque	-10.0729
▁politiques	-10.0729
▁seem	-10.0732
▁screen	-10.0733
▁agree	-10.0735
▁groupes	-10.0742
▁op	-10.0746
▁dead	-10.0755
▁peine	-10.0768
▁follow	-10.077
▁recently	-10.0771
▁double	-10.078
▁joue	-10.0781
▁Plus	-10.0783
pé	-10.0789
▁300	-10.0797
dessus	-10.0813
▁Même	-10.0813
▁door	-10.0814
▁bras	-10.0814
▁law	-10.0824
ologist	-10.0834
▁Su	-10.0836
nger	-10.0853
▁favorite	-10.0862
ock	-10.0863
▁découvrir	-10.0865
ze	-10.0869
▁Mu	-10.087
isé	-10.087
▁langage	-10.0878
oli	-10.0883
ison	-10.0883
▁smart	-10.0895
▁rue	-10.0899
▁changing	-10.09
▁noir	-10.0902
▁revolution	-10.091
▁satellite	-10.091
▁genetic	-10.0914
ari	-10.0914
▁défini	-10.0925
ane	-10.0928
▁zones	-10.093
▁étude	-10.093
▁collective	-10.0931
▁pri	-10.0934
▁cycle	-10.0943
▁wonder	-10.0948
▁kill	-10.0965
▁showed	-10.0975
▁certaine	-10.099
▁changes	-10.099
cha	-10.0992
▁solaire	-10.0994
▁absolutely	-10.0994
▁basic	-10.1001
▁coin	-10.1002
▁portable	-10.1005
▁period	-10.1008
▁sleep	-10.1008
▁treat	-10.1009
▁cher	-10.1011
▁marcher	-10.1013
▁déco	-10.1013
ack	-10.1015
oy	-10.1017
▁tri	-10.1033
▁retour	-10.1034
▁Inde	-10.1037
impression	-10.1041
▁couleur	-10.1056
▁evidence	-10.1057
▁By	-10.1057
▁pourriez	-10.1065
lam	-10.1067
▁expect	-10.1068
day	-10.1068
▁fit	-10.1068
▁mobile	-10.1073
▁Imaginez	-10.1077
uis	-10.1085
▁allait	-10.1089
▁dirige	-10.109
image	-10.1091
▁towards	-10.1094
▁forces	-10.1097
▁connu	-10.11
▁vote	-10.1104
▁lien	-10.1109
▁War	-10.111
si	-10.1116
▁journey	-10.1125
▁talked	-10.1126
▁courage	-10.1127
étaient	-10.113
▁conçu	-10.1139
arr	-10.1152
rate	-10.1164
▁connection	-10.1164
top	-10.1166
▁savent	-10.117
▁sport	-10.117
▁beyond	-10.1173
▁énergie	-10.1182
▁adopt	-10.1189
▁cat	-10.1191
▁mains	-10.1197
▁international	-10.1205
▁pouvaient	-10.1206
▁libre	-10.1206
▁celles	-10.1213
▁add	-10.1221
▁sun	-10.1224
▁fly	-10.1225
▁resources	-10.1231
ight	-10.1235
ists	-10.1238
▁clean	-10.124
environnement	-10.124
▁street	-10.125
sol	-10.1259
▁continuer	-10.1265
non	-10.1272
▁intéressante	-10.1277
▁publique	-10.129
nez	-10.1309
▁playing	-10.131
▁haute	-10.1315
▁fight	-10.1319
▁treatment	-10.1321
▁Certains	-10.1323
▁response	-10.1323
▁croire	-10.1324
▁massive	-10.1326
âge	-10.1327
ica	-10.1347
▁région	-10.1348
don	-10.135
rk	-10.135
▁sociaux	-10.1357
▁poser	-10.1365
▁viol	-10.1366
Et	-10.1371
▁algorithm	-10.1371
▁incredibly	-10.1374
cor	-10.1381
cation	-10.1385
▁répond	-10.1391
▁révolution	-10.1392
▁regardé	-10.1414
▁ouvert	-10.1417
▁aide	-10.1429
▁modèles	-10.143
▁First	-10.1442
▁truc	-10.1442
▁espèces	-10.1454
▁attack	-10.1459
▁tâche	-10.146
▁ét	-10.1461
▁interest	-10.1468
▁gene	-10.1468
▁réaliser	-10.1471
▁forte	-10.1474
▁invent	-10.1476
▁conception	-10.1477
▁Nord	-10.148
▁infrastructure	-10.1484
▁sang	-10.1487
▁Com	-10.1492
lay	-10.1494
▁region	-10.1494
▁bigger	-10.1497
▁lived	-10.1498
▁argument	-10.1498
éré	-10.15
èrent	-10.1504
▁increase	-10.1505
▁hundred	-10.1506
▁search	-10.1511
▁sit	-10.1521
▁condition	-10.1524
▁sortes	-10.1524
▁génial	-10.1528
▁theory	-10.1544
▁Chaque	-10.1548
▁vert	-10.1551
▁ton	-10.1564
low	-10.1567
▁sounds	-10.1568
▁médicaments	-10.157
avant	-10.1575
▁pourtant	-10.158
▁bâtiment	-10.1581
nelle	-10.1584
▁track	-10.1584
spect	-10.1588
▁rêve	-10.1592
▁object	-10.1593
▁English	-10.1597
▁practice	-10.1597
▁rempli	-10.1597
▁drug	-10.1597
▁deliver	-10.1598
▁developing	-10.1605
put	-10.1612
▁laboratoire	-10.1615
▁É	-10.1623
ls	-10.1624
▁Every	-10.1631
▁pensais	-10.1632
▁potential	-10.1638
▁cor	-10.1641
▁gars	-10.1643
▁conduit	-10.1649
▁grandi	-10.1653
▁plu	-10.166
istes	-10.1663
▁consider	-10.1664
▁Maybe	-10.1664
▁check	-10.1667
économie	-10.1669
▁découverte	-10.1672
▁objectif	-10.1676
▁objets	-10.1679
mat	-10.168
oo	-10.1682
▁event	-10.1692
▁bureau	-10.1699
▁sept	-10.1705
▁ayant	-10.1706
chi	-10.1707
▁recherches	-10.1711
nom	-10.1726
▁predict	-10.1729
▁solar	-10.1731
▁Beaucoup	-10.1737
▁meilleurs	-10.1742
atrice	-10.1745
▁term	-10.1751
▁appelée	-10.1751
▁adapt	-10.1752
▁économie	-10.1752
uit	-10.1757
ify	-10.1757
▁perfect	-10.1757
su	-10.1769
▁several	-10.1772
▁chef	-10.1772
▁Am	-10.1776
▁lose	-10.1776
▁putting	-10.1783
▁bonnes	-10.1787
▁tradition	-10.1793
▁yes	-10.1795
▁pull	-10.1796
▁cherche	-10.1806
▁surprise	-10.1807
▁démocratie	-10.1807
▁mauvaise	-10.1813
▁courant	-10.1816
▁block	-10.182
▁représente	-10.1825
▁espèce	-10.1825
▁wait	-10.1836
▁quartier	-10.1843
▁Man	-10.1849
▁jobs	-10.1853
han	-10.1864
▁store	-10.1869
ries	-10.1872
▁inform	-10.1877
leur	-10.1886
▁savais	-10.1886
▁fail	-10.1888
▁groups	-10.1892
▁Of	-10.1894
inte	-10.1898
▁ran	-10.1918
▁notion	-10.192
▁month	-10.192
▁danger	-10.1927
▁exp	-10.1931
▁achieve	-10.1932
▁rat	-10.1941
▁suivante	-10.1942
▁pot	-10.1943
▁approche	-10.1945
▁station	-10.1947
▁available	-10.195
▁North	-10.195
adore	-10.1961
▁suivre	-10.1968
▁libér	-10.197
isant	-10.1975
vol	-10.1977
▁appear	-10.1986
▁ordinateurs	-10.1987
▁discussion	-10.1997
▁Don	-10.2006
▁expériences	-10.2011
▁liste	-10.2012
▁dog	-10.2017
▁vit	-10.2022
▁combat	-10.2022
▁account	-10.2022
▁threat	-10.2022
▁gaz	-10.2023
▁college	-10.2023
▁transformation	-10.2023
kin	-10.203
▁perform	-10.2041
fer	-10.2047
▁carbone	-10.2059
édit	-10.2063
ned	-10.2065
▁successful	-10.2071
▁families	-10.2077
▁perception	-10.2077
Le	-10.2078
▁numérique	-10.2078
▁died	-10.2079
▁employ	-10.2085
▁appel	-10.2091
▁forest	-10.2094
",	-10.2107
avère	-10.2116
▁Yes	-10.2119
▁involved	-10.2122
▁Lorsque	-10.2124
▁loi	-10.2129
▁Etats	-10.2137
igne	-10.2138
▁slow	-10.2141
▁reasons	-10.2148
▁magnifique	-10.215
▁fort	-10.215
▁pair	-10.2151
j	-10.2181
▁moments	-10.2188
▁architecture	-10.2189
▁haven	-10.2203
▁parties	-10.2203
▁bizarre	-10.2205
▁choose	-10.2205
▁National	-10.2205
▁original	-10.2208
▁soins	-10.221
lée	-10.2212
▁imaginer	-10.2219
apprentissage	-10.2223
ong	-10.223
▁cro	-10.2232
▁feed	-10.2236
▁champ	-10.2239
▁emp	-10.2239
▁accès	-10.2239
▁After	-10.2242
tter	-10.2248
No	-10.225
▁Pendant	-10.226
humanité	-10.2262
▁mari	-10.2264
▁perd	-10.2271
ude	-10.2274
▁comprend	-10.228
▁wish	-10.2286
▁boy	-10.2293
▁jeux	-10.2296
▁sociétés	-10.2299
▁breath	-10.2316
ft	-10.2319
▁rules	-10.2322
▁aren	-10.2328
▁meaning	-10.2334
▁bank	-10.2335
▁correspond	-10.2335
▁récemment	-10.2335
▁blog	-10.2338
▁Who	-10.2345
▁radical	-10.2351
ches	-10.2353
▁interview	-10.2354
▁feu	-10.2356
ki	-10.2357
over	-10.2358
cré	-10.2361
▁investi	-10.2365
▁Har	-10.2369
▁potentiel	-10.2372
▁scientific	-10.2372
▁card	-10.2379
▁alternative	-10.2391
▁débat	-10.2391
▁further	-10.2392
▁complexe	-10.2396
▁création	-10.2397
let	-10.2397
▁Fa	-10.2399
▁bons	-10.24
▁muscle	-10.241
▁magic	-10.2414
▁nine	-10.2419
▁Washington	-10.2429
▁liberté	-10.2429
▁speed	-10.2429
▁vécu	-10.2429
▁decision	-10.2435
▁wind	-10.244
étique	-10.2447
▁refus	-10.2448
▁finding	-10.2457
lant	-10.2459
▁communautés	-10.2459
éni	-10.2461
▁function	-10.2465
–	-10.2466
▁phrase	-10.2466
▁films	-10.2473
▁enter	-10.2476
▁civil	-10.2476
▁conflit	-10.2485
▁cour	-10.2485
▁suggest	-10.2486
▁uniquement	-10.2487
▁puissant	-10.249
▁transformer	-10.249
ging	-10.2499
vent	-10.2504
▁writing	-10.2504
▁école	-10.2507
▁contribu	-10.2508
▁doctor	-10.2515
▁Ta	-10.2517
▁consomm	-10.2518
nais	-10.252
▁réfléchi	-10.2521
▁méthode	-10.2523
▁West	-10.2532
▁Lo	-10.2532
▁tas	-10.2537
▁list	-10.2539
▁medicine	-10.2542
▁grew	-10.2542
▁email	-10.2543
▁manger	-10.255
▁device	-10.2553
▁remain	-10.2562
▁flow	-10.2562
▁réaction	-10.2583
▁échelle	-10.2589
▁projets	-10.2591
▁interact	-10.2593
▁extrêmement	-10.2605
▁couche	-10.2605
▁tent	-10.2608
▁Th	-10.261
▁near	-10.2612
▁aime	-10.2614
▁telle	-10.2615
ssons	-10.2617
▁personnel	-10.2618
▁moved	-10.262
▁sexe	-10.2623
où	-10.2625
▁capables	-10.2631
avenir	-10.2637
▁return	-10.2638
▁rich	-10.2639
▁changements	-10.2643
▁masse	-10.2645
û	-10.2645
▁études	-10.2646
nement	-10.2647
▁computers	-10.2648
▁expliquer	-10.2649
▁conflict	-10.2657
▁David	-10.2657
▁pauvreté	-10.2659
▁drugs	-10.2659
▁élevé	-10.2665
▁mise	-10.2666
▁médias	-10.2674
▁poverty	-10.2677
▁tôt	-10.2677
▁Chinese	-10.2679
▁Vo	-10.2682
▁walking	-10.2686
▁utilisent	-10.2693
▁throw	-10.2696
▁creative	-10.2696
▁particularly	-10.2697
▁soir	-10.27
▁discover	-10.2701
▁amp	-10.2702
▁cover	-10.2707
▁becomes	-10.2707
▁moderne	-10.2712
▁technique	-10.2712
▁protection	-10.2713
▁cross	-10.2713
▁talent	-10.2716
▁supposed	-10.2719
heure	-10.2721
Amérique	-10.2721
▁répondu	-10.2724
▁structures	-10.2732
▁Sh	-10.2734
▁responsable	-10.2735
▁biggest	-10.2735
ov	-10.2736
za	-10.2745
▁sentir	-10.2745
▁répondre	-10.2745
▁chant	-10.275
▁disant	-10.2757
▁text	-10.2759
▁higher	-10.276
▁gives	-10.2768
état	-10.2772
▁skin	-10.2773
▁partage	-10.2779
▁central	-10.2781
▁cri	-10.2786
ène	-10.2791
▁student	-10.2792
▁connais	-10.2795
▁origin	-10.2812
▁pictures	-10.2812
▁trucs	-10.282
▁étape	-10.2821
▁compagnie	-10.2833
▁draw	-10.2834
▁hot	-10.2837
▁count	-10.2838
▁parent	-10.2839
▁étrange	-10.2842
work	-10.2844
iti	-10.2845
▁showing	-10.2845
▁vieux	-10.2848
▁droits	-10.2848
▁join	-10.2852
▁software	-10.2852
▁Ici	-10.2857
▁chiffres	-10.2858
▁beau	-10.2859
▁mange	-10.286
▁meeting	-10.2863
▁ferme	-10.2867
▁context	-10.2869
▁désir	-10.2872
▁exciting	-10.2872
ordinateur	-10.2878
▁fine	-10.2881
▁arriv	-10.2885
▁"(	-10.2892
▁anybody	-10.2892
▁crazy	-10.2892
▁similaire	-10.2892
antes	-10.2892
We	-10.2897
▁Even	-10.2898
ADN	-10.2898
▁totalement	-10.2898
ache	-10.2902
▁match	-10.2902
▁price	-10.2903
▁certainly	-10.2907
▁daughter	-10.2911
▁security	-10.2914
▁génér	-10.2917
▁urban	-10.2918
▁protéger	-10.292
▁watching	-10.2923
▁bat	-10.2928
▁fuel	-10.2935
▁organization	-10.2935
▁Paul	-10.2937
▁Pe	-10.2946
▁hole	-10.2947
isée	-10.2957
▁réuni	-10.2957
▁general	-10.296
▁depend	-10.2962
▁entend	-10.2963
▁ép	-10.2964
▁noire	-10.2966
▁invisible	-10.2971
▁US	-10.2981
▁enfin	-10.2988
ped	-10.2989
▁Ri	-10.2991
▁médecine	-10.2996
▁quality	-10.2996
bb	-10.2998
▁ph	-10.3002
▁sein	-10.3005
wi	-10.3006
▁Twitter	-10.3011
▁stick	-10.3011
▁frère	-10.3013
bri	-10.3021
▁correct	-10.3029
▁absolument	-10.3034
▁choisir	-10.3037
▁farm	-10.3046
mate	-10.3049
▁including	-10.3051
ria	-10.3052
▁Quelle	-10.3059
ans	-10.306
▁totally	-10.3066
▁électrique	-10.3071
cou	-10.3072
▁results	-10.3083
▁ready	-10.3083
▁notice	-10.3085
après	-10.3086
▁require	-10.3088
action	-10.3089
▁pétrole	-10.3091
▁shift	-10.3091
espoir	-10.3098
▁gagner	-10.3113
▁task	-10.3117
▁em	-10.3118
ically	-10.312
▁female	-10.3131
▁restaurant	-10.3131
dom	-10.3132
▁hour	-10.314
▁organism	-10.3144
▁lancé	-10.3149
▁City	-10.315
▁techniques	-10.3155
▁naturel	-10.3157
issant	-10.3158
▁éléments	-10.3159
ev	-10.3164
▁spécial	-10.3167
Je	-10.3168
▁permettre	-10.3173
ssant	-10.3177
▁atteindre	-10.3184
▁internet	-10.3184
▁magazine	-10.3192
▁nobody	-10.3192
▁glace	-10.3192
omb	-10.3197
▁taught	-10.3213
▁formes	-10.3219
▁named	-10.322
▁CO	-10.3223
▁Che	-10.3225
ey	-10.3225
▁eventually	-10.3233
▁among	-10.3234
▁soutien	-10.3234
▁devait	-10.3234
étude	-10.324
ama	-10.3248
▁personnelle	-10.3252
▁lesquelles	-10.3253
▁rock	-10.3255
▁connected	-10.3256
▁largest	-10.326
▁detail	-10.3262
▁Kenya	-10.3274
▁worse	-10.3274
▁mêmes	-10.3277
bit	-10.3285
université	-10.3286
▁utile	-10.3294
▁départ	-10.3297
dge	-10.3299
▁exc	-10.33
yez	-10.3305
▁foot	-10.3306
▁democracy	-10.3315
▁stock	-10.3315
▁marque	-10.3315
▁onto	-10.3317
▁Ki	-10.3321
▁erreur	-10.3323
▁allowed	-10.3328
▁soul	-10.3332
▁everywhere	-10.3336
▁deviennent	-10.3336
▁permis	-10.3336
▁Pr	-10.3336
▁prevent	-10.3337
▁improve	-10.334
delà	-10.3353
▁Pri	-10.3355
▁evolution	-10.3355
▁chemical	-10.3356
▁envoyé	-10.3356
▁vend	-10.3365
▁Quel	-10.337
▁poll	-10.3372
▁moyens	-10.3377
▁formation	-10.3378
▁Where	-10.3384
▁suivant	-10.3386
▁fan	-10.3388
▁journal	-10.3391
▁familles	-10.3398
▁address	-10.3398
▁Ru	-10.3404
▁Most	-10.3404
▁clair	-10.3414
▁durable	-10.3417
▁ball	-10.3421
attend	-10.3427
▁drop	-10.343
▁écrire	-10.3432
▁mut	-10.3436
▁véritable	-10.3439
▁leadership	-10.344
▁career	-10.344
▁traiter	-10.3452
▁pou	-10.3455
▁capture	-10.3461
▁Ok	-10.3463
▁2000	-10.3463
▁revenir	-10.3465
▁waste	-10.3467
▁loved	-10.3471
▁memory	-10.3481
▁trip	-10.3485
▁former	-10.3486
ui	-10.3487
laire	-10.3495
▁shown	-10.3498
▁huit	-10.3499
▁standing	-10.3501
▁mom	-10.3501
▁compliqué	-10.3502
▁discours	-10.3502
▁Afghanistan	-10.3511
▁carrière	-10.3514
▁letter	-10.3516
▁late	-10.3518
▁crisis	-10.3523
▁infect	-10.3526
▁fundamental	-10.3533
▁individuals	-10.3537
▁finir	-10.3539
▁detect	-10.354
▁secteur	-10.3544
▁bodies	-10.3544
▁architect	-10.3544
▁dance	-10.3552
▁bed	-10.3575
▁survive	-10.3576
▁caméra	-10.3586
▁montagne	-10.3586
▁tool	-10.3589
▁cellule	-10.3591
▁devenue	-10.3595
▁engage	-10.3597
▁poli	-10.3606
▁budget	-10.3608
▁peuple	-10.3608
▁décision	-10.3612
▁vivons	-10.3617
iel	-10.3624
▁peace	-10.3629
▁Bu	-10.3631
▁moteur	-10.3631
▁sites	-10.3645
▁plants	-10.3646
▁expression	-10.3648
▁peau	-10.3648
cide	-10.3648
▁contexte	-10.3654
▁américaine	-10.3664
ète	-10.3665
▁gènes	-10.3666
électricité	-10.3671
▁extraordinary	-10.3671
▁mountain	-10.3671
▁principle	-10.3671
pped	-10.3675
▁fat	-10.3675
ram	-10.3676
▁400	-10.3676
▁pattern	-10.3678
▁rencontre	-10.3686
▁cars	-10.3686
lit	-10.3688
▁fondamentale	-10.3691
▁auparavant	-10.3693
▁excited	-10.3693
▁forêt	-10.37
▁disc	-10.3703
▁song	-10.3705
▁réduire	-10.3714
▁kilo	-10.3714
▁Today	-10.3716
▁voisin	-10.3717
▁plantes	-10.3718
▁TV	-10.3719
aurais	-10.3723
▁sauver	-10.373
▁limit	-10.3733
table	-10.3735
▁respond	-10.3736
▁Dé	-10.3746
▁clé	-10.3747
rions	-10.375
▁distribution	-10.3758
▁actions	-10.3759
▁sexual	-10.3759
▁extremely	-10.3764
▁march	-10.3771
▁dimensions	-10.3772
▁travaillent	-10.3774
▁col	-10.3774
▁grave	-10.3777
▁évident	-10.3779
▁sky	-10.379
▁traditional	-10.3795
▁logiciel	-10.3801
▁dehors	-10.3801
▁lower	-10.3805
▁Bill	-10.3806
▁thousand	-10.3811
▁imagination	-10.3812
▁acheter	-10.382
▁hum	-10.382
▁Regardez	-10.3822
égalité	-10.3823
▁reduce	-10.3824
▁shot	-10.3825
▁obviously	-10.383
mu	-10.3833
▁collabor	-10.3835
▁opportunité	-10.3842
▁faite	-10.3842
▁littéralement	-10.3844
▁critique	-10.3847
▁factor	-10.3849
▁date	-10.385
▁serious	-10.3855
▁mix	-10.3856
▁décisions	-10.3861
▁mondial	-10.3861
▁payer	-10.3863
▁nucléaire	-10.3865
▁teachers	-10.3866
▁Those	-10.3866
avaient	-10.3879
▁univers	-10.3881
▁neuro	-10.3881
▁schools	-10.3886
▁silence	-10.3887
▁directement	-10.389
ology	-10.3899
▁fallait	-10.3899
▁plastic	-10.3909
tiques	-10.3914
▁tissu	-10.3916
▁bord	-10.3922
▁violent	-10.3928
nons	-10.3931
▁passage	-10.3931
▁campagne	-10.3931
▁biologique	-10.3932
▁essentially	-10.3936
▁tree	-10.3948
▁suivi	-10.3953
ani	-10.3955
ncy	-10.3958
▁réseaux	-10.3958
rin	-10.396
érer	-10.3964
▁sat	-10.3965
iment	-10.3973
▁Second	-10.3975
▁prove	-10.3976
▁press	-10.3978
▁majorité	-10.3979
▁dites	-10.3988
▁bébé	-10.3991
▁fo	-10.4002
▁meant	-10.4013
▁possibilité	-10.4014
▁older	-10.4014
▁naturelle	-10.4016
unk	-10.4016
▁somewhere	-10.4019
▁kilomètres	-10.4019
▁truly	-10.4019
▁laugh	-10.402
▁link	-10.4023
▁experts	-10.4035
ker	-10.4038
▁bonheur	-10.4041
▁healthy	-10.4041
▁chaud	-10.4042
▁opinion	-10.4047
▁incroyablement	-10.4048
▁grosse	-10.4048
▁essai	-10.4055
alité	-10.4059
▁famous	-10.4063
▁remind	-10.4063
▁pal	-10.4072
▁concentr	-10.4074
▁arrière	-10.408
enfants	-10.4082
▁wave	-10.4086
▁membres	-10.4088
▁killed	-10.4091
▁range	-10.4097
Inde	-10.4099
verse	-10.4099
▁collègues	-10.4106
▁examin	-10.4108
▁wife	-10.4108
gal	-10.4121
invent	-10.4128
umb	-10.4129
▁conseil	-10.4129
▁nuclear	-10.413
▁blind	-10.413
▁respir	-10.413
▁element	-10.4135
▁Wi	-10.4136
▁cultures	-10.4136
▁trees	-10.4138
hu	-10.4138
équipe	-10.4142
ified	-10.4149
▁bacteria	-10.4152
▁mourir	-10.4152
habitude	-10.4157
▁products	-10.4158
▁decisions	-10.4167
▁lois	-10.4179
▁reading	-10.4184
▁dix	-10.419
ates	-10.4193
▁boîte	-10.4197
▁cloud	-10.4197
▁trade	-10.4201
▁revenu	-10.4202
▁conversations	-10.4203
▁faster	-10.4217
▁150	-10.4221
▁utilisons	-10.4224
▁critical	-10.4226
▁examples	-10.4229
▁posé	-10.4233
▁floor	-10.4242
▁bunch	-10.4242
▁révél	-10.4243
écri	-10.4244
▁Ph	-10.425
aine	-10.4251
sum	-10.4251
▁training	-10.4253
▁partner	-10.4262
ncer	-10.4263
▁George	-10.4265
▁financial	-10.4265
▁mini	-10.4274
vin	-10.4277
▁kept	-10.4288
▁policy	-10.4288
lot	-10.4291
▁rise	-10.43
ory	-10.4301
▁teacher	-10.4303
▁pages	-10.4306
▁cuisine	-10.431
allais	-10.4318
▁institution	-10.4318
▁East	-10.4319
endroit	-10.4323
ix	-10.4323
▁cases	-10.4326
▁écoles	-10.4326
▁président	-10.4333
▁materials	-10.4337
▁lutte	-10.4338
▁chien	-10.4339
▁suddenly	-10.4339
ograph	-10.4347
▁intérêt	-10.4351
▁puissance	-10.4356
▁objects	-10.4359
radi	-10.4364
▁el	-10.4378
▁purpose	-10.4379
▁usually	-10.4379
▁frontière	-10.4381
▁objet	-10.4384
▁parcour	-10.4388
▁Fi	-10.4389
▁male	-10.4392
▁proche	-10.4395
▁tap	-10.4402
▁above	-10.4402
gh	-10.4406
▁board	-10.4415
échelle	-10.4415
▁artist	-10.4422
▁progrès	-10.4425
▁mémoire	-10.4425
▁guide	-10.4425
▁étudier	-10.4435
▁hair	-10.4436
innovation	-10.4438
▁bal	-10.4438
▁Tous	-10.4446
▁statistic	-10.4448
▁prenez	-10.445
ney	-10.4453
▁complicated	-10.4471
▁médecin	-10.4475
▁Amérique	-10.4487
ably	-10.4493
▁personnage	-10.4494
▁zero	-10.4494
so	-10.4495
▁menace	-10.4496
▁dollar	-10.4513
▁humanity	-10.4516
▁prennent	-10.4517
▁doigt	-10.4518
ko	-10.4519
▁pack	-10.4522
So	-10.4525
▁causes	-10.4527
mère	-10.4538
▁freedom	-10.4542
▁bleu	-10.4544
▁âge	-10.4563
▁afford	-10.4564
▁brother	-10.4564
▁jump	-10.4565
▁burn	-10.4566
▁ciel	-10.457
▁genes	-10.4574
▁tax	-10.4589
▁importantes	-10.4592
▁brains	-10.4594
▁visite	-10.4599
oire	-10.4603
wn	-10.4605
▁cold	-10.4605
▁workers	-10.461
▁sorti	-10.461
▁disponible	-10.4611
▁slide	-10.4611
ouvri	-10.4616
▁Bi	-10.462
▁larger	-10.4622
▁nord	-10.4624
ît	-10.4627
jou	-10.463
▁El	-10.4633
▁multiple	-10.4634
▁Laissez	-10.4636
▁style	-10.4641
▁concerne	-10.4654
▁fla	-10.4655
▁devoir	-10.4655
origine	-10.466
▁effort	-10.4661
▁activité	-10.4663
▁compar	-10.4668
▁ship	-10.4671
▁observ	-10.4671
▁allows	-10.4674
▁tests	-10.4677
particulièrement	-10.468
▁Arab	-10.4682
ough	-10.4683
rice	-10.4684
▁wide	-10.4694
▁Bar	-10.4697
▁skills	-10.4699
▁models	-10.4701
▁circuit	-10.4705
▁gain	-10.4705
▁wealth	-10.4706
▁fur	-10.4709
▁specific	-10.4712
▁gras	-10.4717
ira	-10.472
▁ended	-10.4722
▁finance	-10.4726
▁designers	-10.4728
▁chinois	-10.4729
▁Like	-10.4731
▁collection	-10.4738
▁doctors	-10.4741
▁ressent	-10.4747
▁suit	-10.4748
auto	-10.475
▁symbol	-10.4752
▁anymore	-10.4752
▁froid	-10.4753
▁wild	-10.4753
▁indeed	-10.4753
▁œuvre	-10.4763
▁aid	-10.4764
▁chat	-10.4774
amélior	-10.4776
▁responsabilité	-10.4776
▁emotional	-10.4777
▁norm	-10.4777
▁visible	-10.4777
▁matériaux	-10.4778
▁quant	-10.4783
ley	-10.4787
pre	-10.4791
▁please	-10.48
▁stratégie	-10.48
▁somehow	-10.48
▁pin	-10.4801
▁private	-10.4801
▁income	-10.4809
▁projects	-10.481
▁garder	-10.4812
▁sell	-10.4814
▁valeurs	-10.4815
▁45	-10.4819
▁window	-10.4825
cule	-10.4827
▁Ed	-10.484
log	-10.484
hing	-10.4841
▁target	-10.4848
▁neighborhood	-10.4848
▁dangerous	-10.485
▁numéro	-10.485
▁alive	-10.4854
▁gay	-10.4857
!"	-10.4864
▁Là	-10.4866
berg	-10.487
▁manipul	-10.4872
▁significant	-10.4872
▁température	-10.4872
▁worry	-10.4872
▁plastique	-10.4872
▁website	-10.4872
▁devais	-10.4873
▁contraire	-10.4873
▁exception	-10.4874
▁victim	-10.4879
▁simples	-10.488
▁messages	-10.4888
▁tomber	-10.4889
0,000	-10.4894
▁finger	-10.4902
éclair	-10.4903
rch	-10.4919
▁okay	-10.492
place	-10.4922
lier	-10.4923
▁pourrais	-10.4925
▁waiting	-10.4927
▁Are	-10.493
▁disons	-10.4939
▁trial	-10.4941
▁concevoir	-10.4944
▁actual	-10.4946
▁commencent	-10.4946
▁bulle	-10.4947
▁signe	-10.4953
▁perte	-10.4959
entreprise	-10.496
▁University	-10.4969
▁reflect	-10.4969
▁beauté	-10.4971
▁decide	-10.4974
net	-10.4975
enc	-10.4982
▁améliorer	-10.4985
▁starts	-10.4987
▁express	-10.4991
▁square	-10.4993
▁souvenir	-10.4993
▁politics	-10.4993
▁laissé	-10.4994
▁gouvernements	-10.4995
▁Comp	-10.5007
▁print	-10.5016
▁concern	-10.5017
▁Personne	-10.5017
▁military	-10.5017
▁propriété	-10.5017
▁fruit	-10.5018
▁spot	-10.5022
ati	-10.5025
bilité	-10.503
▁effective	-10.5031
▁complete	-10.5032
▁patterns	-10.5035
▁weren	-10.5035
aille	-10.5038
▁publié	-10.5042
▁biology	-10.5043
▁surviv	-10.5045
▁stars	-10.5046
▁cook	-10.5046
▁riches	-10.505
▁km	-10.5054
▁current	-10.5055
▁préféré	-10.5061
▁shared	-10.5063
board	-10.5064
▁decades	-10.5064
▁microbes	-10.5067
▁accord	-10.5067
▁profond	-10.508
Uni	-10.5082
étend	-10.5083
▁morceau	-10.5088
▁happiness	-10.5091
▁Canada	-10.5091
▁conclusion	-10.5091
▁activity	-10.5092
▁déplace	-10.5094
▁arrêté	-10.5096
▁nano	-10.5098
▁vide	-10.5108
dire	-10.5114
▁clients	-10.5114
▁chaîne	-10.5116
▁célèbre	-10.5116
▁Los	-10.5132
▁galaxies	-10.5138
▁HIV	-10.514
▁becoming	-10.514
▁earlier	-10.514
▁saut	-10.5141
▁leçon	-10.5142
uf	-10.5163
▁citoyens	-10.5165
▁studies	-10.5165
▁biologie	-10.5166
▁entendre	-10.5169
▁oh	-10.5176
tiennent	-10.518
▁os	-10.5181
▁agent	-10.5181
▁horrible	-10.519
▁written	-10.519
▁lié	-10.5195
▁town	-10.5195
▁listening	-10.5203
▁augmente	-10.5207
▁75	-10.5207
▁prof	-10.5211
▁35	-10.5213
In	-10.5216
▁envers	-10.5217
▁games	-10.5229
▁roll	-10.5233
▁constitu	-10.5238
▁voulaient	-10.524
▁enjoy	-10.524
▁clinique	-10.524
▁instance	-10.524
▁utilisée	-10.524
▁explore	-10.5242
▁risques	-10.5244
▁aspects	-10.5247
▁merci	-10.525
▁juge	-10.5251
▁paint	-10.5253
▁exact	-10.5256
my	-10.5264
▁spécifique	-10.5265
▁upon	-10.5268
▁pressure	-10.5268
ager	-10.5274
importance	-10.5282
vert	-10.5285
▁familiar	-10.529
▁chanson	-10.529
▁viens	-10.5292
▁faux	-10.5304
▁compare	-10.5314
▁glass	-10.5315
▁electricity	-10.5316
▁volume	-10.5324
▁trouvent	-10.5328
▁suppose	-10.5334
ombien	-10.5334
▁temp	-10.5334
ks	-10.5335
▁physics	-10.534
▁tirer	-10.5341
▁Look	-10.5352
pping	-10.5355
wing	-10.5355
assi	-10.5356
▁bateau	-10.5356
▁Imagine	-10.5359
▁expensive	-10.5365
▁souviens	-10.5365
▁include	-10.5365
▁contenu	-10.5366
▁challenges	-10.537
▁cultural	-10.537
▁fund	-10.5373
▁collaboration	-10.5374
aujourd	-10.5383
exp	-10.5385
▁lever	-10.5387
▁heure	-10.5388
▁devraient	-10.5391
▁facilit	-10.5392
ode	-10.5398
▁façons	-10.5401
▁pleine	-10.5407
▁buildings	-10.5407
pan	-10.5412
▁helped	-10.5413
▁remarquable	-10.5416
▁africain	-10.5416
win	-10.5419
▁profonde	-10.5421
▁raise	-10.5421
▁actuellement	-10.5425
▁Mc	-10.5426
▁intention	-10.5427
▁entière	-10.5432
▁series	-10.544
▁honest	-10.5442
▁painting	-10.5442
▁paix	-10.5442
▁rule	-10.5442
▁balance	-10.5444
▁Em	-10.5449
term	-10.5453
gén	-10.5455
▁américain	-10.5459
▁values	-10.5459
▁intéressé	-10.5467
▁prototype	-10.5467
▁douleur	-10.5467
▁joy	-10.5468
▁river	-10.5479
part	-10.5482
ju	-10.5486
utilise	-10.5486
▁exemples	-10.549
▁conséquences	-10.5492
▁contain	-10.5493
▁rain	-10.5498
▁premières	-10.55
▁vendre	-10.55
▁ignor	-10.5508
▁greatest	-10.5508
▁milliard	-10.5512
▁Jo	-10.5513
▁formidable	-10.5518
▁scan	-10.5518
vienne	-10.5519
▁pieces	-10.5522
▁harm	-10.5528
▁lines	-10.5531
dent	-10.5531
▁neuf	-10.554
▁certainement	-10.5543
▁Nigeria	-10.5544
▁transition	-10.5545
▁iron	-10.5547
isés	-10.5554
▁pousser	-10.5555
▁morts	-10.5556
gy	-10.5558
▁cry	-10.5564
utilisation	-10.5564
mètre	-10.5569
▁birth	-10.5569
▁pouvions	-10.557
▁poids	-10.557
ué	-10.5578
iller	-10.5579
▁citizens	-10.559
oubli	-10.5595
▁puissent	-10.5595
▁voulu	-10.5596
▁cheap	-10.5596
▁beauty	-10.5596
▁médecins	-10.561
voir	-10.5614
▁clearly	-10.5617
▁construis	-10.5621
▁temperature	-10.5621
▁babies	-10.5621
▁ancien	-10.5623
▁apply	-10.5629
▁Times	-10.5635
▁sud	-10.564
▁enormous	-10.5647
▁étudié	-10.5658
▁vaccin	-10.5673
▁émotions	-10.5674
▁flu	-10.5675
▁forget	-10.5676
▁argent	-10.5677
éti	-10.5679
▁environmental	-10.5682
▁inventé	-10.5683
Q	-10.5683
▁hors	-10.5684
aise	-10.5687
▁fabriquer	-10.5688
entend	-10.5693
éta	-10.5697
▁phénomène	-10.57
▁virtual	-10.57
évit	-10.5702
ensemble	-10.5719
▁al	-10.5719
▁driving	-10.5726
▁titre	-10.5726
▁rural	-10.5726
▁secondes	-10.5729
▁tourner	-10.5733
▁contrôler	-10.5748
▁matériel	-10.5752
▁mistake	-10.5752
▁trick	-10.5757
▁importance	-10.5761
▁orbit	-10.577
▁naissance	-10.5778
▁separate	-10.5779
▁decade	-10.5781
▁rappelle	-10.5792
ivité	-10.5793
▁bla	-10.5795
existe	-10.5797
▁smaller	-10.5798
abilité	-10.5799
▁neighbor	-10.5804
▁alimentaire	-10.5805
▁biological	-10.5805
▁hate	-10.5806
▁vieille	-10.5806
▁étudiant	-10.5823
▁sister	-10.5826
▁exploit	-10.5831
▁impression	-10.5831
▁anywhere	-10.5831
▁Col	-10.5831
▁merveilleux	-10.5831
▁entièrement	-10.5842
▁lancer	-10.5852
▁colleagues	-10.5853
▁spin	-10.5854
▁Quelque	-10.5856
▁remarqué	-10.5858
▁walked	-10.5863
ature	-10.5867
▁professional	-10.587
▁neurones	-10.5871
▁présenter	-10.5873
▁regardant	-10.5877
▁math	-10.5883
▁labor	-10.5884
▁struggle	-10.5884
▁MIT	-10.5884
▁crucial	-10.5884
▁partenaire	-10.5884
asse	-10.5886
▁Many	-10.5888
▁faisaient	-10.5895
▁tombe	-10.5896
▁sad	-10.5898
hand	-10.5899
▁migr	-10.5902
▁Americans	-10.5904
▁pollution	-10.5911
▁possède	-10.5911
▁café	-10.5911
▁drink	-10.5912
▁phase	-10.5912
▁facilement	-10.5914
▁anglais	-10.5926
▁existence	-10.5934
▁occup	-10.5937
vant	-10.594
quant	-10.5943
▁pat	-10.5947
▁bag	-10.5948
ncé	-10.596
▁Hi	-10.5962
▁motivation	-10.5964
craft	-10.5967
▁rid	-10.597
▁tenir	-10.5973
▁lesson	-10.5976
▁throughout	-10.5977
venir	-10.5978
bal	-10.5979
▁Sha	-10.5983
▁Deux	-10.5989
▁Harvard	-10.5991
▁himself	-10.5991
▁method	-10.5991
▁communicate	-10.5991
▁willing	-10.5994
▁immediately	-10.5995
late	-10.6011
atmosphère	-10.6018
▁popular	-10.6018
▁caractéristique	-10.602
▁earth	-10.6021
▁except	-10.6022
▁Big	-10.6027
cut	-10.6033
▁Dan	-10.6036
▁Mes	-10.604
▁NASA	-10.6045
▁chambre	-10.6045
▁addition	-10.6046
▁parlons	-10.6046
ologique	-10.6051
▁bomb	-10.6056
▁colon	-10.6062
▁laws	-10.6063
▁fantastique	-10.6072
▁véhicule	-10.6072
▁corruption	-10.6073
▁riche	-10.6074
▁failure	-10.608
▁perdre	-10.6083
▁note	-10.6094
▁distribu	-10.6097
▁levels	-10.6099
▁connexion	-10.61
▁côte	-10.61
▁tombé	-10.61
▁malgré	-10.6102
▁malade	-10.6105
▁coral	-10.611
▁Tra	-10.6116
▁corner	-10.6117
train	-10.6121
right	-10.6122
▁refugee	-10.6125
▁revenus	-10.6126
▁Instead	-10.6127
Video	-10.6127
▁retire	-10.6128
▁Two	-10.6128
▁gérer	-10.6131
▁présentation	-10.6134
ième	-10.6137
▁garçon	-10.6141
▁graph	-10.6142
bon	-10.6142
ieuse	-10.6144
▁souris	-10.6151
▁speech	-10.6154
▁interface	-10.6155
▁Sun	-10.6158
▁graphique	-10.6162
▁poisson	-10.6169
▁weight	-10.6169
▁bois	-10.6172
▁fasse	-10.6181
▁copie	-10.6181
▁London	-10.6182
▁cadre	-10.6182
▁pile	-10.6202
▁player	-10.6202
arrive	-10.6203
▁imaginez	-10.6206
▁désormais	-10.6209
été	-10.6209
▁hero	-10.6212
▁pied	-10.6221
▁tuer	-10.6223
▁arrêter	-10.6226
▁option	-10.6228
▁greater	-10.6229
▁contr	-10.6231
▁identity	-10.6237
▁sources	-10.6237
▁bruit	-10.6239
▁relationships	-10.624
▁arbres	-10.6243
hop	-10.6245
▁compétences	-10.6246
▁chair	-10.6247
▁Lu	-10.6254
▁Gu	-10.626
▁Tom	-10.6264
▁criminal	-10.6264
▁rayon	-10.6265
▁tort	-10.627
▁parlent	-10.6274
of	-10.6275
Qu	-10.6276
▁legal	-10.6282
▁organizations	-10.6287
▁réponses	-10.6288
▁compréhension	-10.6292
▁lesquels	-10.6292
▁election	-10.6292
▁diseases	-10.6294
▁effectivement	-10.6304
▁leader	-10.6304
▁Islam	-10.6306
▁occasion	-10.6309
▁preuve	-10.6311
▁permettent	-10.632
▁pur	-10.632
▁score	-10.6323
▁parfait	-10.6325
▁Gra	-10.6326
▁triste	-10.6326
▁governments	-10.6331
▁explor	-10.6332
▁voler	-10.6332
▁fonctionner	-10.6335
ndi	-10.6336
▁park	-10.6342
▁landscape	-10.6348
▁pêche	-10.6348
▁Francisco	-10.6348
▁initial	-10.6351
▁broken	-10.6353
▁essayons	-10.6354
▁replace	-10.6355
▁heat	-10.6362
▁obvious	-10.6365
▁roul	-10.6365
▁engineering	-10.6368
▁Another	-10.6375
▁plaisir	-10.6375
▁afraid	-10.6375
▁climat	-10.6376
▁summer	-10.6376
▁generate	-10.6377
▁banque	-10.638
▁cave	-10.6382
▁rap	-10.6383
▁clairement	-10.6383
▁catch	-10.6385
▁vague	-10.6386
▁pure	-10.6387
▁meilleures	-10.6395
▁réagi	-10.6395
▁whose	-10.6396
activité	-10.6399
▁Cependant	-10.6403
▁cognitive	-10.6403
atique	-10.6404
▁France	-10.6405
vision	-10.641
▁présente	-10.641
rés	-10.6413
▁teaching	-10.6418
▁sensation	-10.642
▁forth	-10.6421
appel	-10.6423
▁outil	-10.6427
▁effets	-10.6431
▁rivière	-10.6432
▁heureuse	-10.6433
▁diversité	-10.6434
▁entrer	-10.6434
▁pièces	-10.6445
ek	-10.6445
▁fantastic	-10.646
▁rythme	-10.646
▁feuille	-10.646
▁degré	-10.6461
▁bébés	-10.6467
▁coûte	-10.6467
▁contract	-10.6468
▁loss	-10.6471
▁feature	-10.6489
▁pression	-10.6489
▁immense	-10.6493
▁recent	-10.6501
▁useful	-10.6504
▁organisation	-10.6509
▁dépense	-10.651
▁aspect	-10.6512
▁costs	-10.6515
▁Which	-10.6516
▁créativité	-10.6516
▁era	-10.6519
arian	-10.6521
▁laissez	-10.6526
▁atmosphere	-10.6529
▁sommet	-10.653
lus	-10.6533
aider	-10.6537
intéresse	-10.654
▁touche	-10.6542
▁worst	-10.6545
▁therefore	-10.6545
ote	-10.6547
▁mariage	-10.6554
▁Per	-10.6559
▁cartes	-10.6561
ographie	-10.6566
▁ahead	-10.6568
▁wi	-10.6569
▁paysage	-10.657
▁océans	-10.6575
▁définition	-10.6575
▁Angeles	-10.6577
▁sac	-10.6584
It	-10.6596
environ	-10.6597
night	-10.6598
euses	-10.6599
▁combine	-10.6601
▁vehicle	-10.6602
▁Chicago	-10.6602
▁principe	-10.6602
▁chercheurs	-10.6604
▁invention	-10.6616
▁apport	-10.6618
▁honnête	-10.6624
▁Cet	-10.6625
engage	-10.6628
▁emerge	-10.663
▁Richard	-10.663
▁straight	-10.663
▁stopped	-10.6632
▁99	-10.6633
▁logique	-10.6633
▁22	-10.6634
▁paid	-10.6634
▁bear	-10.6635
▁Think	-10.6659
▁unit	-10.6662
▁instrument	-10.6667
▁conserv	-10.6669
▁His	-10.667
▁disaient	-10.667
▁seuls	-10.6672
▁fair	-10.6673
▁venue	-10.6679
isent	-10.6679
▁plate	-10.6683
▁trace	-10.6685
▁servi	-10.6685
▁understood	-10.6688
▁profondément	-10.6688
▁Western	-10.6688
▁chain	-10.6689
▁fri	-10.6694
▁constant	-10.6706
▁connecté	-10.6709
▁protéine	-10.6717
▁spatial	-10.6717
ndre	-10.6717
▁complexes	-10.6719
▁réelle	-10.6721
▁constat	-10.6724
▁essay	-10.6734
▁insect	-10.6737
▁observer	-10.6738
llo	-10.6742
▁boys	-10.6745
▁protein	-10.6746
▁random	-10.6746
▁spoke	-10.6746
▁expand	-10.6748
▁sculpture	-10.6749
▁weapon	-10.6749
rous	-10.6755
▁following	-10.6758
▁réunion	-10.6759
▁poissons	-10.676
ifié	-10.6764
▁cop	-10.6765
▁colère	-10.6777
▁gun	-10.6779
▁scientist	-10.6781
▁consommation	-10.6784
lip	-10.6785
▁lieux	-10.6791
œ	-10.6804
▁circle	-10.6804
▁réduit	-10.6804
▁microscope	-10.6804
▁Web	-10.6811
▁Indian	-10.6812
▁tells	-10.6815
▁informatique	-10.6817
▁hé	-10.6825
▁speaking	-10.6831
nent	-10.6832
▁forms	-10.6832
▁Darwin	-10.6833
▁drogue	-10.6833
▁connaissez	-10.6834
▁élèves	-10.6834
▁précis	-10.6836
jo	-10.6837
▁industrial	-10.6838
▁describe	-10.6839
▁ski	-10.6842
ailleurs	-10.6844
▁passent	-10.6852
▁attaque	-10.6855
▁eau	-10.6857
▁nuage	-10.6857
▁sick	-10.6861
▁conscient	-10.6863
▁president	-10.6863
▁Où	-10.6863
▁choices	-10.6869
▁Toutes	-10.6873
ites	-10.688
▁combin	-10.6882
▁Her	-10.6884
▁tourne	-10.689
▁campaign	-10.6892
▁obtenu	-10.6892
▁déf	-10.6893
▁accessible	-10.6894
▁Nos	-10.6895
▁ailleurs	-10.6896
▁neurons	-10.6902
▁efforts	-10.6902
▁mostly	-10.6906
point	-10.6915
▁vast	-10.6918
▁layer	-10.6921
▁Depuis	-10.6922
▁belief	-10.6922
▁cardiaque	-10.6922
▁Street	-10.6922
▁yeah	-10.6922
▁immédiatement	-10.6922
▁souhait	-10.6925
▁sauf	-10.6927
tting	-10.6933
nés	-10.694
lac	-10.6948
▁montrent	-10.695
▁gender	-10.6951
▁destroy	-10.6951
▁limites	-10.6953
▁actuelle	-10.6955
▁brand	-10.6961
▁streets	-10.6961
aging	-10.6969
▁television	-10.6981
▁lycée	-10.6981
▁sœur	-10.6981
▁minds	-10.6984
▁fiction	-10.6984
try	-10.6985
ik	-10.6987
▁servir	-10.6987
▁fier	-10.6993
▁saving	-10.6996
▁amour	-10.6998
▁Fr	-10.6998
▁chances	-10.7
▁tissue	-10.7001
bling	-10.7002
▁experiences	-10.7002
▁author	-10.7009
▁master	-10.7009
▁societies	-10.7011
▁docteur	-10.7011
▁genome	-10.7011
▁verrez	-10.7018
▁mark	-10.7021
▁bone	-10.7032
▁carré	-10.7034
Al	-10.7038
▁Chi	-10.704
▁Très	-10.704
▁various	-10.704
▁divide	-10.704
▁sentence	-10.7041
▁honor	-10.7041
▁étoiles	-10.7041
How	-10.7043
▁protest	-10.7043
▁notes	-10.7047
ssez	-10.7052
▁laisse	-10.7053
▁garçons	-10.7055
▁gagné	-10.7059
▁prochain	-10.7061
▁principal	-10.7064
▁aimer	-10.7065
apprendre	-10.7067
▁gar	-10.7068
▁particules	-10.707
▁essentiellement	-10.7076
▁avantage	-10.7081
▁faisais	-10.7082
▁gang	-10.7082
▁courbe	-10.7083
ivity	-10.7084
▁highly	-10.7086
▁classique	-10.7091
▁savait	-10.7093
▁difficiles	-10.7096
▁puissante	-10.7098
▁2010	-10.71
▁génome	-10.71
▁Pensez	-10.7101
▁Frank	-10.7101
▁concentrer	-10.7102
▁sérieux	-10.7103
▁convert	-10.7104
▁inspire	-10.7107
▁cré	-10.7117
▁lack	-10.7117
▁médicament	-10.7118
▁tir	-10.7121
▁affaires	-10.7122
▁directly	-10.7123
▁emotions	-10.7124
▁principale	-10.7125
essayer	-10.7125
▁California	-10.7131
▁husband	-10.7131
▁guéri	-10.7131
▁quick	-10.7131
▁merveilleuse	-10.7131
▁diversity	-10.7132
▁dress	-10.7134
▁2008	-10.7134
▁noticed	-10.7136
▁dad	-10.7141
▁garde	-10.7143
▁tué	-10.7149
▁Va	-10.7154
hou	-10.7155
▁mid	-10.7155
intelligence	-10.7158
attention	-10.7158
▁dynamique	-10.7161
▁fenêtre	-10.7161
▁avoid	-10.7161
▁construct	-10.7161
imi	-10.7163
▁commerce	-10.7163
▁dév	-10.7163
▁seraient	-10.7171
▁élément	-10.718
êtes	-10.7181
▁traffic	-10.7191
▁évidemment	-10.7191
▁James	-10.7191
▁damage	-10.7191
▁investment	-10.7192
▁particulière	-10.7192
▁shock	-10.7192
▁argue	-10.7193
▁pousse	-10.7197
▁recon	-10.7197
▁appréci	-10.7203
▁Fe	-10.7206
▁joueur	-10.7211
▁connaître	-10.7215
écran	-10.7221
▁although	-10.7221
▁destruction	-10.7221
enseignement	-10.7234
tour	-10.7235
▁prêts	-10.7241
▁mesurer	-10.7241
▁observe	-10.7247
▁Muslim	-10.7252
▁From	-10.7253
▁0	-10.7255
▁balle	-10.7259
▁i	-10.7265
▁closer	-10.7272
hal	-10.7278
▁démo	-10.7282
▁supply	-10.7283
▁switch	-10.7283
ith	-10.7284
eign	-10.7288
▁anyway	-10.729
press	-10.7294
▁écouter	-10.7296
▁Fo	-10.7297
aking	-10.73
▁programmes	-10.7307
extérieur	-10.7311
▁remarkable	-10.7313
▁technologique	-10.7313
▁determine	-10.7313
▁cercle	-10.7314
cat	-10.7314
nier	-10.7315
▁application	-10.7317
ordre	-10.7329
trait	-10.733
▁legs	-10.7333
▁gap	-10.7335
▁impos	-10.7337
oir	-10.7337
▁règle	-10.7338
▁Parfois	-10.7344
▁responsibility	-10.7344
▁permanent	-10.7344
ina	-10.7352
élé	-10.7352
▁surprising	-10.736
▁tire	-10.7361
▁nearly	-10.7362
▁avis	-10.7373
▁designer	-10.7373
▁dizaines	-10.7375
▁easily	-10.7375
▁profound	-10.7375
▁gather	-10.7375
▁Avant	-10.7383
▁inconnu	-10.7383
▁Ben	-10.739
▁bactéries	-10.739
▁envoyer	-10.7391
50	-10.7392
▁situations	-10.7394
▁effects	-10.7394
▁lecture	-10.7405
▁YouTube	-10.7406
▁easier	-10.7406
▁possibly	-10.7406
▁z	-10.7411
▁sombre	-10.7425
▁thé	-10.7434
▁populaire	-10.7437
▁brillant	-10.7437
▁privée	-10.7438
▁below	-10.7438
uch	-10.7439
▁dying	-10.7446
stro	-10.7459
▁épi	-10.7459
▁shoot	-10.7468
▁sample	-10.7468
▁Grand	-10.7473
▁entrepreneurs	-10.7475
gène	-10.748
▁members	-10.7482
▁différences	-10.7483
▁differently	-10.7483
▁apprend	-10.7486
▁voient	-10.7489
▁tube	-10.7494
▁disappear	-10.7499
▁mélange	-10.7499
▁party	-10.7501
▁partagé	-10.7503
▁adolescent	-10.7504
▁driver	-10.7506
▁événement	-10.7506
▁défis	-10.7514
▁appareil	-10.7514
▁inspired	-10.7523
▁attach	-10.7524
▁puzzle	-10.7531
▁jardin	-10.7531
▁cultiv	-10.7531
▁Paris	-10.7531
▁associé	-10.7532
▁23	-10.7532
▁rencontrer	-10.7534
▁invented	-10.7537
▁seemed	-10.7541
bar	-10.7543
hood	-10.7549
▁Iran	-10.755
▁sum	-10.755
onde	-10.7561
▁mathématiques	-10.7561
▁dynamic	-10.7562
▁Londres	-10.7562
fra	-10.7564
▁edge	-10.7565
▁censé	-10.7569
▁flying	-10.7574
▁attract	-10.7584
▁découvr	-10.7586
▁bridge	-10.7594
▁cortex	-10.7594
▁séquence	-10.7594
▁despite	-10.7594
▁écran	-10.7596
▁via	-10.7606
▁equal	-10.7612
▁Pi	-10.7612
ombre	-10.7613
▁climb	-10.7625
▁creativity	-10.7625
▁militaire	-10.7625
▁réfugiés	-10.7625
▁trillion	-10.7625
▁graduate	-10.7625
▁sector	-10.7625
▁gotten	-10.7626
▁nommé	-10.7628
▁missing	-10.763
▁mention	-10.7632
▁nations	-10.7633
▁Over	-10.7637
▁amené	-10.7637
▁singe	-10.7639
▁apart	-10.7642
▁individus	-10.7644
▁sand	-10.7656
▁Einstein	-10.7657
▁strength	-10.7657
▁étonnant	-10.7657
▁held	-10.7658
▁pop	-10.7658
▁verre	-10.7666
▁engineer	-10.7667
▁published	-10.767
▁fossil	-10.7671
▁beat	-10.7673
▁border	-10.7676
▁invite	-10.7677
▁bouger	-10.7683
▁arrêt	-10.7684
Europe	-10.7688
▁remove	-10.7689
▁Boston	-10.7689
▁internationale	-10.769
▁tough	-10.7693
imagina	-10.7695
▁mentale	-10.7697
▁tableau	-10.7698
▁sorts	-10.7701
grad	-10.7715
▁solid	-10.7719
▁capacity	-10.7721
▁conference	-10.7721
▁éviter	-10.7721
▁variation	-10.7721
▁fusion	-10.7721
▁boat	-10.7725
▁sustainable	-10.7726
▁hasard	-10.7732
▁sain	-10.7734
▁mène	-10.7735
▁programs	-10.7741
▁différemment	-10.7753
▁Brazil	-10.7753
▁surgery	-10.7753
▁giant	-10.7753
▁tumor	-10.7753
▁ancient	-10.7761
▁reconnaître	-10.7762
▁seat	-10.7765
▁gold	-10.7768
▁helping	-10.7769
▁passant	-10.7771
▁motor	-10.7771
▁cerveaux	-10.7776
lum	-10.778
▁slightly	-10.7785
▁platform	-10.7785
▁pensait	-10.7786
▁background	-10.7787
bel	-10.7789
▁liée	-10.7796
▁PM	-10.7805
▁hang	-10.7806
▁intégr	-10.7811
▁played	-10.7812
architecture	-10.7817
▁inspiré	-10.7817
▁sympa	-10.7817
▁Great	-10.7817
▁répét	-10.7821
▁preuves	-10.7827
▁efficient	-10.7828
long	-10.7829
▁desire	-10.783
▁détails	-10.7833
ular	-10.7833
▁opération	-10.7835
Music	-10.7839
▁traité	-10.7842
▁passait	-10.7846
▁fascinant	-10.785
▁claim	-10.785
▁classroom	-10.785
▁Asia	-10.785
▁reaction	-10.7852
▁armes	-10.7855
ifier	-10.7861
meter	-10.7868
▁hearing	-10.787
▁arrivent	-10.7871
bert	-10.7873
He	-10.7875
▁magasin	-10.7882
▁vélo	-10.7882
▁smell	-10.7882
▁connaissons	-10.7882
▁mené	-10.7888
▁journaliste	-10.7897
▁plane	-10.7898
head	-10.7905
ajout	-10.7907
▁King	-10.791
▁Pakistan	-10.7915
▁préserv	-10.7915
impact	-10.7916
▁outcome	-10.7916
▁biologist	-10.7916
▁prenons	-10.7917
▁organisations	-10.7918
▁complexité	-10.7922
▁appelons	-10.7927
Y	-10.7933
▁Ber	-10.7933
▁arrivée	-10.7939
▁limité	-10.7944
▁Californie	-10.7947
▁religious	-10.7947
▁mouvements	-10.7948
▁section	-10.7949
▁interaction	-10.7949
▁établi	-10.795
▁sexuelle	-10.7951
▁intervention	-10.7956
▁dinosaur	-10.7963
▁fully	-10.7963
▁Your	-10.7963
▁grain	-10.7967
▁utilis	-10.7977
X	-10.798
▁déchets	-10.798
▁sequence	-10.798
▁Américains	-10.7981
▁couleurs	-10.7984
▁Son	-10.7986
type	-10.7986
▁musical	-10.7997
▁identité	-10.8001
bou	-10.8002
▁studying	-10.8004
▁produced	-10.8009
▁ressembler	-10.801
▁studio	-10.8013
▁Fin	-10.8015
▁géant	-10.8015
shed	-10.8016
▁weird	-10.8017
▁toi	-10.8025
▁fill	-10.8039
cop	-10.8043
▁attitude	-10.8046
▁précédent	-10.8046
▁Charles	-10.8046
▁intense	-10.8046
▁zéro	-10.8046
▁aware	-10.8046
nique	-10.8046
▁existent	-10.8047
▁dépression	-10.8047
▁commença	-10.805
▁promise	-10.8052
▁affirm	-10.8054
▁Gal	-10.8055
▁rues	-10.806
▁Steve	-10.8061
▁pieds	-10.8062
▁monter	-10.8063
▁inject	-10.8064
▁senti	-10.8067
▁extreme	-10.8068
▁porter	-10.8072
▁noise	-10.8072
▁react	-10.8074
▁parking	-10.8074
▁acte	-10.8075
▁myth	-10.8077
▁puni	-10.8078
▁oxygen	-10.8079
▁crowd	-10.8079
▁pierre	-10.8079
▁However	-10.8083
▁tiers	-10.8087
▁avais	-10.8091
La	-10.8091
▁boule	-10.8093
▁focused	-10.81
▁vidéos	-10.8104
▁fonctionnent	-10.8109
▁mécanisme	-10.8112
▁surveillance	-10.8112
▁bought	-10.8112
▁recover	-10.8112
▁sharing	-10.8112
▁negative	-10.8112
▁opposite	-10.8113
Why	-10.8116
▁infection	-10.8116
▁tribu	-10.812
▁European	-10.813
▁rappeler	-10.813
▁benefit	-10.8132
▁core	-10.8137
▁souhaite	-10.8142
▁décider	-10.8143
▁positif	-10.8146
▁amusant	-10.8146
▁consult	-10.8146
▁Green	-10.8146
▁décennies	-10.8146
▁entirely	-10.8149
▁Pol	-10.815
▁accompli	-10.8151
▁applications	-10.8153
aboli	-10.8156
▁suffer	-10.8157
▁dense	-10.8162
▁regardons	-10.8165
▁considér	-10.8167
mettre	-10.8175
▁ralenti	-10.8179
▁chasse	-10.8181
▁fleur	-10.8182
▁adultes	-10.8183
▁planets	-10.8186
▁caché	-10.8187
▁Leur	-10.8192
▁basis	-10.8196
ank	-10.8199
enfant	-10.8203
▁entrepreneur	-10.8212
▁rights	-10.8212
▁opportunities	-10.8213
▁definition	-10.8213
oxygène	-10.8213
▁BG	-10.8226
▁refer	-10.8226
issons	-10.8228
▁donnent	-10.8229
▁noirs	-10.823
▁impliqué	-10.8246
▁évolué	-10.8246
▁Martin	-10.8247
▁drone	-10.8249
▁Life	-10.8249
▁engine	-10.8255
▁options	-10.826
erie	-10.8266
▁600	-10.8274
▁poly	-10.8277
▁VIH	-10.828
▁communiquer	-10.828
▁régime	-10.8281
▁experiments	-10.8282
▁richesse	-10.8289
▁motif	-10.8289
▁analyse	-10.8289
▁nourri	-10.83
▁knowing	-10.8301
▁toucher	-10.8303
▁Ab	-10.8304
ulation	-10.8314
▁échange	-10.8315
Université	-10.8316
écoute	-10.8316
▁App	-10.8322
▁assume	-10.8325
▁concernant	-10.8326
▁dict	-10.8331
▁limite	-10.8333
▁island	-10.8334
▁install	-10.8335
▁consumer	-10.8338
▁habitat	-10.8338
▁considéré	-10.8343
▁coffee	-10.8348
▁narrative	-10.8348
▁twice	-10.8348
▁passed	-10.8348
▁ouverte	-10.8356
▁coeur	-10.8358
rri	-10.8362
▁file	-10.8363
▁presse	-10.8369
▁humaines	-10.8374
▁Tim	-10.8377
▁Ver	-10.8379
▁absorb	-10.8382
▁regret	-10.8382
▁davantage	-10.8382
▁Sometimes	-10.8382
▁Anderson	-10.8383
▁Iraq	-10.8384
▁blow	-10.8385
matic	-10.8391
▁pont	-10.8394
▁baisse	-10.8397
▁représent	-10.8402
▁avion	-10.8402
▁labo	-10.8402
▁suffering	-10.8405
▁parc	-10.8408
arc	-10.8415
▁Michael	-10.8416
▁competition	-10.8416
▁fournir	-10.8417
▁télévision	-10.8417
▁pig	-10.8418
▁ressemblent	-10.8418
▁funny	-10.8418
▁transformé	-10.842
▁lucky	-10.8426
▁evolved	-10.843
▁statistiques	-10.843
▁bro	-10.8431
▁carry	-10.8432
▁wood	-10.8445
▁membre	-10.8446
▁occur	-10.8448
▁angle	-10.845
▁molécules	-10.845
▁tremendous	-10.8451
▁terrorist	-10.8453
▁observation	-10.8458
watt	-10.8466
imaginer	-10.8471
▁bouge	-10.8475
▁activist	-10.8485
associ	-10.8487
▁dangereux	-10.8488
issement	-10.8489
▁scar	-10.8493
Votre	-10.8493
▁garden	-10.8494
▁mouth	-10.8495
▁implique	-10.8495
▁zoom	-10.8496
▁stade	-10.85
▁intelligente	-10.85
▁texte	-10.8501
▁10,000	-10.8502
▁belong	-10.8505
▁manage	-10.8507
▁morale	-10.851
▁moon	-10.8511
▁raised	-10.8517
▁préoccup	-10.8519
étoile	-10.8519
▁component	-10.852
▁requin	-10.852
▁bouche	-10.852
▁confront	-10.8526
30	-10.8527
▁intérieur	-10.8529
▁rêves	-10.8532
fait	-10.8536
oh	-10.8537
rires	-10.8539
▁sommeil	-10.8543
habitants	-10.8544
▁necessarily	-10.8555
▁travaillons	-10.8555
▁implant	-10.8556
▁farmers	-10.856
▁auraient	-10.8564
▁Take	-10.8565
▁Mal	-10.8566
cap	-10.8567
▁depression	-10.8568
▁tels	-10.8576
Ma	-10.8576
▁shark	-10.8589
▁empower	-10.859
▁battre	-10.859
ération	-10.859
▁désert	-10.8592
well	-10.8592
▁bâtiments	-10.8594
▁historique	-10.8596
▁Min	-10.8597
▁fallu	-10.8601
based	-10.8613
▁capitalism	-10.8613
▁ride	-10.8614
▁birds	-10.8622
▁British	-10.8624
▁commençons	-10.8624
▁oiseaux	-10.8624
▁radiation	-10.8624
▁scene	-10.8625
▁auquel	-10.8625
▁operation	-10.8625
▁iPhone	-10.8629
▁importantly	-10.8639
▁Cor	-10.8649
▁considérer	-10.8649
acteur	-10.8649
▁coal	-10.8656
▁Australia	-10.8659
▁miracle	-10.8659
▁malaria	-10.866
▁souci	-10.866
▁croyez	-10.866
▁professionnel	-10.8675
▁tourné	-10.8676
enseigne	-10.8678
▁networks	-10.8684
war	-10.8689
▁compt	-10.8692
▁sortie	-10.8692
▁strategy	-10.8695
▁surprenant	-10.8695
▁stuck	-10.8695
▁root	-10.87
▁possibilités	-10.8702
▁proud	-10.8705
▁command	-10.8708
▁actuel	-10.8713
▁aidé	-10.872
▁barre	-10.8724
▁diverse	-10.8725
▁wire	-10.8729
▁diagnostic	-10.873
▁proportion	-10.873
▁regular	-10.873
▁exposé	-10.873
objet	-10.8732
▁blanche	-10.8734
▁apparaît	-10.8735
élev	-10.8735
▁See	-10.8736
▁spending	-10.8738
▁estimate	-10.8739
▁soin	-10.8755
▁mille	-10.8755
▁schéma	-10.8766
▁musée	-10.8766
▁vaut	-10.8767
▁venait	-10.8767
hôpital	-10.8768
This	-10.8769
▁attendre	-10.8769
adapt	-10.877
▁demandez	-10.877
▁batterie	-10.877
▁drawing	-10.8771
émission	-10.8772
▁Bur	-10.8775
▁évolue	-10.8776
▁quote	-10.8778
zi	-10.8778
▁normale	-10.8779
▁warm	-10.878
▁ignore	-10.8792
▁conclu	-10.8792
▁marketing	-10.8796
olo	-10.8798
▁considère	-10.8801
▁journalist	-10.8801
▁2009	-10.8804
▁devenus	-10.8805
▁1,000	-10.8808
▁Ah	-10.881
▁gagne	-10.8818
▁suffisamment	-10.8837
▁connaissent	-10.8837
▁créatif	-10.8837
▁déplacer	-10.8837
▁bright	-10.8842
▁whi	-10.8846
▁Island	-10.8847
▁devices	-10.8853
▁explorer	-10.8854
▁acheté	-10.8856
▁Ko	-10.8858
▁chimiques	-10.8859
▁basé	-10.8864
▁maths	-10.8869
▁identify	-10.8873
▁molecules	-10.8873
▁crash	-10.8873
▁clinic	-10.8874
▁degrees	-10.8881
▁prior	-10.8882
▁May	-10.8885
▁relative	-10.8887
▁bias	-10.8893
▁vital	-10.8894
▁Park	-10.8895
▁université	-10.8899
active	-10.8901
▁nationale	-10.8906
▁faith	-10.8908
▁discipline	-10.8909
▁mechanism	-10.8909
▁philosophe	-10.8909
▁tumeur	-10.8909
orn	-10.8909
▁boulot	-10.891
▁consciousness	-10.891
tech	-10.8911
Internet	-10.8912
ological	-10.8914
▁amener	-10.8922
▁branch	-10.8928
▁expert	-10.8934
▁deeply	-10.8939
équivalent	-10.8945
́	-10.8945
▁conduire	-10.8945
▁invité	-10.8945
▁hurt	-10.8946
▁log	-10.8947
▁Pat	-10.8947
▁dirais	-10.8949
ouille	-10.895
▁ultimately	-10.8951
▁sensible	-10.8952
▁pauvre	-10.8954
▁tech	-10.8956
▁250	-10.8974
view	-10.8977
▁dreams	-10.8978
▁chacune	-10.898
▁dialogue	-10.8981
▁disparu	-10.8981
▁location	-10.8981
▁Han	-10.8981
▁civilization	-10.8982
▁envie	-10.899
▁debate	-10.8996
▁retourner	-10.8998
père	-10.9002
▁usine	-10.9011
▁pli	-10.9014
▁principes	-10.9017
▁Middle	-10.9017
▁musulman	-10.9017
▁Again	-10.9017
▁Japon	-10.9017
opportunité	-10.9021
▁majority	-10.9023
▁Amazon	-10.9026
▁somme	-10.9026
face	-10.9028
▁benefits	-10.9033
▁favor	-10.9037
▁bill	-10.9038
▁host	-10.904
room	-10.9044
▁proches	-10.9047
▁consiste	-10.9053
▁vaste	-10.9053
▁bottle	-10.9054
▁paraît	-10.9054
▁complexity	-10.906
▁emploi	-10.9063
rum	-10.9066
auteur	-10.907
▁band	-10.907
▁More	-10.9071
▁régions	-10.9074
▁reward	-10.9075
ville	-10.9079
nna	-10.908
ography	-10.9082
▁récompense	-10.909
▁chaleur	-10.909
▁crack	-10.9091
▁eating	-10.9092
effet	-10.9094
▁bande	-10.9094
▁ear	-10.9096
▁27	-10.9099
ied	-10.9101
▁niveaux	-10.9105
étudie	-10.9105
▁médicale	-10.9108
▁plante	-10.9116
▁éco	-10.9118
▁instruments	-10.9124
▁none	-10.9126
atom	-10.9126
▁ressentir	-10.9127
▁responsible	-10.9127
▁survivre	-10.9128
▁transfer	-10.9129
▁scanner	-10.913
▁décrit	-10.9131
▁recul	-10.9137
▁vertical	-10.9154
▁directeur	-10.9158
▁meters	-10.9159
▁figured	-10.9164
▁Obama	-10.9164
▁Valley	-10.9164
▁2007	-10.9168
▁colonie	-10.9173
▁mail	-10.9173
▁parfaitement	-10.9176
dding	-10.9176
▁illusion	-10.9177
▁fighting	-10.9177
▁optim	-10.9183
▁détail	-10.9186
▁wear	-10.919
▁holding	-10.9191
▁forever	-10.9195
▁plain	-10.9199
▁Actually	-10.9201
▁simulation	-10.9201
▁réserve	-10.9201
▁dedans	-10.9221
▁believed	-10.9222
▁puisque	-10.9223
▁universal	-10.9232
▁étais	-10.9234
▁agir	-10.9238
▁advantage	-10.9238
▁artificial	-10.9238
▁vouloir	-10.9238
▁combinaison	-10.9238
▁venant	-10.924
▁trend	-10.9243
▁Rob	-10.9246
gged	-10.9246
▁motion	-10.9258
▁tape	-10.9262
▁poste	-10.9264
▁finish	-10.9267
▁turning	-10.927
▁mauvaises	-10.9273
▁attempt	-10.9276
▁remote	-10.9276
▁composé	-10.9276
anthrop	-10.9276
▁flight	-10.9279
▁peinture	-10.928
▁apporter	-10.928
▁cure	-10.9289
▁conte	-10.929
▁augmenter	-10.9293
▁laser	-10.9294
▁lettre	-10.93
▁particles	-10.9304
▁organismes	-10.9307
wan	-10.9308
▁pill	-10.9308
▁urge	-10.931
▁hall	-10.9311
▁attribu	-10.9313
▁marriage	-10.9313
▁possibility	-10.9313
▁substance	-10.9313
▁tunnel	-10.9313
▁plat	-10.9313
▁gift	-10.9313
▁rassembl	-10.9314
▁régul	-10.9315
▁hyper	-10.9316
▁semblent	-10.9318
▁moindre	-10.9319
▁produisent	-10.932
▁clip	-10.9323
în	-10.9326
▁tonnes	-10.9326
▁traditionnelle	-10.9327
▁enable	-10.9333
▁écoute	-10.9335
▁tie	-10.9336
can	-10.9349
▁participer	-10.935
▁devriez	-10.9351
▁repeat	-10.9357
▁vin	-10.9358
▁spa	-10.9359
▁éducation	-10.9372
▁forêts	-10.9376
▁victimes	-10.9378
▁studied	-10.9388
▁Encore	-10.9389
▁roof	-10.9389
▁university	-10.9392
▁morceaux	-10.9393
▁mérite	-10.9393
accept	-10.9393
▁jambes	-10.94
▁emplois	-10.9412
▁earn	-10.9415
▁chiffre	-10.9415
▁artists	-10.9419
▁essaie	-10.9419
▁raconte	-10.9422
▁Certaine	-10.9426
▁exercise	-10.9426
▁fausse	-10.9426
▁meurt	-10.943
emploi	-10.9431
▁coast	-10.9436
▁sélection	-10.9438
▁retrouver	-10.9442
plan	-10.9446
▁adult	-10.9453
▁cible	-10.9455
▁neuron	-10.9456
▁décrire	-10.9463
▁drôle	-10.9464
▁fashion	-10.9464
▁GPS	-10.9464
▁apparu	-10.9464
▁joie	-10.9465
▁douce	-10.9465
▁portrait	-10.9468
▁rejet	-10.9468
accès	-10.9469
▁Nations	-10.9475
▁pub	-10.9487
loc	-10.9489
▁consequences	-10.9492
▁leading	-10.9494
▁Ti	-10.9498
▁poche	-10.9499
▁degree	-10.9501
▁financière	-10.9502
▁instinct	-10.9502
▁dinner	-10.9503
▁civilisation	-10.9504
▁complet	-10.9505
▁grade	-10.9509
▁dirait	-10.951
urg	-10.9513
▁honte	-10.9518
▁conduct	-10.9525
▁opened	-10.9526
mination	-10.9528
▁stream	-10.9531
▁compared	-10.9533
▁engineers	-10.954
▁breast	-10.9541
▁technical	-10.9541
▁survie	-10.9541
▁américains	-10.9554
60	-10.9559
▁retrouve	-10.9559
▁ancienne	-10.9561
▁artistes	-10.9565
aving	-10.9574
élève	-10.9578
▁bientôt	-10.9579
▁previous	-10.9579
▁extend	-10.9579
Vidéo	-10.9579
▁reveal	-10.958
▁planning	-10.9585
▁employés	-10.9586
▁telles	-10.9607
ilicon	-10.961
▁catastrophe	-10.9618
▁professor	-10.9618
▁yellow	-10.9618
▁suicide	-10.9618
▁analog	-10.9618
▁dépasse	-10.9618
▁enseignants	-10.9619
▁stem	-10.9619
▁polar	-10.9619
▁récit	-10.962
▁quitté	-10.9621
▁resté	-10.9623
▁quasi	-10.9624
▁privé	-10.9624
arrêter	-10.9625
▁truck	-10.9641
arme	-10.9642
▁parlant	-10.9646
▁réussite	-10.9647
▁foreign	-10.9648
mine	-10.9655
▁allée	-10.9656
▁Japan	-10.9657
▁football	-10.9657
▁terminé	-10.9657
▁childhood	-10.9658
▁étiez	-10.9659
▁joué	-10.966
▁adults	-10.9667
▁rire	-10.9676
▁foi	-10.9683
▁interactions	-10.9686
▁rentrer	-10.9686
▁School	-10.9696
▁disorder	-10.9696
▁œil	-10.9696
▁transparent	-10.9697
▁extérieur	-10.9698
▁Center	-10.9699
▁cousin	-10.97
▁salaire	-10.9705
▁disais	-10.9708
grade	-10.9709
▁déterminer	-10.9709
20	-10.9709
▁tester	-10.9716
▁aient	-10.972
just	-10.9731
▁fera	-10.9733
▁ecosystem	-10.9735
▁metaphor	-10.9735
▁globe	-10.9735
▁dozen	-10.9735
▁dirigeants	-10.9735
▁1980	-10.9736
▁organisé	-10.9737
▁quitter	-10.974
▁échantillon	-10.974
▁Pourtant	-10.9741
rich	-10.9746
rise	-10.9756
▁received	-10.9756
▁convaincu	-10.9774
▁paradigm	-10.9774
▁électronique	-10.9774
▁museum	-10.9774
▁Brésil	-10.9774
▁married	-10.9774
▁club	-10.9774
▁odd	-10.9775
▁indique	-10.9776
▁broad	-10.9777
▁failed	-10.978
That	-10.978
▁engagement	-10.9799
▁managed	-10.98
▁typical	-10.9802
▁représentent	-10.9804
▁shop	-10.981
▁brilliant	-10.9813
▁constamment	-10.9813
▁financier	-10.9813
▁voulions	-10.9813
▁précisément	-10.9813
▁meurent	-10.9814
▁vaccine	-10.9814
▁appareils	-10.9815
▁multipli	-10.9815
▁everyday	-10.9821
▁appeler	-10.9824
▁fluid	-10.9836
▁limited	-10.9839
▁Rwanda	-10.9853
▁convaincre	-10.9853
▁mécanique	-10.9853
▁succeed	-10.9853
▁supplémentaire	-10.9853
▁handicap	-10.9853
▁click	-10.9853
exprimer	-10.9853
▁1990	-10.9854
▁placé	-10.9854
andis	-10.9854
▁flower	-10.9855
▁bird	-10.9855
▁client	-10.9856
▁Korea	-10.9858
▁verte	-10.9858
▁chip	-10.986
▁65	-10.9867
▁lettres	-10.9868
▁watched	-10.9871
▁tail	-10.9879
▁wearing	-10.988
▁sudden	-10.9881
▁sable	-10.9887
▁French	-10.9892
▁monitor	-10.9893
▁grown	-10.9893
▁émissions	-10.9894
▁confirm	-10.9894
▁weak	-10.9899
▁Good	-10.9899
cular	-10.9899
wood	-10.99
▁Pal	-10.9904
▁fairly	-10.9907
▁dessous	-10.9919
aurait	-10.992
▁semblait	-10.9932
▁excellent	-10.9932
▁mettent	-10.9933
▁flux	-10.9937
▁fabriqué	-10.9939
▁média	-10.9941
town	-10.9943
▁principalement	-10.9949
▁nourrir	-10.9951
▁leaving	-10.9958
▁Mr	-10.9962
▁agriculture	-10.9962
avions	-10.9964
▁Gro	-10.9965
▁durée	-10.9965
▁appren	-10.9966
▁célébr	-10.9972
▁cheveux	-10.9972
▁référence	-10.9972
▁airplane	-10.9972
▁devrais	-10.9972
▁novel	-10.9973
▁Did	-10.9974
▁survey	-10.9974
▁Bra	-10.9975
▁travaillant	-10.9977
gging	-10.9992
▁photographie	-10.9993
▁frais	-10.9996
▁espoir	-10.9998
▁artificielle	-10.9999
▁harder	-11.0006
gle	-11.0012
▁Science	-11.0012
▁Thomas	-11.0012
▁necessary	-11.0012
▁brevet	-11.0012
▁contient	-11.0012
▁jaune	-11.0014
▁daily	-11.0018
▁hui	-11.0019
▁créatures	-11.0021
▁constantly	-11.0028
▁researchers	-11.0029
▁offre	-11.0033
▁bond	-11.0036
▁Ya	-11.0049
▁trained	-11.005
▁retrouvé	-11.0052
▁Royaume	-11.0053
électro	-11.0053
▁minuscule	-11.0053
▁excitant	-11.0053
▁battle	-11.0053
▁pensaient	-11.0053
▁parlait	-11.0053
▁pause	-11.0056
▁amène	-11.0056
▁évolution	-11.0057
▁flag	-11.0059
▁productive	-11.0062
pris	-11.0068
▁réussir	-11.007
▁orient	-11.0072
oï	-11.0075
▁businesses	-11.0077
▁Once	-11.0079
▁divers	-11.0085
▁ferait	-11.0088
40	-11.0089
path	-11.009
dimensional	-11.0091
▁symptom	-11.0093
▁ingénieurs	-11.0094
▁offrir	-11.0094
maker	-11.0094
▁unfortunately	-11.0095
▁revient	-11.01
organisation	-11.0101
▁creatures	-11.0101
▁touché	-11.0104
▁changent	-11.0104
▁Sel	-11.0105
charge	-11.0106
▁fell	-11.0114
▁tro	-11.0115
▁accro	-11.0118
▁Will	-11.0128
absence	-11.0134
▁augmenté	-11.0134
▁extrême	-11.0135
▁remonte	-11.0138
▁intéresse	-11.014
▁folks	-11.0142
▁counter	-11.0146
pré	-11.0147
▁dimension	-11.0155
▁concentration	-11.0156
▁spec	-11.0174
ingénierie	-11.0175
▁engagé	-11.0175
▁curious	-11.0175
▁concert	-11.0175
▁whale	-11.0175
▁translate	-11.0177
▁parole	-11.0177
▁considered	-11.0182
▁marine	-11.0188
▁aiment	-11.0189
▁operate	-11.0192
▁allaient	-11.0197
▁Art	-11.02
▁suffit	-11.0201
▁présenté	-11.0203
▁Peu	-11.0203
nation	-11.0205
▁amie	-11.0211
▁bubble	-11.0216
▁comprennent	-11.0216
▁politician	-11.0216
▁worried	-11.0216
▁Israel	-11.0216
▁défense	-11.0216
▁signaux	-11.0223
vient	-11.0229
avec	-11.0231
▁basée	-11.0236
▁insist	-11.0239
▁sûrement	-11.0242
▁participants	-11.0243
▁fold	-11.025
▁discovery	-11.0253
▁écriv	-11.0254
▁foundation	-11.0257
▁Malheureusement	-11.0257
▁siège	-11.0257
▁piano	-11.0257
▁élimin	-11.0257
▁Adam	-11.0257
▁héros	-11.0258
▁smile	-11.0258
▁creation	-11.026
▁rendent	-11.0266
▁grab	-11.0266
▁patent	-11.027
▁conscious	-11.0274
▁release	-11.0275
▁commande	-11.0283
▁distinct	-11.0286
▁contribute	-11.0287
▁gratuit	-11.0296
▁versus	-11.0297
▁caught	-11.0298
▁compromis	-11.0298
▁hidden	-11.0298
▁fresh	-11.0298
▁safety	-11.0298
▁Congo	-11.0298
▁sorry	-11.0299
▁tension	-11.0301
▁Apple	-11.0308
hel	-11.0309
▁arch	-11.031
▁décide	-11.0313
▁currently	-11.0317
inclu	-11.0317
▁Super	-11.0318
▁Sal	-11.033
▁trouvez	-11.0337
▁passée	-11.0338
▁experienced	-11.0339
▁chromosome	-11.034
▁mathematics	-11.034
▁foyer	-11.034
▁goût	-11.034
cour	-11.0341
▁Robert	-11.0341
▁mutation	-11.0346
▁Aucun	-11.0348
çant	-11.035
▁excuse	-11.0352
▁Ré	-11.0355
▁étranger	-11.0362
▁member	-11.0362
life	-11.0363
▁facteurs	-11.0364
▁copy	-11.0365
▁mentioned	-11.0367
▁surprised	-11.0372
▁launch	-11.0374
armée	-11.0381
▁fascinating	-11.0381
▁volunteer	-11.0381
▁pounds	-11.0382
▁comfortable	-11.0384
▁stable	-11.0384
Homme	-11.0384
▁expose	-11.0384
▁Red	-11.0385
ties	-11.0387
Hey	-11.0387
▁conservation	-11.0389
▁electronic	-11.0394
▁gamin	-11.0398
▁affaire	-11.0399
.000	-11.0402
▁jail	-11.0406
But	-11.0411
marin	-11.0411
▁essaye	-11.0414
▁tomb	-11.0417
efficacité	-11.0423
▁AIDS	-11.0423
▁newspaper	-11.0423
▁egg	-11.0423
▁recevoir	-11.0423
▁frame	-11.0425
▁recev	-11.0425
▁défend	-11.0425
▁desert	-11.0428
▁writer	-11.0435
▁Jim	-11.0453
asser	-11.0456
scale	-11.0462
▁résolu	-11.0464
ingénieur	-11.0464
Australie	-11.0465
▁croyance	-11.0465
▁fragment	-11.0465
▁locaux	-11.0465
▁otherwise	-11.0465
▁volonté	-11.0465
▁feedback	-11.0465
▁minor	-11.0466
▁poussé	-11.0466
▁toilettes	-11.0466
▁insight	-11.047
▁travailleurs	-11.047
▁mener	-11.0473
intérêt	-11.0474
shirt	-11.0475
▁fabriqu	-11.0477
▁observé	-11.0479
▁mentor	-11.0482
▁inspiration	-11.0484
▁receive	-11.0484
▁formé	-11.0493
▁entraîne	-11.0494
▁ideal	-11.0496
▁infini	-11.0498
ancien	-11.0499
▁traverser	-11.0501
▁related	-11.0502
▁spirit	-11.0505
▁compétition	-11.0507
▁intellectual	-11.0507
▁soutenir	-11.0507
▁disaster	-11.0507
▁curve	-11.0508
▁croient	-11.0508
▁golf	-11.0508
▁rub	-11.0512
▁nurse	-11.0515
▁lunch	-11.0515
autorité	-11.0519
vons	-11.0523
▁généralement	-11.0523
▁cow	-11.0526
▁payé	-11.0528
▁slowly	-11.0533
80	-11.0535
▁tiré	-11.0538
▁retourné	-11.0539
▁forced	-11.0542
▁grandmother	-11.055
▁chocolat	-11.055
▁cyber	-11.055
▁oublié	-11.0551
▁devaient	-11.0551
▁orange	-11.0552
▁Grande	-11.0552
▁ring	-11.0554
▁détect	-11.0558
▁franc	-11.0561
▁solide	-11.0564
▁Have	-11.0564
▁bloc	-11.0567
▁highest	-11.0577
▁bombe	-11.0578
▁flat	-11.0579
▁described	-11.0584
▁créent	-11.0588
▁phenomenon	-11.0592
▁pyramid	-11.0592
▁chaos	-11.0592
▁mâle	-11.0592
▁illness	-11.0592
▁implications	-11.0593
Musique	-11.0593
▁Quelqu	-11.0602
▁réside	-11.0604
▁hack	-11.0608
aries	-11.0615
▁Jack	-11.0616
▁concerned	-11.0628
▁rang	-11.0634
▁aveugle	-11.0635
▁caractère	-11.0635
▁mirror	-11.0635
▁admit	-11.0635
▁monkey	-11.0635
▁camion	-11.0637
▁north	-11.064
▁2005	-11.064
▁objective	-11.0642
assurer	-11.0645
▁Star	-11.065
▁Joe	-11.0651
▁Sam	-11.0658
▁finished	-11.0659
▁Rien	-11.0663
▁comporte	-11.0665
▁independent	-11.0666
▁obtenez	-11.0678
▁Black	-11.0678
▁baleine	-11.0678
▁judge	-11.0678
▁Moyen	-11.0678
▁algorithmes	-11.0679
fully	-11.068
▁contribution	-11.0681
▁poème	-11.0683
▁faim	-11.0685
▁expected	-11.0689
▁pareil	-11.0692
▁lifetime	-11.0693
▁tient	-11.0696
▁metal	-11.0702
▁morte	-11.0703
▁âgé	-11.0703
▁queue	-11.0705
▁bleue	-11.0715
▁custom	-11.0718
▁bénéfici	-11.0721
▁Manhattan	-11.0721
▁kilometers	-11.0721
▁Prenez	-11.0721
▁losing	-11.0722
▁wake	-11.0724
▁convention	-11.0724
▁Mark	-11.0729
power	-11.0732
▁analys	-11.0735
▁van	-11.0742
▁reform	-11.0743
▁remarque	-11.0743
▁monte	-11.075
empêch	-11.0757
▁closed	-11.0758
▁fabric	-11.0759
▁topic	-11.0761
Orient	-11.0762
▁clinical	-11.0763
▁bouteille	-11.0764
▁dispositif	-11.0764
▁présence	-11.0764
▁magie	-11.0765
▁Nobel	-11.0766
▁fourniss	-11.0768
▁tenu	-11.0773
âche	-11.0774
▁confi	-11.0775
▁quotidienne	-11.0776
▁avenir	-11.0778
▁rappel	-11.079
▁agit	-11.0791
▁centrale	-11.0791
ouvre	-11.0794
▁invited	-11.0796
▁ajouter	-11.0807
nny	-11.0808
immeuble	-11.0808
▁2011	-11.0808
▁channel	-11.0808
▁chimpanzé	-11.0808
▁fragile	-11.0808
▁apprennent	-11.0808
▁contrast	-11.0809
nière	-11.081
change	-11.0814
▁trauma	-11.0815
▁arbre	-11.0829
arrête	-11.083
▁define	-11.0836
▁connue	-11.0836
▁ADN	-11.0837
▁oppos	-11.0839
▁grad	-11.0841
▁parfaite	-11.0845
▁deeper	-11.0848
▁vendu	-11.0849
▁métaphore	-11.0851
▁frappe	-11.0853
Do	-11.0853
▁debout	-11.0853
agriculture	-11.0862
exemple	-11.0862
▁chute	-11.0862
▁Germany	-11.0865
▁Bob	-11.0868
▁survival	-11.0868
▁insectes	-11.0878
▁stone	-11.0879
▁32	-11.088
Est	-11.0881
▁95	-11.0883
▁installation	-11.089
▁posséd	-11.0895
exercice	-11.0895
▁idéal	-11.0895
▁exchange	-11.0896
▁attire	-11.0899
▁filled	-11.0904
▁nerve	-11.0905
▁profondeur	-11.0907
▁followed	-11.0908
▁serre	-11.0914
▁lift	-11.0915
▁créée	-11.0929
▁produis	-11.0931
▁accumul	-11.0934
Irak	-11.0937
▁caused	-11.0937
▁avancer	-11.0938
▁Microsoft	-11.0939
▁President	-11.0939
▁malheureusement	-11.0939
▁pouviez	-11.0939
▁séparé	-11.0939
▁stood	-11.0939
▁cartoon	-11.094
prime	-11.094
▁fellow	-11.0941
▁rational	-11.0941
▁1950	-11.0942
▁fabrication	-11.0945
▁alter	-11.0947
stream	-11.0951
▁management	-11.0953
▁île	-11.0958
mission	-11.0974
▁stupid	-11.0983
▁Texas	-11.0984
▁neuroscience	-11.0984
▁ultra	-11.0984
▁official	-11.0984
▁charbon	-11.0984
▁round	-11.0988
▁continué	-11.0991
▁dépl	-11.0992
▁ballon	-11.0992
▁Mary	-11.0993
▁roman	-11.0998
▁liquide	-11.1
▁remarquer	-11.1005
▁subi	-11.1014
▁sert	-11.1018
▁pluie	-11.1019
▁visuel	-11.102
▁horse	-11.1022
▁matériau	-11.1025
▁occidental	-11.1028
▁provoque	-11.1028
▁symbole	-11.1028
▁lawyer	-11.1028
▁plaît	-11.1029
▁toxic	-11.1029
▁Human	-11.1033
▁dealing	-11.1036
▁surpris	-11.1038
▁treated	-11.104
attaque	-11.104
expression	-11.1041
▁envoie	-11.1041
▁26	-11.1043
▁isolé	-11.1047
▁advance	-11.1049
▁commune	-11.1053
▁destin	-11.1055
▁quiet	-11.1055
▁aviez	-11.1056
▁soyez	-11.1059
Occident	-11.1073
▁personnalité	-11.1073
▁septembre	-11.1073
▁symptôme	-11.1073
▁associated	-11.1073
▁scolaire	-11.1073
▁volontaire	-11.1073
▁brief	-11.1073
▁operating	-11.1074
▁nervous	-11.1074
▁Nature	-11.1075
source	-11.1079
▁roche	-11.108
obtenir	-11.1084
▁repas	-11.1087
▁levé	-11.1087
▁Enfin	-11.1087
▁seriously	-11.1095
och	-11.1096
If	-11.1099
▁poster	-11.11
arrière	-11.1104
▁pilot	-11.1108
▁confronté	-11.1109
flex	-11.1111
▁logic	-11.1116
▁encounter	-11.1118
▁protégé	-11.1118
▁sauvage	-11.1118
▁wheel	-11.1118
▁anticip	-11.1118
▁status	-11.1118
▁Jusqu	-11.1118
Go	-11.1123
▁calling	-11.1124
▁champion	-11.1125
▁fake	-11.1129
espèce	-11.113
affaire	-11.113
▁sacré	-11.1132
▁Port	-11.1132
▁générale	-11.1134
▁représentation	-11.1135
▁civile	-11.1137
▁unless	-11.1141
position	-11.1145
▁Mac	-11.1145
▁apporté	-11.1146
▁picked	-11.1148
▁culturelle	-11.115
Il	-11.1152
équation	-11.1154
▁corde	-11.1157
émotion	-11.1162
▁International	-11.1163
▁participation	-11.1163
▁telescope	-11.1163
▁télescope	-11.1163
▁énormément	-11.1163
▁retard	-11.1163
▁mettez	-11.1163
▁trompe	-11.1164
wo	-11.1165
▁abandonn	-11.1165
▁connaît	-11.1172
▁hauteur	-11.1174
▁Lab	-11.1174
▁mouse	-11.1175
▁publicité	-11.1201
atoire	-11.1201
▁majeure	-11.1203
Américain	-11.1207
▁1970	-11.1208
▁Mexico	-11.1208
▁bibliothèque	-11.1208
▁paradox	-11.1208
▁masculin	-11.1208
▁bread	-11.1208
▁accus	-11.1208
▁magique	-11.1208
▁obstacles	-11.1209
▁plonge	-11.1209
▁1960	-11.121
près	-11.1214
▁rose	-11.1215
▁abuse	-11.1216
▁shut	-11.1218
individu	-11.122
▁accepté	-11.1226
▁autism	-11.1233
water	-11.1233
▁perfectly	-11.1236
▁accurate	-11.1253
▁bénéfice	-11.1253
▁collapse	-11.1253
▁maintenir	-11.1253
▁ordinary	-11.1253
▁probabilité	-11.1253
▁spectacle	-11.1253
▁Celui	-11.1253
▁apparent	-11.1253
▁Institute	-11.1253
▁Very	-11.1277
▁médical	-11.1277
adresse	-11.1278
▁taste	-11.1281
▁abstract	-11.1299
Angleterre	-11.1299
▁indépendant	-11.1299
▁souffrance	-11.1299
▁vêtements	-11.1299
▁description	-11.1299
▁abeilles	-11.1299
▁shoes	-11.1301
▁Other	-11.1305
▁theater	-11.1321
▁launched	-11.1322
▁setting	-11.1332
▁courte	-11.1343
▁economist	-11.1345
▁epidemic	-11.1345
▁vulnerable	-11.1345
▁embrace	-11.1345
▁initiative	-11.1345
▁prévu	-11.1345
échappe	-11.1345
▁gestion	-11.1345
▁poem	-11.1353
▁visuelle	-11.1353
▁grim	-11.1354
▁select	-11.1354
▁row	-11.1363
▁avancée	-11.1377
▁EM	-11.1379
▁pet	-11.1389
Allemagne	-11.1391
▁automobile	-11.1391
▁réflexion	-11.1391
▁transplant	-11.1391
▁credit	-11.1391
▁Talk	-11.1391
▁lentement	-11.1392
▁secondaire	-11.1399
▁emotion	-11.1399
▁flip	-11.1402
▁compose	-11.1402
friend	-11.1404
▁profession	-11.1415
▁electric	-11.1418
crit	-11.1422
aventure	-11.1424
▁émotionnelle	-11.1426
▁enregistré	-11.1428
▁artiste	-11.1429
gin	-11.1431
▁illustr	-11.1431
▁catégorie	-11.1437
▁stupide	-11.1438
▁hide	-11.1442
mble	-11.1454
▁skill	-11.1459
▁involve	-11.1461
▁paying	-11.1474
▁demandent	-11.148
▁2012	-11.1484
▁Stanford	-11.1484
▁William	-11.1484
▁collision	-11.1484
empathie	-11.1484
ibility	-11.1484
▁firm	-11.1485
▁demain	-11.1485
▁mortalité	-11.1486
▁analysis	-11.1492
▁processes	-11.1492
▁chart	-11.1495
American	-11.1497
▁lung	-11.1499
▁gène	-11.1506
▁Matt	-11.152
▁négoci	-11.153
▁display	-11.153
▁error	-11.153
▁church	-11.1531
▁Three	-11.1531
▁trouvons	-11.1531
▁indicate	-11.1531
▁citation	-11.1532
▁Sch	-11.1542
urgence	-11.1558
▁Ceux	-11.1564
▁equivalent	-11.1577
église	-11.1577
▁Ghana	-11.1577
▁mystère	-11.1577
▁génie	-11.1578
▁résolution	-11.1579
▁fermé	-11.158
isez	-11.1588
script	-11.1589
▁intégré	-11.1597
éral	-11.1599
avion	-11.1601
▁commentaire	-11.161
▁speaker	-11.1612
altitude	-11.1625
▁2015	-11.1625
▁Would	-11.1625
▁réchauffement	-11.1625
▁typique	-11.1625
▁pocket	-11.1625
▁disrupt	-11.1625
▁maintain	-11.1625
▁préfère	-11.1625
▁inclus	-11.1626
▁hip	-11.1627
▁lourd	-11.1629
▁season	-11.1631
▁psycho	-11.1632
▁increasingly	-11.1635
▁adulte	-11.1635
échec	-11.1639
▁wondering	-11.1643
▁facing	-11.1647
▁augmentation	-11.165
▁investissement	-11.1651
aucun	-11.1652
▁Far	-11.1655
▁reconnais	-11.1672
▁diploma	-11.1672
▁manufacturing	-11.1672
▁énergétique	-11.1672
▁avocat	-11.1672
▁practical	-11.1672
▁wisdom	-11.1672
▁Christian	-11.1672
▁sanguin	-11.1672
▁interrog	-11.1672
▁label	-11.1673
▁fondation	-11.1675
approche	-11.1685
Yes	-11.1685
▁essayant	-11.1686
arbre	-11.1688
▁hire	-11.1688
▁killing	-11.1691
▁individuelle	-11.1691
▁avance	-11.171
▁portée	-11.1711
▁organic	-11.1718
▁establish	-11.172
▁heavy	-11.172
▁participate	-11.172
▁universitaire	-11.172
▁Trois	-11.172
▁bataille	-11.172
▁dominant	-11.172
▁hopefully	-11.1721
▁permission	-11.1722
▁fourth	-11.1724
toi	-11.1724
▁loud	-11.1729
▁designing	-11.1731
▁flash	-11.1732
q	-11.1735
▁36	-11.1736
▁tip	-11.1739
▁bless	-11.174
▁maman	-11.1747
▁Their	-11.175
▁échec	-11.1753
▁essential	-11.1756
▁doubt	-11.1767
▁equation	-11.1767
▁ouvrir	-11.1769
▁devions	-11.177
▁Air	-11.177
▁hier	-11.1774
▁fête	-11.1782
▁bouton	-11.1785
agir	-11.1789
▁regardent	-11.1792
▁Does	-11.1793
▁resource	-11.1797
▁capita	-11.18
▁Pan	-11.1804
▁interven	-11.1807
▁drag	-11.1811
▁plateforme	-11.1816
▁discrimination	-11.1818
▁nulle	-11.1818
▁correctement	-11.1821
▁garanti	-11.1822
▁actif	-11.1825
▁persist	-11.1827
▁session	-11.183
américain	-11.1831
▁keeping	-11.1841
issait	-11.1842
▁released	-11.1843
avor	-11.1844
▁warming	-11.1847
▁transmission	-11.1865
▁fonctionnement	-11.1866
▁Bank	-11.1867
▁exige	-11.1867
▁plaque	-11.1871
écriture	-11.1874
exploitation	-11.1878
humain	-11.1879
▁combination	-11.1883
Vous	-11.1884
▁couverture	-11.1891
▁fac	-11.1895
house	-11.1899
atory	-11.1905
▁Egypt	-11.1911
▁Congrès	-11.1912
▁Wikipedia	-11.1912
▁property	-11.1912
▁Central	-11.1912
▁Health	-11.1912
▁folle	-11.1914
▁kick	-11.1915
▁normally	-11.1919
▁industrielle	-11.1923
▁ethic	-11.1924
entrée	-11.1935
▁pollen	-11.1936
▁détecter	-11.1939
▁jouent	-11.194
▁Latin	-11.1941
imagine	-11.195
▁Wall	-11.1954
▁auxquel	-11.196
▁broke	-11.196
▁opening	-11.1961
▁kitchen	-11.1961
▁mathematical	-11.1961
▁intuition	-11.1961
▁sweet	-11.1961
▁Chacun	-11.1963
▁excité	-11.1968
▁hypothèse	-11.1973
▁enregistr	-11.1975
▁manifestation	-11.198
appelait	-11.198
iness	-11.1988
▁load	-11.199
▁liquid	-11.1992
▁rassembler	-11.1992
▁exploration	-11.1999
▁complète	-11.2
▁Six	-11.2003
opéra	-11.2006
▁abandonné	-11.2009
▁Higgs	-11.201
▁SIDA	-11.201
▁tomorrow	-11.201
▁empty	-11.201
▁Tri	-11.201
▁bloqu	-11.2011
▁smartphone	-11.2011
▁interne	-11.2011
▁venez	-11.2012
▁division	-11.2012
▁manager	-11.2012
▁suspect	-11.2012
▁prefer	-11.2014
▁limb	-11.2016
▁ordre	-11.202
▁ayons	-11.2021
▁discuss	-11.2029
▁usage	-11.2033
▁actor	-11.2033
▁créateur	-11.2034
▁tear	-11.2035
▁candidat	-11.2053
▁toilet	-11.2059
▁diagnose	-11.2059
▁diplôme	-11.2059
▁equipment	-11.2059
▁médicaux	-11.2059
▁technological	-11.2059
▁tweet	-11.2059
▁terminer	-11.2059
▁reject	-11.2062
▁2006	-11.2064
▁explique	-11.2066
▁rentre	-11.2066
▁Gar	-11.2068
▁2,000	-11.2068
▁kit	-11.2082
▁saved	-11.2086
uthern	-11.2091
▁divin	-11.2092
▁nouvel	-11.2096
▁auront	-11.2099
▁factory	-11.2105
▁Congress	-11.2109
▁détruit	-11.2109
▁quatrième	-11.2109
▁Women	-11.2109
▁perceive	-11.2109
▁réparer	-11.2109
▁pomme	-11.2109
▁preserv	-11.211
▁assign	-11.2116
▁enfance	-11.2125
▁electrical	-11.2127
▁dents	-11.2133
▁robotic	-11.2135
▁aimé	-11.2139
▁acid	-11.2144
▁south	-11.2151
▁ressenti	-11.2154
▁conséquent	-11.2159
▁galaxy	-11.2159
▁variety	-11.2159
▁escape	-11.2159
▁promote	-11.2159
éloigne	-11.2159
▁quarter	-11.216
▁chaise	-11.2163
▁ressemblait	-11.2163
▁Peter	-11.2167
▁racont	-11.2168
▁panel	-11.2169
▁filter	-11.2172
stitution	-11.2177
▁State	-11.2178
▁creus	-11.2179
écu	-11.2181
▁Last	-11.2182
▁alien	-11.2193
▁comparé	-11.2193
▁volant	-11.2196
▁précise	-11.2197
orient	-11.2197
▁hydro	-11.2197
▁increasing	-11.2198
▁essentiel	-11.22
▁autrement	-11.22
▁revenue	-11.2202
▁according	-11.2205
▁Everybody	-11.2209
▁celebrate	-11.2209
▁ridicule	-11.2209
▁éloigné	-11.2209
▁ressort	-11.2209
▁souvenez	-11.2209
▁journaux	-11.2209
▁autonome	-11.2209
▁circulation	-11.221
▁entouré	-11.2211
▁raconté	-11.2215
down	-11.2216
▁testing	-11.2223
essaie	-11.2229
▁organized	-11.2231
▁advanced	-11.2235
▁Since	-11.2235
▁surround	-11.2238
▁internal	-11.2252
▁extrait	-11.2256
Don	-11.2256
▁elephant	-11.2259
▁hôpitaux	-11.2259
▁pleasure	-11.2259
▁emissions	-11.2259
▁association	-11.2259
▁title	-11.2259
▁élections	-11.226
▁volcan	-11.226
▁proposition	-11.2266
▁Alzheimer	-11.2274
améliorer	-11.2275
▁consume	-11.2276
▁artistique	-11.2276
analyse	-11.2276
applique	-11.2277
▁grandir	-11.2296
▁quotidien	-11.2296
▁peer	-11.2303
▁saison	-11.2304
▁effrayant	-11.2309
▁nettoy	-11.2309
▁miroir	-11.2309
▁valuable	-11.2309
▁obtient	-11.2309
▁Everything	-11.2309
▁grippe	-11.231
▁interpret	-11.231
▁brutal	-11.231
▁arabe	-11.231
▁fraction	-11.2311
▁specifically	-11.2312
▁director	-11.2312
▁teenager	-11.2321
ains	-11.2325
▁rentré	-11.233
▁biais	-11.2331
▁connecter	-11.2331
▁prediction	-11.2333
▁28	-11.2335
agé	-11.2336
▁cadeau	-11.2339
▁étudi	-11.2342
▁voter	-11.2355
▁inequality	-11.236
▁variable	-11.236
▁femelle	-11.236
▁weather	-11.2361
▁fondamental	-11.2365
▁sight	-11.2368
▁polio	-11.2374
identité	-11.2378
▁assemble	-11.2382
▁sending	-11.2385
▁Pen	-11.2398
▁indien	-11.24
▁largement	-11.2405
▁ouvre	-11.2407
éléphant	-11.2411
▁appreciate	-11.2411
▁récolte	-11.2411
▁vulnérable	-11.2411
▁remercie	-11.2411
▁frappé	-11.2411
▁educate	-11.2411
▁float	-11.2413
injustice	-11.2413
▁conservative	-11.2413
▁cutting	-11.2417
▁récente	-11.2419
▁icon	-11.2419
▁pray	-11.242
▁alarm	-11.2432
▁script	-11.2447
attrape	-11.2454
niste	-11.2456
▁selling	-11.2462
effondre	-11.2462
▁fréquence	-11.2462
▁glacier	-11.2462
▁privilege	-11.2462
▁suggér	-11.2462
▁GDP	-11.2462
▁PIB	-11.2462
▁England	-11.2463
▁croyons	-11.2463
▁parasite	-11.2463
▁animation	-11.2463
▁transaction	-11.2464
▁covered	-11.2466
▁quantum	-11.2466
▁résume	-11.2467
▁légèrement	-11.2468
▁pilote	-11.2476
▁120	-11.2478
avance	-11.2482
▁vente	-11.2483
▁remplacer	-11.2491
▁puce	-11.2492
▁publish	-11.2493
▁coté	-11.2496
print	-11.25
▁soudain	-11.2512
▁assumption	-11.2514
▁cependant	-11.2514
▁nôtre	-11.2514
▁identifier	-11.2514
▁reconnu	-11.2515
▁barrière	-11.2516
▁button	-11.2523
▁arrived	-11.2524
▁meaningful	-11.2532
▁increased	-11.2533
▁boite	-11.2533
▁prime	-11.2544
▁facteur	-11.255
▁definitely	-11.2566
▁underneath	-11.2566
▁prétend	-11.2567
▁suffisant	-11.2567
▁Bush	-11.2569
▁habituel	-11.2572
▁majeur	-11.2572
▁roughly	-11.2572
Asie	-11.2573
▁deserve	-11.2577
▁settle	-11.2577
▁tar	-11.2578
▁grid	-11.2578
▁explosion	-11.2578
▁relatively	-11.2582
ménage	-11.2583
▁100,000	-11.2584
employ	-11.2585
lope	-11.2588
▁vache	-11.2588
▁height	-11.2593
▁trac	-11.2597
occuper	-11.26
▁Juste	-11.2601
▁molecule	-11.2617
▁décennie	-11.2617
▁academic	-11.2618
▁flexible	-11.2618
▁gravité	-11.2618
▁lendemain	-11.2618
▁prédiction	-11.2618
▁incentive	-11.2618
▁joke	-11.2623
▁rapidly	-11.2628
▁essayez	-11.2633
▁handle	-11.264
state	-11.264
▁assurer	-11.2643
▁économis	-11.2644
▁fundamentally	-11.2645
▁mouche	-11.2646
▁scared	-11.2649
scope	-11.2656
▁bike	-11.2658
▁relate	-11.2661
olar	-11.267
▁possibilities	-11.267
▁théâtre	-11.267
▁prouver	-11.267
▁mensonge	-11.267
▁molécule	-11.2671
▁conséquence	-11.2671
▁2004	-11.2676
▁compete	-11.2678
▁AI	-11.2678
▁Alex	-11.2679
▁manuel	-11.2679
▁précision	-11.2679
▁Kar	-11.2679
▁800	-11.2681
▁citizen	-11.2681
ouverture	-11.2681
▁convinced	-11.2691
▁85	-11.2692
▁assise	-11.2693
▁Rome	-11.27
▁however	-11.2701
écrire	-11.2721
▁travaux	-11.2723
▁vessel	-11.2723
▁Could	-11.2723
▁laptop	-11.2723
▁evil	-11.2723
▁spiritual	-11.2724
▁étendu	-11.2724
▁pitch	-11.2726
▁pulled	-11.2732
▁remettre	-11.2733
▁procédé	-11.2736
▁Bang	-11.2742
phone	-11.2745
▁serez	-11.2747
▁vérifi	-11.2753
▁totale	-11.2762
▁savaient	-11.277
▁rig	-11.2773
▁empathy	-11.2776
▁explanation	-11.2776
▁sandwich	-11.2776
▁producing	-11.2776
▁souches	-11.2776
▁string	-11.2776
▁engaged	-11.2781
▁severe	-11.279
▁formula	-11.2791
plica	-11.2797
▁effectively	-11.28
▁fossiles	-11.2805
▁introduce	-11.2806
▁historical	-11.281
▁pic	-11.2813
▁dépens	-11.2814
abri	-11.2827
▁concentré	-11.2828
▁Finalement	-11.2829
▁Global	-11.2829
▁advice	-11.2829
▁announce	-11.2829
▁aperçu	-11.2829
▁ancêtres	-11.2829
▁composants	-11.2829
▁healthcare	-11.2829
▁métier	-11.2829
▁chemistry	-11.283
▁instructions	-11.283
▁brave	-11.2831
▁awful	-11.2831
▁empêcher	-11.2831
▁1000	-11.2833
▁galaxie	-11.2835
▁passionate	-11.2838
▁carefully	-11.2838
▁review	-11.2839
▁préfér	-11.284
▁abus	-11.2842
▁croit	-11.2843
posant	-11.2847
▁cérébrale	-11.2849
occasion	-11.2849
fold	-11.2861
▁Gene	-11.2872
▁parlez	-11.2876
▁soft	-11.2878
▁Britain	-11.2882
▁physicien	-11.2882
▁privacy	-11.2882
▁susceptible	-11.2882
▁computation	-11.2883
▁venaient	-11.2883
▁sagesse	-11.2883
▁sugar	-11.2883
▁ramener	-11.2883
▁baseball	-11.2884
▁implement	-11.2886
▁priorité	-11.2887
▁entré	-11.2887
metric	-11.2887
▁peak	-11.2889
▁classic	-11.2891
▁chirurgien	-11.2893
agissait	-11.2895
▁Ouais	-11.2902
▁apartment	-11.2909
▁achet	-11.291
▁eaux	-11.2914
arriver	-11.2915
▁élevée	-11.2916
▁priv	-11.2919
▁700	-11.2921
▁batte	-11.2923
▁chirurgie	-11.2925
poli	-11.2928
établir	-11.293
▁sexuel	-11.2931
▁Mexique	-11.2936
▁recycle	-11.2936
▁chicken	-11.2936
▁comprenons	-11.2936
▁dirigé	-11.2936
▁racine	-11.2936
accueil	-11.2936
▁composition	-11.2937
▁aimons	-11.2938
axe	-11.294
▁plot	-11.2941
last	-11.2943
▁métal	-11.2947
▁donnez	-11.2947
▁Yet	-11.2948
▁added	-11.2949
▁rocket	-11.2949
ologues	-11.2961
▁entoure	-11.2962
▁tenter	-11.2965
▁répand	-11.2981
▁funding	-11.2987
▁circumstance	-11.299
▁scénario	-11.299
▁worldwide	-11.299
▁recueil	-11.299
▁thème	-11.299
▁swim	-11.299
▁avéré	-11.299
▁conduis	-11.2991
assurance	-11.2991
chargé	-11.2991
▁foie	-11.2992
neur	-11.2993
ball	-11.2998
▁aurons	-11.2999
▁forcément	-11.3
envers	-11.3003
▁métro	-11.3006
▁tall	-11.3016
▁tea	-11.3034
▁bâti	-11.3034
▁nécessite	-11.3045
Audience	-11.3045
▁illegal	-11.3045
▁accomplish	-11.3046
▁surgeon	-11.3047
▁shame	-11.3047
▁extract	-11.3051
▁écosystème	-11.3057
▁align	-11.3057
▁permettra	-11.3066
important	-11.3066
▁SW	-11.3066
institut	-11.3077
▁probable	-11.3089
aviez	-11.3094
▁Deuxièmement	-11.3099
▁consumption	-11.3099
▁demonstrate	-11.3099
▁properties	-11.3099
▁écologique	-11.3099
▁primary	-11.3099
▁ticket	-11.3099
▁witness	-11.3099
▁sauvé	-11.3099
▁reef	-11.3101
▁cherché	-11.3101
▁sync	-11.3102
▁poumon	-11.3103
▁supérieur	-11.3115
▁Rio	-11.3123
assistance	-11.3123
existence	-11.3127
▁dose	-11.3127
▁restent	-11.3129
▁pipe	-11.314
▁sheet	-11.3151
▁acquis	-11.3153
▁condamn	-11.3154
▁mammal	-11.3154
▁Number	-11.3154
▁racial	-11.3154
▁supprim	-11.3154
▁sucre	-11.3154
▁retraite	-11.3154
▁drapeau	-11.3155
▁enseigner	-11.3155
▁mettons	-11.3155
▁rapproche	-11.3156
▁conven	-11.3158
▁export	-11.316
▁calme	-11.3174
▁représenter	-11.3208
▁affected	-11.3208
▁identique	-11.3209
▁résistance	-11.3209
▁semblable	-11.3209
▁suggère	-11.3209
▁négatif	-11.321
▁fermier	-11.321
▁employees	-11.321
hold	-11.321
▁contraint	-11.321
▁statue	-11.321
▁faudrait	-11.3212
▁permettant	-11.3213
▁format	-11.3219
▁doubl	-11.3233
break	-11.3235
▁conservateur	-11.3235
▁bug	-11.3243
▁German	-11.3248
▁thin	-11.3258
abandon	-11.3263
▁Hollywood	-11.3265
▁awesome	-11.3265
▁britannique	-11.3265
▁physicist	-11.3265
▁propriétaire	-11.3265
▁filtre	-11.3266
▁spring	-11.3269
▁tribe	-11.3271
▁déjeuner	-11.3273
▁Corée	-11.3274
▁Bible	-11.328
▁organes	-11.328
▁wrap	-11.3283
▁chimique	-11.3286
▁spécialiste	-11.3286
▁tiens	-11.3287
▁reached	-11.3297
▁traditionnel	-11.3302
▁melt	-11.3304
back	-11.3312
▁statement	-11.3315
▁comfort	-11.3317
▁activities	-11.3321
▁clothes	-11.3321
▁mammifère	-11.3321
▁spectrum	-11.3321
▁témoin	-11.3321
▁modifier	-11.3321
▁Smith	-11.3321
▁viande	-11.3321
▁Japanese	-11.3321
alimentation	-11.3321
▁High	-11.3322
enseignant	-11.3322
▁ajouté	-11.3322
▁déteste	-11.3324
▁prédire	-11.3324
▁repose	-11.3326
▁battu	-11.3327
▁péri	-11.334
▁représenté	-11.334
▁exposition	-11.3341
▁mile	-11.3342
parents	-11.3344
▁vérifier	-11.3345
▁dinosaures	-11.3351
administration	-11.3356
▁potentially	-11.3356
▁terrorisme	-11.3362
▁physically	-11.3365
▁Hol	-11.3371
▁varie	-11.3374
▁Trump	-11.3377
▁français	-11.3377
▁gravity	-11.3377
▁appropriate	-11.3377
▁relevant	-11.3377
▁robust	-11.3377
▁facial	-11.3378
▁decline	-11.3379
▁gut	-11.3383
▁courir	-11.3387
▁claire	-11.3387
▁prepared	-11.339
▁expansion	-11.339
▁individu	-11.3391
▁urbain	-11.3409
▁psych	-11.342
▁repair	-11.3429
▁ravi	-11.3432
▁carburant	-11.3434
▁challenging	-11.3434
▁minimum	-11.3434
▁chimie	-11.3434
▁cheval	-11.3434
▁psychologique	-11.3434
▁snow	-11.3434
▁storm	-11.3434
▁2050	-11.3439
▁staff	-11.3441
▁paie	-11.3442
angle	-11.3442
▁required	-11.3443
▁USA	-11.3444
▁relativement	-11.345
▁épidémie	-11.3454
objectif	-11.3457
code	-11.3459
load	-11.346
pouvant	-11.3466
▁assure	-11.3466
▁projection	-11.3466
▁dessiner	-11.3471
burg	-11.3478
▁critic	-11.348
▁officer	-11.3485
▁rou	-11.3485
▁driven	-11.3486
▁Pouvez	-11.349
▁démocratique	-11.349
▁emerging	-11.349
▁intuitive	-11.349
▁routine	-11.349
▁défaut	-11.349
▁reconnaissance	-11.349
▁length	-11.3491
▁angry	-11.3491
▁captur	-11.3491
▁signature	-11.3492
▁puissions	-11.3492
▁utilisateurs	-11.3493
▁panneaux	-11.3493
astronome	-11.3494
▁plage	-11.3497
▁Gates	-11.3498
▁quantique	-11.3501
gné	-11.3501
artiste	-11.3505
▁campus	-11.351
▁développe	-11.3518
▁naturellement	-11.3519
midi	-11.3519
▁bactérie	-11.3519
▁generally	-11.3522
▁ras	-11.3531
▁temple	-11.3539
▁disque	-11.3544
▁innocent	-11.3548
▁uniform	-11.3548
▁pourcentage	-11.3548
▁Brown	-11.3548
▁psychological	-11.3548
▁incident	-11.3548
▁milk	-11.3548
▁restrict	-11.3549
▁naturally	-11.3549
▁archive	-11.3552
▁2001	-11.3555
▁rapid	-11.356
▁créons	-11.356
▁distant	-11.3566
▁logo	-11.3567
atteindre	-11.3572
illumin	-11.3578
▁assist	-11.3578
▁defined	-11.3579
▁passionné	-11.3584
▁consist	-11.3587
▁marin	-11.3594
▁repris	-11.3598
▁Act	-11.3601
▁déroule	-11.3605
▁européen	-11.3605
▁quiconque	-11.3605
▁enceinte	-11.3605
▁affi	-11.3605
▁balloon	-11.3605
▁dîner	-11.3605
▁confident	-11.3605
▁sauce	-11.3606
▁mythe	-11.3606
▁2003	-11.3611
▁optimiste	-11.3611
▁presentation	-11.3613
▁blessure	-11.3617
▁Four	-11.3627
▁âgées	-11.3628
expliquer	-11.363
▁donnant	-11.3638
▁installé	-11.3649
▁Day	-11.365
infirmière	-11.3663
▁integrate	-11.3663
▁interrupt	-11.3663
▁liberal	-11.3663
▁mosquito	-11.3663
▁perturb	-11.3663
▁Ebola	-11.3663
▁transcend	-11.3663
identifie	-11.3663
▁rescue	-11.3664
inquiète	-11.3664
▁réforme	-11.3665
Sahara	-11.3666
▁valid	-11.367
▁connait	-11.3672
▁cube	-11.3676
▁typically	-11.3679
▁écart	-11.3688
instant	-11.3694
▁essence	-11.3695
▁armée	-11.3703
▁publication	-11.3703
▁Allez	-11.3705
▁Premièrement	-11.3721
▁agréable	-11.3721
▁antibiotic	-11.3721
▁democratic	-11.3721
▁idiot	-11.3721
▁molecular	-11.3721
▁sophistiqué	-11.3721
▁recrut	-11.3721
▁racism	-11.3721
▁medium	-11.3721
▁strip	-11.3722
▁État	-11.3722
▁auxquelles	-11.3723
▁murder	-11.3726
▁boom	-11.373
▁compress	-11.3738
▁forcé	-11.3738
▁geo	-11.3741
héritage	-11.3745
▁conducteur	-11.3746
▁transportation	-11.375
▁sache	-11.375
▁convince	-11.3756
▁supérieure	-11.3762
▁opposé	-11.3763
▁absolute	-11.3772
▁hôpital	-11.3775
▁couvert	-11.3777
▁calories	-11.3779
▁While	-11.3779
▁entertain	-11.3779
▁motivate	-11.378
▁costume	-11.378
▁ruin	-11.3783
▁equality	-11.3784
▁vagin	-11.3786
▁candidate	-11.3787
▁Eric	-11.3793
▁basse	-11.3794
▁pump	-11.3798
essence	-11.3805
▁casse	-11.3806
▁normalement	-11.3809
▁33	-11.3822
▁provenan	-11.3823
▁appellent	-11.383
▁Scott	-11.3838
▁Vietnam	-11.3838
▁bicycle	-11.3838
▁confidence	-11.3838
▁syndrome	-11.3838
▁centuries	-11.3838
▁poésie	-11.3838
▁policies	-11.3838
▁inévitable	-11.3838
▁teeth	-11.3838
▁steel	-11.3838
▁criminel	-11.3839
▁secure	-11.3839
▁loan	-11.3842
▁House	-11.3844
▁prenant	-11.3845
making	-11.3847
▁thérapie	-11.3847
▁arc	-11.3848
▁dangereuse	-11.385
▁Union	-11.3858
▁sourire	-11.3861
▁peint	-11.3863
▁introduced	-11.3864
▁Sea	-11.3878
▁jambe	-11.388
box	-11.3881
entendre	-11.3888
▁dorm	-11.3896
▁nutrition	-11.3897
▁cinéma	-11.3897
▁dauphin	-11.3897
▁district	-11.3897
▁gentlemen	-11.3897
▁innovative	-11.3897
▁yesterday	-11.3897
▁résistant	-11.3897
▁White	-11.3897
▁Titan	-11.3898
▁Syria	-11.3898
▁procure	-11.3898
▁knee	-11.3898
▁moustique	-11.3899
▁nerveux	-11.3899
▁roue	-11.3901
▁consent	-11.3904
▁garage	-11.3909
▁récupérer	-11.3917
anglais	-11.3924
essaye	-11.3929
▁culturel	-11.3932
stimul	-11.3938
▁Moi	-11.3947
▁luck	-11.3948
▁sustain	-11.3953
▁Mondiale	-11.3957
▁grandfather	-11.3957
▁pregnant	-11.3957
▁scenario	-11.3957
▁applied	-11.3957
▁Space	-11.3957
ifiant	-11.3957
▁behave	-11.3957
▁souffle	-11.3957
▁29	-11.3959
▁gentil	-11.3959
▁virtuelle	-11.3963
▁Also	-11.3972
▁unknown	-11.3982
investissement	-11.3984
opération	-11.3987
▁utilisez	-11.3987
▁evolve	-11.3994
▁rendez	-11.3995
arrêt	-11.3999
uk	-11.4013
▁conviction	-11.4017
▁curiosité	-11.4017
▁maîtrise	-11.4017
▁sophisticated	-11.4017
▁SMS	-11.4017
▁échoue	-11.4017
apparence	-11.4017
▁clever	-11.4017
▁Aussi	-11.4018
▁blague	-11.4019
▁Soleil	-11.4019
▁joined	-11.402
▁amoureux	-11.402
▁contest	-11.402
▁pirate	-11.4021
▁officiel	-11.4021
▁intellectuelle	-11.4022
▁electro	-11.4032
▁winter	-11.4037
influence	-11.4044
lash	-11.4048
▁apple	-11.4055
▁Duran	-11.406
digit	-11.4062
▁gris	-11.4075
▁détruire	-11.4077
▁manufacture	-11.4077
▁moléculaire	-11.4077
▁obligé	-11.4077
▁physician	-11.4077
▁providing	-11.4077
▁câble	-11.4077
▁housing	-11.4077
▁fibre	-11.4077
▁préparé	-11.4077
▁evolutionary	-11.408
▁hotel	-11.4085
▁personally	-11.4089
▁essentielle	-11.4096
▁gel	-11.4096
▁ajoute	-11.4102
▁55	-11.4106
half	-11.4115
▁entrée	-11.4119
oxy	-11.4133
▁Noël	-11.4138
▁astronaut	-11.4138
▁struck	-11.4138
▁sérieusement	-11.4138
▁champignon	-11.4138
▁plongé	-11.4138
▁barrier	-11.4138
▁department	-11.4138
▁destiné	-11.4139
▁grandissant	-11.4147
▁humor	-11.4153
▁sentais	-11.4155
▁préparer	-11.4159
▁savions	-11.4168
▁blessé	-11.4176
▁préjugé	-11.4199
▁Bangladesh	-11.4199
▁analyze	-11.4199
▁stretch	-11.4199
▁discuter	-11.4199
▁désolé	-11.4199
▁spectre	-11.4199
▁therapy	-11.42
▁equally	-11.422
Univers	-11.4221
▁longueur	-11.4237
hôtel	-11.4241
▁printing	-11.4256
▁Museum	-11.426
▁chimpanzee	-11.426
▁dolphin	-11.426
▁flood	-11.426
▁spectaculaire	-11.426
▁éclat	-11.426
▁statut	-11.426
▁fraud	-11.4261
▁primate	-11.4261
▁painful	-11.4262
▁malheur	-11.4264
▁atoms	-11.4266
▁opera	-11.4271
▁considérable	-11.4272
▁bound	-11.4275
▁évalu	-11.4275
▁poet	-11.4283
▁urbaine	-11.4286
imagination	-11.4291
▁commencez	-11.4302
élection	-11.4303
▁improvement	-11.4308
obstacle	-11.4321
▁Project	-11.4322
▁diplômé	-11.4322
▁féminin	-11.4322
▁harvest	-11.4322
▁domestic	-11.4322
▁mystery	-11.4322
▁framework	-11.4322
honneur	-11.4323
▁defend	-11.4323
▁battery	-11.4324
▁créative	-11.4324
▁cacher	-11.4325
▁lève	-11.4326
▁rail	-11.433
▁débarrasser	-11.4333
▁répandu	-11.4333
▁reverse	-11.4344
équilibre	-11.4351
▁Long	-11.4354
autisme	-11.4356
foot	-11.4357
▁financement	-11.4358
ède	-11.4361
OK	-11.4362
▁sentent	-11.4367
born	-11.4371
▁prévoi	-11.4373
class	-11.4374
▁Virgin	-11.4384
▁curieux	-11.4384
▁reçoit	-11.4384
▁réduction	-11.4384
▁trigger	-11.4384
▁deploy	-11.4384
▁illégal	-11.4384
▁promesse	-11.4384
▁narrow	-11.4384
▁reference	-11.4384
▁transmit	-11.4384
▁dossier	-11.4385
▁transmettre	-11.4385
▁psychologue	-11.4386
▁sacrifice	-11.4388
▁hoping	-11.4389
▁toile	-11.4391
énormes	-11.4397
▁faisions	-11.4403
▁attaché	-11.4404
▁administr	-11.4408
▁passive	-11.4409
▁marié	-11.441
▁roi	-11.4417
▁vieilli	-11.4421
envoyer	-11.4423
▁organize	-11.4427
▁aurions	-11.4428
▁promis	-11.4436
▁Perhaps	-11.4446
▁economies	-11.4446
▁paludisme	-11.4446
▁reproduire	-11.4446
▁false	-11.4446
▁montrant	-11.4446
▁démontre	-11.4447
araignée	-11.4447
▁hydrogen	-11.4447
▁aident	-11.4448
▁causé	-11.4448
▁poetry	-11.4448
▁logement	-11.445
▁cartographi	-11.445
▁physiquement	-11.4451
▁distract	-11.4451
▁tank	-11.4452
▁émergent	-11.4455
▁homo	-11.4455
▁terrorism	-11.4465
▁noyau	-11.447
▁retourne	-11.447
▁sphère	-11.4472
group	-11.4476
▁coach	-11.4489
▁dramatic	-11.4508
accéder	-11.4509
▁2014	-11.4509
▁Permettez	-11.4509
▁mechanical	-11.4509
▁religieuse	-11.4509
▁reçoivent	-11.4509
▁NSA	-11.4509
▁memories	-11.4509
▁suppli	-11.4509
▁immune	-11.4509
autoroute	-11.451
▁steal	-11.451
▁dropped	-11.451
▁réveille	-11.451
▁mathématique	-11.451
▁citoyen	-11.4511
▁manifest	-11.4515
▁créant	-11.4527
▁terroristes	-11.4542
utilisateur	-11.4546
▁tag	-11.4547
▁équipement	-11.4549
▁commit	-11.4558
▁modifié	-11.4573
▁wound	-11.4573
▁méchant	-11.4573
▁Prenons	-11.4573
▁sphere	-11.4573
destruct	-11.4573
▁variété	-11.4574
ji	-11.4575
▁boring	-11.458
▁empêche	-11.4583
▁destination	-11.4585
écoule	-11.46
oeil	-11.461
▁Russia	-11.4616
cture	-11.4619
nalis	-11.462
▁augment	-11.4636
▁reproduction	-11.4636
▁shadow	-11.4636
▁swimming	-11.4636
▁unusual	-11.4636
▁afternoon	-11.4636
▁agenda	-11.4636
▁awareness	-11.4639
▁rising	-11.464
▁poison	-11.4641
▁collègue	-11.4642
ndra	-11.4646
▁formule	-11.4648
▁explication	-11.4649
▁perfection	-11.465
▁disparaître	-11.4651
▁horizon	-11.4652
▁texture	-11.4654
▁avancé	-11.4655
garde	-11.4657
pression	-11.4663
▁Mill	-11.4663
▁Hill	-11.4674
▁geste	-11.4676
▁carrying	-11.4679
▁diminuer	-11.4681
▁piste	-11.4686
▁palm	-11.4694
▁désespéré	-11.47
▁familial	-11.47
▁navigate	-11.47
▁Saturn	-11.47
▁complain	-11.47
▁enquête	-11.47
▁ennemi	-11.4701
▁split	-11.4703
▁Design	-11.471
▁barbe	-11.4721
▁Gold	-11.4722
▁neige	-11.4725
▁surrounded	-11.4727
elect	-11.4727
appareil	-11.4732
▁panneau	-11.4762
organisme	-11.4762
▁suggestion	-11.4763
▁Cambridge	-11.4765
▁ingredient	-11.4765
▁literature	-11.4765
▁maximum	-11.4765
▁guard	-11.4765
▁thick	-11.4765
▁solving	-11.4777
▁concrete	-11.4786
▁branches	-11.4796
▁fortune	-11.4799
▁govern	-11.4818
▁pardon	-11.4821
▁virtuel	-11.4829
▁foule	-11.4829
▁cigarette	-11.483
▁contrôlé	-11.483
▁imaginé	-11.483
▁CEO	-11.483
▁primaire	-11.483
▁attiré	-11.483
▁architectural	-11.483
▁combattre	-11.483
▁authority	-11.4835
▁colleague	-11.4842
▁exclu	-11.4842
▁graphic	-11.4843
hydrogène	-11.4845
▁donnait	-11.4861
▁expliqué	-11.4871
petit	-11.4876
▁ultimate	-11.4884
▁sculpt	-11.4888
▁agricole	-11.4895
▁primitive	-11.4895
▁recommend	-11.4895
▁renouvelable	-11.4895
▁évènement	-11.4895
▁Russie	-11.4895
▁emprunt	-11.4895
▁fortunate	-11.4895
▁stigma	-11.4895
▁inutile	-11.4895
▁viral	-11.4896
▁transmis	-11.4896
▁silk	-11.4896
▁envisage	-11.4897
▁impressionnant	-11.4897
▁weigh	-11.49
▁Public	-11.4906
▁Zi	-11.4906
▁chère	-11.4914
On	-11.4916
▁giga	-11.4927
▁scary	-11.4929
▁motive	-11.493
▁équilibre	-11.493
▁prize	-11.4945
enregistrement	-11.4955
▁individuel	-11.496
▁antibiotique	-11.4961
▁ministre	-11.4961
▁chauffe	-11.4961
▁brûle	-11.4961
▁spider	-11.4961
▁récif	-11.4961
▁incapable	-11.4961
▁constrain	-11.4961
▁Louis	-11.4963
▁estime	-11.4974
▁shall	-11.4976
▁centaine	-11.498
▁haine	-11.4999
▁intitulé	-11.5027
▁trajet	-11.5027
▁basket	-11.5027
▁négative	-11.5027
▁Disney	-11.5027
▁welcome	-11.5027
▁computing	-11.5027
▁productivité	-11.5029
▁underwater	-11.5029
▁Quoi	-11.5031
▁comic	-11.5032
▁adapté	-11.5032
▁infinite	-11.5034
,500	-11.5037
▁colle	-11.5052
animal	-11.5061
dedans	-11.5061
▁Jane	-11.5078
▁absolu	-11.5079
emporte	-11.5088
▁démonstration	-11.5094
▁obsession	-11.5094
▁recommand	-11.5094
▁religieux	-11.5094
▁somewhat	-11.5094
▁transparence	-11.5094
▁Anyway	-11.5094
▁ritual	-11.5094
▁maître	-11.5094
▁psychology	-11.5094
▁crédit	-11.5094
▁rush	-11.5095
▁focal	-11.5095
▁inattendu	-11.5096
évolu	-11.5097
attente	-11.5097
▁silent	-11.5098
▁Mike	-11.51
▁corn	-11.5102
▁oeuvre	-11.511
▁3,000	-11.511
▁Dès	-11.5111
▁billet	-11.5111
fish	-11.5112
▁dame	-11.5116
▁ignorance	-11.5117
effort	-11.5128
▁debt	-11.5136
▁refl	-11.5142
▁42	-11.5144
▁remont	-11.516
▁Detroit	-11.5161
▁appartement	-11.5161
▁familier	-11.5161
▁poursuivre	-11.5161
▁scream	-11.5161
▁LED	-11.5161
▁mortality	-11.5161
▁Before	-11.5161
▁geek	-11.5161
▁éthique	-11.5161
▁goutte	-11.5161
▁greenhouse	-11.5162
▁appliqué	-11.5162
▁overcome	-11.5162
▁poulet	-11.5162
▁occurred	-11.5162
▁passons	-11.5163
▁pensant	-11.5163
▁provient	-11.5164
▁gliss	-11.5167
▁ratio	-11.5167
▁Oxford	-11.5171
▁suck	-11.5174
▁commitment	-11.5176
érant	-11.5177
▁Nick	-11.5178
▁superbe	-11.5182
▁fiber	-11.5189
▁promet	-11.52
sky	-11.52
oreille	-11.522
▁Heureusement	-11.5229
▁Nobody	-11.5229
▁Regardons	-11.5229
▁Unfortunately	-11.5229
▁fauteuil	-11.5229
▁philosophie	-11.5229
▁medication	-11.5229
▁emmené	-11.5229
▁travaillais	-11.5229
▁flies	-11.5229
▁suspend	-11.5229
▁senior	-11.5229
▁smoke	-11.5229
▁psychologist	-11.5229
▁psychologie	-11.5229
▁lointain	-11.5229
▁committed	-11.523
▁resistance	-11.523
▁collaborative	-11.5232
▁River	-11.5238
▁contradiction	-11.5239
▁interactive	-11.524
▁pool	-11.5246
▁consistent	-11.5255
worm	-11.5257
▁pace	-11.526
person	-11.5264
▁graines	-11.5265
▁extinction	-11.5269
▁supposé	-11.5273
▁choc	-11.5276
▁organique	-11.5291
omi	-11.5292
▁Christmas	-11.5297
▁Research	-11.5297
▁approprié	-11.5297
▁combustible	-11.5297
▁efficiency	-11.5297
▁extension	-11.5297
▁unexpected	-11.5297
▁trouvait	-11.5297
▁aléatoire	-11.5297
▁extent	-11.5297
▁predator	-11.5297
▁famine	-11.5298
▁venons	-11.5299
▁Johnson	-11.5299
▁écrivain	-11.5304
▁distinction	-11.5316
▁sauve	-11.5321
▁déclin	-11.5332
▁déclaré	-11.5333
▁coupable	-11.5334
issez	-11.535
envoi	-11.536
▁occupé	-11.5361
▁brisé	-11.5361
Israël	-11.5365
▁September	-11.5365
▁apparemment	-11.5365
▁frankly	-11.5365
▁genius	-11.5365
▁immigrant	-11.5365
▁library	-11.5365
▁membrane	-11.5365
▁presence	-11.5365
▁rejoindre	-11.5365
▁grotte	-11.5365
▁causing	-11.5365
▁âme	-11.5365
▁Avez	-11.5366
▁dramatically	-11.5366
▁rigid	-11.5369
▁Tony	-11.5371
ampoule	-11.5371
▁functional	-11.5376
▁apprenons	-11.5377
▁hill	-11.538
admir	-11.5382
▁régler	-11.5385
▁diminue	-11.5385
▁partagent	-11.5397
étudiant	-11.5401
▁repli	-11.542
▁2013	-11.5434
▁Foundation	-11.5434
▁Square	-11.5434
▁curiosity	-11.5434
▁dépassé	-11.5434
▁inférieur	-11.5434
▁parallèle	-11.5434
▁FBI	-11.5434
▁examen	-11.5434
▁innovant	-11.5434
▁engaging	-11.5434
▁faveur	-11.5434
▁Guerre	-11.5434
▁recette	-11.5434
▁ought	-11.5435
▁portion	-11.5437
▁réparti	-11.5437
▁Everyone	-11.5437
▁tentative	-11.5438
▁toxique	-11.5438
▁torture	-11.5442
▁sperm	-11.5451
▁gagn	-11.5451
▁sensors	-11.5455
▁viendra	-11.5456
▁généré	-11.5459
▁calculate	-11.5482
stone	-11.5496
▁Environ	-11.5503
▁procedure	-11.5503
▁significative	-11.5503
▁strict	-11.5503
▁license	-11.5503
▁sensitive	-11.5503
▁épaule	-11.5503
▁productivity	-11.5505
▁sunlight	-11.5505
▁émerge	-11.5506
▁seuil	-11.5506
▁amélioré	-11.5507
▁empire	-11.5508
▁Haiti	-11.5509
▁remis	-11.551
▁Hong	-11.5512
▁31	-11.5527
É	-11.554
▁professionnelle	-11.5545
level	-11.5549
▁récupér	-11.555
acheter	-11.5551
Nous	-11.5566
▁émet	-11.5572
accélér	-11.5572
introduction	-11.5573
▁Pacific	-11.5573
▁Remember	-11.5573
▁knock	-11.5573
▁magnétique	-11.5573
▁privilège	-11.5573
▁Bonjour	-11.5573
▁regulation	-11.5573
▁penguin	-11.5573
▁cascade	-11.5573
▁paquet	-11.5573
▁Something	-11.5573
▁marqué	-11.5573
▁nowhere	-11.5574
▁brown	-11.5574
▁external	-11.5574
▁menacé	-11.5574
▁économistes	-11.5575
▁Lagos	-11.5576
▁procédure	-11.5577
▁vocal	-11.5578
▁customers	-11.5578
▁anniversaire	-11.5582
▁souri	-11.559
▁37	-11.5595
90	-11.56
▁mentionné	-11.5605
worth	-11.5611
▁Was	-11.5611
▁corporation	-11.5644
▁déclenche	-11.5644
▁comprenez	-11.5644
▁Bronx	-11.5644
▁ambition	-11.5644
▁Voyons	-11.5644
▁cluster	-11.5644
▁pretend	-11.5644
▁laboratory	-11.5644
▁horizontal	-11.5645
▁sondage	-11.5645
▁rationnel	-11.5646
▁germ	-11.5647
▁spirituel	-11.5647
▁reconnaissant	-11.5648
▁drill	-11.5648
asseoir	-11.565
▁regime	-11.5651
▁radicalement	-11.5652
called	-11.5653
phal	-11.5668
▁tapis	-11.5693
grand	-11.5694
▁rassemblé	-11.5696
▁industriel	-11.57
▁hackers	-11.5706
Bretagne	-11.5715
immigration	-11.5715
▁asteroid	-11.5715
▁espérons	-11.5715
▁frustration	-11.5715
▁intersection	-11.5715
▁pertinent	-11.5715
▁chapter	-11.5715
▁scholar	-11.5715
▁rabbi	-11.5715
article	-11.5715
▁carried	-11.5715
▁commission	-11.5716
▁interagir	-11.5716
▁météo	-11.5717
▁Trans	-11.5719
▁boucle	-11.5719
▁continuous	-11.5721
▁Brian	-11.5721
▁neural	-11.5722
▁automatiquement	-11.5725
▁elite	-11.5725
▁Woo	-11.5726
▁récent	-11.5729
oïde	-11.5736
▁Arm	-11.5751
▁géo	-11.5751
œuvre	-11.5753
▁porc	-11.5768
▁interagiss	-11.5776
affiche	-11.5782
▁Brooklyn	-11.5786
▁Nouvelle	-11.5786
▁dioxide	-11.5786
▁password	-11.5786
▁emmener	-11.5786
▁diapo	-11.5786
▁triangle	-11.5787
▁emergency	-11.5787
▁vivaient	-11.5803
▁Ann	-11.5812
▁sentez	-11.5813
raph	-11.5824
▁manifeste	-11.5824
Z	-11.5825
infrastructure	-11.5825
▁cassé	-11.5831
▁Saint	-11.5836
lving	-11.5851
▁authentic	-11.5851
▁soirée	-11.5856
▁circonstances	-11.5858
▁juridique	-11.5858
▁trafic	-11.5858
▁désastre	-11.5858
▁écouté	-11.5858
▁diffuse	-11.5858
▁Blue	-11.5858
▁atterri	-11.5859
▁dispose	-11.5859
▁coraux	-11.5867
▁propage	-11.5872
▁patron	-11.5878
▁donnons	-11.5881
▁colonne	-11.5883
version	-11.5884
▁migration	-11.589
exploration	-11.5897
book	-11.5904
culture	-11.5907
▁assistant	-11.5908
▁recherch	-11.5912
▁Abou	-11.5913
▁import	-11.5918
▁2016	-11.5931
▁abstrait	-11.5931
▁mathématicien	-11.5931
▁quelconque	-11.5931
▁neutral	-11.5931
▁survécu	-11.5931
▁terrestre	-11.5931
aéroport	-11.5931
▁lecteur	-11.5931
▁Next	-11.5931
▁voyant	-11.5931
▁birthday	-11.5932
▁Voyez	-11.5932
▁Michel	-11.5933
▁élu	-11.5933
▁obscur	-11.5934
▁download	-11.5935
▁5,000	-11.5942
▁editor	-11.5945
▁blame	-11.5947
stein	-11.5955
conscious	-11.597
product	-11.5971
▁suppos	-11.5994
▁conventional	-11.6
astéroïde	-11.6004
▁Jupiter	-11.6004
▁chapitre	-11.6004
▁corporate	-11.6004
▁fréquent	-11.6004
▁judgment	-11.6004
▁littérature	-11.6004
▁obsessed	-11.6004
▁protège	-11.6004
▁reconstruction	-11.6004
▁rejoint	-11.6004
▁parallel	-11.6004
▁résumé	-11.6004
▁dignité	-11.6004
▁travaillait	-11.6004
▁navire	-11.6004
▁Moore	-11.6004
▁bref	-11.6004
▁household	-11.6005
▁Finally	-11.6006
▁romantic	-11.6007
▁calm	-11.6007
▁2030	-11.6009
▁2002	-11.6015
▁tight	-11.6015
human	-11.6016
▁acteurs	-11.602
▁développent	-11.6023
▁Russian	-11.6026
▁dépensé	-11.604
▁automatique	-11.6067
▁japonais	-11.6077
▁philosophy	-11.6077
▁stupéfiant	-11.6077
▁telephone	-11.6077
▁échoué	-11.6077
▁allemand	-11.6077
▁Henry	-11.6077
▁humanitaire	-11.6077
▁bourse	-11.6077
▁prédateur	-11.6078
▁coincé	-11.6078
▁soyons	-11.6079
▁partisan	-11.608
▁constitution	-11.6084
▁papa	-11.6084
▁singing	-11.6088
▁exhibition	-11.6089
▁conclude	-11.6094
élite	-11.6095
▁Howard	-11.6102
▁détecteur	-11.6106
internet	-11.612
▁robotique	-11.6128
▁divorce	-11.6151
▁déterminé	-11.6151
▁franchement	-11.6151
▁guarantee	-11.6151
▁immunitaire	-11.6151
▁recognition	-11.6151
▁trajectoire	-11.6151
▁tsunami	-11.6151
▁vibration	-11.6151
▁étrangère	-11.6151
▁dancing	-11.6151
▁Greek	-11.6151
▁grateful	-11.6151
▁achète	-11.6151
▁densité	-11.6152
▁oreilles	-11.6152
▁sweat	-11.6153
▁depth	-11.6156
▁contrat	-11.616
▁situé	-11.6162
iph	-11.6162
▁Steven	-11.6192
Look	-11.6193
intention	-11.6193
▁stereo	-11.6194
▁mandat	-11.6194
▁ressembl	-11.6201
▁creature	-11.6211
▁créature	-11.6211
▁spécialisé	-11.6215
▁rêv	-11.6222
▁Grâce	-11.6226
▁Vraiment	-11.6226
▁automatically	-11.6226
▁communautaire	-11.6226
▁poussière	-11.6226
▁satisfaction	-11.6226
▁Nelson	-11.6226
▁maternelle	-11.6226
▁flew	-11.6226
▁dignity	-11.6226
▁neither	-11.6226
▁raw	-11.6226
▁careful	-11.6227
▁transmet	-11.6228
▁potentiellement	-11.6228
▁distributed	-11.6229
▁190	-11.624
▁favoris	-11.6261
▁magnetic	-11.6265
inspiration	-11.6268
osphere	-11.6301
▁Revolution	-11.6301
▁struggling	-11.6301
▁élabor	-11.6301
▁compound	-11.6301
▁vaisseaux	-11.6301
▁insurance	-11.6301
▁hardware	-11.6301
▁reserve	-11.6301
▁appuy	-11.6302
▁monument	-11.6302
▁cherchai	-11.6303
▁drove	-11.6304
▁lifestyle	-11.6304
▁intact	-11.6305
▁controlled	-11.6307
▁souffrent	-11.6309
▁diront	-11.6311
▁émotionnel	-11.632
▁lampe	-11.6329
écart	-11.6348
▁pond	-11.6361
▁diagram	-11.637
imagerie	-11.6376
_	-11.6377
▁anxiety	-11.6377
▁fasciné	-11.6377
▁incorpor	-11.6377
▁introduit	-11.6377
▁mathematician	-11.6377
▁protocol	-11.6377
▁renforce	-11.6377
▁vôtre	-11.6377
▁couloir	-11.6377
▁Jordan	-11.6377
▁domestique	-11.6377
▁appeal	-11.6377
▁rituel	-11.6377
▁wireless	-11.6379
▁léger	-11.638
▁selection	-11.6384
▁precisely	-11.6384
▁ladies	-11.6384
▁corail	-11.6387
▁database	-11.6388
▁boire	-11.6389
▁déclaration	-11.639
assemble	-11.6391
▁personality	-11.6391
lose	-11.6415
entraînement	-11.6425
▁edit	-11.6425
oxi	-11.6426
▁illustrate	-11.6437
▁taxi	-11.6442
▁banlieue	-11.6453
▁partenariat	-11.6453
▁territoire	-11.6453
▁procès	-11.6453
▁appliquer	-11.6454
▁puissiez	-11.6454
▁disposition	-11.6458
▁concepteur	-11.6483
▁ensure	-11.6486
▁remet	-11.649
interaction	-11.6499
▁cheat	-11.6504
▁zoo	-11.6519
▁cruel	-11.653
▁$1	-11.653
▁Mandela	-11.653
▁Président	-11.653
▁douzaine	-11.653
▁identical	-11.653
▁promotion	-11.653
▁rhythm	-11.653
▁tragédie	-11.653
▁absurd	-11.653
▁annoncé	-11.653
▁Clinton	-11.653
▁chauve	-11.653
▁deviendra	-11.653
▁perçu	-11.653
▁tropicale	-11.653
▁autorisé	-11.6531
orchestre	-11.6531
▁Albert	-11.6532
▁audio	-11.6533
▁indice	-11.6533
▁bureaux	-11.6543
▁développ	-11.655
▁Lorsqu	-11.6562
▁porn	-11.6569
informatique	-11.6574
field	-11.6577
▁March	-11.6605
▁herself	-11.6608
▁introvert	-11.6608
▁prothèse	-11.6608
▁symétrie	-11.6608
▁synapse	-11.6608
▁column	-11.6608
▁enseigné	-11.6608
▁exclusive	-11.6608
▁navigu	-11.6608
▁envahi	-11.6608
▁raising	-11.6608
▁Berlin	-11.6609
▁expertise	-11.661
▁dispute	-11.661
▁bombard	-11.6612
▁bump	-11.6619
▁jeunesse	-11.6634
▁Free	-11.6642
animaux	-11.6653
▁gagnant	-11.6655
▁Stephen	-11.6686
▁consensus	-11.6686
▁identifié	-11.6686
▁pingouin	-11.6686
▁ridiculous	-11.6686
▁scratch	-11.6686
▁borrow	-11.6686
▁suivent	-11.6686
▁déplacé	-11.6686
▁shelter	-11.6686
▁commis	-11.6686
▁psychopath	-11.6686
▁effectué	-11.6688
▁subtil	-11.669
▁poète	-11.669
▁thon	-11.6703
▁marginal	-11.6719
Pourquoi	-11.6731
related	-11.6732
étape	-11.6736
aptitude	-11.6764
▁Parkinson	-11.6764
▁centimètre	-11.6764
▁explicit	-11.6764
▁phenomena	-11.6764
▁comparaison	-11.6764
▁explose	-11.6765
▁réfléchissez	-11.6765
▁soigner	-11.6766
▁estimation	-11.6766
▁enemy	-11.6766
▁expectations	-11.6771
Ouest	-11.6779
▁tower	-11.6785
▁electron	-11.6801
▁exécut	-11.6806
▁barel	-11.6808
▁doctorat	-11.6836
▁dopamine	-11.6844
▁marathon	-11.6844
▁recruit	-11.6844
▁strike	-11.6844
▁transparency	-11.6844
▁réputation	-11.6844
▁disagree	-11.6844
▁modification	-11.6844
▁ethnic	-11.6844
▁federal	-11.6844
▁surmonter	-11.6844
▁isolated	-11.6844
▁ugly	-11.6844
▁connaissais	-11.6844
▁sustainability	-11.6844
▁optimistic	-11.6845
▁attentes	-11.6845
▁gratuitement	-11.6848
▁collectif	-11.6859
▁illustration	-11.6871
État	-11.6891
Afghanistan	-11.6891
expert	-11.6891
île	-11.69
▁mérit	-11.6919
acier	-11.6922
esclavage	-11.6924
▁Olympic	-11.6924
▁Watson	-11.6924
▁dictionnaire	-11.6924
▁dioxyde	-11.6924
▁enthousiaste	-11.6924
▁obsédé	-11.6924
▁plafond	-11.6924
▁plenty	-11.6924
▁vacances	-11.6924
▁éducatif	-11.6924
▁pixel	-11.6924
▁enlevé	-11.6924
▁General	-11.6924
▁régl	-11.6925
▁divisé	-11.6926
▁atomes	-11.6928
humour	-11.6928
▁rappelez	-11.6932
▁stack	-11.6939
▁hallucin	-11.6943
▁gray	-11.6951
espérance	-11.6956
construct	-11.6971
century	-11.6971
obscurité	-11.7001
free	-11.7002
▁CRISPR	-11.7004
▁adventure	-11.7004
▁diminué	-11.7004
▁persuade	-11.7004
▁reconstruire	-11.7004
▁renewable	-11.7004
▁strategies	-11.7004
▁uncomfortable	-11.7004
▁Chinois	-11.7004
▁PDG	-11.7004
▁enzyme	-11.7004
▁cellulaire	-11.7004
▁mondiaux	-11.7004
▁thumb	-11.7004
▁naît	-11.7005
▁properly	-11.7005
▁adjust	-11.7005
▁génère	-11.7006
aiguille	-11.7006
▁minister	-11.7008
▁dormir	-11.7009
▁Prize	-11.701
▁contour	-11.701
▁hook	-11.7011
▁weekend	-11.7012
▁sonore	-11.7014
▁salt	-11.7025
erreur	-11.7049
▁resist	-11.7052
augmentation	-11.7053
ignore	-11.7079
▁Shanghai	-11.7086
▁concurrence	-11.7086
▁Gandhi	-11.7086
▁parachute	-11.7086
inquiéter	-11.7086
▁relax	-11.7086
▁activate	-11.7086
▁flotte	-11.7086
▁reflète	-11.7086
▁rétro	-11.7086
▁subtle	-11.7087
▁breed	-11.7088
▁hunger	-11.7089
▁prostate	-11.7089
▁décès	-11.7089
▁2020	-11.7091
▁cub	-11.7091
▁décharge	-11.7092
▁fusée	-11.7092
▁darkness	-11.7094
▁ressource	-11.7099
touch	-11.7109
sphère	-11.7134
▁Nairobi	-11.7168
▁Pacifique	-11.7168
▁Seattle	-11.7168
▁bâton	-11.7168
▁exponential	-11.7168
▁influencé	-11.7168
▁principaux	-11.7168
▁album	-11.7168
▁accueilli	-11.7168
▁blank	-11.7168
▁ultime	-11.7168
Histoire	-11.7168
▁backwards	-11.7169
▁shopping	-11.7169
▁spark	-11.7169
▁universities	-11.717
▁pompe	-11.7172
▁mettant	-11.7178
▁Camp	-11.7193
appliqu	-11.7201
▁350	-11.7205
allume	-11.7211
observe	-11.7218
▁grille	-11.7232
Institut	-11.7245
▁crâne	-11.725
▁decrease	-11.725
▁festival	-11.725
▁hungry	-11.725
▁tragedy	-11.725
▁stroke	-11.725
▁légale	-11.725
▁footprint	-11.7251
▁pigeon	-11.7251
▁slavery	-11.7252
▁Daniel	-11.7252
ternal	-11.7254
▁passionnant	-11.7254
▁mindset	-11.7261
▁Kong	-11.7263
▁stéréo	-11.7287
▁Plan	-11.729
accompagn	-11.7333
▁1999	-11.7334
▁defense	-11.7334
▁elsewhere	-11.7334
▁embedded	-11.7334
▁pizza	-11.7334
▁rebuild	-11.7334
▁régulièrement	-11.7334
▁vieillissement	-11.7334
▁circule	-11.7334
▁legacy	-11.7334
▁lunettes	-11.7334
▁sponsor	-11.7334
▁raisonnable	-11.7334
▁Basically	-11.7334
▁contempl	-11.7334
▁sachant	-11.7334
▁Syrie	-11.7334
▁spiral	-11.7334
▁aspirations	-11.7334
▁aliments	-11.7334
▁clique	-11.7335
▁vingt	-11.7335
▁Media	-11.7335
▁soudainement	-11.7337
▁Turn	-11.7339
▁diagramme	-11.7341
▁missed	-11.7345
▁particle	-11.7361
frontal	-11.7383
Islam	-11.7385
▁rond	-11.7404
▁1998	-11.7418
▁August	-11.7418
▁January	-11.7418
▁Joseph	-11.7418
▁acknowledge	-11.7418
▁diapositive	-11.7418
▁dégâts	-11.7418
▁démontré	-11.7418
▁earthquake	-11.7418
▁fascinated	-11.7418
▁fédéral	-11.7418
▁révèle	-11.7418
ONU	-11.7418
▁retiré	-11.7418
▁cochon	-11.7419
▁segment	-11.7419
▁shake	-11.7423
▁proof	-11.7424
▁confortable	-11.7425
▁Coca	-11.7426
▁passenger	-11.7427
▁consequence	-11.7442
▁tourist	-11.7449
ground	-11.7464
changing	-11.747
apprécie	-11.747
souris	-11.7479
algré	-11.7494
▁Commençons	-11.7502
▁Ethiopia	-11.7502
▁ONG	-11.7502
▁Republican	-11.7502
▁Shakespeare	-11.7502
▁Zimbabwe	-11.7502
▁chronique	-11.7502
▁configuration	-11.7502
▁peindre	-11.7502
▁poitrine	-11.7502
▁retenir	-11.7502
▁squelette	-11.7502
▁Atlanta	-11.7502
▁soutenu	-11.7502
interprétation	-11.7502
▁gamme	-11.7502
▁jungle	-11.7502
▁policier	-11.7503
▁granted	-11.7503
▁oublier	-11.7503
▁Sierra	-11.7503
▁qualifié	-11.7503
▁textile	-11.7504
▁opposition	-11.7504
▁sacred	-11.7505
▁coopération	-11.7505
▁humble	-11.7506
▁mesuré	-11.751
▁confin	-11.7519
▁suffi	-11.7556
adolescence	-11.7588
▁NGO	-11.7588
▁bathroom	-11.7588
▁forgotten	-11.7588
▁fulfill	-11.7588
▁hybrid	-11.7588
▁modélis	-11.7588
▁traduit	-11.7588
▁étroite	-11.7588
▁ramène	-11.7588
▁reduction	-11.7588
▁measuring	-11.7588
▁revue	-11.7588
▁parlais	-11.7588
▁inhabituel	-11.7589
▁depressed	-11.7589
alcool	-11.759
▁pèse	-11.759
▁mondialisation	-11.7591
▁Andrew	-11.7591
▁patch	-11.7653
▁rough	-11.767
▁skeptic	-11.7674
▁cooperation	-11.7674
▁féministe	-11.7674
▁imprimé	-11.7674
▁magnitude	-11.7674
▁signifiait	-11.7674
▁victoire	-11.7674
▁glamour	-11.7674
▁programmation	-11.7674
▁Tesla	-11.7675
▁enhance	-11.7675
▁microphone	-11.7675
▁intestin	-11.7676
▁viable	-11.7676
▁colline	-11.7678
▁clue	-11.7684
▁upset	-11.7685
▁fuite	-11.7697
▁maintien	-11.7722
dessous	-11.7728
dependent	-11.7733
▁Medica	-11.7734
▁Berkeley	-11.7761
▁Kennedy	-11.7761
▁Lincoln	-11.7761
▁dedicated	-11.7761
▁eliminate	-11.7761
▁frequent	-11.7761
▁patience	-11.7761
▁permanence	-11.7761
▁refroidi	-11.7761
▁reprendre	-11.7761
▁skull	-11.7761
▁vegetable	-11.7761
▁disturb	-11.7761
▁précoce	-11.7761
▁remède	-11.7761
▁Banque	-11.7761
▁disgust	-11.7761
▁Gulf	-11.7761
▁boundaries	-11.7761
▁permettez	-11.7761
obésité	-11.7761
▁éteint	-11.7762
▁tragic	-11.7762
interromp	-11.7762
▁paradis	-11.7763
▁governance	-11.7764
▁ramp	-11.7765
▁conseiller	-11.7765
▁agency	-11.7765
▁addiction	-11.7769
▁déclar	-11.7791
Yeah	-11.7816
▁détermine	-11.7818
Oui	-11.7821
media	-11.7828
▁immediate	-11.7838
temps	-11.7844
▁municipal	-11.7849
enthousiasme	-11.7849
incertitude	-11.7849
▁autonomous	-11.7849
▁commerciaux	-11.7849
▁ennuyeux	-11.7849
▁experiencing	-11.7849
▁inevitable	-11.7849
▁lucratif	-11.7849
▁recommence	-11.7849
▁vouliez	-11.7849
▁piéton	-11.7849
athlète	-11.7849
▁Derek	-11.7849
▁sharp	-11.7849
▁pursue	-11.7849
▁motivé	-11.7849
escalier	-11.7849
▁underground	-11.785
▁Faites	-11.785
▁Walk	-11.785
▁partnership	-11.7851
▁suppress	-11.7854
▁amongst	-11.7856
▁animé	-11.7862
▁sink	-11.7864
▁domain	-11.7924
essayais	-11.7924
▁addict	-11.793
▁Alexander	-11.7937
▁Geographic	-11.7937
▁agricultural	-11.7937
▁diagnostiqué	-11.7937
▁heaven	-11.7937
▁inspiring	-11.7937
▁jazz	-11.7937
▁synthetic	-11.7937
▁financé	-11.7937
▁Delhi	-11.7937
▁voyais	-11.7937
▁Girl	-11.7937
▁monnaie	-11.7937
enlève	-11.7938
▁request	-11.7938
▁secours	-11.7938
Audio	-11.7939
invasive	-11.7939
incendie	-11.7939
▁spell	-11.7944
▁apparten	-11.795
▁méga	-11.7957
▁terror	-11.7973
▁extinct	-11.8003
▁souffre	-11.8019
▁tangible	-11.8027
▁Ocean	-11.8027
▁simulate	-11.8027
▁elected	-11.8027
▁module	-11.8027
▁yield	-11.8027
▁repousse	-11.8027
▁civique	-11.8027
▁publier	-11.8027
▁attraper	-11.8027
▁gesture	-11.8028
▁tribal	-11.8028
▁Nothing	-11.8029
▁imaging	-11.8029
▁mangé	-11.803
▁pathway	-11.803
▁limitations	-11.8032
▁optimism	-11.8068
application	-11.8084
Comment	-11.8084
When	-11.8084
▁Atlantic	-11.8117
▁fluorescent	-11.8117
▁iPod	-11.8117
▁resilience	-11.8117
▁significatif	-11.8117
▁smooth	-11.8117
▁prouvé	-11.8117
▁orchestra	-11.8117
▁voyait	-11.8117
▁dérange	-11.8117
▁titan	-11.8117
▁Children	-11.8117
▁terminal	-11.8117
▁density	-11.8117
▁révolutionnaire	-11.8119
▁infant	-11.812
▁glad	-11.812
installe	-11.8127
▁admire	-11.8135
aimais	-11.8148
investir	-11.8167
▁égale	-11.8198
▁faudra	-11.8203
abeille	-11.8207
▁Philip	-11.8208
alphabet	-11.8208
▁Arctic	-11.8208
▁dégoût	-11.8208
▁exhaust	-11.8208
▁frozen	-11.8208
▁secrète	-11.8208
▁spectacular	-11.8208
▁evaluat	-11.8208
▁athlete	-11.8208
▁curieuse	-11.8208
▁reputation	-11.8208
▁slogan	-11.8208
▁Cuba	-11.8208
▁textbook	-11.8208
▁vallée	-11.8208
▁hostile	-11.8208
▁slice	-11.8209
▁rival	-11.8213
▁nerf	-11.8216
▁Jones	-11.8216
urban	-11.8216
▁rencontr	-11.8255
dollar	-11.8266
▁légère	-11.8289
▁immédiat	-11.8297
▁Taliban	-11.8299
▁bénévole	-11.8299
▁sincère	-11.8299
▁supermarché	-11.8299
▁traduire	-11.8299
▁cherchons	-11.8299
▁explode	-11.8299
▁obesity	-11.8299
▁fought	-11.8299
▁programming	-11.83
▁agriculteurs	-11.83
▁mignon	-11.83
▁tremblement	-11.8301
▁crew	-11.8302
▁flee	-11.8304
▁tempête	-11.8311
▁remplace	-11.8315
▁socio	-11.8329
IRM	-11.8354
▁statistique	-11.8355
évaluer	-11.8361
î	-11.8375
instruction	-11.8391
procrastin	-11.8392
▁Gabby	-11.8392
▁Sweden	-11.8392
▁cabinet	-11.8392
▁démographique	-11.8392
▁gouvernance	-11.8392
▁overwhelming	-11.8392
▁évoque	-11.8392
▁subvention	-11.8392
▁croyais	-11.8392
▁converge	-11.8392
▁tackle	-11.8392
▁infantile	-11.8392
▁identified	-11.8392
▁recours	-11.8392
▁replicate	-11.8392
▁varié	-11.8399
▁systematic	-11.8405
épidémie	-11.8452
second	-11.8458
Antarctique	-11.8485
anxiété	-11.8485
▁Through	-11.8485
▁Uganda	-11.8485
▁diabetes	-11.8485
▁diabète	-11.8485
▁diffusion	-11.8485
▁genoux	-11.8485
▁légumes	-11.8485
▁garbage	-11.8485
▁prescription	-11.8485
▁rainforest	-11.8485
▁traumatisme	-11.8485
▁recipe	-11.8485
▁underlying	-11.8486
apparition	-11.8486
▁connaissait	-11.8486
▁Egyptian	-11.8488
▁signification	-11.8489
▁slave	-11.8489
ï	-11.8489
▁larmes	-11.8492
embauche	-11.851
▁virgin	-11.858
▁1994	-11.858
▁Charlie	-11.858
▁Haïti	-11.858
▁demographic	-11.858
▁demonstration	-11.858
▁diagnosis	-11.858
▁entraîné	-11.858
▁gigantesque	-11.858
▁messieurs	-11.858
▁Revenons	-11.858
▁sketch	-11.858
▁diverge	-11.858
▁lobby	-11.858
▁croyait	-11.858
▁ethnique	-11.858
▁innovate	-11.858
▁élever	-11.858
▁convey	-11.858
▁marry	-11.858
▁freak	-11.8582
▁kidney	-11.8582
▁Luther	-11.8582
▁capability	-11.8583
▁mimic	-11.8585
pending	-11.8628
public	-11.8642
normal	-11.8643
▁immobil	-11.8644
implication	-11.8674
í	-11.8675
▁clavier	-11.8675
▁cricket	-11.8675
▁démarrer	-11.8675
▁fantôme	-11.8675
▁flèche	-11.8675
▁gâteau	-11.8675
▁intrinsèque	-11.8675
▁pharmaceutique	-11.8675
▁Évidemment	-11.8675
▁œufs	-11.8675
▁injury	-11.8675
▁précieuse	-11.8675
▁comédie	-11.8675
▁uncertainty	-11.8675
▁afterwards	-11.8676
▁wipe	-11.8676
▁enlever	-11.8676
▁comparison	-11.8677
hrew	-11.8684
▁trail	-11.8684
▁restore	-11.8688
▁annuel	-11.8712
space	-11.8715
▁affair	-11.8731
accident	-11.8738
violent	-11.8738
exposition	-11.8741
“	-11.8771
▁Feynman	-11.8771
▁happier	-11.8771
▁improbable	-11.8771
▁percevoir	-11.8771
▁simplicité	-11.8771
▁vulnérabilité	-11.8771
á	-11.8771
▁Department	-11.8771
▁chrétien	-11.8771
▁competitive	-11.8771
▁feminist	-11.8771
intermédiaire	-11.8771
▁serpent	-11.8771
▁fifth	-11.8771
▁Jewish	-11.8771
▁cosmos	-11.8771
▁acquire	-11.8771
▁ingrédients	-11.8772
▁parlaient	-11.8772
efface	-11.8772
sufficient	-11.8772
▁aborder	-11.8772
▁biomass	-11.8772
▁scandal	-11.8772
▁crayon	-11.8772
▁interdit	-11.8773
ontrairement	-11.8773
▁crab	-11.8789
▁soumis	-11.8789
accroche	-11.881
actualité	-11.8826
illusion	-11.8835
occupe	-11.8838
▁Cinq	-11.8844
optimis	-11.8859
▁Benjamin	-11.8868
▁accelerate	-11.8868
▁advocate	-11.8868
▁anonyme	-11.8868
▁choosing	-11.8868
▁impatient	-11.8868
▁marijuana	-11.8868
▁piège	-11.8868
▁printemps	-11.8868
▁tragique	-11.8868
▁tribunal	-11.8868
▁travaillaient	-11.8868
▁relever	-11.8868
▁burst	-11.8869
▁jouant	-11.8869
▁punch	-11.8869
▁pratiqu	-11.8871
applaudi	-11.8874
évaluation	-11.8877
amitié	-11.8883
emplacement	-11.8896
▁toxin	-11.8903
▁adéquat	-11.8905
▁oppress	-11.8907
▁brille	-11.8939
▁substitut	-11.8956
▁protocell	-11.8966
▁Church	-11.8966
▁DVD	-11.8966
▁Michigan	-11.8966
▁Mountain	-11.8966
▁agencies	-11.8966
▁breakthrough	-11.8966
▁dommage	-11.8966
▁délicat	-11.8966
▁frustrated	-11.8966
▁furniture	-11.8966
▁grenouille	-11.8966
▁obtenons	-11.8966
▁promouvoir	-11.8966
▁satisfait	-11.8966
▁skeleton	-11.8966
▁téléphonique	-11.8966
▁disconnect	-11.8966
▁northern	-11.8966
▁resolve	-11.8966
▁risqué	-11.8966
▁concours	-11.8966
▁sneak	-11.8967
▁abordable	-11.8967
▁inquiet	-11.8967
▁Suède	-11.8967
▁participe	-11.8968
▁begun	-11.8968
▁annual	-11.8969
▁afro	-11.897
▁Things	-11.897
▁allumé	-11.8979
architecte	-11.9053
▁confort	-11.9057
▁Florida	-11.9065
▁October	-11.9065
▁advertising	-11.9065
▁cancéreuse	-11.9065
▁glucose	-11.9065
▁patrimoine	-11.9065
▁pesticide	-11.9065
▁primordial	-11.9065
▁terrifiant	-11.9065
▁thrive	-11.9065
▁voudrait	-11.9065
▁Être	-11.9065
▁College	-11.9065
expérimente	-11.9065
▁Jersey	-11.9065
▁soulève	-11.9065
▁smoking	-11.9065
▁chief	-11.9065
▁Kevin	-11.9065
▁stimulation	-11.9065
▁orphan	-11.9065
▁twist	-11.9065
affronter	-11.9065
▁buried	-11.9065
inflation	-11.9066
intimité	-11.9066
▁copyright	-11.9066
▁linguist	-11.9066
▁gear	-11.9066
▁embrass	-11.9066
▁theories	-11.9068
▁magnet	-11.9112
▁prendrai	-11.9127
extinction	-11.9132
incroyable	-11.9132
ampleur	-11.9156
▁trembl	-11.9164
▁1995	-11.9165
▁Tokyo	-11.9165
▁anonymous	-11.9165
▁biodiversité	-11.9165
▁prospérité	-11.9165
▁structural	-11.9165
▁séparation	-11.9165
▁mysterious	-11.9165
▁probability	-11.9165
▁pioneer	-11.9165
▁chronic	-11.9165
▁intimate	-11.9165
▁reducing	-11.9165
▁naked	-11.9166
▁minimal	-11.9167
▁damn	-11.9175
▁retrouv	-11.9179
▁cuir	-11.9196
Where	-11.9233
▁Democrat	-11.9266
▁Floride	-11.9266
▁alcohol	-11.9266
▁bidonville	-11.9266
▁confusion	-11.9266
▁contemporain	-11.9266
▁coordination	-11.9266
▁exponentielle	-11.9266
▁internationaux	-11.9266
▁primarily	-11.9266
▁séduisant	-11.9266
▁précieux	-11.9266
▁Business	-11.9266
▁résister	-11.9266
▁Third	-11.9266
▁licence	-11.9266
▁shore	-11.9269
▁macro	-11.9273
appuie	-11.928
utilisa	-11.9335
improvisation	-11.9368
▁attentivement	-11.9368
▁cinquième	-11.9368
▁humanitarian	-11.9368
▁indigenous	-11.9368
▁mechanics	-11.9368
▁redéfini	-11.9368
enveloppe	-11.9368
▁Apollo	-11.9368
▁multinational	-11.9368
▁Journal	-11.9368
▁pâte	-11.9368
▁Stasi	-11.9368
▁bureaucrat	-11.9368
▁strand	-11.9368
▁invitation	-11.9368
▁racist	-11.9369
▁Hawk	-11.9369
▁woke	-11.9369
▁épouse	-11.937
▁romantique	-11.9373
▁intensif	-11.9376
ennui	-11.9408
▁cérébral	-11.9434
efficient	-11.9438
control	-11.9438
▁prepare	-11.9449
▁suburb	-11.9451
▁intellectuel	-11.9462
▁Obviously	-11.9471
▁grandchildren	-11.9471
▁improving	-11.9471
▁simplicity	-11.9471
▁souffrir	-11.9471
▁storytelling	-11.9471
▁terrifying	-11.9471
▁tranquille	-11.9471
▁temporaire	-11.9471
▁purchase	-11.9471
▁externe	-11.9471
▁imprimer	-11.9471
Ouganda	-11.9471
▁Soviet	-11.9472
▁marge	-11.9472
▁creator	-11.9472
▁contaminat	-11.9473
▁axis	-11.9473
▁civic	-11.9473
▁deviner	-11.9474
▁alimente	-11.9477
▁frein	-11.948
▁marée	-11.9481
▁autiste	-11.9483
invasion	-11.9483
▁artificiel	-11.9505
amener	-11.9542
▁1984	-11.9576
▁aggressive	-11.9576
▁janvier	-11.9576
▁remplacé	-11.9576
▁élégant	-11.9576
▁équipé	-11.9576
▁FDA	-11.9576
▁shrink	-11.9576
▁préférence	-11.9576
▁narration	-11.9576
▁millier	-11.9576
▁hausse	-11.9576
▁spectateur	-11.9576
▁loving	-11.9576
▁assuré	-11.9577
▁kiss	-11.9577
▁Voix	-11.9577
établissement	-11.9578
▁dingue	-11.9578
▁puits	-11.9579
▁expliqu	-11.9599
essentiel	-11.9648
explorer	-11.9648
enfance	-11.9648
affect	-11.9648
▁congé	-11.9664
dimensionnel	-11.9664
▁Child	-11.968
▁LGBT	-11.9681
▁aesthetic	-11.9681
▁burden	-11.9681
▁fondamentaux	-11.9681
▁génocide	-11.9681
▁hectare	-11.9681
▁judiciaire	-11.9681
▁prosperity	-11.9681
▁élargi	-11.9681
▁Caroline	-11.9681
▁assemblé	-11.9681
▁broadcast	-11.9681
▁screw	-11.9681
▁Sarah	-11.9681
▁trivial	-11.9681
▁fossé	-11.9681
▁Water	-11.9681
▁recouvr	-11.9683
▁aspire	-11.9689
arrivée	-11.9754
Okay	-11.9754
style	-11.9766
▁camarade	-11.9787
extrémité	-11.9787
▁Should	-11.9787
▁anecdote	-11.9787
▁capabilities	-11.9787
▁genocide	-11.9787
▁mobility	-11.9787
▁stomach	-11.9787
▁thrill	-11.9787
▁wheelchair	-11.9787
▁Brother	-11.9787
▁Victor	-11.9787
▁fluctu	-11.9787
▁pôle	-11.9787
abondance	-11.9787
▁harness	-11.9787
▁cliché	-11.9787
▁tranche	-11.9787
▁personnalisé	-11.9787
▁Quatre	-11.9787
▁Eastern	-11.9787
▁inherit	-11.9787
▁russe	-11.9787
Alaska	-11.9788
▁étendre	-11.9788
inscri	-11.9846
onsidérons	-11.9854
Alzheimer	-11.9862
Africa	-11.9862
school	-11.9862
habitat	-11.9866
plaçant	-11.9874
▁Mesdames	-11.9895
▁astonishing	-11.9895
▁biodiversity	-11.9895
▁dilemme	-11.9895
▁helicopter	-11.9895
▁millénaire	-11.9895
▁participé	-11.9895
▁pénétr	-11.9895
▁receptor	-11.9895
▁synthétique	-11.9895
▁sécheresse	-11.9895
approxim	-11.9895
▁enterprise	-11.9895
▁militant	-11.9895
▁whistle	-11.9895
▁corporel	-11.9895
▁attaqué	-11.9895
▁transistor	-11.9895
▁choqué	-11.9895
▁ressens	-11.9895
▁bancaire	-11.9895
▁artisan	-11.9895
▁lentille	-11.9895
▁stimulant	-11.9895
▁drift	-11.9895
▁plaisante	-11.9895
▁trash	-11.9895
▁graisse	-11.9896
▁forgive	-11.9896
▁maïs	-11.9897
▁dédié	-11.9898
érien	-11.9976
Association	-12.0003
▁Afghan	-12.0003
▁McDonald	-12.0003
▁Monterey	-12.0003
▁abilities	-12.0003
▁divertissement	-12.0003
▁fracture	-12.0003
▁frequency	-12.0003
▁omniprésent	-12.0003
▁provoqué	-12.0003
▁symmetry	-12.0003
▁Arthur	-12.0003
▁register	-12.0003
▁poignée	-12.0003
▁chapeau	-12.0003
▁wander	-12.0003
▁crystal	-12.0004
▁juin	-12.0005
Empire	-12.0007
▁Social	-12.001
approcha	-12.001
▁voile	-12.0011
astuce	-12.0073
harmonie	-12.0078
▁merveille	-12.0111
▁certificat	-12.0113
▁Hubble	-12.0113
▁espérer	-12.0113
▁fabulous	-12.0113
▁gadget	-12.0113
▁mushroom	-12.0113
▁spontané	-12.0113
▁unbelievable	-12.0113
hémisphère	-12.0113
▁cherchant	-12.0113
▁composite	-12.0113
▁expedition	-12.0113
▁proviennent	-12.0113
▁supernova	-12.0113
▁vacuum	-12.0113
▁victor	-12.0113
▁Mozart	-12.0113
▁precious	-12.0113
▁province	-12.0113
▁shrimp	-12.0113
▁Numér	-12.0113
▁Donald	-12.0113
▁fumée	-12.0113
▁régénér	-12.0113
▁Open	-12.0113
▁Italian	-12.0114
▁discuté	-12.0114
▁qualities	-12.0114
▁pulse	-12.0114
▁valve	-12.0114
programmé	-12.0118
▁découpe	-12.012
▁couteau	-12.0123
▁incite	-12.0183
▁Academy	-12.0224
▁category	-12.0224
▁dilemma	-12.0224
▁drought	-12.0224
▁géographique	-12.0224
▁imprimante	-12.0224
▁linéaire	-12.0224
▁pharmaceutical	-12.0224
▁proximité	-12.0224
▁simultaneously	-12.0224
▁sévère	-12.0224
▁traduction	-12.0224
▁excitement	-12.0224
▁LHC	-12.0224
▁translation	-12.0224
autonomie	-12.0225
▁basketball	-12.0225
▁Craig	-12.0225
▁vapeur	-12.0225
▁servant	-12.0225
▁vingtaine	-12.0225
intrigue	-12.0225
▁hurl	-12.0255
▁stimule	-12.0256
resistant	-12.0281
looking	-12.0304
▁renvoy	-12.032
▁altruist	-12.0337
▁réservé	-12.0337
#	-12.0337
pprovisionnement	-12.0337
▁1996	-12.0337
▁Antarctica	-12.0337
▁Snowden	-12.0337
▁ceinture	-12.0337
▁currency	-12.0337
▁distinguish	-12.0337
▁episode	-12.0337
▁gratitude	-12.0337
▁homosexuel	-12.0337
▁maintenance	-12.0337
▁nutriments	-12.0337
▁sanitaire	-12.0337
▁silencieux	-12.0337
▁vulnerability	-12.0337
▁ecological	-12.0337
▁mobilis	-12.0337
▁repenser	-12.0337
▁favela	-12.0337
▁adoré	-12.0337
▁prospère	-12.0337
▁cliff	-12.0337
▁pencil	-12.0337
▁atelier	-12.0338
▁disparaît	-12.0424
▁enrichi	-12.0436
▁precise	-12.0439
▁Although	-12.045
▁Kepler	-12.045
▁Plutôt	-12.045
▁SETI	-12.045
▁Turkey	-12.045
▁blockchain	-12.045
▁exposure	-12.045
▁flottant	-12.045
▁autrefois	-12.045
▁whatsoever	-12.045
▁pensiez	-12.0451
▁submit	-12.0451
▁Larry	-12.0451
▁beetle	-12.0452
▁cloche	-12.0454
▁chéri	-12.0458
aussi	-12.046
algorithme	-12.0465
Everest	-12.0497
▁agrandi	-12.05
▁meditat	-12.0514
implique	-12.0532
opinion	-12.0533
▁prépare	-12.0534
▁tuyau	-12.0547
Arizona	-12.0565
hélicoptère	-12.0565
▁Bitcoin	-12.0565
▁December	-12.0565
▁Spanish	-12.0565
▁authentique	-12.0565
▁cognitif	-12.0565
▁contemporary	-12.0565
▁dictionary	-12.0565
▁déménagé	-12.0565
▁gradually	-12.0565
▁paralysé	-12.0565
▁sceptique	-12.0565
▁étonnamment	-12.0565
▁catalog	-12.0565
▁trouvais	-12.0565
▁guitar	-12.0565
▁algae	-12.0565
▁dispens	-12.0565
▁redesign	-12.0565
▁diamètre	-12.0565
▁fichier	-12.0565
▁microbial	-12.0565
▁béton	-12.0565
▁Bruno	-12.0565
horloge	-12.0566
▁timing	-12.0566
▁Canyon	-12.0566
▁inclut	-12.0566
▁éditeur	-12.0566
▁stunt	-12.0566
▁royal	-12.0567
▁skate	-12.059
known	-12.06
attache	-12.0604
income	-12.0649
▁exhibit	-12.0663
ocracy	-12.0681
▁crevette	-12.0682
▁rectangle	-12.0682
▁trottoir	-12.0682
▁1997	-12.0682
▁Beijing	-12.0682
▁Magazine	-12.0682
▁ambigu	-12.0682
▁awkward	-12.0682
▁breakfast	-12.0682
▁bétail	-12.0682
▁categories	-12.0682
▁critères	-12.0682
▁dramatique	-12.0682
▁executive	-12.0682
▁genuine	-12.0682
▁inquiétant	-12.0682
▁investisseurs	-12.0682
▁jihad	-12.0682
▁nutrients	-12.0682
▁threshold	-12.0682
▁unprecedented	-12.0682
▁brûlé	-12.0682
▁compelling	-12.0682
▁pilule	-12.0682
▁prenaient	-12.0682
▁Voila	-12.0682
▁seemingly	-12.0682
▁vierge	-12.0682
▁joindre	-12.0683
▁systématique	-12.0694
▁aggr	-12.0695
épargne	-12.0754
▁Seven	-12.0755
viendront	-12.0789
=	-12.0799
indépendance	-12.0799
éduquer	-12.0799
éteindre	-12.0799
▁County	-12.0799
▁Ensemble	-12.0799
▁Roosevelt	-12.0799
▁Turquie	-12.0799
▁bénéfique	-12.0799
▁déprimé	-12.0799
▁esclaves	-12.0799
▁frustré	-12.0799
▁hypothesis	-12.0799
▁navigation	-12.0799
▁nœud	-12.0799
▁prosthetic	-12.0799
▁voyagé	-12.0799
▁équitable	-12.0799
▁Accord	-12.0799
épreuve	-12.0799
▁étiquette	-12.0799
▁sèche	-12.0799
▁notamment	-12.08
▁photographié	-12.08
▁accéléré	-12.0801
▁bribe	-12.0801
▁refuge	-12.0805
apporter	-12.0851
infection	-12.0885
technology	-12.0885
assemblage	-12.0918
hypertension	-12.0918
▁Christopher	-12.0918
▁Nigéria	-12.0918
▁Récemment	-12.0918
▁chômage	-12.0918
▁cocktail	-12.0918
▁disparaissent	-12.0918
▁improvise	-12.0918
▁problématique	-12.0918
▁terrified	-12.0918
▁regulate	-12.0918
▁radar	-12.0918
▁Tibet	-12.0918
▁Liberia	-12.0918
▁valley	-12.0918
▁bulb	-12.0918
▁Norman	-12.0918
▁tyran	-12.0918
▁officier	-12.0919
▁Parlons	-12.0919
▁audition	-12.0919
▁activé	-12.0919
▁isolation	-12.0919
▁agissent	-12.0919
▁dépose	-12.092
embryon	-12.0936
▁épargn	-12.0964
▁Plat	-12.0964
extrême	-12.1006
write	-12.1016
▁February	-12.1039
▁Little	-12.1039
▁beneath	-12.1039
▁bruyant	-12.1039
▁certitude	-12.1039
▁cohérent	-12.1039
▁collège	-12.1039
▁curriculum	-12.1039
▁default	-12.1039
▁douloureux	-12.1039
▁débrouill	-12.1039
▁déforestation	-12.1039
▁enforcement	-12.1039
▁faculté	-12.1039
▁intensive	-12.1039
▁residents	-12.1039
▁solitude	-12.1039
▁stratégique	-12.1039
▁striking	-12.1039
▁Hawaii	-12.1039
▁avatar	-12.1039
▁crawl	-12.1039
▁pharma	-12.1039
▁counsel	-12.1039
▁décédé	-12.1039
▁located	-12.1039
▁détenu	-12.1039
▁Venus	-12.1039
▁hiding	-12.1039
▁IBM	-12.1039
▁pivot	-12.1039
▁tomato	-12.104
▁rebond	-12.1041
▁arrach	-12.1041
▁veille	-12.1041
unclear	-12.1046
generating	-12.1047
amplifie	-12.1113
horizon	-12.1128
ignorance	-12.1128
argument	-12.1128
generation	-12.1128
▁Italie	-12.115
▁Jefferson	-12.1161
▁attentif	-12.1161
▁djihad	-12.1161
▁démarré	-12.1161
▁morph	-12.1161
▁recouvert	-12.1161
▁rembours	-12.1161
▁strategic	-12.1161
▁Friday	-12.1161
▁Rappelez	-12.1161
▁néglige	-12.1161
Arctique	-12.1161
▁Cyrus	-12.1161
▁tendency	-12.1161
▁assassin	-12.1161
▁closing	-12.1161
▁remix	-12.1161
▁aérienne	-12.1161
▁algues	-12.1161
▁snake	-12.1161
▁admis	-12.1177
▁espéran	-12.1234
▁repér	-12.1245
inconnu	-12.1251
augmenter	-12.1251
accomplir	-12.1255
▁sacrifi	-12.1277
▁1945	-12.1284
▁Indonesia	-12.1284
▁Monsieur	-12.1284
▁ambitious	-12.1284
▁appartient	-12.1284
▁concrète	-12.1284
▁pathogène	-12.1284
▁spontaneous	-12.1284
▁supermarket	-12.1284
▁encrypt	-12.1284
ométrique	-12.1284
▁ramené	-12.1284
▁greffe	-12.1284
▁Gaza	-12.1284
▁poubelle	-12.1284
▁preference	-12.1284
▁Souvent	-12.1284
▁abandoned	-12.1284
▁singular	-12.1284
▁cheese	-12.1284
▁plasma	-12.1285
▁vitamin	-12.1285
▁gallon	-12.1285
écrase	-12.1285
excitation	-12.1286
populat	-12.1304
utilité	-12.1319
Listen	-12.136
adulte	-12.1378
applaudissements	-12.1409
▁encouragé	-12.1409
▁endommagé	-12.1409
▁flourish	-12.1409
▁malnutrition	-12.1409
▁receiving	-12.1409
▁thread	-12.1409
▁éventail	-12.1409
▁cosmic	-12.1409
▁détruis	-12.1409
▁prudent	-12.1409
▁revanche	-12.1409
▁Columbia	-12.1409
▁Minister	-12.1409
▁intended	-12.1409
▁Machine	-12.1409
▁preparing	-12.1409
▁chamber	-12.1409
▁Diego	-12.1409
▁awake	-12.141
▁boost	-12.141
▁Work	-12.1411
écologie	-12.1411
veillant	-12.1412
patriot	-12.1413
«	-12.1503
▁virtue	-12.1524
▁Carolina	-12.1536
▁Sylvia	-12.1536
▁Technology	-12.1536
▁YNH	-12.1536
▁accuracy	-12.1536
▁encouraging	-12.1536
▁expérimental	-12.1536
▁icône	-12.1536
▁néanmoins	-12.1536
▁pandemic	-12.1536
▁résilience	-12.1536
▁terrifié	-12.1536
▁deliberate	-12.1536
▁décembre	-12.1536
▁indirect	-12.1536
▁tattoo	-12.1536
▁offshore	-12.1536
▁souligner	-12.1536
▁reviennent	-12.1536
▁Norway	-12.1536
▁égard	-12.1536
Atlantique	-12.1536
▁accélérer	-12.1536
▁compliment	-12.1536
▁prairie	-12.1536
▁Northern	-12.1536
▁missile	-12.1536
▁grace	-12.1537
▁Simple	-12.154
envoyai	-12.1607
observation	-12.1631
structure	-12.1631
▁Joshua	-12.1664
▁Kansas	-12.1664
▁Premier	-12.1664
▁Twenty	-12.1664
▁académique	-12.1664
▁concurrent	-12.1664
▁exprimé	-12.1664
▁geographic	-12.1664
▁hamburger	-12.1664
▁luxury	-12.1664
▁moustiquaire	-12.1664
▁pedestrian	-12.1664
▁reinforce	-12.1664
▁trajectory	-12.1664
▁ultraviolet	-12.1664
intègre	-12.1664
▁acoustic	-12.1664
▁monsieur	-12.1664
▁Dallas	-12.1664
▁Madison	-12.1664
▁veteran	-12.1664
▁voyaient	-12.1664
▁galerie	-12.1664
▁sapiens	-12.1664
▁Spain	-12.1664
▁variant	-12.1667
▁gratte	-12.1668
▁historic	-12.1712
▁recall	-12.1722
▁hérit	-12.1752
engineer	-12.1761
scientifique	-12.1761
social	-12.1761
▁éduqué	-12.1794
Himalaya	-12.1794
▁1991	-12.1794
▁Pouvons	-12.1794
▁Service	-12.1794
▁System	-12.1794
▁chevaux	-12.1794
▁eBay	-12.1794
▁fatigué	-12.1794
▁identities	-12.1794
▁prévention	-12.1794
▁prévisible	-12.1794
▁réfrigér	-12.1794
▁réservoir	-12.1794
▁synthèse	-12.1794
▁temporary	-12.1794
▁terribly	-12.1794
▁trouvaient	-12.1794
▁relâche	-12.1794
▁fractal	-12.1794
▁activism	-12.1794
▁harsh	-12.1794
▁Linux	-12.1794
▁blend	-12.1794
▁solitaire	-12.1794
▁thermique	-12.1794
▁methane	-12.1794
▁superficie	-12.1794
▁combler	-12.1794
▁heritage	-12.1794
▁backyard	-12.1794
éprouve	-12.1794
centimeter	-12.1794
excellence	-12.1795
▁retina	-12.1796
▁marron	-12.1797
▁stimulate	-12.18
▁margin	-12.1869
intéressant	-12.1892
encourage	-12.1893
keeper	-12.1893
▁débarrass	-12.1902
média	-12.1917
▁célibataire	-12.1925
▁égoïste	-12.1925
expérimentation	-12.1925
saharienne	-12.1925
▁Council	-12.1925
▁Phoenix	-12.1925
▁Society	-12.1925
▁believing	-12.1925
▁describing	-12.1925
▁disabilities	-12.1925
▁expectancy	-12.1925
▁mémoris	-12.1925
▁planétaire	-12.1925
▁prononcé	-12.1925
▁reproduce	-12.1925
▁rethink	-12.1925
▁straightforward	-12.1925
▁variole	-12.1925
▁Souvenez	-12.1925
▁enfermé	-12.1925
▁soccer	-12.1925
identification	-12.1925
▁complément	-12.1925
▁déploie	-12.1926
interpréter	-12.1926
▁Jésus	-12.1926
▁folie	-12.1926
▁articulat	-12.1926
▁surprend	-12.1926
économiste	-12.1989
▁compétence	-12.2012
hypothèse	-12.2026
▁teenage	-12.2029
▁corrupt	-12.2055
+	-12.2059
Espagne	-12.2059
▁April	-12.2059
▁Carnegie	-12.2059
▁Kosovo	-12.2059
▁Organization	-12.2059
▁Tanzania	-12.2059
▁clarity	-12.2059
▁deforestation	-12.2059
▁devastating	-12.2059
▁emmène	-12.2059
▁implicit	-12.2059
▁logistique	-12.2059
▁méthane	-12.2059
▁paralyzed	-12.2059
▁soupçon	-12.2059
▁territory	-12.2059
▁yourselves	-12.2059
humiliation	-12.2059
▁répète	-12.2059
▁smallpox	-12.2059
▁Suisse	-12.2059
▁Mumbai	-12.2059
▁Soudain	-12.2059
▁sulfur	-12.2059
▁workforce	-12.2059
▁pursuit	-12.2059
▁centimes	-12.2059
▁Peace	-12.2059
▁indication	-12.2059
▁declare	-12.2059
▁absent	-12.2059
▁gardien	-12.2061
▁complét	-12.2065
introduire	-12.2133
entraîne	-12.2152
communication	-12.2161
appartenance	-12.2174
aspiration	-12.2193
Qaeda	-12.2194
▁différenci	-12.2194
▁délibéré	-12.2194
▁souterrain	-12.2194
▁Actuellement	-12.2194
▁Canadian	-12.2194
▁Professor	-12.2194
▁Telescope	-12.2194
▁brièvement	-12.2194
▁chèvre	-12.2194
▁céréales	-12.2194
▁douloureuse	-12.2194
▁elegant	-12.2194
▁familière	-12.2194
▁inconscient	-12.2194
▁locomotion	-12.2194
▁pregnancy	-12.2194
▁rupture	-12.2194
▁réconfort	-12.2194
▁satisfaire	-12.2194
▁tuberculose	-12.2194
▁Alpha	-12.2194
▁Malawi	-12.2194
▁theoretical	-12.2194
▁pompier	-12.2194
▁diameter	-12.2194
▁réclam	-12.2194
▁flavor	-12.2194
▁apparait	-12.2194
▁Saudi	-12.2194
intensité	-12.2194
▁inhibit	-12.2194
▁retenu	-12.2194
▁warrior	-12.2194
▁deposit	-12.2289
explosion	-12.2298
Thank	-12.2298
alysis	-12.2318
▁Angel	-12.2327
▁Eventually	-12.2331
▁Fondation	-12.2331
▁Industrial	-12.2331
▁Narrator	-12.2331
▁Starbucks	-12.2331
▁TEDTalk	-12.2331
▁Together	-12.2331
▁approfondi	-12.2331
▁corriger	-12.2331
▁corrélation	-12.2331
▁emphasize	-12.2331
▁explosé	-12.2331
▁impressive	-12.2331
▁knife	-12.2331
▁legitimate	-12.2331
▁légitime	-12.2331
▁millennia	-12.2331
▁mosquée	-12.2331
▁mélodie	-12.2331
▁oxytocin	-12.2331
▁perpétue	-12.2331
▁raccourci	-12.2331
▁schedule	-12.2331
▁swallow	-12.2331
▁compatible	-12.2331
▁execute	-12.2331
▁fassiez	-12.2331
▁plomb	-12.2331
▁traîne	-12.2331
▁History	-12.2331
▁cocaine	-12.2331
ambassade	-12.2331
▁marvel	-12.2331
▁Dylan	-12.2331
▁antenna	-12.2331
▁Désolé	-12.2331
▁anatomy	-12.2331
▁valoris	-12.2331
Indonésie	-12.2331
▁Droit	-12.2331
▁accompagné	-12.2333
horreur	-12.2336
apercev	-12.2337
estomac	-12.2347
▁hôte	-12.2375
exploit	-12.2432
quality	-12.2435
effective	-12.2437
intervention	-12.2437
world	-12.2437
nçaient	-12.2467
accélère	-12.247
auditorium	-12.247
ocytocine	-12.247
▁1989	-12.247
▁Connecticut	-12.247
▁Except	-12.247
▁Norvège	-12.247
▁Pittsburgh	-12.247
▁Suddenly	-12.247
▁frightening	-12.247
▁février	-12.247
▁iPad	-12.247
▁recognizing	-12.247
▁recyclage	-12.247
▁réplique	-12.247
▁simultané	-12.247
▁assault	-12.247
▁communicating	-12.247
▁cosmique	-12.247
▁imaginaire	-12.247
▁influent	-12.247
▁préparation	-12.247
▁éternelle	-12.247
▁ideology	-12.247
▁Presque	-12.247
▁communiquent	-12.247
▁marchandise	-12.247
▁plancton	-12.247
▁spécul	-12.247
▁croyant	-12.247
anatomie	-12.2471
Nazi	-12.2555
oeuvre	-12.2577
intégration	-12.2578
ü	-12.2611
▁Cambodia	-12.2611
▁Hospital	-12.2611
▁Renaissance	-12.2611
▁cauchemar	-12.2611
▁fidèle	-12.2611
▁matrix	-12.2611
▁pandémie	-12.2611
▁pantalon	-12.2611
▁precision	-12.2611
▁recycling	-12.2611
▁rhino	-12.2611
▁sensibilité	-12.2611
▁substantial	-12.2611
▁tactile	-12.2611
▁1975	-12.2611
▁Building	-12.2611
▁advertise	-12.2611
▁pathogen	-12.2611
▁Chuck	-12.2611
▁Seulement	-12.2611
▁sauvetage	-12.2611
▁méduse	-12.2611
▁Constitution	-12.2611
▁earliest	-12.2611
▁interior	-12.2611
qualifi	-12.2653
▁produir	-12.2709
expansion	-12.272
Amazon	-12.272
▁folk	-12.2726
▁numér	-12.2731
▁inhabit	-12.2749
orphelinat	-12.2753
▁Development	-12.2753
▁Netflix	-12.2753
▁Observ	-12.2753
▁Portugal	-12.2753
▁Saturday	-12.2753
▁Vancouver	-12.2753
▁Vegas	-12.2753
▁cooperate	-12.2753
▁cérémonie	-12.2753
▁extraordinari	-12.2753
▁juillet	-12.2753
▁negotiate	-12.2753
▁spaghetti	-12.2753
▁technicien	-12.2753
▁témoignage	-12.2753
▁semblant	-12.2753
▁gamma	-12.2753
▁seringue	-12.2754
▁croyaient	-12.2754
▁livestock	-12.2754
▁déposé	-12.2754
▁browse	-12.2755
▁Earl	-12.2825
acquérir	-12.2898
▁Baltimore	-12.2898
▁Catholic	-12.2898
▁chimiothérapie	-12.2898
▁consacré	-12.2898
▁controversial	-12.2898
▁crocodile	-12.2898
▁domicile	-12.2898
▁effondré	-12.2898
ó	-12.3815
ö	-12.4307
Ê	-12.5185
Ç	-12.6772
ù	-12.7205
—	-12.8627
‘	-12.9757
%	-13.0018
^	-13.1667
Î	-13.3179
@	-13.4031
[	-13.4929
ā	-13.5462
ø	-13.6543
€	-13.7132
⁄	-14.074
£	-14.074
ä	-14.074
æ	-14.1649
È	-14.1649
ú	-14.2649
Ô	-14.6439
ì	-14.6439
ī	-14.6439
Á	-14.8106
ō	-14.8106
ȇ	-15.0106
♪	-15.2573
»	-15.2573
	-15.2606
	-15.5939
ć	-15.5939
Ï	-15.5939
š	-15.5939
α	-15.5939
♫	-16.0906
Č	-16.0939
ū	-16.0939
̀	-16.0939
~	-16.0939
©	-16.0939
­	-16.0939
τ	-16.0939
ọ	-16.0939
•	-16.0939
你	-16.0939
葱	-16.0939
送	-16.0939
Ō	-16.0939
Ė	-16.0939
κ	-16.0939
’	-17.0908
ẹ	-17.0912
्	-17.0913
े	-17.0914
र	-17.0915
म	-17.0916
प	-17.0917
χ	-17.0918
υ	-17.0919
ě	-17.092
ð	-17.0921
Å	-17.0922
¥	-17.0923
¡	-17.0924
Ö	-17.0925
Œ	-17.0926
ʾ	-17.0927
®	-17.0928
̈	-17.0929
Â	-17.093
*	-17.0931
ñ	-17.0932
ã	-17.0933
”	-17.0934
°	-17.0935
ë	-17.0936
$	-17.0937
/	-17.0938
{	-17.0939
|	-17.0939
	-17.0939
	-17.0939
	-17.0939
¢	-17.0939
å	-17.0939
ò	-17.0939
Ă	-17.0939
ň	-17.0939
ś	-17.0939
Ť	-17.0939
̊	-17.0939
̐	-17.0939
ε	-17.0939
ι	-17.0939
μ	-17.0939
ρ	-17.0939
ω	-17.0939
ט	-17.0939
Ì	-17.0939
Ü	-17.0939
(	-17.0939
Ε	-17.0939
η	-17.0939
λ	-17.0939
ν	-17.0939
σ	-17.0939
