<s>	0
<pad>	0
</s>	0
<unk>	0
,	-3.08118
.	-3.20446
s	-3.94659
▁the	-4.13463
▁a	-4.1816
▁de	-4.27354
▁to	-4.54754
'	-4.61157
▁of	-4.67246
-	-4.70407
▁and	-4.75002
▁în	-4.90462
▁să	-4.9067
a	-4.91559
▁in	-4.91791
e	-4.91845
▁that	-4.92362
i	-4.93649
▁I	-4.9501
t	-5.05271
▁is	-5.27072
▁you	-5.29968
▁it	-5.33056
▁că	-5.33503
ă	-5.34316
▁o	-5.35929
▁care	-5.38713
▁we	-5.3966
▁și	-5.40065
▁la	-5.41258
▁un	-5.54332
re	-5.605
▁cu	-5.62293
ul	-5.6321
m	-5.64124
▁pe	-5.65451
▁nu	-5.67332
▁e	-5.69136
▁And	-5.69355
▁şi	-5.69726
▁this	-5.71371
?	-5.72657
▁ce	-5.7435
le	-5.75647
▁mai	-5.79039
▁—	-5.8007
▁din	-5.81709
▁pentru	-5.8395
o	-5.85291
d	-5.93639
▁are	-5.94301
l	-5.96345
:	-5.98334
▁was	-5.99288
▁for	-5.99525
ing	-6.00216
▁se	-6.04099
▁am	-6.04218
▁"	-6.04744
ed	-6.09653
▁este	-6.10804
▁ca	-6.11732
▁have	-6.11947
▁on	-6.16076
▁they	-6.16595
▁with	-6.21109
▁can	-6.22529
▁be	-6.27226
u	-6.28515
▁So	-6.29122
▁what	-6.35184
▁about	-6.37341
am	-6.3805
▁ne	-6.38317
▁sunt	-6.38868
▁do	-6.43521
▁not	-6.46263
▁at	-6.46516
▁s	-6.47847
▁fi	-6.47956
▁so	-6.53724
▁all	-6.5398
▁as	-6.54141
)	-6.55653
▁asta	-6.56009
▁au	-6.5612
▁an	-6.56471
▁(	-6.58754
ve	-6.60875
▁my	-6.61433
▁people	-6.62878
ți	-6.63419
▁like	-6.64361
▁one	-6.65845
▁there	-6.66059
▁fost	-6.68057
n	-6.68368
▁from	-6.68737
▁It	-6.7113
▁or	-6.72046
y	-6.72271
▁but	-6.73381
▁me	-6.74706
ly	-6.75907
▁our	-6.77149
▁le	-6.77217
at	-6.78044
c	-6.79554
ului	-6.80266
r	-6.80442
▁just	-6.80928
lor	-6.82303
er	-6.82411
▁We	-6.86477
al	-6.87783
▁out	-6.87814
▁But	-6.87899
▁	-6.88106
▁sau	-6.88635
ţi	-6.89016
un	-6.89501
te	-6.89927
▁if	-6.89947
▁these	-6.9115
▁dar	-6.91402
▁ar	-6.92127
▁up	-6.94079
▁cum	-6.94639
▁very	-6.94854
▁The	-6.95006
▁când	-6.95626
▁Dar	-6.95863
▁Şi	-6.95976
ar	-6.96041
▁by	-6.96481
▁A	-6.96789
▁dacă	-6.97418
▁Și	-6.97733
▁know	-6.9797
▁despre	-6.9798
▁he	-6.98952
▁when	-6.9961
▁foarte	-7.00686
▁going	-7.00883
g	-7.01152
▁them	-7.01578
▁had	-7.0255
▁more	-7.03166
ea	-7.03957
▁because	-7.03962
ri	-7.04002
▁who	-7.04188
b	-7.06854
▁think	-7.07281
▁E	-7.0768
▁their	-7.08501
▁see	-7.08969
▁your	-7.09317
▁Nu	-7.11365
▁mult	-7.11738
▁were	-7.13159
▁ani	-7.1436
▁how	-7.14567
▁which	-7.149
▁us	-7.15377
▁really	-7.15472
▁would	-7.15473
p	-7.15656
▁face	-7.1745
rea	-7.17786
▁get	-7.17907
au	-7.17922
▁va	-7.18372
▁Am	-7.19442
▁acest	-7.20365
▁re	-7.20836
▁sa	-7.21395
▁într	-7.22093
ll	-7.22097
▁time	-7.2298
."	-7.23374
▁În	-7.24917
uri	-7.26443
▁world	-7.28153
▁has	-7.28529
▁don	-7.28759
▁vă	-7.28971
▁here	-7.31095
▁doar	-7.31398
▁„	-7.31517
▁into	-7.32452
▁some	-7.32817
▁then	-7.33084
or	-7.33232
▁This	-7.33793
▁De	-7.34541
f	-7.34938
▁era	-7.35025
▁way	-7.35413
ele	-7.37314
▁You	-7.37377
▁mi	-7.37605
▁go	-7.37662
▁actually	-7.37714
▁m	-7.38012
▁will	-7.38139
▁”	-7.38194
▁aceste	-7.38729
▁noi	-7.40153
▁poate	-7.40185
▁where	-7.40219
mi	-7.40528
▁al	-7.4087
z	-7.41403
▁years	-7.41468
▁other	-7.41716
▁things	-7.42398
▁prin	-7.42479
▁ceva	-7.42527
▁no	-7.42604
▁want	-7.42958
▁now	-7.44857
▁could	-7.45594
▁acum	-7.46645
▁această	-7.46672
▁si	-7.47082
▁Now	-7.47088
▁make	-7.47389
▁mă	-7.477
ne	-7.48423
▁been	-7.49354
▁te	-7.49534
▁trebuie	-7.49559
es	-7.49668
▁oameni	-7.50805
in	-7.50817
▁They	-7.51022
ăm	-7.52105
▁pot	-7.53993
;	-7.54741
▁In	-7.55008
▁putea	-7.56027
ate	-7.56132
▁bine	-7.56188
se	-7.56391
▁ei	-7.57491
▁î	-7.57771
▁said	-7.58977
▁mare	-7.59437
▁dintre	-7.59575
▁chiar	-7.5982
▁something	-7.60065
"	-7.60152
tă	-7.60221
▁aici	-7.62069
▁iar	-7.62329
▁right	-7.62465
▁than	-7.62638
ta	-7.63011
▁S	-7.636
▁those	-7.63603
ra	-7.63677
▁over	-7.63944
▁two	-7.64582
▁fapt	-7.65561
▁multe	-7.66362
▁first	-7.66417
▁timp	-7.66685
▁much	-7.66979
▁voi	-7.67917
▁toate	-7.68356
▁thing	-7.694
▁also	-7.69829
are	-7.69888
▁back	-7.70694
▁work	-7.7131
ic	-7.71457
ii	-7.71934
▁fel	-7.72071
Laughter	-7.7242
▁little	-7.72529
▁look	-7.72958
▁făcut	-7.73415
▁Deci	-7.73501
▁got	-7.73619
ând	-7.73933
ion	-7.74097
an	-7.742
▁she	-7.74659
▁spus	-7.7552
▁say	-7.75551
de	-7.75934
zi	-7.75965
▁fie	-7.76582
▁even	-7.77029
▁his	-7.7721
st	-7.77315
▁putem	-7.77332
▁need	-7.77587
▁life	-7.77816
▁most	-7.77916
▁lucru	-7.78028
▁lor	-7.78877
▁fac	-7.79143
▁only	-7.79848
▁oamenii	-7.7989
▁avem	-7.80415
ci	-7.80461
it	-7.80486
▁That	-7.80743
li	-7.80745
▁i	-7.81442
▁lui	-7.82035
▁mea	-7.82159
▁O	-7.82689
Râsete	-7.8305
ce	-7.83165
on	-7.83554
▁unde	-7.84148
ti	-7.84287
▁important	-7.84346
▁take	-7.8549
▁lot	-7.85573
ează	-7.85855
▁vor	-7.86394
▁cred	-7.86434
▁many	-7.86647
▁Ce	-7.87987
la	-7.88003
▁-	-7.88415
▁kind	-7.88833
▁new	-7.89042
▁tot	-7.89354
ie	-7.89711
nd	-7.89853
A	-7.9006
▁eu	-7.90199
▁cele	-7.90526
▁lucruri	-7.90844
▁did	-7.9134
th	-7.92284
▁good	-7.92557
▁He	-7.92593
▁around	-7.9299
▁her	-7.93286
▁cel	-7.93485
▁decât	-7.94269
ați	-7.94403
▁așa	-7.94447
▁different	-7.94602
▁come	-7.94889
ur	-7.95074
▁Dacă	-7.95233
▁What	-7.95327
S	-7.9576
▁l	-7.95986
▁fiecare	-7.96313
▁pre	-7.96416
ment	-7.96417
ată	-7.9656
ro	-7.97047
area	-7.97169
▁atât	-7.97555
▁există	-7.97651
▁spune	-7.98301
și	-7.98348
▁după	-7.98864
▁Iar	-7.99112
▁down	-7.99186
▁There	-7.99345
▁co	-7.99437
▁mine	-7.99608
▁loc	-7.9987
▁use	-8.0049
şi	-8.00829
w	-8.00877
nt	-8.01212
▁through	-8.02057
ation	-8.02201
▁Asta	-8.02286
▁every	-8.03179
▁same	-8.03201
▁două	-8.03434
en	-8.04057
urile	-8.04098
▁început	-8.04169
▁el	-8.04788
▁meu	-8.04993
▁lumea	-8.05392
I	-8.05566
!	-8.05639
▁being	-8.06069
▁place	-8.06678
▁avea	-8.06963
ers	-8.07126
▁parte	-8.07431
▁atunci	-8.07547
ia	-8.0776
vi	-8.07766
ity	-8.08585
▁moment	-8.09534
▁apoi	-8.09678
▁mod	-8.097
▁put	-8.0974
ca	-8.0974
▁acolo	-8.10593
▁10	-8.10754
ma	-8.1098
▁ci	-8.11242
▁day	-8.11437
▁ale	-8.11462
tor	-8.11558
▁spun	-8.11855
▁M	-8.12354
na	-8.12416
▁con	-8.12459
▁facem	-8.12617
ni	-8.12654
vă	-8.12722
▁ai	-8.12772
▁doing	-8.13532
▁cât	-8.13586
ent	-8.1381
h	-8.14224
▁three	-8.14499
va	-8.14973
ck	-8.15409
▁Acum	-8.16034
▁până	-8.16238
▁nevoie	-8.16779
▁Si	-8.16919
C	-8.18326
▁If	-8.18688
▁real	-8.19932
▁cei	-8.19948
▁Se	-8.20251
▁any	-8.2028
▁called	-8.21512
▁percent	-8.21663
ge	-8.2192
▁well	-8.22363
um	-8.22415
▁sub	-8.22467
di	-8.22512
▁lume	-8.22891
▁human	-8.22988
us	-8.23271
▁La	-8.23304
x	-8.23778
▁fact	-8.24611
▁find	-8.2466
▁tell	-8.24692
▁cea	-8.24788
▁aşa	-8.25162
▁made	-8.25649
▁20	-8.25856
▁own	-8.25958
▁zi	-8.26309
▁part	-8.2635
co	-8.26382
▁unui	-8.2657
▁Este	-8.26828
ile	-8.26859
▁ta	-8.27057
ch	-8.27433
ter	-8.27598
ist	-8.27806
?"	-8.27939
▁idea	-8.28042
itate	-8.28321
▁why	-8.28495
▁Well	-8.28653
▁change	-8.2878
esc	-8.28887
▁should	-8.29054
▁fără	-8.29566
,"	-8.29577
ră	-8.29761
▁year	-8.30008
aţi	-8.3018
eze	-8.3021
▁talk	-8.3057
▁didn	-8.31191
▁noastre	-8.31206
▁Sunt	-8.31328
cu	-8.31903
▁îi	-8.32004
▁p	-8.32209
me	-8.32468
v	-8.32574
▁avut	-8.33174
▁peste	-8.33176
▁thought	-8.33227
k	-8.3326
▁trebui	-8.33438
▁pro	-8.33493
▁vedea	-8.33908
▁unei	-8.34582
to	-8.34696
▁after	-8.34878
il	-8.34923
▁♫	-8.34979
▁Pentru	-8.35048
▁ea	-8.35063
▁started	-8.35293
▁great	-8.35539
▁n	-8.35784
▁today	-8.35802
▁design	-8.35965
▁might	-8.36007
▁let	-8.36177
fi	-8.36183
ș	-8.36207
ive	-8.3623
că	-8.36535
▁ele	-8.36708
rii	-8.37119
▁Când	-8.37582
▁aceasta	-8.39392
▁give	-8.39524
▁nou	-8.39606
▁trei	-8.39671
▁before	-8.40169
▁better	-8.40552
ții	-8.40588
▁unul	-8.40605
▁câteva	-8.40783
▁C	-8.40788
▁bit	-8.40967
▁noastră	-8.40989
▁last	-8.41616
▁end	-8.41621
▁da	-8.4175
▁vom	-8.41794
▁acesta	-8.41875
▁problem	-8.42226
▁start	-8.4232
▁big	-8.42337
▁brain	-8.42433
▁bun	-8.42618
ție	-8.4271
▁data	-8.42996
▁v	-8.43178
▁erau	-8.4327
▁exemplu	-8.43859
▁alte	-8.43913
▁public	-8.4393
▁never	-8.43963
▁îm	-8.44272
▁B	-8.44312
ez	-8.44617
▁went	-8.44618
▁show	-8.44709
▁suntem	-8.44776
P	-8.44867
ân	-8.45264
itatea	-8.45295
▁together	-8.45307
tion	-8.45339
▁able	-8.46295
ţii	-8.46405
▁still	-8.46412
▁Așa	-8.46427
▁system	-8.46446
able	-8.46744
▁course	-8.47003
▁love	-8.47311
▁astfel	-8.47461
▁another	-8.47576
ct	-8.47623
▁încă	-8.48071
▁long	-8.48092
M	-8.48144
▁off	-8.48292
ut	-8.48349
▁U	-8.48671
▁few	-8.489
▁him	-8.49021
▁T	-8.49232
▁dat	-8.49427
est	-8.49531
▁vi	-8.49584
ru	-8.49615
▁Mi	-8.49704
ry	-8.50007
▁story	-8.50082
▁între	-8.50316
ting	-8.50467
▁prea	-8.50503
▁mari	-8.50723
▁control	-8.50751
▁acea	-8.50791
▁man	-8.51168
▁Ei	-8.51262
el	-8.51336
▁ago	-8.51644
▁came	-8.51651
pe	-8.51725
▁New	-8.51948
▁nici	-8.52004
▁next	-8.52356
▁3	-8.52405
▁Africa	-8.52698
▁Un	-8.53092
▁help	-8.5346
ze	-8.53733
▁test	-8.5384
▁When	-8.53857
mp	-8.54247
▁each	-8.54589
▁adevărat	-8.54871
▁found	-8.55046
ant	-8.55128
▁Re	-8.55355
ția	-8.55397
▁social	-8.55714
no	-8.55868
▁mean	-8.56021
▁does	-8.56116
▁puțin	-8.56282
▁Le	-8.56432
▁orice	-8.56475
▁water	-8.56504
E	-8.56513
▁ra	-8.56636
tic	-8.5687
▁used	-8.56874
â	-8.56927
▁point	-8.5694
▁Da	-8.56975
▁feel	-8.57053
▁văzut	-8.57078
▁question	-8.57266
ş	-8.57498
▁P	-8.57517
▁Ma	-8.57582
ver	-8.57596
D	-8.57787
▁înseamnă	-8.57923
▁live	-8.58061
▁Ca	-8.58087
ilor	-8.58123
▁again	-8.58211
min	-8.58311
▁Ne	-8.58379
za	-8.58495
▁Cu	-8.5863
▁call	-8.58658
▁prima	-8.58794
▁between	-8.59117
▁întâmplă	-8.59436
ns	-8.59835
▁imagine	-8.59867
▁nostru	-8.60284
▁ma	-8.6031
ng	-8.60398
▁car	-8.60407
▁technology	-8.60461
▁di	-8.60616
sh	-8.60798
▁Aşa	-8.60895
be	-8.60962
po	-8.6097
▁example	-8.61349
▁înainte	-8.61771
▁aproape	-8.62169
▁Pe	-8.6222
▁toată	-8.62275
...	-8.62371
▁G	-8.62402
▁30	-8.62596
ţia	-8.626
man	-8.62811
T	-8.63256
mă	-8.63354
▁computer	-8.63457
▁home	-8.63698
chi	-8.63826
▁19	-8.6428
▁model	-8.64375
▁create	-8.64859
▁Acesta	-8.64933
bo	-8.65061
▁timpul	-8.65068
▁understand	-8.65435
pt	-8.65454
▁women	-8.65773
▁personal	-8.65839
2	-8.66022
im	-8.66441
▁Să	-8.6675
B	-8.67175
▁person	-8.67277
▁diferite	-8.67293
▁acel	-8.67356
▁looking	-8.67469
ness	-8.67587
▁doesn	-8.67902
▁Au	-8.68073
▁wanted	-8.6818
elor	-8.68324
▁ori	-8.68334
R	-8.6837
tori	-8.68629
ian	-8.68823
▁bună	-8.68954
▁For	-8.6905
▁destul	-8.69168
▁light	-8.69216
▁sort	-8.69373
pi	-8.69379
▁g	-8.69557
▁milioane	-8.69608
▁special	-8.69794
ice	-8.69965
▁believe	-8.70063
▁vreau	-8.70088
▁space	-8.7035
ui	-8.70412
▁spre	-8.70424
▁po	-8.70722
lă	-8.70882
▁children	-8.71097
▁facă	-8.71238
ty	-8.71845
▁may	-8.71987
▁done	-8.72115
▁lucrurile	-8.72225
▁too	-8.7239
▁asemenea	-8.72658
nce	-8.72997
▁urmă	-8.73232
▁probabil	-8.73448
▁ever	-8.73495
▁Mo	-8.73559
▁always	-8.74194
▁Vă	-8.7422
▁St	-8.74485
▁una	-8.74641
ted	-8.74722
▁Because	-8.74998
▁fr	-8.75152
▁away	-8.75252
▁whole	-8.75311
▁high	-8.75458
▁school	-8.7551
▁copii	-8.7568
▁trying	-8.75787
▁cineva	-8.75924
▁global	-8.75933
che	-8.75965
▁b	-8.76262
▁million	-8.76284
▁Cred	-8.76383
▁four	-8.76494
▁power	-8.7673
▁working	-8.76813
▁country	-8.76828
▁vedem	-8.77096
▁50	-8.77262
em	-8.77299
gi	-8.77562
▁per	-8.77661
ţie	-8.77752
da	-8.77845
▁film	-8.77859
L	-8.77956
țe	-8.78104
▁Cum	-8.78872
▁tip	-8.78968
▁simple	-8.78999
▁try	-8.79582
▁cancer	-8.7962
▁information	-8.79638
▁program	-8.7974
▁proiect	-8.80108
op	-8.80347
▁puţin	-8.80476
▁case	-8.8051
nță	-8.80812
ică	-8.8112
age	-8.8116
▁TED	-8.81169
▁using	-8.81176
nă	-8.81226
▁L	-8.81303
5	-8.81341
▁money	-8.81547
iv	-8.81559
▁As	-8.81758
ol	-8.81911
▁America	-8.82388
▁dată	-8.82399
▁Thank	-8.8252
▁cam	-8.82571
▁maybe	-8.82701
ba	-8.82733
▁F	-8.82755
ke	-8.82757
ac	-8.82786
▁comp	-8.82804
ări	-8.83656
▁thinking	-8.83727
Applause	-8.83827
▁small	-8.83828
Aplauze	-8.83992
▁15	-8.84027
▁pare	-8.84029
▁simplu	-8.84047
▁video	-8.84101
▁1	-8.84306
▁hand	-8.84371
▁hard	-8.84665
▁eram	-8.84745
▁kids	-8.84804
bu	-8.85003
▁took	-8.85022
▁dis	-8.85507
▁everything	-8.85601
▁means	-8.85677
▁men	-8.85682
▁Al	-8.85707
▁acele	-8.85731
▁mic	-8.85785
▁ocean	-8.85826
▁încât	-8.85937
▁apă	-8.85959
ându	-8.85993
▁become	-8.86159
con	-8.86397
▁five	-8.8657
▁How	-8.86584
supra	-8.86676
up	-8.86774
1	-8.86785
▁old	-8.86893
▁tra	-8.86917
▁D	-8.87043
%	-8.87136
ha	-8.87246
▁future	-8.87464
▁100	-8.87534
▁poți	-8.87732
▁arată	-8.87782
▁second	-8.87786
▁number	-8.87951
▁sense	-8.88112
▁Trebuie	-8.88156
▁trecut	-8.88558
▁One	-8.88594
ous	-8.88627
▁ex	-8.88805
ezi	-8.88875
ine	-8.88963
ști	-8.88968
▁Aceasta	-8.89123
▁far	-8.89275
ator	-8.89293
▁enough	-8.89423
ț	-8.89459
▁N	-8.89508
ală	-8.8962
▁totul	-8.89665
O	-8.89706
▁She	-8.89817
▁its	-8.8998
cul	-8.90086
▁Ar	-8.90202
▁My	-8.90264
7	-8.90572
▁left	-8.90629
sc	-8.90697
per	-8.90736
▁mele	-8.90854
▁tu	-8.90979
▁primul	-8.91163
▁best	-8.91247
▁No	-8.9138
▁merge	-8.91426
▁venit	-8.91427
ga	-8.91435
oare	-8.91461
ec	-8.91824
▁nimic	-8.92012
▁ch	-8.92266
ism	-8.92344
▁York	-8.92371
▁Ro	-8.92756
▁seama	-8.92785
do	-8.92921
▁form	-8.93025
▁getting	-8.93158
▁probleme	-8.93196
▁acestea	-8.93213
▁ask	-8.93278
▁play	-8.93441
fe	-8.93501
▁faci	-8.93595
▁4	-8.93631
▁Apoi	-8.94123
ir	-8.94218
▁dolari	-8.94253
ten	-8.94271
om	-8.9446
▁set	-8.94483
▁deoarece	-8.94489
▁vrea	-8.94681
▁mici	-8.94686
ling	-8.94726
▁India	-8.9478
▁experiment	-8.94845
▁luat	-8.94984
ure	-8.95338
▁5	-8.95359
▁folosi	-8.95476
▁R	-8.95612
8	-8.95663
▁exact	-8.9581
▁pur	-8.96153
▁less	-8.96179
▁final	-8.96224
▁bring	-8.96229
▁J	-8.96352
▁interesting	-8.96365
▁body	-8.96474
▁Do	-8.96558
▁ajuns	-8.96589
4	-8.96607
less	-8.96633
▁making	-8.96675
▁2	-8.96797
▁head	-8.96805
▁niciodată	-8.96969
▁without	-8.96972
▁side	-8.97033
abil	-8.97243
▁problemă	-8.97348
▁quite	-8.97583
cat	-8.97649
▁mo	-8.97665
▁Ba	-8.97975
▁mulți	-8.982
▁talking	-8.98329
▁food	-8.98548
▁dintr	-8.98669
▁happened	-8.98815
▁bo	-8.98844
▁room	-8.98887
▁These	-8.98924
id	-8.98946
▁OK	-8.99091
▁lives	-8.99228
▁probably	-8.99375
ies	-8.99421
▁li	-8.99473
▁open	-8.99484
and	-8.99555
▁move	-8.99582
▁told	-8.99632
▁pi	-8.99642
▁date	-8.99805
rs	-8.99807
▁comes	-8.99937
hi	-8.99954
G	-9.00024
▁posibil	-9.00178
▁process	-9.00311
nța	-9.00325
▁deci	-9.00702
tul	-9.00789
▁oamenilor	-9.00838
▁crea	-9.00915
▁energy	-9.00928
▁reason	-9.0137
▁împreună	-9.01385
ori	-9.01623
„	-9.01679
▁Era	-9.01748
▁building	-9.01812
▁science	-9.01976
ei	-9.02121
ai	-9.02201
▁build	-9.02258
▁alt	-9.02299
dă	-9.02331
▁local	-9.02438
▁experience	-9.02446
tra	-9.02454
▁under	-9.02494
▁stuff	-9.02903
pa	-9.02957
▁patru	-9.03012
▁W	-9.0311
ally	-9.03169
ării	-9.03295
ber	-9.03385
▁azi	-9.03536
▁matter	-9.0371
▁proces	-9.03768
▁times	-9.04125
▁creat	-9.0415
ale	-9.04163
▁Te	-9.04278
▁across	-9.0431
▁pretty	-9.04378
▁China	-9.04656
▁such	-9.04665
▁anything	-9.04783
▁Iată	-9.04854
6	-9.04925
▁produce	-9.04948
▁idee	-9.05009
▁later	-9.05149
şte	-9.05192
ici	-9.0527
ște	-9.05307
ated	-9.0535
nţă	-9.05476
▁numai	-9.05813
go	-9.05818
▁viața	-9.05873
▁devenit	-9.06122
fer	-9.06177
▁cap	-9.06185
ton	-9.06455
N	-9.06554
rie	-9.06589
▁half	-9.06709
▁happen	-9.06926
▁deja	-9.07097
▁bune	-9.07103
▁war	-9.07163
▁mind	-9.07186
▁top	-9.07383
▁partea	-9.07491
▁altă	-9.07639
▁greu	-9.07714
▁health	-9.07828
ho	-9.0784
▁learn	-9.079
▁h	-9.07955
▁billion	-9.0797
▁complet	-9.07994
▁zile	-9.081
▁dollars	-9.08104
▁pus	-9.08243
▁copiii	-9.08332
▁aceea	-9.08379
▁asked	-9.08612
▁departe	-9.08729
▁family	-9.08935
▁vorbesc	-9.08935
▁countries	-9.08936
3	-9.09182
▁saw	-9.0923
▁coming	-9.09231
ric	-9.09324
▁plan	-9.09383
▁Here	-9.09428
▁young	-9.0959
▁project	-9.09719
▁40	-9.0984
▁Let	-9.0992
▁18	-9.09967
▁bar	-9.10009
ește	-9.10015
▁bad	-9.10294
▁numit	-9.10325
▁mar	-9.10329
▁normal	-9.10355
▁jos	-9.10578
▁having	-9.10651
▁else	-9.10697
old	-9.10779
▁minute	-9.10798
▁Internet	-9.1081
oc	-9.10911
▁Me	-9.10941
▁pic	-9.10974
▁hope	-9.10987
▁natural	-9.10997
▁cost	-9.11177
▁super	-9.11186
pre	-9.11217
▁Li	-9.11236
▁vorba	-9.11275
▁bani	-9.11443
vo	-9.11545
▁living	-9.11665
ph	-9.11676
▁începe	-9.11756
he	-9.11918
▁sus	-9.11961
▁precum	-9.12027
▁planet	-9.12045
▁ve	-9.121
▁To	-9.12224
▁pa	-9.12275
▁toți	-9.12297
ească	-9.12302
ig	-9.12516
▁copil	-9.12518
ster	-9.12545
▁read	-9.12917
nu	-9.12933
▁Poate	-9.12942
lui	-9.12961
ite	-9.13099
▁sistem	-9.13179
▁doi	-9.13192
▁viață	-9.13192
▁nouă	-9.13235
▁while	-9.13493
ţ	-9.13633
ză	-9.13638
▁general	-9.13738
▁answer	-9.13872
▁poţi	-9.14013
▁job	-9.14024
▁inside	-9.14072
▁Or	-9.1408
ful	-9.14092
▁–	-9.14229
▁știu	-9.14233
▁age	-9.14349
mer	-9.14367
şti	-9.14589
▁seen	-9.14634
fa	-9.14672
aj	-9.14699
▁Avem	-9.14756
▁lumii	-9.1476
▁turn	-9.14838
▁picture	-9.14933
▁Eu	-9.14989
▁sta	-9.15017
▁K	-9.15067
▁ideea	-9.1518
▁Earth	-9.15353
▁remember	-9.15504
▁keep	-9.15792
▁lua	-9.1581
▁art	-9.1611
▁All	-9.162
▁luni	-9.16265
▁dur	-9.16335
▁happens	-9.16482
00	-9.16525
▁rec	-9.16539
▁femei	-9.1664
▁single	-9.16654
dy	-9.16716
ază	-9.16907
▁both	-9.16935
▁goes	-9.16982
red	-9.17048
▁material	-9.1707
▁își	-9.17115
▁putut	-9.17241
▁12	-9.17287
▁cauza	-9.17339
ble	-9.17625
▁city	-9.17715
▁almost	-9.17793
▁modul	-9.17824
▁Be	-9.17985
tru	-9.1809
nic	-9.1822
▁often	-9.1827
▁scris	-9.18492
▁El	-9.18725
▁acestor	-9.18844
son	-9.18963
9	-9.18969
▁Există	-9.19038
▁says	-9.19122
▁days	-9.19197
▁cine	-9.19342
▁media	-9.19367
▁Co	-9.19606
▁ră	-9.19652
▁CA	-9.19822
▁business	-9.1983
]	-9.20057
,000	-9.20375
ize	-9.20384
▁fiind	-9.2046
ica	-9.20532
▁already	-9.20532
▁sure	-9.20561
▁name	-9.20693
▁makes	-9.20757
▁gândit	-9.20791
▁wrong	-9.2085
▁ways	-9.20938
▁cr	-9.21111
▁faptul	-9.21167
ner	-9.21228
▁im	-9.21317
▁inter	-9.21472
▁[	-9.21569
▁energie	-9.2189
▁persoane	-9.21893
▁saying	-9.22071
▁book	-9.22181
▁aveam	-9.22318
▁six	-9.2269
▁someone	-9.22765
▁community	-9.22782
urilor	-9.22811
ard	-9.22831
▁fe	-9.22832
▁run	-9.22906
▁possible	-9.22941
▁Din	-9.23005
.000	-9.23059
▁nivel	-9.23255
▁consider	-9.23343
F	-9.23405
▁perfect	-9.23477
ow	-9.23606
▁sigur	-9.23698
▁problems	-9.23902
▁myself	-9.23921
▁looked	-9.2404
▁simt	-9.24109
▁yet	-9.24171
▁uman	-9.24176
▁întâmplat	-9.24214
▁nothing	-9.24251
one	-9.24269
▁doctor	-9.24312
▁order	-9.24625
▁singur	-9.24671
▁aș	-9.24796
▁once	-9.24862
land	-9.24876
▁Ha	-9.24984
▁past	-9.25017
▁felul	-9.25126
▁6	-9.25127
▁acestui	-9.2514
▁whether	-9.25326
▁poveste	-9.25386
nte	-9.25414
ger	-9.25502
▁state	-9.25507
▁văd	-9.25628
▁Ra	-9.25656
▁stat	-9.257
pă	-9.25806
oase	-9.25915
▁stop	-9.25994
▁dau	-9.26026
▁amazing	-9.26078
der	-9.26389
▁cells	-9.26595
▁Mai	-9.26613
sem	-9.26626
▁grup	-9.26649
▁zis	-9.26697
▁language	-9.26751
▁line	-9.26856
com	-9.26916
▁problema	-9.26922
▁Aici	-9.27145
▁om	-9.27259
wa	-9.27403
▁arăt	-9.27495
▁self	-9.2751
▁multă	-9.27542
▁găsit	-9.27746
use	-9.27773
▁child	-9.27852
▁ro	-9.27873
▁Why	-9.27904
▁months	-9.27971
▁ti	-9.2799
▁cont	-9.281
eşte	-9.28108
▁persoană	-9.28196
▁Bo	-9.28254
▁fa	-9.28333
▁prezent	-9.28343
▁jumătate	-9.28454
▁research	-9.28506
▁cinci	-9.2854
▁beautiful	-9.28625
▁economic	-9.28642
▁Po	-9.28701
▁Con	-9.28719
▁true	-9.28801
▁bi	-9.28809
▁group	-9.28955
▁history	-9.29073
▁viitor	-9.29108
▁impact	-9.2913
▁couple	-9.29143
▁măsură	-9.29144
▁Î	-9.29159
▁unele	-9.2917
▁complex	-9.29362
mon	-9.29398
ata	-9.29496
lin	-9.29543
▁guy	-9.29544
▁mother	-9.29586
▁heart	-9.29619
ized	-9.29692
▁descoperit	-9.29696
▁act	-9.29968
▁dus	-9.30115
ria	-9.30204
▁jurul	-9.30239
The	-9.30282
▁total	-9.30286
H	-9.30312
▁within	-9.30435
▁pun	-9.30455
ating	-9.30481
▁rest	-9.30663
▁bu	-9.30713
▁An	-9.30773
▁puteți	-9.30903
▁punct	-9.31348
▁par	-9.31446
we	-9.31464
▁z	-9.31534
ţe	-9.31613
▁air	-9.31675
▁pune	-9.31729
▁înapoi	-9.31771
▁succes	-9.31802
▁acestei	-9.31892
ran	-9.31948
▁government	-9.31991
▁mică	-9.32091
ind	-9.32094
▁miliarde	-9.32097
▁basically	-9.32133
▁heard	-9.32285
line	-9.32299
▁night	-9.32345
▁rău	-9.32375
▁ideas	-9.32391
▁red	-9.32436
▁cl	-9.32493
▁vine	-9.32552
▁stories	-9.32574
▁non	-9.32576
▁education	-9.32601
▁words	-9.32683
▁permite	-9.32863
ste	-9.33009
▁must	-9.33118
▁sh	-9.33141
tura	-9.33154
▁large	-9.33268
▁Z	-9.33672
▁animal	-9.33712
▁consum	-9.33884
rile	-9.33906
▁j	-9.34038
▁post	-9.34086
▁ajunge	-9.34373
▁c	-9.3466
▁vedeți	-9.34823
▁sp	-9.34841
▁bio	-9.34959
▁major	-9.34967
▁interesant	-9.35127
▁sistemul	-9.3517
▁close	-9.352
▁limit	-9.35233
▁ba	-9.35234
ație	-9.353
▁music	-9.35463
▁După	-9.35576
▁astea	-9.35615
▁Vreau	-9.35676
▁extrem	-9.35724
ep	-9.35875
▁built	-9.35941
▁găsi	-9.35992
▁folosit	-9.35999
▁share	-9.36005
▁robot	-9.36045
▁ha	-9.36112
▁r	-9.36112
▁Pro	-9.36172
tro	-9.36246
K	-9.36246
▁cre	-9.36291
▁front	-9.36322
▁locuri	-9.36374
▁7	-9.36418
ary	-9.36644
▁pă	-9.36686
ions	-9.36697
▁du	-9.36732
▁tine	-9.36745
▁team	-9.3688
▁wasn	-9.37005
▁carbon	-9.37251
ance	-9.37371
▁Fi	-9.3743
toare	-9.37431
V	-9.37591
▁”.	-9.37632
▁United	-9.37674
▁auzit	-9.37693
▁knew	-9.37998
▁until	-9.3816
▁study	-9.38224
ura	-9.38364
▁market	-9.38417
▁25	-9.38459
▁rapid	-9.38469
▁word	-9.38645
▁gra	-9.38706
▁târziu	-9.38756
▁sens	-9.38874
▁genetic	-9.38908
▁Acest	-9.38951
▁imp	-9.3915
nc	-9.39254
ier	-9.39313
ești	-9.39394
▁motiv	-9.39423
olu	-9.39423
eşti	-9.39485
▁particular	-9.395
▁color	-9.39611
▁individual	-9.39617
▁arăta	-9.39646
nţi	-9.39674
▁phone	-9.39811
▁rând	-9.39868
▁environment	-9.39881
▁schimba	-9.39902
▁view	-9.4002
tive	-9.40128
▁though	-9.40139
oasă	-9.40149
▁decided	-9.40154
▁auto	-9.40212
▁sex	-9.40309
▁majoritatea	-9.40314
▁camera	-9.40316
cy	-9.40359
▁looks	-9.40524
▁duce	-9.40536
▁mulţi	-9.40654
▁house	-9.40703
▁online	-9.4072
▁mii	-9.4074
gen	-9.40761
▁niște	-9.40785
▁learned	-9.40799
▁piece	-9.40815
▁direct	-9.40916
▁friends	-9.40968
▁9	-9.41052
▁Google	-9.41165
▁unii	-9.41191
▁clar	-9.41243
ction	-9.41411
▁Mă	-9.41453
▁became	-9.41458
ces	-9.41526
▁woman	-9.4185
ens	-9.42097
ip	-9.42136
▁comun	-9.42181
▁dori	-9.42202
▁arm	-9.42247
rat	-9.42289
▁free	-9.42341
▁gene	-9.42364
▁11	-9.42367
▁împ	-9.42434
▁sound	-9.425
▁figure	-9.42573
▁muncă	-9.42638
▁baza	-9.42645
▁completely	-9.42779
▁species	-9.43046
▁mers	-9.43322
▁somebody	-9.43333
ning	-9.43411
▁company	-9.43433
▁secret	-9.43454
▁idei	-9.43521
▁exactly	-9.43521
▁works	-9.43531
ță	-9.43548
ătoare	-9.43551
▁land	-9.4361
▁leave	-9.43648
ities	-9.43664
▁vin	-9.43709
▁tehnologie	-9.43817
▁ourselves	-9.43833
▁vedere	-9.43872
▁At	-9.43931
ască	-9.4394
▁schimb	-9.43945
▁corect	-9.43945
W	-9.43962
▁60	-9.4399
▁refer	-9.44111
▁hear	-9.44149
▁doua	-9.44161
▁urma	-9.44163
▁fun	-9.44313
▁everybody	-9.44335
▁nature	-9.44335
rul	-9.44425
▁ştiu	-9.4443
▁acasă	-9.44438
▁mei	-9.44645
ving	-9.44648
▁f	-9.4465
▁același	-9.44657
▁diferit	-9.44678
▁drept	-9.44894
▁ăsta	-9.45042
▁step	-9.45042
▁since	-9.4511
▁su	-9.45161
▁Su	-9.45257
the	-9.45274
▁met	-9.45448
▁Chiar	-9.45483
▁primit	-9.4564
▁society	-9.45652
▁huge	-9.45652
▁against	-9.45675
▁întrebat	-9.45677
▁toţi	-9.45899
▁Unite	-9.46033
▁ales	-9.46053
▁celor	-9.46138
▁sometimes	-9.46164
▁happening	-9.4622
▁culture	-9.46266
▁themselves	-9.46266
▁disease	-9.46402
▁8	-9.46405
rg	-9.46408
▁American	-9.46518
▁vorbi	-9.46567
▁moral	-9.46686
▁taking	-9.46807
▁Vi	-9.46813
▁ban	-9.46853
▁gândim	-9.46856
▁concept	-9.46953
▁site	-9.46966
ach	-9.4699
▁str	-9.47022
▁creierul	-9.47081
ors	-9.47201
▁mereu	-9.47204
▁Ho	-9.47333
▁ați	-9.47656
▁Pa	-9.4778
▁hours	-9.47827
▁exist	-9.4807
▁sper	-9.48102
▁față	-9.4814
▁locul	-9.48143
".	-9.48147
▁fundamental	-9.48184
▁H	-9.48192
▁Va	-9.48256
ping	-9.48313
▁calcul	-9.48328
▁places	-9.48527
▁viaţa	-9.48549
▁deveni	-9.48599
▁reduce	-9.48662
▁d	-9.48665
▁întâmpla	-9.487
▁itself	-9.4876
▁recent	-9.48994
▁ia	-9.49131
▁isn	-9.4914
▁V	-9.49166
▁anume	-9.49186
▁aduce	-9.49212
▁Așadar	-9.49288
tele	-9.49533
▁întrebare	-9.49695
▁behavior	-9.49711
▁repede	-9.49713
▁States	-9.49865
▁questions	-9.49874
iei	-9.50005
▁însă	-9.50018
bra	-9.50323
▁Putem	-9.50351
▁level	-9.50592
▁students	-9.50632
▁early	-9.50677
aţie	-9.50689
▁întrebări	-9.50723
▁digital	-9.50733
▁na	-9.50748
▁anul	-9.50754
▁știm	-9.50756
▁astăzi	-9.50779
tură	-9.5078
▁trebuit	-9.50793
▁Sau	-9.50994
par	-9.51014
j	-9.51052
▁incredibil	-9.51056
way	-9.51117
▁întreaga	-9.51189
▁vrem	-9.51192
▁cuvinte	-9.51322
▁accept	-9.51527
▁nimeni	-9.51533
▁everyone	-9.51578
▁cer	-9.51835
▁Can	-9.51863
▁animals	-9.51879
▁para	-9.51912
▁Astfel	-9.51967
▁universe	-9.51973
▁record	-9.51976
▁similar	-9.52009
gh	-9.52036
▁încerc	-9.5214
▁along	-9.52144
▁realizat	-9.52152
iune	-9.52185
▁game	-9.52247
▁tuturor	-9.52402
▁număr	-9.52554
▁Sa	-9.52583
▁schimbat	-9.52702
▁created	-9.52788
▁walk	-9.52817
▁en	-9.52899
▁mediu	-9.52916
▁liber	-9.52986
▁construi	-9.53037
▁instead	-9.53059
▁sco	-9.53173
▁difficult	-9.53279
ring	-9.53296
for	-9.53319
▁learning	-9.53337
▁răspuns	-9.53373
lie	-9.53384
▁construit	-9.53385
▁trăi	-9.53401
▁rather	-9.53407
▁couldn	-9.53467
ther	-9.53532
ase	-9.53739
▁Then	-9.53782
ător	-9.53968
ității	-9.54207
▁cell	-9.54256
▁exp	-9.54277
▁worked	-9.54349
▁opera	-9.54393
▁text	-9.54403
▁curs	-9.54489
▁turns	-9.54596
▁caz	-9.54636
king	-9.54833
▁Some	-9.54847
▁fund	-9.54893
▁celule	-9.54897
▁least	-9.54918
▁acces	-9.55043
▁image	-9.55182
▁fiindcă	-9.55314
▁unor	-9.55332
▁viaţă	-9.55393
▁acord	-9.55408
ff	-9.55429
▁ni	-9.55475
▁machine	-9.55497
▁pay	-9.5553
▁respect	-9.55558
▁puteţi	-9.55733
▁com	-9.55824
▁minutes	-9.55827
▁entire	-9.55953
▁outside	-9.5605
▁thousands	-9.56148
▁pas	-9.56155
nk	-9.56256
▁folosesc	-9.56305
ǎ	-9.56359
▁population	-9.56423
▁Di	-9.56464
▁modern	-9.56495
▁tehnologia	-9.56523
lic	-9.56526
▁vrut	-9.56637
▁folosim	-9.56723
▁risk	-9.56751
▁support	-9.56756
▁micro	-9.56783
▁God	-9.56904
if	-9.5702
mul	-9.57073
▁full	-9.57124
▁grow	-9.57167
▁black	-9.5722
▁fish	-9.57318
▁nume	-9.57442
▁Lu	-9.576
▁ești	-9.57661
▁won	-9.5781
▁prieten	-9.57812
prin	-9.57857
uş	-9.57879
▁joc	-9.57979
▁fii	-9.58053
ex	-9.58251
▁scale	-9.58279
▁w	-9.58305
▁third	-9.58371
▁Îm	-9.58556
▁creier	-9.58571
▁ajuta	-9.5858
▁Br	-9.58628
▁standard	-9.58716
▁solar	-9.5876
istic	-9.58782
▁forma	-9.58829
▁buy	-9.5886
▁short	-9.58942
▁sun	-9.59172
cie	-9.59255
▁kinds	-9.59287
▁poor	-9.59332
ron	-9.59396
▁gave	-9.59409
duc	-9.59461
▁ur	-9.59494
▁boli	-9.59507
▁rate	-9.59537
▁tend	-9.59574
▁Are	-9.59624
▁lângă	-9.59641
▁apar	-9.59692
▁duc	-9.59758
▁povestea	-9.59769
▁fear	-9.59787
▁formă	-9.59805
And	-9.5989
▁plant	-9.59975
▁t	-9.59979
ina	-9.60023
▁imagini	-9.60028
▁death	-9.60055
du	-9.60168
cent	-9.60171
led	-9.60197
men	-9.60227
▁Na	-9.60421
▁trece	-9.60438
▁vei	-9.60471
▁hi	-9.60471
▁field	-9.60486
▁crescut	-9.60498
▁medical	-9.60529
▁middle	-9.60584
▁Sp	-9.60772
▁’	-9.60821
▁trans	-9.60839
▁changed	-9.60853
ations	-9.60934
▁paper	-9.60959
▁friend	-9.60964
▁bază	-9.61161
▁Go	-9.61274
▁exista	-9.6128
▁animale	-9.61281
▁anti	-9.61353
▁common	-9.61426
▁dă	-9.61479
▁feeling	-9.6152
▁fiu	-9.61567
▁ș	-9.61583
▁știți	-9.61615
ţă	-9.61774
▁aibă	-9.61897
adevăr	-9.61912
van	-9.61922
car	-9.62027
▁amount	-9.62135
▁seven	-9.62181
ja	-9.62209
▁vreodată	-9.62256
▁difference	-9.62262
▁vezi	-9.62376
iunea	-9.62381
▁țări	-9.62542
▁vis	-9.62722
cer	-9.62765
▁produs	-9.62899
▁pr	-9.63016
▁companies	-9.63268
▁cor	-9.63294
▁taken	-9.63326
▁specific	-9.63333
pro	-9.63353
▁Voi	-9.63431
▁gândesc	-9.63485
▁intr	-9.63495
▁eyes	-9.63759
ome	-9.63793
▁ob	-9.63862
▁împotriva	-9.64119
▁200	-9.64119
▁încep	-9.64241
▁umane	-9.64293
▁yourself	-9.64324
que	-9.64414
▁news	-9.6444
▁others	-9.64528
aș	-9.64619
▁capital	-9.64635
▁zone	-9.64637
ute	-9.64744
ord	-9.64772
▁ac	-9.64805
▁powerful	-9.6482
▁civil	-9.64823
ug	-9.64847
▁On	-9.65088
ding	-9.65095
▁given	-9.65129
▁gets	-9.65149
▁Aceast	-9.65206
▁happy	-9.65312
▁conflict	-9.65318
ical	-9.65417
▁actual	-9.65446
▁fur	-9.65469
▁sec	-9.65478
▁cunoscut	-9.65516
▁doilea	-9.65577
▁pat	-9.65579
enți	-9.6566
val	-9.65669
▁poli	-9.65768
year	-9.66097
▁decis	-9.66146
▁vrei	-9.66194
▁practic	-9.66233
by	-9.66418
▁SUA	-9.66436
▁reach	-9.66441
rit	-9.66483
▁dr	-9.66513
▁activ	-9.66521
port	-9.66535
▁vorbit	-9.66574
▁investi	-9.66651
▁corp	-9.66655
▁behind	-9.66687
▁political	-9.66765
▁ore	-9.66788
▁shape	-9.66817
▁reality	-9.66823
▁guys	-9.66833
▁realized	-9.66835
▁merg	-9.66849
▁sute	-9.66852
ish	-9.66869
▁easy	-9.67075
▁iată	-9.67104
▁beginning	-9.672
▁center	-9.67204
▁disp	-9.67297
▁cities	-9.67379
▁plastic	-9.67445
side	-9.67472
▁app	-9.67551
▁mental	-9.67621
▁systems	-9.6766
▁tău	-9.67702
▁produc	-9.67738
▁mama	-9.67776
nii	-9.67794
izat	-9.67826
▁acelaşi	-9.6785
▁size	-9.67911
▁vreo	-9.68012
▁Dr	-9.68055
▁sine	-9.68138
▁seeing	-9.68241
U	-9.68443
0	-9.68493
▁17	-9.68496
▁/	-9.68594
▁Chris	-9.68594
▁transform	-9.6865
▁aveau	-9.68651
▁niciun	-9.6866
pp	-9.68736
▁protect	-9.68767
▁puterea	-9.68818
▁spend	-9.68869
▁map	-9.68902
▁list	-9.68904
▁Oamenii	-9.69096
▁fo	-9.69284
▁cazul	-9.69312
nţe	-9.6933
tie	-9.69367
▁aflat	-9.69461
▁fire	-9.6947
nta	-9.69493
▁gas	-9.69582
▁reprezintă	-9.69625
▁needed	-9.69627
ler	-9.69638
▁sup	-9.69663
▁16	-9.69746
▁util	-9.69893
▁14	-9.69942
▁low	-9.70027
▁father	-9.70027
▁certain	-9.70028
▁vorbim	-9.70071
▁fall	-9.7014
▁principal	-9.70144
▁measure	-9.70147
▁key	-9.7017
▁evident	-9.70275
▁explain	-9.70275
▁lo	-9.70286
▁Y	-9.70356
▁turned	-9.70411
Nu	-9.70557
▁wonderful	-9.70582
▁Aceste	-9.70674
▁eight	-9.70778
▁suficient	-9.70798
▁câte	-9.70811
cut	-9.70879
▁felt	-9.70961
▁student	-9.70977
▁perhaps	-9.71061
▁century	-9.71076
▁simply	-9.71193
▁began	-9.71193
▁ziua	-9.71198
▁compar	-9.71203
▁parents	-9.7121
▁ultimii	-9.71213
▁devine	-9.71301
▁gen	-9.71306
▁Vo	-9.71417
ină	-9.71437
tat	-9.71488
▁imagina	-9.71497
▁finally	-9.71571
▁photograph	-9.71589
▁află	-9.71634
▁voice	-9.71662
▁deal	-9.71664
▁ju	-9.71718
▁minunat	-9.71753
▁folosind	-9.71781
of	-9.71801
▁singură	-9.71822
▁obicei	-9.71853
în	-9.7186
▁sexual	-9.71868
▁imediat	-9.71986
nder	-9.72036
▁ciudat	-9.72045
▁întreb	-9.72213
▁transport	-9.72225
▁pământ	-9.72258
vin	-9.72301
▁stand	-9.72327
▁fața	-9.72393
▁moving	-9.72401
▁Car	-9.72458
▁hands	-9.72518
▁încercat	-9.7258
▁virus	-9.72583
▁apa	-9.72604
▁week	-9.72782
nţa	-9.7289
▁begin	-9.73099
▁cand	-9.73116
▁stay	-9.73126
▁perform	-9.73193
▁cale	-9.73253
▁speak	-9.7331
▁mor	-9.73419
ură	-9.73427
▁momentul	-9.73449
▁lots	-9.73454
▁urban	-9.73456
▁solve	-9.73482
▁challenge	-9.73557
▁80	-9.73567
▁fim	-9.73572
▁People	-9.73591
▁încerca	-9.73666
▁blue	-9.73751
▁importantă	-9.73782
ibil	-9.73894
▁Lo	-9.739
▁ş	-9.73926
▁longer	-9.73977
▁element	-9.73994
▁adapt	-9.74133
▁scurt	-9.7419
▁predict	-9.74271
▁puternic	-9.74277
▁Just	-9.74357
▁daca	-9.74392
▁terms	-9.74412
▁informații	-9.74413
eau	-9.74502
▁veți	-9.74534
▁afaceri	-9.74684
▁femeie	-9.7473
▁Com	-9.74822
▁Bu	-9.74825
▁accident	-9.74949
▁munca	-9.74949
▁fix	-9.75092
gg	-9.75098
▁cannot	-9.75163
▁pu	-9.75469
▁sold	-9.75509
fu	-9.75522
▁uitat	-9.75523
torii	-9.75575
▁San	-9.75636
▁die	-9.75647
put	-9.75657
den	-9.75677
▁grozav	-9.75773
▁oil	-9.75866
▁generation	-9.76167
▁Noi	-9.76196
▁femeile	-9.76211
▁carte	-9.76233
▁const	-9.76239
▁extra	-9.76312
▁surface	-9.76326
ntă	-9.76362
ară	-9.76381
▁Mar	-9.76608
▁present	-9.76638
▁spent	-9.76648
▁absolut	-9.7688
▁ușor	-9.76881
▁report	-9.76967
▁takes	-9.77008
gin	-9.77118
cor	-9.77118
▁blood	-9.77161
▁pierde	-9.77163
▁Okay	-9.77174
▁nişte	-9.77315
▁interested	-9.77339
▁Ju	-9.7742
î	-9.77432
▁înțelege	-9.77518
mate	-9.77563
▁reflect	-9.7758
▁aceşti	-9.77593
▁focus	-9.77663
▁detect	-9.7771
▁explic	-9.77735
▁bat	-9.77739
▁value	-9.77773
ația	-9.77951
▁trebuia	-9.77965
▁desigur	-9.78002
▁quickly	-9.78053
âr	-9.78069
wi	-9.78155
q	-9.78257
▁break	-9.78452
torul	-9.78473
▁realize	-9.78523
▁whatever	-9.78562
▁continue	-9.78593
▁lung	-9.78624
▁movement	-9.78644
▁aş	-9.78646
▁dificil	-9.7866
▁software	-9.7871
▁ho	-9.78841
▁th	-9.78844
▁percep	-9.78857
▁buni	-9.78877
fin	-9.78901
▁disc	-9.78981
▁John	-9.78986
▁zero	-9.78995
▁aspect	-9.78997
▁parts	-9.79071
art	-9.79081
▁jur	-9.79094
erea	-9.79271
cal	-9.79383
▁Ve	-9.7943
▁lost	-9.79478
▁ability	-9.79491
▁pick	-9.79567
▁învățat	-9.79591
▁tried	-9.79622
▁afară	-9.79712
▁numărul	-9.79725
▁sale	-9.79764
▁Our	-9.79811
▁anumit	-9.79831
▁companie	-9.80087
▁”,	-9.80196
▁mobil	-9.80248
▁Într	-9.80249
▁write	-9.80335
▁hit	-9.80345
▁needs	-9.80352
▁nuclear	-9.80572
▁gone	-9.80597
▁ştiţi	-9.8064
▁known	-9.80734
▁context	-9.8077
▁clip	-9.80773
▁fizic	-9.80886
▁cat	-9.80938
je	-9.80948
set	-9.80985
▁HIV	-9.81007
▁access	-9.81021
▁approach	-9.81152
▁afla	-9.81211
▁Pi	-9.81232
▁radio	-9.81356
▁patients	-9.81396
▁lumină	-9.81453
▁veni	-9.81479
▁fast	-9.81483
mele	-9.81512
▁k	-9.81579
▁crede	-9.81604
▁fl	-9.81784
▁odată	-9.81804
▁travel	-9.81896
▁alb	-9.81917
▁weeks	-9.81943
▁drive	-9.82006
▁luăm	-9.82029
▁ground	-9.82032
▁faţă	-9.8204
ala	-9.82067
▁exc	-9.82135
▁altceva	-9.82176
▁aproximativ	-9.82176
▁message	-9.82182
▁nicio	-9.82247
▁magic	-9.8233
▁uităm	-9.82402
▁profit	-9.82408
▁climate	-9.82416
▁încredere	-9.8247
ned	-9.82517
ona	-9.82592
▁uneori	-9.82624
▁scrie	-9.82801
▁lungul	-9.8295
▁Acestea	-9.82993
▁cool	-9.83021
▁importante	-9.83029
▁genul	-9.83097
▁Statele	-9.83121
▁creierului	-9.83378
▁instrument	-9.83383
▁sociale	-9.83402
▁ones	-9.8352
▁depend	-9.83627
▁Ac	-9.83639
▁opportunity	-9.83656
▁movie	-9.83657
▁rep	-9.83921
▁fantastic	-9.83955
▁internet	-9.83967
▁result	-9.83979
▁ajută	-9.84032
▁increase	-9.84104
▁goal	-9.84173
You	-9.842
▁săptămâni	-9.84254
▁attention	-9.84254
▁căuta	-9.84256
▁lucra	-9.84348
▁mass	-9.84372
▁rot	-9.84396
▁eficient	-9.84404
▁DNA	-9.84555
▁situation	-9.84586
▁girl	-9.8459
▁clear	-9.84591
▁cercetare	-9.84661
ită	-9.84669
▁subiect	-9.84705
▁stage	-9.84918
▁either	-9.84931
▁Suntem	-9.8494
▁aţi	-9.85073
ative	-9.85103
▁win	-9.85172
▁structure	-9.85207
▁cere	-9.85214
▁kid	-9.85235
▁vede	-9.85262
▁progres	-9.85353
▁gu	-9.85436
time	-9.85443
▁sitting	-9.85485
▁interes	-9.85494
▁măcar	-9.85537
▁intens	-9.85547
ari	-9.85565
▁Însă	-9.85587
▁plus	-9.85614
▁telefon	-9.85699
▁cultural	-9.85756
▁stea	-9.85769
ped	-9.85788
▁tineri	-9.85882
▁based	-9.85946
▁vedeţi	-9.86021
ward	-9.86046
▁aer	-9.86051
▁central	-9.86071
▁specii	-9.86072
ju	-9.86088
▁eşti	-9.86158
▁devin	-9.86186
▁invest	-9.86271
rilor	-9.86275
▁acești	-9.86277
ța	-9.86375
▁credem	-9.86417
▁function	-9.86464
▁multi	-9.86517
▁port	-9.86522
▁provide	-9.86531
ound	-9.86645
icul	-9.86703
▁physical	-9.86721
▁Ta	-9.86816
▁action	-9.86881
▁lead	-9.86922
▁sign	-9.87055
▁deep	-9.8707
▁average	-9.87147
▁humans	-9.87298
▁ADN	-9.87301
▁World	-9.87456
▁white	-9.87462
▁aminti	-9.87545
▁Jo	-9.87597
▁ochi	-9.87624
▁oferi	-9.87721
▁conversation	-9.87812
▁prop	-9.87825
▁spunem	-9.87883
▁Not	-9.8796
▁hot	-9.87981
▁wouldn	-9.88039
▁thank	-9.88084
▁chance	-9.881
▁hold	-9.88224
▁morning	-9.884
▁born	-9.88412
▁scientists	-9.88435
țional	-9.88492
▁arătat	-9.88497
▁petrece	-9.88556
▁tehnologii	-9.88703
▁visual	-9.88706
▁Ex	-9.8913
ries	-9.89161
▁vieții	-9.89272
▁interact	-9.89295
▁incredible	-9.89332
ţional	-9.8954
▁pierdut	-9.89675
tică	-9.89791
▁adus	-9.8982
end	-9.89859
▁datele	-9.8994
stra	-9.89954
▁Ni	-9.89974
▁calculator	-9.89995
▁growth	-9.90017
top	-9.90047
lit	-9.90179
die	-9.90223
▁network	-9.90275
▁legătură	-9.90284
▁crește	-9.90358
▁bottom	-9.90444
▁nice	-9.90469
▁sum	-9.90508
▁schimbă	-9.90558
▁casă	-9.9056
▁alone	-9.90584
▁dezvoltare	-9.90635
▁represent	-9.90658
▁dark	-9.90659
What	-9.90661
ările	-9.90687
▁South	-9.90735
▁argument	-9.90763
▁țară	-9.90763
▁Aşadar	-9.90764
▁green	-9.90806
▁understanding	-9.90825
▁auzi	-9.90832
▁ştim	-9.90865
med	-9.90867
fă	-9.90873
▁shows	-9.91005
▁connect	-9.91129
ny	-9.91232
▁knowledge	-9.91245
▁giving	-9.91245
▁contact	-9.91252
▁Fa	-9.91337
▁metri	-9.91345
▁putere	-9.91345
iile	-9.9135
▁potrivit	-9.91403
ov	-9.91488
▁♪	-9.91567
ization	-9.91568
▁Ele	-9.91601
▁produse	-9.91677
▁tools	-9.91681
▁oraş	-9.91685
▁pull	-9.91687
▁Ad	-9.91691
ani	-9.91721
▁tocmai	-9.91893
▁artist	-9.91922
▁sat	-9.91952
▁vot	-9.91974
▁uit	-9.91979
▁hundreds	-9.92019
▁virtual	-9.92053
▁Right	-9.92064
▁simți	-9.921
pic	-9.9211
▁creativ	-9.92159
▁areas	-9.92165
▁Prin	-9.9219
▁economy	-9.92215
ana	-9.9229
▁sit	-9.92295
form	-9.92392
▁vreme	-9.92419
▁prime	-9.92448
▁tri	-9.9246
▁studiu	-9.92483
Well	-9.92493
▁growing	-9.92566
▁vechi	-9.92581
▁spatele	-9.92594
▁document	-9.92619
▁termen	-9.92647
▁Unul	-9.92692
▁brought	-9.92703
▁wrote	-9.92704
▁Dumnezeu	-9.92712
▁Bi	-9.92739
des	-9.92742
erii	-9.92844
▁deschis	-9.92885
▁petrol	-9.92895
▁guvern	-9.92987
ități	-9.93045
▁Toate	-9.93046
▁zic	-9.93078
▁contra	-9.93174
▁adică	-9.93209
▁spațiu	-9.93209
▁american	-9.93221
ible	-9.93335
▁photo	-9.93358
▁literally	-9.93362
▁watch	-9.93382
▁salva	-9.93526
▁companii	-9.93534
▁seems	-9.93558
▁motor	-9.93617
▁legi	-9.9363
▁bomb	-9.93693
oane	-9.93742
▁lucrat	-9.93746
▁numită	-9.93852
▁telling	-9.9387
izare	-9.93876
ţele	-9.93912
izează	-9.93917
▁ochii	-9.93991
▁schimbare	-9.93998
▁hospital	-9.94018
▁road	-9.94024
▁allow	-9.94092
like	-9.94186
▁bur	-9.94243
ast	-9.94261
▁13	-9.94272
ists	-9.94294
▁corpul	-9.94306
▁anii	-9.94336
▁sti	-9.94376
▁changes	-9.94409
rate	-9.94442
▁audience	-9.94516
▁perspective	-9.94516
▁books	-9.94592
▁mașină	-9.94682
▁apărut	-9.94683
▁pui	-9.94763
day	-9.94848
▁innovation	-9.94849
▁24	-9.94874
▁source	-9.94888
▁funcționează	-9.95016
▁întotdeauna	-9.95016
▁mâna	-9.95186
▁spread	-9.95204
▁numele	-9.95225
▁începem	-9.95353
▁gre	-9.95365
▁table	-9.95438
▁original	-9.95483
▁period	-9.95518
▁feet	-9.95528
▁seem	-9.95534
▁strong	-9.95577
▁Care	-9.95585
stan	-9.95631
▁girls	-9.95648
▁facut	-9.95684
ati	-9.95704
▁TV	-9.95723
▁70	-9.95798
▁starting	-9.95837
▁profund	-9.95865
▁datorit	-9.95874
▁decide	-9.95905
▁motive	-9.95934
pri	-9.95968
▁por	-9.95969
▁ice	-9.9597
▁Facebook	-9.96023
▁cal	-9.96041
▁familia	-9.96054
▁Of	-9.96055
▁main	-9.96086
▁umană	-9.96158
izarea	-9.96219
▁realitate	-9.96289
rap	-9.96289
▁forward	-9.96298
▁dez	-9.96323
▁eye	-9.96397
▁touch	-9.964
▁gând	-9.96423
▁contează	-9.96439
▁rămâne	-9.96513
▁ran	-9.96514
▁development	-9.96564
▁lumina	-9.96582
▁African	-9.96616
▁muzica	-9.96701
▁sută	-9.96795
▁iau	-9.96802
▁truth	-9.96871
▁propria	-9.96881
▁running	-9.96888
▁copiilor	-9.96903
▁drum	-9.96925
ah	-9.96932
▁invent	-9.96964
▁stânga	-9.96975
▁guess	-9.97043
▁lab	-9.97057
ide	-9.9711
▁Fr	-9.97188
▁chi	-9.97324
▁observ	-9.97441
aş	-9.9753
▁Wi	-9.97602
▁clinic	-9.97698
▁technologies	-9.97725
▁screen	-9.97726
▁500	-9.97777
▁trec	-9.97804
▁numbers	-9.97811
▁plac	-9.97817
▁pass	-9.97856
▁risc	-9.97885
▁issue	-9.97888
▁mulțumesc	-9.97897
▁petrecut	-9.97927
▁bucur	-9.98076
▁discovered	-9.98077
▁nivelul	-9.981
▁Europe	-9.98127
▁type	-9.98135
▁Mulțumesc	-9.98242
▁frumos	-9.98242
▁varia	-9.98271
▁X	-9.98272
▁anyone	-9.98303
▁21	-9.98407
▁images	-9.98425
▁favorite	-9.98441
▁dream	-9.98574
▁worth	-9.98609
▁punem	-9.98623
▁developed	-9.98634
tate	-9.98647
▁electric	-9.98693
▁character	-9.98761
▁trust	-9.98762
▁război	-9.98812
▁încercăm	-9.98847
▁Mu	-9.98903
▁class	-9.99046
▁organism	-9.9917
eti	-9.99204
▁dead	-9.99204
▁push	-9.99257
▁câțiva	-9.99288
▁son	-9.99465
▁minte	-9.99516
▁teach	-9.99519
▁critic	-9.99562
▁eat	-9.99623
▁apare	-9.99643
▁deloc	-9.99646
▁Ka	-9.99733
▁90	-9.9983
▁rog	-9.99856
ak	-9.99912
▁Ri	-9.99932
▁laborator	-9.99954
▁relationship	-9.99993
ab	-10.0013
▁Pot	-10.0016
▁Du	-10.0022
▁soon	-10.0026
▁miles	-10.0036
▁meet	-10.0038
▁întrebarea	-10.004
▁ridicat	-10.0067
▁likely	-10.0068
eaza	-10.007
▁observat	-10.0072
▁locui	-10.0073
ităţii	-10.0085
▁lucrez	-10.0085
▁fericire	-10.0086
▁istorie	-10.009
▁vizual	-10.011
▁path	-10.0122
▁teren	-10.0123
▁box	-10.0125
tice	-10.0128
▁inova	-10.0128
▁Tu	-10.013
▁tre	-10.0138
▁economie	-10.014
▁card	-10.014
▁zice	-10.0141
▁develop	-10.0142
▁Pre	-10.0143
▁arunc	-10.0143
▁email	-10.015
▁trăiesc	-10.0162
ki	-10.0164
▁comportament	-10.0166
ţa	-10.0167
▁trib	-10.0171
onat	-10.0172
▁fly	-10.0186
▁obiect	-10.0186
▁Hu	-10.0188
sum	-10.0196
▁mediul	-10.0198
▁asking	-10.0205
▁Ja	-10.0206
▁familiar	-10.0208
▁listen	-10.0211
▁web	-10.0216
▁prieteni	-10.0222
▁planetă	-10.0223
out	-10.0228
▁suggest	-10.0229
▁extraordinar	-10.023
▁aceeași	-10.0238
▁scan	-10.0245
▁especially	-10.0247
▁smart	-10.0247
▁patient	-10.0253
qui	-10.0256
▁alții	-10.0271
▁priv	-10.0273
light	-10.0283
▁recognize	-10.0283
▁dispar	-10.029
▁Eram	-10.0291
▁millions	-10.0294
▁interpret	-10.0301
oară	-10.0303
▁page	-10.0312
▁discurs	-10.0319
▁region	-10.0322
▁masă	-10.0326
▁solution	-10.0327
▁viitorul	-10.0328
ita	-10.0336
▁y	-10.0337
▁continuă	-10.0341
ang	-10.0346
rop	-10.0351
gri	-10.0354
▁popular	-10.0356
▁showed	-10.0357
▁send	-10.0369
uit	-10.037
▁medicamente	-10.0373
▁problemele	-10.0375
▁mijloc	-10.0375
▁Oh	-10.0376
▁mobile	-10.0378
▁With	-10.0378
▁înţelege	-10.0383
iști	-10.0393
▁puteam	-10.0394
▁Ga	-10.0399
▁law	-10.0406
vor	-10.0408
▁uşor	-10.041
▁safe	-10.0411
low	-10.0412
▁citi	-10.0412
tch	-10.0418
▁dăm	-10.042
▁recently	-10.0431
▁acela	-10.0433
▁ajung	-10.044
▁Fac	-10.0451
▁alege	-10.0453
▁reușit	-10.046
▁etc	-10.0462
▁English	-10.0466
▁dreapta	-10.0466
▁rich	-10.0467
▁dezvoltat	-10.0477
▁plin	-10.0482
▁Sud	-10.0485
▁tiny	-10.0488
▁creating	-10.0504
▁creative	-10.0505
ndu	-10.0505
▁aveți	-10.0509
▁save	-10.0509
ker	-10.0515
▁crezut	-10.0521
▁mașini	-10.0521
▁join	-10.0521
orii	-10.0526
J	-10.0529
▁revolution	-10.0539
lar	-10.0542
▁Doar	-10.0542
▁numesc	-10.0543
Oh	-10.0544
▁altele	-10.0545
▁office	-10.0549
▁Nici	-10.0551
▁cameră	-10.0552
▁response	-10.0558
▁fericit	-10.0558
▁istoria	-10.056
▁forest	-10.0563
▁intre	-10.0566
udi	-10.0569
▁expect	-10.0572
nit	-10.0573
▁opt	-10.0576
▁lucrează	-10.0577
▁sleep	-10.0577
▁platform	-10.0577
▁amp	-10.0577
▁răspunsul	-10.0589
▁său	-10.059
▁sănătate	-10.0597
▁Yeah	-10.0597
▁designed	-10.0607
▁flu	-10.0608
▁încearcă	-10.0614
▁stare	-10.0615
▁schimbări	-10.0619
ship	-10.0622
▁spunea	-10.063
▁basic	-10.0631
▁sânge	-10.0633
▁product	-10.0636
▁creşte	-10.0639
▁kill	-10.0642
▁cealaltă	-10.0651
▁absolutely	-10.0651
▁stă	-10.0653
▁include	-10.0657
▁explore	-10.0663
▁baby	-10.0671
ight	-10.0674
har	-10.0677
▁tare	-10.0679
▁force	-10.0684
▁choice	-10.0685
▁evidence	-10.0689
▁wi	-10.0698
▁tratament	-10.0701
▁continent	-10.0708
▁potential	-10.0717
▁Mars	-10.0727
▁talked	-10.0727
▁changing	-10.0729
▁adopt	-10.0729
▁track	-10.0736
▁oferă	-10.0743
▁toții	-10.0745
▁By	-10.075
▁success	-10.0751
▁forme	-10.0753
lly	-10.0767
▁deliver	-10.0784
▁issues	-10.0787
▁statistic	-10.0788
▁desen	-10.0788
▁legal	-10.0796
▁capabil	-10.0796
▁funcţionează	-10.0802
▁observa	-10.0805
▁trăim	-10.0806
▁prost	-10.0806
▁organ	-10.0807
▁alta	-10.0808
press	-10.0819
▁școală	-10.0821
▁ecran	-10.0821
uci	-10.0823
▁theory	-10.0827
▁trimite	-10.0838
▁clădiri	-10.084
▁pacient	-10.084
▁restul	-10.085
▁door	-10.0854
ob	-10.0856
▁beyond	-10.086
▁incredibly	-10.086
▁towards	-10.0862
▁Primul	-10.0865
ial	-10.0872
▁ști	-10.0877
▁role	-10.0888
▁dans	-10.089
izing	-10.0901
▁începutul	-10.0902
▁star	-10.0907
▁industrial	-10.0907
▁playing	-10.0919
▁vest	-10.0927
▁matematic	-10.0927
▁știe	-10.093
▁industry	-10.0936
▁clean	-10.0937
▁developing	-10.0944
▁treat	-10.0944
▁wonder	-10.0946
▁fine	-10.0955
▁available	-10.0956
▁among	-10.0957
▁deasupra	-10.0959
sis	-10.0975
▁Ea	-10.1001
▁collect	-10.1001
▁materiale	-10.1007
▁tipuri	-10.1014
▁website	-10.1014
bil	-10.1017
ever	-10.1033
▁follow	-10.1044
zând	-10.1046
gan	-10.1047
▁complicat	-10.105
▁încet	-10.1056
▁Ge	-10.1056
▁drug	-10.1058
▁300	-10.1062
▁Man	-10.1062
can	-10.1065
▁efect	-10.107
▁interest	-10.1072
▁subject	-10.1072
ace	-10.108
▁realiza	-10.1081
▁întâlnit	-10.1082
▁creăm	-10.1084
▁Ki	-10.109
▁participa	-10.109
▁știință	-10.1093
▁hum	-10.1096
▁mut	-10.1098
▁prefer	-10.11
▁search	-10.1112
▁radical	-10.1112
▁hundred	-10.1116
▁ți	-10.1125
▁perioadă	-10.1131
▁effect	-10.1133
vis	-10.1134
▁cazuri	-10.1145
▁progress	-10.1145
▁add	-10.1146
▁mulţumesc	-10.1151
▁adesea	-10.1151
bin	-10.1151
▁culoare	-10.1151
▁logic	-10.1152
▁yes	-10.1159
▁visit	-10.1164
▁păr	-10.1169
▁cars	-10.1169
▁Pu	-10.1169
▁deschide	-10.118
▁găsim	-10.1187
▁obiecte	-10.119
▁țin	-10.119
ka	-10.1192
loc	-10.1196
▁rezolva	-10.1199
▁resources	-10.1202
▁noștri	-10.121
işti	-10.1213
▁Cel	-10.1219
▁sounds	-10.122
▁conduce	-10.1221
▁street	-10.1223
▁murit	-10.1226
▁spună	-10.1226
ley	-10.123
▁valori	-10.1231
▁code	-10.1234
▁Maybe	-10.1236
uz	-10.1237
▁întors	-10.1242
▁călători	-10.1244
▁modele	-10.1246
▁journey	-10.125
▁rămas	-10.125
▁return	-10.1251
▁connection	-10.1256
▁fla	-10.1265
▁familie	-10.1265
▁dog	-10.1267
▁adânc	-10.127
▁treatment	-10.1273
▁practice	-10.1275
▁pain	-10.1277
▁blog	-10.128
▁appear	-10.129
De	-10.1291
▁lived	-10.1294
▁ajutor	-10.1298
▁printre	-10.1302
▁achieve	-10.131
▁gar	-10.1314
▁ultimul	-10.132
▁râ	-10.1322
▁California	-10.133
▁"(	-10.133
▁viol	-10.1331
▁intra	-10.1347
▁trimis	-10.135
▁bărbat	-10.1353
▁introduce	-10.136
▁bal	-10.1362
▁expert	-10.137
▁fan	-10.137
▁gives	-10.1374
▁successful	-10.1377
mat	-10.1382
▁um	-10.1385
▁Bine	-10.1385
▁farm	-10.1387
▁sunteți	-10.1389
▁Atunci	-10.139
▁Europa	-10.139
▁First	-10.139
▁înțeles	-10.1392
▁device	-10.14
▁ajutorul	-10.1406
▁clădire	-10.141
▁communities	-10.1411
▁decizii	-10.1412
▁existe	-10.1413
lig	-10.1418
pune	-10.142
▁mintea	-10.142
▁wish	-10.1421
esti	-10.143
▁North	-10.1431
▁grafic	-10.1431
▁numim	-10.1431
▁permis	-10.1431
▁haven	-10.1434
▁wind	-10.1435
bun	-10.1436
▁grade	-10.1444
▁national	-10.1444
▁offer	-10.1446
▁putting	-10.1448
▁mergem	-10.1453
▁cărți	-10.1456
ft	-10.1457
▁sisteme	-10.1458
▁luptă	-10.1461
▁vision	-10.1467
▁electronic	-10.1469
tăm	-10.1485
ook	-10.1487
▁scară	-10.1487
▁prison	-10.1492
▁ultima	-10.1496
▁Har	-10.1499
▁închei	-10.1504
▁block	-10.1508
▁părți	-10.1511
▁village	-10.1512
▁zona	-10.1513
▁link	-10.1515
▁bigger	-10.1517
▁Cr	-10.1519
get	-10.152
▁globală	-10.1521
▁Prima	-10.1523
▁lips	-10.1529
▁sell	-10.1531
ging	-10.1533
▁pop	-10.1536
▁reasons	-10.1538
▁banii	-10.1542
▁object	-10.1543
▁mări	-10.1551
▁wait	-10.1554
▁slow	-10.1559
ane	-10.1566
▁month	-10.1566
▁writing	-10.1573
▁attack	-10.1574
▁universal	-10.1575
▁interiorul	-10.1584
▁sector	-10.1585
▁flow	-10.1587
▁camp	-10.1589
▁Chinese	-10.1594
rtu	-10.1599
▁lose	-10.1602
▁punctul	-10.1607
▁store	-10.161
▁cut	-10.1616
ători	-10.1616
No	-10.1618
▁totuși	-10.1619
▁groups	-10.162
▁involved	-10.1625
▁pictures	-10.1627
▁drag	-10.1629
▁several	-10.1635
▁gri	-10.1637
▁urmări	-10.1647
abilă	-10.1648
▁atac	-10.1649
▁exemple	-10.1656
▁regulă	-10.1656
▁voastră	-10.1656
▁întâi	-10.1656
▁meaning	-10.1658
tia	-10.1664
▁tăi	-10.1666
▁molecule	-10.1671
▁Pământ	-10.1672
▁Don	-10.1674
▁Pri	-10.1675
▁enorm	-10.1676
▁agree	-10.1677
▁account	-10.1677
lon	-10.1682
nat	-10.1693
▁oraș	-10.1699
▁informaţii	-10.1699
▁computers	-10.1702
▁designer	-10.1704
▁cresc	-10.1709
her	-10.171
▁Sun	-10.1714
▁simplă	-10.1718
▁becomes	-10.172
!"	-10.1722
irea	-10.1723
▁private	-10.1724
duce	-10.1726
▁Every	-10.1738
▁spui	-10.1743
bar	-10.1747
▁printr	-10.1752
gram	-10.1754
seră	-10.1755
▁fight	-10.1758
▁died	-10.1761
▁grupuri	-10.1772
▁rece	-10.1774
ced	-10.1818
ã	-10.1823
▁West	-10.1824
▁altfel	-10.1824
▁coast	-10.1827
▁stick	-10.1828
▁director	-10.1831
▁Cha	-10.1833
▁urmare	-10.184
▁feed	-10.1841
▁Pol	-10.1844
▁Twitter	-10.1844
▁zonă	-10.1844
▁natura	-10.1848
▁răspunde	-10.1849
▁şti	-10.185
▁cover	-10.1861
▁gro	-10.1861
▁Fiecar	-10.1866
▁sea	-10.189
▁părea	-10.1898
▁imaginea	-10.19
▁diferită	-10.1902
▁speed	-10.1908
▁wa	-10.1914
▁univers	-10.1915
▁semn	-10.1917
▁foc	-10.1917
▁drugs	-10.1926
▁înțeleg	-10.1927
▁medicine	-10.1932
▁aplica	-10.1934
▁tr	-10.1935
▁term	-10.1944
pot	-10.1945
▁condus	-10.1951
▁diverse	-10.1958
▁sent	-10.1961
▁societate	-10.1963
▁Who	-10.1969
▁aren	-10.197
bat	-10.197
ability	-10.1972
▁wall	-10.1982
▁câștig	-10.1985
▁reală	-10.1988
▁bra	-10.199
▁drumul	-10.1991
▁scientific	-10.1993
▁higher	-10.1997
Ce	-10.1999
▁train	-10.2004
▁invit	-10.2012
▁hole	-10.2013
▁nine	-10.2013
▁artificial	-10.2015
lut	-10.2016
▁puncte	-10.2024
▁factor	-10.2027
▁tale	-10.2048
▁discut	-10.2051
▁structura	-10.2058
▁profesor	-10.2073
▁energia	-10.2079
▁buc	-10.2081
▁walking	-10.2085
▁explica	-10.2089
▁articol	-10.2101
▁breath	-10.2101
▁discover	-10.211
▁moduri	-10.2116
▁automat	-10.2117
peri	-10.2125
lan	-10.2128
▁primele	-10.2128
▁tatăl	-10.2129
▁ingineri	-10.2131
▁prim	-10.2133
eni	-10.2134
▁evolution	-10.2144
▁americani	-10.2144
▁slide	-10.2145
ieni	-10.2148
▁cri	-10.215
atul	-10.2161
▁nation	-10.2161
▁Yes	-10.2163
▁Washington	-10.2166
▁neuro	-10.2167
▁rea	-10.2174
▁ir	-10.2178
▁atinge	-10.218
▁spa	-10.2182
han	-10.2196
▁cause	-10.22
▁gândi	-10.2208
▁spirit	-10.221
▁biggest	-10.221
▁făcând	-10.221
▁remain	-10.221
▁cuvânt	-10.2212
▁responsabil	-10.2212
▁motivul	-10.2212
▁ţări	-10.2222
nți	-10.2224
pec	-10.2227
▁singura	-10.2227
▁draw	-10.223
▁David	-10.2232
▁constant	-10.2243
▁povești	-10.2244
log	-10.2245
▁Fe	-10.2246
▁citit	-10.2248
▁presupune	-10.2249
▁further	-10.2255
▁precis	-10.2256
▁ver	-10.2263
▁Par	-10.2271
▁spital	-10.2272
▁permit	-10.2273
▁throw	-10.2276
▁tur	-10.2293
▁skin	-10.2295
▁stau	-10.2298
▁finding	-10.2301
nul	-10.2301
▁il	-10.2301
▁particularly	-10.2303
▁Tot	-10.2305
▁legat	-10.2315
lat	-10.2316
▁învăţat	-10.2317
▁moved	-10.2322
tory	-10.2326
▁nano	-10.2327
▁showing	-10.2334
▁anybody	-10.2342
▁college	-10.2342
▁afara	-10.2343
▁faţa	-10.2343
▁mile	-10.2346
▁cumva	-10.2354
▁After	-10.2365
▁park	-10.2365
▁nord	-10.2366
nos	-10.2366
▁vieţii	-10.2373
matic	-10.2378
▁parc	-10.2379
ene	-10.238
▁greșit	-10.2382
▁compassion	-10.2387
▁tânăr	-10.2387
▁servicii	-10.2387
▁quality	-10.239
▁genera	-10.2391
cel	-10.2391
ung	-10.2392
▁primi	-10.2393
▁War	-10.2399
▁procesul	-10.2403
▁price	-10.2403
▁stră	-10.2403
We	-10.2406
ada	-10.2406
pin	-10.2407
▁suferi	-10.2409
▁străin	-10.241
▁puternică	-10.2421
▁talent	-10.2425
▁politici	-10.2425
▁bărbați	-10.2427
▁ține	-10.2428
▁scop	-10.243
▁cheltui	-10.2431
▁bacteria	-10.2431
▁choose	-10.2431
▁născut	-10.2431
▁inteligent	-10.2431
▁amintesc	-10.2433
▁Tr	-10.2435
▁origin	-10.244
▁inventat	-10.2445
▁violence	-10.2454
▁Vor	-10.2464
▁socială	-10.2465
ismul	-10.2471
ified	-10.2474
▁sud	-10.2474
▁mijlocul	-10.2474
▁serie	-10.248
▁fotografie	-10.248
▁grad	-10.2489
▁simţi	-10.2497
▁prietenii	-10.2502
▁Nord	-10.2503
▁vadă	-10.2505
▁autism	-10.2506
▁count	-10.2507
▁defini	-10.251
▁adult	-10.2511
▁serve	-10.2515
▁schools	-10.2519
▁ieftin	-10.2521
▁siguranță	-10.2521
▁Ai	-10.2522
nzi	-10.2522
▁comunitate	-10.2522
▁male	-10.2531
▁dispozitiv	-10.2541
▁pan	-10.2542
▁direction	-10.2544
▁Even	-10.2545
▁sprijin	-10.2567
▁check	-10.2567
▁mână	-10.2567
▁supposed	-10.2574
▁integr	-10.2576
▁studii	-10.258
▁resurse	-10.258
ativ	-10.2584
▁crazy	-10.2589
▁positive	-10.2589
▁găsesc	-10.2589
eți	-10.2591
▁Gu	-10.2591
bia	-10.2593
▁named	-10.2598
▁altul	-10.2603
▁signal	-10.2605
▁poat	-10.2608
▁certainly	-10.261
izăm	-10.2611
▁poverty	-10.2612
▁prevent	-10.2612
▁rules	-10.2614
▁pregăti	-10.2619
ically	-10.262
▁Per	-10.2622
▁notice	-10.2628
sol	-10.2638
▁position	-10.2641
▁boy	-10.2642
rry	-10.2647
dent	-10.265
▁proiecte	-10.2656
▁area	-10.2657
▁bank	-10.2671
▁format	-10.2672
▁privire	-10.2679
▁centrul	-10.2681
▁cross	-10.2685
▁doresc	-10.2691
▁Asia	-10.2698
▁near	-10.27
▁exciting	-10.2704
▁măsura	-10.2704
rin	-10.2711
▁casa	-10.2719
work	-10.2722
▁Australia	-10.2727
▁imposibil	-10.2727
orul	-10.2733
▁connected	-10.2736
▁watching	-10.2738
▁aduc	-10.274
0,000	-10.2742
▁dance	-10.2742
▁largest	-10.2743
▁sport	-10.2744
▁cro	-10.2747
▁City	-10.2748
▁supraviețui	-10.275
▁bed	-10.2755
răm	-10.2759
▁letter	-10.2759
▁firm	-10.2763
▁echipa	-10.2769
▁elev	-10.277
▁politică	-10.2772
▁detail	-10.2774
nței	-10.2775
▁comunități	-10.2776
▁ideal	-10.2776
▁Că	-10.2778
▁lumi	-10.2778
▁aminte	-10.2778
zo	-10.2778
▁onto	-10.2793
ks	-10.2795
▁diagnostic	-10.2796
▁coral	-10.2798
▁uimitor	-10.28
▁brains	-10.2802
▁memory	-10.2803
net	-10.2804
▁demonstrat	-10.2804
▁independent	-10.2806
▁aceeaşi	-10.2807
▁uita	-10.281
▁jocuri	-10.2811
▁pattern	-10.2813
▁tipul	-10.2818
▁infect	-10.2819
▁everywhere	-10.282
▁povesti	-10.282
▁version	-10.282
▁tumor	-10.2821
▁enter	-10.2829
uși	-10.2838
ology	-10.2841
▁Che	-10.2841
▁restaurant	-10.2843
▁câţiva	-10.2843
▁bogat	-10.2846
▁allowed	-10.2851
▁nevoi	-10.2858
enţa	-10.286
▁nobody	-10.2866
▁democracy	-10.2866
▁tens	-10.2871
▁late	-10.2878
▁schimbarea	-10.288
▁eventually	-10.289
▁vostru	-10.289
▁pozitiv	-10.2891
▁shown	-10.2895
▁Unii	-10.2899
▁fer	-10.2903
ţiei	-10.2907
▁results	-10.291
▁tool	-10.2912
▁celălalt	-10.2913
▁protein	-10.2915
lea	-10.2919
▁pasă	-10.2924
▁devreme	-10.2937
▁circuit	-10.2937
▁ready	-10.2953
▁trai	-10.2958
part	-10.2958
▁dai	-10.296
Q	-10.296
▁individuals	-10.296
▁worse	-10.296
țele	-10.2961
▁affect	-10.2961
▁raport	-10.2964
▁decision	-10.2965
▁grew	-10.2966
ky	-10.2969
▁asculta	-10.2974
▁families	-10.2976
▁sol	-10.2979
▁faceți	-10.2979
▁artă	-10.2984
▁shift	-10.2984
nici	-10.2991
▁including	-10.2991
▁provin	-10.2994
▁continua	-10.3003
▁conce	-10.3005
▁celelalte	-10.3008
▁dragoste	-10.3008
▁fenomen	-10.3008
▁financiar	-10.3008
▁poveşti	-10.3008
▁Where	-10.3016
▁obviously	-10.3017
▁creează	-10.3018
▁core	-10.3018
▁Bun	-10.3024
ko	-10.3031
▁vârstă	-10.3031
▁milion	-10.3032
▁ştiinţă	-10.3032
▁Adică	-10.3034
▁sala	-10.3036
▁police	-10.3037
▁hour	-10.3039
▁colo	-10.304
▁rule	-10.304
▁lăsa	-10.3043
▁examples	-10.3046
abile	-10.3047
▁cod	-10.3051
▁require	-10.3053
▁verde	-10.306
▁objects	-10.3064
▁Cam	-10.3074
▁domeniul	-10.3078
▁totally	-10.3079
▁juca	-10.3081
lock	-10.3085
▁Most	-10.3089
▁chimic	-10.3104
▁training	-10.3108
▁poză	-10.3108
▁rock	-10.311
▁dreptate	-10.3116
ray	-10.3124
▁rezultate	-10.3125
▁plante	-10.3126
▁taught	-10.3127
▁Nigeria	-10.3127
▁chinez	-10.3127
til	-10.3129
▁extremely	-10.3137
▁Th	-10.3141
▁security	-10.3151
▁funcționa	-10.3151
▁chemical	-10.3157
▁teachers	-10.3167
▁mie	-10.3167
▁pace	-10.3168
▁organization	-10.317
▁mom	-10.317
▁meargă	-10.3175
▁coopera	-10.3175
▁scaun	-10.3175
▁fete	-10.3181
▁drop	-10.3181
▁rev	-10.3182
▁carry	-10.3185
▁privi	-10.3187
▁spin	-10.3198
▁grijă	-10.3199
▁disponibil	-10.3199
▁șase	-10.3201
▁asigur	-10.3201
▁stem	-10.3202
▁meeting	-10.3209
tine	-10.3214
▁lăsat	-10.3214
▁sky	-10.3215
▁picioare	-10.3216
▁address	-10.3223
▁Ti	-10.3225
▁destin	-10.323
▁aveţi	-10.323
▁metal	-10.323
▁traditional	-10.3234
ajul	-10.3236
bră	-10.3243
▁mountain	-10.3248
wn	-10.325
▁devină	-10.3252
▁reduc	-10.3265
▁oricine	-10.3272
▁fuel	-10.3275
▁stimul	-10.3278
▁teme	-10.3282
▁fotografii	-10.3287
iană	-10.3293
▁serious	-10.3295
▁respond	-10.3296
▁survive	-10.3296
▁Imagine	-10.3296
șe	-10.3299
▁km	-10.3307
pus	-10.3316
▁tehnic	-10.3317
▁blind	-10.3321
▁bodies	-10.3321
▁aștept	-10.3321
▁Today	-10.3323
▁wife	-10.3323
▁curând	-10.3323
▁Cât	-10.3346
rr	-10.3353
▁contract	-10.3358
▁leg	-10.336
ins	-10.3363
▁tax	-10.3364
pon	-10.3364
▁persoana	-10.337
▁protest	-10.3372
▁spaţiu	-10.3378
iti	-10.3381
▁interior	-10.3382
▁extraordinary	-10.3386
▁Arab	-10.3387
ităţi	-10.339
▁medie	-10.3391
▁african	-10.3395
▁active	-10.3403
▁trip	-10.3404
▁întoarce	-10.3409
▁solid	-10.3415
▁guvernul	-10.3422
▁essentially	-10.3424
▁suddenly	-10.3426
nie	-10.3436
▁spate	-10.3439
▁standing	-10.344
▁George	-10.3444
▁somewhere	-10.3444
▁vast	-10.3446
over	-10.3452
▁separate	-10.3453
Video	-10.3459
▁materials	-10.3468
▁conduc	-10.3469
▁caracter	-10.3469
▁religion	-10.3469
▁zbor	-10.3469
▁task	-10.347
▁peace	-10.3471
▁lower	-10.3473
▁emis	-10.3478
rează	-10.3485
▁starts	-10.3486
▁cloud	-10.3494
▁laugh	-10.3494
▁capăt	-10.3499
▁Cor	-10.3501
▁leaders	-10.3501
▁rol	-10.3509
▁Col	-10.3509
▁tree	-10.351
▁song	-10.3513
▁principle	-10.3519
▁implement	-10.3519
▁female	-10.3519
▁excited	-10.3519
▁component	-10.3519
▁urmează	-10.3519
▁remind	-10.352
▁durat	-10.3522
▁avion	-10.3522
nții	-10.3523
▁construim	-10.3524
▁reprezenta	-10.3526
▁thousand	-10.3526
▁mâncare	-10.3527
He	-10.3528
▁rezultat	-10.353
▁ghe	-10.353
▁legate	-10.3531
▁meant	-10.3533
asca	-10.3534
▁gr	-10.3543
▁îndrept	-10.3544
▁waste	-10.3546
▁Bill	-10.3549
my	-10.3552
▁intră	-10.3556
▁ball	-10.3558
▁înțelegem	-10.3559
▁East	-10.3561
odată	-10.3561
▁Fo	-10.3561
▁fu	-10.3562
▁bunch	-10.3566
▁floor	-10.3569
▁intrat	-10.3569
▁reading	-10.3579
▁Gra	-10.3579
▁minim	-10.3581
▁lupta	-10.3584
▁continu	-10.3588
▁faster	-10.3591
▁daughter	-10.3594
leg	-10.3595
▁făcute	-10.3596
▁întorc	-10.3605
▁plants	-10.3606
▁rele	-10.3608
▁US	-10.3617
▁negative	-10.3618
▁ţară	-10.3619
▁emerge	-10.3619
▁cartier	-10.3627
▁stele	-10.3636
▁Marte	-10.3639
▁jobs	-10.3639
▁prior	-10.3645
▁noapte	-10.3647
hy	-10.3653
atorii	-10.3658
▁crime	-10.3658
zon	-10.3667
▁maşini	-10.367
▁fusese	-10.367
▁buildings	-10.3675
▁cerc	-10.3677
▁propriile	-10.3686
▁celulele	-10.3692
▁plăcut	-10.3695
▁except	-10.3701
▁allows	-10.3709
▁ciuda	-10.3709
▁Ru	-10.3716
▁shot	-10.3721
▁stabil	-10.3724
▁analiza	-10.3724
▁critical	-10.3736
▁politic	-10.374
rim	-10.3742
▁orbit	-10.3742
Do	-10.3743
▁improve	-10.3745
▁Those	-10.3746
▁pod	-10.3749
act	-10.3766
▁rare	-10.3766
▁capacitatea	-10.377
▁famous	-10.3772
▁scenă	-10.3772
▁însemna	-10.3772
▁ajute	-10.3773
▁singurul	-10.378
▁rezolv	-10.3782
▁cerut	-10.3784
▁projects	-10.3796
▁joacă	-10.3797
▁uimitoare	-10.3798
▁window	-10.3798
rian	-10.3801
▁Vedeți	-10.3805
▁products	-10.3807
metri	-10.3809
▁terminat	-10.3813
sim	-10.3814
▁conditions	-10.3821
▁ajungem	-10.3822
▁happiness	-10.3823
▁teacher	-10.3827
▁strange	-10.3827
dia	-10.3844
▁creştere	-10.3846
▁mișcare	-10.3849
▁microscop	-10.3849
▁Până	-10.3849
▁Ke	-10.3853
lla	-10.3856
▁elimin	-10.386
▁provocare	-10.3867
▁wave	-10.3867
▁baz	-10.3868
▁mondial	-10.3875
▁înlocui	-10.3875
▁above	-10.3876
▁litera	-10.3878
▁emotional	-10.3878
▁alternative	-10.3894
▁tro	-10.3896
▁400	-10.3898
bit	-10.3899
▁State	-10.39
nger	-10.39
▁plăcea	-10.39
▁machines	-10.3902
ante	-10.3907
torilor	-10.3909
▁nebun	-10.3916
▁inclusiv	-10.3917
▁loved	-10.3923
▁esti	-10.3924
▁usually	-10.3929
▁patterns	-10.3933
istă	-10.3935
izate	-10.3939
ked	-10.3941
▁Steve	-10.3945
▁câmp	-10.3952
▁please	-10.3952
▁kept	-10.3952
▁okay	-10.3953
▁laptop	-10.3953
oarele	-10.3955
▁trees	-10.3956
▁ended	-10.3961
▁contain	-10.3979
tter	-10.3981
▁gata	-10.3985
▁mal	-10.3986
▁partner	-10.3988
▁military	-10.3988
▁trial	-10.3996
▁service	-10.3999
▁lege	-10.4004
▁echipă	-10.4005
▁complicated	-10.4009
numite	-10.4015
▁ship	-10.4021
▁2000	-10.403
▁bătrân	-10.4031
▁zilnic	-10.4031
▁capul	-10.4032
▁unit	-10.4037
este	-10.4041
▁range	-10.4047
curi	-10.4048
▁square	-10.4057
▁truly	-10.4057
▁serviciu	-10.406
▁anilor	-10.4071
▁acei	-10.4079
▁noştri	-10.4084
▁oriunde	-10.4084
▁engage	-10.4084
▁zeci	-10.4084
▁wealth	-10.4084
▁egal	-10.4087
▁glass	-10.4087
▁birou	-10.4087
▁bla	-10.4088
▁activity	-10.409
▁stress	-10.41
▁scăzut	-10.411
▁led	-10.4111
gon	-10.4113
▁explora	-10.4113
▁scar	-10.4119
▁robots	-10.4123
▁epi	-10.4125
▁older	-10.4135
▁enjoy	-10.4137
▁communication	-10.4137
▁rural	-10.4137
▁abordare	-10.4145
▁aparat	-10.4146
▁content	-10.4146
▁CO	-10.4147
▁finger	-10.4153
▁val	-10.4163
▁intelligence	-10.4163
▁Kenya	-10.4163
▁mix	-10.4165
▁jump	-10.4168
▁45	-10.4173
▁poze	-10.4177
bile	-10.4179
▁hârtie	-10.419
▁şcoală	-10.419
▁afford	-10.419
▁freedom	-10.419
▁rise	-10.4191
▁alive	-10.4192
▁transfer	-10.4193
▁apart	-10.4198
▁proteja	-10.42
▁necesar	-10.4204
▁transformă	-10.4206
▁genom	-10.4206
▁glu	-10.421
▁piele	-10.4211
▁international	-10.4217
▁lucrăm	-10.4217
▁informație	-10.4218
▁performance	-10.4218
▁cold	-10.4222
▁lungă	-10.4226
▁încercând	-10.4227
▁privind	-10.4228
hn	-10.4231
▁gândiți	-10.4233
▁larger	-10.4233
▁transformat	-10.4241
▁contribui	-10.4243
▁unique	-10.4244
▁killed	-10.4249
▁obține	-10.4249
▁întregi	-10.4254
▁mulțime	-10.4255
▁Aș	-10.426
▁săraci	-10.4262
pped	-10.4263
▁Una	-10.4265
ably	-10.427
itoare	-10.4274
▁imens	-10.428
▁genes	-10.4282
▁sală	-10.4282
ghi	-10.4282
board	-10.4293
▁impossible	-10.4297
▁oră	-10.4305
▁vremea	-10.4306
▁generat	-10.4307
▁board	-10.4312
▁particip	-10.4314
▁lesson	-10.4316
▁educat	-10.4318
▁investiga	-10.432
▁specie	-10.4321
▁stil	-10.4333
▁chip	-10.4336
▁lucrul	-10.4336
▁undeva	-10.4336
▁câştig	-10.4336
▁bloc	-10.4341
So	-10.4356
▁sin	-10.4356
face	-10.4361
▁modelul	-10.4364
ologi	-10.4366
▁solutions	-10.4368
▁Sha	-10.4375
▁anymore	-10.4379
▁săptămână	-10.4379
▁bărbaţi	-10.4379
▁architecture	-10.438
nţii	-10.438
▁boală	-10.4385
▁biologic	-10.4385
jo	-10.439
▁insect	-10.4393
▁apel	-10.4393
▁games	-10.4396
▁numere	-10.4397
term	-10.4399
▁victim	-10.4402
▁extreme	-10.4403
▁Mulţumesc	-10.4406
▁studies	-10.4406
▁National	-10.4406
▁indeed	-10.4408
▁conven	-10.4409
▁următoarea	-10.442
▁Min	-10.4421
▁întreba	-10.4422
▁Ph	-10.4423
▁aflăm	-10.4424
▁Paul	-10.4425
▁sincer	-10.4425
▁vulnerabil	-10.4433
▁scene	-10.4433
▁ras	-10.4436
▁somehow	-10.4437
▁circ	-10.4437
▁biology	-10.4439
▁organic	-10.4441
▁valoare	-10.4444
▁Chi	-10.4446
rew	-10.4446
▁Indian	-10.4447
▁calitate	-10.4447
yn	-10.4448
▁Ș	-10.4451
▁healthy	-10.4453
&	-10.4461
▁vreun	-10.4461
▁foot	-10.4465
▁reform	-10.4474
▁cadrul	-10.4476
▁privim	-10.4476
▁fond	-10.4477
▁învăța	-10.4479
▁purpose	-10.4488
▁Lucr	-10.4489
▁întreagă	-10.449
▁cultura	-10.449
▁skills	-10.4494
▁inima	-10.4497
aza	-10.4498
onează	-10.4502
▁planeta	-10.4506
pan	-10.4508
▁pieces	-10.451
pat	-10.4514
▁effort	-10.4516
▁policy	-10.4517
▁Like	-10.4521
▁dovedit	-10.4522
▁femeilor	-10.4528
▁qua	-10.4535
bb	-10.4536
▁financial	-10.4543
▁vârsta	-10.4543
▁criminal	-10.4543
▁Times	-10.4548
▁models	-10.4549
rk	-10.455
izată	-10.4556
▁concentrat	-10.4571
▁compasiune	-10.4571
▁făcută	-10.4572
▁waiting	-10.4577
rma	-10.4577
▁oferit	-10.4578
▁gal	-10.4586
▁150	-10.459
▁cases	-10.4591
▁siguranţă	-10.4599
▁wide	-10.4599
▁lună	-10.4599
▁35	-10.4599
▁humanity	-10.46
ake	-10.4608
▁Şti	-10.461
▁imaginați	-10.4612
▁implicat	-10.4617
una	-10.4618
▁vinde	-10.4624
▁University	-10.4629
▁numește	-10.463
▁Iran	-10.4636
▁oară	-10.4637
▁trăit	-10.4637
▁listening	-10.4637
▁obţine	-10.464
▁Cine	-10.464
▁asa	-10.4644
Da	-10.4645
▁cercetători	-10.4651
▁Alt	-10.4652
▁frumoasă	-10.4654
▁secunde	-10.4654
▁interesat	-10.4655
▁poll	-10.4655
▁chem	-10.4662
▁fizică	-10.4662
▁define	-10.4668
▁sunet	-10.4674
▁Hi	-10.4678
▁structuri	-10.4682
▁target	-10.4682
kin	-10.4683
▁His	-10.4708
▁muzică	-10.4711
▁interven	-10.4711
▁secolul	-10.4715
▁știi	-10.4715
inţa	-10.4716
▁puteau	-10.4719
▁întreg	-10.4719
▁plec	-10.4724
▁Asa	-10.473
▁bri	-10.4732
▁town	-10.4734
▁aștepta	-10.4738
▁physics	-10.4739
▁serios	-10.4739
▁becoming	-10.4739
▁Cre	-10.474
▁măr	-10.474
▁sentiment	-10.4747
▁dub	-10.475
lay	-10.4751
▁paint	-10.4755
▁upon	-10.4759
▁effective	-10.476
▁lideri	-10.4762
our	-10.4776
ji	-10.478
zii	-10.478
▁Dan	-10.4782
▁viziune	-10.4795
▁massive	-10.48
▁ideile	-10.4801
▁decisions	-10.4802
ional	-10.4809
▁decade	-10.4809
▁rezultatul	-10.4811
▁ridic	-10.4817
▁fit	-10.4823
▁maşină	-10.4824
▁descrie	-10.4824
rag	-10.4836
▁străzi	-10.4839
▁combin	-10.4841
▁Part	-10.4848
▁smaller	-10.4852
▁aspecte	-10.4852
▁cunoaște	-10.4852
▁MIT	-10.4852
▁concentra	-10.4852
▁brother	-10.4853
nch	-10.4854
▁raise	-10.4855
▁complete	-10.4856
cii	-10.4858
▁cook	-10.4858
▁mergi	-10.486
▁comunitatea	-10.4865
▁transmite	-10.4865
▁bin	-10.4866
▁neuroni	-10.4866
icii	-10.487
▁alerg	-10.487
▁dincolo	-10.4875
▁îmbunătăți	-10.4881
▁indivizi	-10.4881
▁significant	-10.4881
▁written	-10.4881
▁Deoarece	-10.4881
▁mecanism	-10.4881
▁ambele	-10.4882
▁series	-10.4886
▁Look	-10.4887
stră	-10.4891
hu	-10.4897
▁burn	-10.4903
▁spot	-10.4903
▁interesante	-10.4905
▁Tra	-10.4905
aking	-10.4907
▁earlier	-10.4909
▁expensive	-10.4909
▁studenți	-10.4909
▁worry	-10.4909
▁wild	-10.491
craft	-10.4914
▁cantitate	-10.4915
▁geo	-10.4916
▁publice	-10.4917
▁Sper	-10.492
▁tub	-10.4921
▁folosite	-10.4924
▁greatest	-10.4928
▁magazine	-10.4929
▁larg	-10.4932
▁următorul	-10.4936
▁Harvard	-10.4938
▁Israel	-10.4938
▁Mc	-10.4942
▁cărţi	-10.4945
media	-10.4947
▁doctors	-10.496
▁lines	-10.496
▁scopul	-10.4962
▁distruge	-10.4964
pac	-10.4965
▁abstract	-10.4967
▁charge	-10.4967
▁crisis	-10.4968
▁electro	-10.4969
▁institutions	-10.4969
▁mişcare	-10.4971
▁scrii	-10.4974
▁current	-10.4984
▁actor	-10.4987
▁părţi	-10.4991
onul	-10.4995
▁linie	-10.4998
▁învăţa	-10.5005
bal	-10.5007
▁cop	-10.5012
ough	-10.5016
▁slab	-10.5027
▁transforma	-10.5028
▁press	-10.5029
▁vorbea	-10.5037
▁band	-10.5038
▁moarte	-10.5039
▁rata	-10.5049
▁iei	-10.5052
▁picior	-10.5055
anta	-10.5061
▁Bar	-10.5063
▁filme	-10.5063
ologie	-10.5063
▁nas	-10.5071
cap	-10.5077
▁creez	-10.5079
dimensional	-10.508
▁timpului	-10.5081
▁math	-10.5082
ruct	-10.5082
▁temperature	-10.5083
▁beauty	-10.5083
▁Americans	-10.5085
▁alți	-10.5087
▁atent	-10.5092
▁Wal	-10.5092
▁obiectiv	-10.5097
▁tells	-10.5105
▁NASA	-10.5112
▁enormous	-10.5114
▁electricity	-10.5118
off	-10.5131
▁Ci	-10.5132
▁camere	-10.5134
▁75	-10.5136
▁preț	-10.5138
▁painting	-10.5141
▁Richard	-10.5142
▁experiență	-10.5142
▁Probabil	-10.5142
▁şase	-10.5143
▁noroc	-10.5144
▁memorie	-10.5146
▁microbi	-10.5149
▁career	-10.515
antă	-10.5154
▁transmit	-10.5159
▁integrat	-10.516
care	-10.5168
▁Afghanistan	-10.5171
▁Problema	-10.5171
▁anywhere	-10.5171
▁mănânc	-10.5171
▁diver	-10.5172
aging	-10.5172
▁neurons	-10.5175
▁conecta	-10.5179
▁stars	-10.518
▁vaccin	-10.5185
▁citizens	-10.5192
▁construct	-10.5192
bling	-10.5195
▁shared	-10.5196
▁treaba	-10.5201
▁sfârșitul	-10.5201
▁ieşi	-10.5201
▁pressure	-10.5202
▁cheap	-10.5202
▁propriul	-10.5204
▁interesantă	-10.5207
▁environmental	-10.5208
▁posibilitatea	-10.521
▁uită	-10.5211
▁programe	-10.5212
▁secol	-10.5215
inta	-10.5228
▁unelte	-10.5233
▁race	-10.5242
▁values	-10.525
▁clearly	-10.5253
▁uriaș	-10.526
▁dangerous	-10.5261
▁reveni	-10.5262
▁Încă	-10.5263
▁income	-10.5263
tatea	-10.5264
▁existat	-10.5272
▁points	-10.5275
▁efectiv	-10.5277
▁efort	-10.5278
▁productiv	-10.5282
▁decades	-10.5285
▁combina	-10.529
▁prosper	-10.529
▁weren	-10.5298
▁mânca	-10.5305
▁fail	-10.5308
▁ajutat	-10.5312
▁preda	-10.5317
▁rain	-10.5319
▁permanent	-10.5319
▁honest	-10.5319
▁driving	-10.5319
▁Second	-10.532
▁oarecum	-10.532
▁corner	-10.5322
▁cunosc	-10.5332
▁puternice	-10.5332
▁curent	-10.5335
▁cartea	-10.5337
▁useful	-10.5338
cious	-10.5348
▁hair	-10.5348
▁Știți	-10.5349
▁neighborhood	-10.535
ium	-10.5351
▁linia	-10.5351
▁numeşte	-10.5353
▁monitor	-10.5353
▁plecat	-10.5357
▁Darwin	-10.5357
▁player	-10.5366
▁combustibil	-10.5379
▁evalua	-10.538
▁determina	-10.538
▁river	-10.538
iene	-10.5381
▁base	-10.5381
▁walked	-10.5381
▁immediately	-10.5383
▁vecin	-10.5383
▁demand	-10.5388
▁forget	-10.5389
▁stai	-10.5389
▁distra	-10.5391
▁bag	-10.5394
▁lumini	-10.5404
▁trade	-10.5407
▁himself	-10.541
▁stradă	-10.541
iere	-10.541
▁stres	-10.5411
▁afacere	-10.5415
▁0	-10.5426
▁sand	-10.5426
▁emotions	-10.5427
▁feluri	-10.5437
▁voastre	-10.544
▁țara	-10.544
▁Puteți	-10.544
▁instance	-10.544
▁amestec	-10.5441
▁medicament	-10.5442
▁supra	-10.5445
▁trick	-10.5446
▁Univers	-10.5451
mentul	-10.5464
▁curaj	-10.5467
▁babies	-10.547
▁degrabă	-10.547
▁pacienți	-10.547
▁indiferent	-10.5471
▁educație	-10.5472
▁singuri	-10.5475
▁master	-10.5478
▁mulţime	-10.5479
▁weight	-10.5486
▁biological	-10.5487
▁bus	-10.549
▁mesaj	-10.5495
▁cumpăra	-10.5495
▁dramatic	-10.5499
▁algorithm	-10.55
▁studiat	-10.5505
▁obvious	-10.5519
mine	-10.5521
▁politics	-10.5523
▁laws	-10.5528
▁științific	-10.5531
▁drink	-10.5531
▁pal	-10.5532
▁redus	-10.5538
▁semnificativ	-10.5541
▁economică	-10.5548
▁urmat	-10.5551
ături	-10.5552
▁match	-10.5566
▁remarcabil	-10.5566
▁ţi	-10.5568
▁greater	-10.557
▁vârf	-10.5573
▁forth	-10.5574
▁roll	-10.5575
▁treia	-10.5583
▁Unde	-10.5586
▁opri	-10.5586
▁levels	-10.559
▁apply	-10.559
▁influence	-10.5592
▁tissue	-10.5592
▁sfârșit	-10.5593
▁bone	-10.5595
▁infinit	-10.5599
▁scoate	-10.5607
▁helped	-10.561
dis	-10.5615
▁workers	-10.5619
▁Cei	-10.5622
▁Congres	-10.5623
▁organizations	-10.5623
▁interview	-10.5624
▁tran	-10.5625
▁treilea	-10.5628
▁sorts	-10.5629
▁deși	-10.5633
▁express	-10.5639
▁noua	-10.5642
▁trata	-10.5652
▁principiu	-10.5654
▁fata	-10.5657
▁qu	-10.5657
▁sunteţi	-10.5659
▁sad	-10.5668
▁mutat	-10.5674
▁Many	-10.5677
▁random	-10.5685
▁Ideea	-10.5686
▁elibera	-10.569
▁brand	-10.569
▁personaj	-10.5696
▁comportamentul	-10.5703
▁asocia	-10.5705
▁strat	-10.5709
▁event	-10.5711
▁corpului	-10.5716
▁simbol	-10.5716
▁secundă	-10.5716
▁communicate	-10.5716
▁hartă	-10.5716
▁hol	-10.5717
▁dig	-10.5722
▁teaching	-10.5729
▁ascult	-10.5743
▁speech	-10.5747
▁Another	-10.5747
▁molecular	-10.5747
▁închisoare	-10.5748
▁minds	-10.575
▁willing	-10.5751
▁throughout	-10.5753
▁pie	-10.5754
gat	-10.5754
▁challenges	-10.5755
▁Cal	-10.576
range	-10.5771
▁ultim	-10.5773
▁glob	-10.5776
tare	-10.5777
▁method	-10.5778
▁mistake	-10.5778
▁culturi	-10.5779
▁termin	-10.5779
▁collective	-10.5782
▁ţin	-10.5789
▁noaptea	-10.5806
▁Einstein	-10.581
▁London	-10.581
▁entuziasm	-10.581
▁puzzle	-10.581
▁yeah	-10.581
▁Vest	-10.5811
▁Los	-10.5812
▁limba	-10.5813
imp	-10.5816
▁forms	-10.582
▁services	-10.5821
▁catch	-10.5823
▁fabric	-10.5828
▁înalt	-10.5832
▁costs	-10.5837
▁sculpt	-10.584
atoare	-10.584
▁birth	-10.5841
▁particule	-10.5841
▁facultate	-10.5842
▁ştie	-10.5852
▁obișnuit	-10.5854
▁orașe	-10.5855
▁multiple	-10.586
▁militar	-10.5861
▁types	-10.5865
▁ignora	-10.5868
▁sănătatea	-10.5869
▁22	-10.5871
▁Instead	-10.5873
▁trouble	-10.5873
▁domeniu	-10.5874
▁arta	-10.5876
▁gaz	-10.5883
▁governments	-10.5891
▁engineering	-10.5892
▁invers	-10.5899
▁vânt	-10.5905
▁Francisco	-10.5905
▁gain	-10.5905
▁Big	-10.5906
▁ştii	-10.5907
▁purta	-10.5908
▁expand	-10.5908
▁spunând	-10.5915
▁industria	-10.5922
▁professional	-10.5925
▁organiza	-10.5934
▁pacienţi	-10.5936
▁studenţi	-10.5936
▁cuvântul	-10.5936
▁violent	-10.5941
▁heat	-10.595
▁indica	-10.5954
▁diseases	-10.5958
▁curat	-10.5962
▁instrumente	-10.5963
▁știam	-10.5964
▁academic	-10.5968
▁păcate	-10.5968
activ	-10.5971
▁vieţi	-10.5988
▁rights	-10.5988
▁Two	-10.6
▁client	-10.6
▁capture	-10.6
▁feedback	-10.6
▁manual	-10.6001
▁voie	-10.6001
▁summer	-10.6002
▁altor	-10.6004
▁matematică	-10.6015
▁urc	-10.6017
▁rezultatele	-10.6019
▁abia	-10.602
▁vorbind	-10.6024
uff	-10.6031
▁terrible	-10.6032
▁various	-10.6036
▁linii	-10.6036
▁descoperi	-10.6037
ude	-10.604
▁făcea	-10.6042
▁folos	-10.6049
▁quick	-10.6052
▁nerv	-10.6055
▁Her	-10.6055
▁muri	-10.6059
▁Aveam	-10.6062
▁import	-10.6064
▁înţelegem	-10.6064
▁hotărât	-10.6064
▁therefore	-10.6064
▁cauză	-10.6064
shed	-10.6073
▁mission	-10.6074
▁colleagues	-10.6078
▁gândire	-10.6078
▁nor	-10.6083
▁publicat	-10.6085
▁describe	-10.609
night	-10.6095
▁vehicle	-10.6096
▁Which	-10.6096
▁Iraq	-10.6096
▁pădure	-10.6096
▁chestii	-10.6098
▁viitoare	-10.6099
▁preferat	-10.61
▁frică	-10.6106
▁production	-10.611
▁plăti	-10.6113
In	-10.6115
▁generate	-10.6118
▁comunica	-10.6119
▁dezvoltarea	-10.6119
▁proiectul	-10.6125
▁lansat	-10.6125
▁vină	-10.6128
▁afraid	-10.6129
▁understood	-10.6129
▁dovezi	-10.6129
atorul	-10.6131
▁politice	-10.6131
▁interaction	-10.6141
▁atmosphere	-10.6142
▁layer	-10.6143
▁bacterii	-10.6161
▁straight	-10.6161
▁spoke	-10.6161
▁option	-10.6161
▁totuşi	-10.6161
▁failure	-10.6163
▁natură	-10.6163
▁condition	-10.6164
▁păduri	-10.6166
▁schimbe	-10.6166
▁copilul	-10.6171
▁copaci	-10.6172
▁înţeleg	-10.6178
▁Ab	-10.6186
▁dezvoltă	-10.6191
▁relationships	-10.6192
▁lip	-10.6194
▁landscape	-10.6194
▁descurc	-10.6194
▁clasa	-10.6194
▁determine	-10.6194
▁greşit	-10.6194
▁relații	-10.6196
▁Gal	-10.6196
late	-10.62
▁cart	-10.62
▁migra	-10.6203
▁robotic	-10.6207
▁autor	-10.6212
▁planete	-10.6213
▁călătorie	-10.6218
hand	-10.6226
▁ascuns	-10.6226
▁scump	-10.6227
▁centru	-10.6227
▁declar	-10.6227
▁pilot	-10.6227
▁hotel	-10.6231
▁închis	-10.6233
▁regi	-10.6233
▁democratic	-10.6234
▁putin	-10.6235
don	-10.6251
▁speaking	-10.6254
▁experimente	-10.6256
▁antibiotic	-10.6259
▁iubesc	-10.6259
▁telefoane	-10.6259
▁cercetări	-10.6259
▁scriu	-10.6259
▁custom	-10.626
▁cântec	-10.6262
▁semnal	-10.6266
ify	-10.6266
▁flying	-10.6272
▁rid	-10.6276
▁Ok	-10.6277
▁plină	-10.6278
▁schimbăm	-10.6284
▁neighbor	-10.6292
▁harm	-10.6297
▁gun	-10.63
▁following	-10.6301
▁mâinile	-10.6318
▁limbi	-10.6319
▁Art	-10.6324
▁oportunitate	-10.6325
▁recunoaște	-10.6325
▁remarkable	-10.6325
▁feature	-10.6325
▁pericol	-10.6325
▁funcţiona	-10.6325
▁Western	-10.6325
▁dad	-10.6325
▁versiune	-10.6326
▁filmul	-10.6329
lim	-10.634
▁fug	-10.6344
▁dreptul	-10.6345
▁crearea	-10.6345
▁masa	-10.6354
▁maxim	-10.6355
▁experiences	-10.6356
▁economia	-10.6358
▁distance	-10.6358
▁cultură	-10.6358
▁dorit	-10.6362
Am	-10.6369
oid	-10.6388
▁worst	-10.6391
▁double	-10.6391
▁zece	-10.6392
oşi	-10.6394
▁înţeles	-10.6395
▁choices	-10.6399
▁loss	-10.6402
▁circle	-10.641
▁uitați	-10.6418
▁înăuntru	-10.6425
▁earth	-10.6425
▁folosească	-10.6426
▁engleză	-10.6427
anți	-10.6434
▁societatea	-10.6438
▁prezint	-10.6444
▁întregul	-10.6447
▁minunată	-10.6448
▁station	-10.6453
▁judec	-10.6453
▁$	-10.6456
▁imi	-10.6457
▁Majoritatea	-10.6458
▁ceilalți	-10.6458
▁satellite	-10.6458
▁Nimeni	-10.6458
▁intampla	-10.6458
▁membri	-10.6458
▁gândeam	-10.6458
▁vizita	-10.6459
ese	-10.6459
▁broken	-10.6466
▁King	-10.6469
▁alţii	-10.6471
olog	-10.6474
▁comunicare	-10.6477
▁demonstra	-10.6481
berg	-10.6488
▁although	-10.6492
▁destroy	-10.6492
▁technique	-10.6492
▁potențial	-10.6492
▁belief	-10.6492
▁Tom	-10.6492
▁școli	-10.6492
▁ritm	-10.6492
▁clasă	-10.6492
▁calculatoare	-10.6493
▁complexe	-10.6497
▁legs	-10.6503
▁durere	-10.6503
▁repet	-10.6505
▁parteneri	-10.6516
ency	-10.6516
▁Mari	-10.6518
▁trage	-10.6519
▁ahead	-10.652
▁bineînțeles	-10.6525
▁disappear	-10.6525
▁avantaj	-10.6525
▁diagram	-10.6525
▁relevant	-10.6525
▁Amazon	-10.6525
▁schi	-10.6527
ranj	-10.6527
▁From	-10.6528
▁alătur	-10.6529
▁directly	-10.6532
▁toxic	-10.6534
▁ocupa	-10.6548
▁merită	-10.655
▁habitat	-10.6554
▁chirurg	-10.6559
▁perspectivă	-10.6559
▁divide	-10.6559
▁click	-10.6559
▁sample	-10.6559
▁Canada	-10.656
▁edge	-10.6561
▁sick	-10.6562
▁apropiat	-10.6564
▁intern	-10.6567
▁bro	-10.6568
▁Medic	-10.657
▁calea	-10.6573
▁boys	-10.6577
▁sistemului	-10.6583
▁creeze	-10.6584
▁ţine	-10.6584
▁petrec	-10.6586
▁struggle	-10.6593
▁malaria	-10.6593
▁metode	-10.6593
▁renunț	-10.6593
▁99	-10.6597
cum	-10.6598
▁primesc	-10.66
▁Your	-10.6601
▁oh	-10.6602
▁credit	-10.6609
▁arte	-10.6619
right	-10.6619
mite	-10.6622
▁societies	-10.6627
▁television	-10.6627
▁familii	-10.6629
▁inspirat	-10.663
▁porn	-10.6632
rând	-10.6636
▁highly	-10.6637
▁bear	-10.6641
labor	-10.6642
▁comunităţi	-10.6646
▁fat	-10.6646
▁universul	-10.6648
▁sister	-10.6657
▁gravit	-10.6658
▁identity	-10.6661
▁Ăsta	-10.6661
▁Street	-10.6661
▁Think	-10.6661
▁cortex	-10.6661
▁sărăcie	-10.6661
▁admit	-10.6667
▁ram	-10.6671
▁capabili	-10.6672
▁beings	-10.6675
▁passion	-10.6679
▁Mare	-10.6683
▁rug	-10.6685
▁saving	-10.6687
▁wants	-10.6688
▁industrie	-10.6695
▁plâng	-10.6695
▁manipula	-10.6695
▁dioxid	-10.6695
▁profound	-10.6696
▁attract	-10.6697
▁rămân	-10.6699
▁noticed	-10.6702
▁considerat	-10.6708
licit	-10.671
▁seconds	-10.6712
▁răspunsuri	-10.6712
rog	-10.6715
▁hai	-10.6727
▁iubi	-10.6728
▁cutie	-10.673
▁galaxie	-10.673
▁manifest	-10.673
▁perspectiva	-10.673
▁structură	-10.673
▁suflet	-10.673
▁climb	-10.673
▁depinde	-10.673
▁James	-10.673
▁oraşe	-10.6731
▁soare	-10.6732
▁administr	-10.6734
▁publică	-10.6736
▁creativity	-10.6736
▁diet	-10.6738
▁miliard	-10.6742
▁compete	-10.6743
▁genome	-10.675
▁ultimel	-10.6752
▁cancerul	-10.6755
▁ziar	-10.6756
▁effects	-10.6757
▁cognitive	-10.6762
▁Desigur	-10.6764
▁ingredient	-10.6764
▁supravieţui	-10.6764
▁damage	-10.6764
▁realitatea	-10.6766
▁reguli	-10.6767
▁colectiv	-10.6775
▁animalele	-10.6777
▁lovit	-10.6785
olo	-10.6787
cher	-10.6793
▁adevărul	-10.6796
▁hate	-10.6799
▁sentence	-10.6799
▁2008	-10.6803
▁mess	-10.6805
▁replace	-10.6805
▁closer	-10.6806
▁gand	-10.6807
▁anyway	-10.6808
▁toţii	-10.6821
▁ieși	-10.683
▁absorb	-10.6834
▁dynamic	-10.6834
▁husband	-10.6834
▁infrastructure	-10.6834
▁slightly	-10.6834
▁faith	-10.6834
▁securitate	-10.6834
▁helping	-10.6835
▁stopped	-10.6836
▁wh	-10.6837
▁simula	-10.6839
▁rolul	-10.6841
▁implica	-10.6844
▁invented	-10.6845
▁published	-10.6848
▁23	-10.6856
▁Inter	-10.6862
▁vote	-10.6865
▁frumoase	-10.6868
▁studio	-10.6868
▁aceleași	-10.6869
▁dimension	-10.6872
agă	-10.6881
▁Ştiţi	-10.6881
▁omor	-10.6884
▁greutate	-10.6891
izeze	-10.6892
▁preţ	-10.6893
▁studia	-10.6899
▁oxigen	-10.6903
▁conference	-10.6903
▁gather	-10.6903
▁dedicat	-10.6907
▁knows	-10.6919
▁sînt	-10.6919
▁alegeri	-10.6924
tune	-10.6926
▁ajut	-10.6927
▁European	-10.6927
ney	-10.693
▁gă	-10.6933
▁Charles	-10.6938
▁dimensiuni	-10.6938
▁easily	-10.6939
▁argue	-10.6939
▁declin	-10.694
▁prezentat	-10.6945
▁convinge	-10.6947
▁pack	-10.695
ek	-10.6955
▁ajungă	-10.696
▁ridica	-10.6963
▁equal	-10.6966
How	-10.6968
▁circula	-10.6968
▁părinţi	-10.6974
▁muta	-10.6975
▁conserv	-10.6977
▁differently	-10.698
▁veche	-10.6982
ienii	-10.6985
versa	-10.699
▁liceu	-10.6991
▁Comp	-10.6992
▁causes	-10.7004
ţei	-10.7006
▁Sam	-10.7009
▁Ch	-10.7009
▁Michael	-10.7009
▁possibly	-10.7009
▁peisaj	-10.701
▁gap	-10.701
▁trup	-10.7012
▁conform	-10.7016
▁sună	-10.702
▁altcineva	-10.7045
▁cycle	-10.7045
▁grămadă	-10.7045
▁iPhone	-10.7045
▁dying	-10.7045
▁cerebral	-10.7045
înt	-10.7045
▁graduate	-10.7045
▁oricare	-10.7047
▁mostly	-10.7048
▁dupa	-10.7049
Music	-10.7051
▁următorii	-10.7052
▁Great	-10.7057
▁informaţie	-10.7057
▁sunete	-10.7058
▁clima	-10.7066
▁grand	-10.7068
▁psiholog	-10.7071
▁arme	-10.7074
▁metodă	-10.708
▁mister	-10.708
▁opus	-10.708
▁îndepărtat	-10.708
▁detalii	-10.708
▁prove	-10.7084
Rasete	-10.7084
▁păsări	-10.7085
▁desire	-10.7086
▁eveniment	-10.7088
▁fă	-10.7094
▁reuşit	-10.7112
▁ritual	-10.7116
▁Imaginați	-10.7116
flu	-10.7116
▁aleg	-10.7118
▁fotografia	-10.7123
▁dinamic	-10.7125
▁relativ	-10.7129
▁members	-10.7135
▁campaign	-10.7152
▁distribui	-10.7152
▁fragment	-10.7152
▁instinct	-10.7152
▁bought	-10.7152
▁sequence	-10.7152
▁stătea	-10.7159
▁regulat	-10.7171
▁nearly	-10.7171
▁demo	-10.7171
▁acoperi	-10.7181
▁occur	-10.7186
▁Aş	-10.7188
▁astronom	-10.7188
▁addition	-10.7188
▁amuzant	-10.7188
▁symbol	-10.7188
▁consult	-10.7188
▁spiritual	-10.7188
▁colegii	-10.7191
▁căsători	-10.7193
▁paid	-10.7194
▁proiectat	-10.7195
It	-10.7199
▁protej	-10.7208
▁extinde	-10.7208
▁aştept	-10.7215
▁ridică	-10.7224
▁oxygen	-10.7224
▁versus	-10.7224
▁easier	-10.7224
▁below	-10.7225
▁imagination	-10.723
▁election	-10.7233
▁culori	-10.7235
lot	-10.7241
▁acelor	-10.7249
▁Dis	-10.7258
▁dispărut	-10.726
▁anticip	-10.726
▁smell	-10.726
▁scientist	-10.7286
▁Alzheimer	-10.7296
▁bridge	-10.7297
▁celulă	-10.7299
▁enable	-10.7304
▁vibra	-10.7304
▁miss	-10.7305
▁investment	-10.7305
▁streets	-10.731
▁țările	-10.732
▁trend	-10.7321
▁prezentare	-10.7329
▁surgery	-10.7333
▁capacity	-10.7333
▁remove	-10.7333
▁avoid	-10.7333
▁gay	-10.7334
▁Boston	-10.7334
▁aware	-10.7335
▁miros	-10.7335
▁tough	-10.7336
▁fair	-10.7336
▁pornit	-10.7341
▁creștere	-10.7344
▁Ur	-10.7351
▁engine	-10.7355
▁accelera	-10.7356
▁elemente	-10.7365
▁Over	-10.7367
▁cuvintele	-10.7368
▁băieți	-10.7369
▁absolv	-10.7369
▁shock	-10.737
▁provocări	-10.7371
▁balance	-10.7371
▁lack	-10.7372
▁entrepreneur	-10.7373
▁Life	-10.7376
▁scr	-10.7379
▁Ber	-10.7383
▁evolved	-10.7383
▁devices	-10.7389
▁ten	-10.7393
▁missing	-10.7394
50	-10.7396
▁threat	-10.7397
▁seemed	-10.7406
▁Angeles	-10.7406
▁dumneavoastră	-10.7406
▁soft	-10.741
pping	-10.7413
▁rețele	-10.7418
▁inspired	-10.7422
▁spect	-10.7422
▁gândiţi	-10.7424
Ma	-10.7427
▁abilitatea	-10.7427
▁asigura	-10.7433
▁mono	-10.7436
▁echilibr	-10.7443
▁responsibility	-10.7443
▁switch	-10.7443
▁twice	-10.7443
▁aid	-10.7444
▁2010	-10.7444
▁având	-10.7446
▁cumpărat	-10.7448
▁servi	-10.7459
▁respectiv	-10.7463
▁hang	-10.7475
▁encourage	-10.748
▁abandon	-10.748
▁zbura	-10.748
▁convins	-10.748
▁credeți	-10.7484
▁medicale	-10.7484
▁mouse	-10.7486
▁curb	-10.7499
▁beat	-10.7501
▁obișnui	-10.7503
▁conectat	-10.7508
▁simțit	-10.751
▁angaja	-10.7515
▁surprising	-10.7517
▁populație	-10.7517
▁supply	-10.7517
▁held	-10.752
▁concur	-10.7521
▁modific	-10.7524
ană	-10.753
▁10,000	-10.7534
▁inspira	-10.7539
▁societăți	-10.7555
▁stupid	-10.7555
▁îngrijora	-10.7555
▁șapte	-10.7555
▁Frank	-10.7555
▁identitate	-10.7555
▁giant	-10.7555
▁vertical	-10.7555
▁outcome	-10.7556
▁național	-10.7556
ațiile	-10.7558
▁profesori	-10.7559
stitution	-10.7562
▁wood	-10.7564
▁gla	-10.7564
▁vital	-10.7565
▁propriu	-10.7566
▁regim	-10.7576
ologist	-10.7584
▁Toți	-10.7585
▁gold	-10.7591
▁muscle	-10.7592
▁strength	-10.7592
▁traffic	-10.7592
▁tremendous	-10.7592
▁deosebit	-10.7592
▁shark	-10.7592
▁vroia	-10.7592
▁sfârşitul	-10.7592
▁gol	-10.7597
▁blow	-10.7597
▁arate	-10.7598
▁magnetic	-10.7602
▁foto	-10.7603
▁albine	-10.7603
▁părere	-10.761
▁hearing	-10.761
▁limbaj	-10.7617
▁host	-10.7619
▁gotten	-10.7621
▁programs	-10.7624
▁select	-10.7627
▁multor	-10.7628
▁parent	-10.7629
▁telescop	-10.763
▁shoot	-10.763
▁Uneori	-10.763
▁sharing	-10.763
▁analog	-10.763
▁afectează	-10.7632
▁basis	-10.7632
▁impuls	-10.7634
▁globale	-10.7634
▁regular	-10.7637
▁trimit	-10.7637
▁magazin	-10.7642
▁grea	-10.7644
▁telefonul	-10.7646
▁grab	-10.7649
▁mid	-10.765
▁munci	-10.765
▁recunosc	-10.765
▁utiliza	-10.765
Why	-10.7658
▁experiențe	-10.7667
▁joy	-10.7668
▁transmis	-10.7668
▁party	-10.7669
▁Acești	-10.767
▁veget	-10.767
▁abuz	-10.7671
▁zicem	-10.7671
▁tehnologiei	-10.7673
▁Island	-10.7674
▁definition	-10.7679
▁secolului	-10.7684
▁focused	-10.7691
▁Pământul	-10.7693
▁Daca	-10.7695
▁răspund	-10.7697
▁answers	-10.7698
▁albastru	-10.7705
▁ştiinţific	-10.7705
▁droguri	-10.7705
▁teorie	-10.7706
▁folosită	-10.7707
▁analiză	-10.7709
▁controlul	-10.7714
▁passed	-10.7719
▁zonele	-10.7728
▁istoric	-10.7729
▁Gre	-10.774
▁coffee	-10.7743
▁zgomot	-10.7743
▁hormon	-10.7743
▁despite	-10.7743
▁comercial	-10.7743
▁regret	-10.7743
▁lucrări	-10.7743
▁echipe	-10.7743
▁article	-10.7744
▁convert	-10.7745
▁regiune	-10.7745
vest	-10.7745
▁experiments	-10.7748
▁drawing	-10.7748
▁Ben	-10.7755
▁identifica	-10.7756
▁wire	-10.7763
colo	-10.7764
▁neuron	-10.7766
é	-10.7781
▁bineînţeles	-10.7781
▁strategie	-10.7781
▁ancient	-10.7782
▁weapon	-10.7782
▁mărimea	-10.7783
▁recover	-10.7783
▁accesibil	-10.7784
▁Martin	-10.7787
▁formula	-10.7788
▁boat	-10.7788
▁implică	-10.7788
▁planets	-10.7791
▁sensul	-10.7793
▁Hai	-10.7794
▁cărui	-10.7796
▁chest	-10.7803
▁crezi	-10.7806
▁played	-10.7811
▁caut	-10.7811
▁întâmple	-10.782
▁Mondial	-10.782
▁crowd	-10.782
▁chair	-10.782
▁Încerc	-10.782
▁hip	-10.7824
▁sustainable	-10.7824
oxi	-10.7825
▁operation	-10.7829
▁forța	-10.783
▁noise	-10.7831
▁pește	-10.7834
not	-10.7834
▁lucrurilor	-10.7835
▁reaction	-10.7835
▁angajat	-10.7836
▁primii	-10.7837
▁scurtă	-10.7842
▁consumer	-10.7843
▁piese	-10.7846
▁informa	-10.7849
indu	-10.785
▁simț	-10.7857
▁naviga	-10.7858
▁deplas	-10.7858
▁teoria	-10.7859
▁Anderson	-10.7859
▁finanț	-10.7859
▁mesaje	-10.7859
▁modalitate	-10.7859
▁Paris	-10.7861
▁reţea	-10.7862
ătorii	-10.7867
▁dorim	-10.7871
În	-10.7876
▁Brazil	-10.7877
20	-10.7881
▁familiei	-10.7881
▁termeni	-10.7882
tron	-10.7887
▁pian	-10.7887
▁cântă	-10.789
▁forces	-10.7893
▁evoluat	-10.7897
▁viteza	-10.7897
▁Știm	-10.7897
▁funny	-10.7899
▁bucată	-10.7903
▁regenera	-10.7904
▁Green	-10.7904
▁molecules	-10.7907
▁atomi	-10.791
▁studying	-10.792
▁mechanism	-10.7936
▁băiat	-10.7936
▁fascinant	-10.7936
▁classroom	-10.7936
▁correct	-10.7937
▁networks	-10.7938
▁Islam	-10.7941
▁lucky	-10.7942
▁venea	-10.7945
30	-10.7946
▁fully	-10.7946
▁introduc	-10.7955
▁masiv	-10.7957
metric	-10.7957
well	-10.7961
Ș	-10.7964
chin	-10.7965
▁factori	-10.7968
▁suit	-10.797
▁commercial	-10.7975
▁Obama	-10.7975
▁application	-10.7975
▁conștient	-10.7975
▁vehicul	-10.7975
▁distinct	-10.7975
▁diversity	-10.7975
▁pagini	-10.7975
▁entirely	-10.7976
▁mortal	-10.7979
▁cuiva	-10.798
▁1,000	-10.7982
▁Spune	-10.7985
fel	-10.7992
▁Gene	-10.7992
▁colegi	-10.7993
▁oprit	-10.8002
▁quote	-10.8012
▁British	-10.8014
▁Pacific	-10.8014
▁claim	-10.8014
▁încălzi	-10.8014
▁court	-10.8015
▁particles	-10.8016
▁procent	-10.8022
▁minor	-10.8027
▁trist	-10.8027
▁complexity	-10.8028
▁naturale	-10.8029
▁improv	-10.8033
▁medic	-10.8038
▁moon	-10.8038
▁cup	-10.8039
▁avans	-10.8041
▁faceţi	-10.8046
▁benzi	-10.8048
▁Any	-10.805
▁border	-10.8052
▁Chicago	-10.8053
▁emoții	-10.8053
▁Astăzi	-10.8053
▁plane	-10.8056
▁fill	-10.8058
▁lucrare	-10.8063
▁viata	-10.8064
▁Avea	-10.8064
▁motion	-10.8067
▁separat	-10.8072
▁Web	-10.8073
▁privit	-10.8073
▁driver	-10.8074
▁Han	-10.8075
▁produced	-10.8078
ption	-10.8083
▁organizat	-10.8084
▁cânt	-10.8088
▁raised	-10.8089
▁Ko	-10.809
▁studiez	-10.8092
▁bottle	-10.8092
▁civilization	-10.8094
var	-10.8094
▁rap	-10.8094
▁medicală	-10.8095
▁efficient	-10.8095
▁benefit	-10.8097
▁flux	-10.8098
▁minun	-10.8101
▁ecologic	-10.8106
▁Brazilia	-10.8112
▁carne	-10.8121
▁Totul	-10.8121
▁aceștia	-10.8122
▁electricitate	-10.8127
▁labor	-10.8127
▁Pakistan	-10.8132
▁dimensiune	-10.8132
▁opportunities	-10.8132
▁opposite	-10.8132
▁GPS	-10.8132
▁depression	-10.8132
▁implant	-10.8132
▁foame	-10.8133
▁weird	-10.8134
▁lift	-10.8136
▁bărbații	-10.814
▁management	-10.814
▁adevăr	-10.8145
list	-10.8147
▁costum	-10.8148
grad	-10.8149
izez	-10.815
▁taste	-10.8162
▁pasiune	-10.8164
▁plat	-10.8169
▁employ	-10.8171
▁background	-10.8171
▁mașina	-10.8171
▁president	-10.8171
▁găsească	-10.8171
▁vorbească	-10.8171
▁Russia	-10.8172
▁mecanic	-10.8172
▁estimate	-10.8173
head	-10.8174
▁dreams	-10.8176
▁perete	-10.8185
tati	-10.8187
▁numi	-10.8188
▁privat	-10.8189
aţiile	-10.8205
▁spending	-10.8208
▁companiile	-10.8209
▁differences	-10.8209
▁YouTube	-10.8211
▁neagră	-10.8211
▁chain	-10.8212
▁memor	-10.8212
▁gust	-10.8213
▁diversitate	-10.8215
▁optimist	-10.8219
▁făceau	-10.8234
position	-10.8242
▁benefits	-10.8246
▁ajungi	-10.8247
▁Actually	-10.8251
▁naturii	-10.8251
▁perioada	-10.8251
▁Muslim	-10.8251
▁Sometimes	-10.8251
▁consciousness	-10.8253
▁prof	-10.8265
▁pig	-10.8265
▁acelui	-10.8268
resc	-10.8269
▁justice	-10.827
▁reward	-10.8271
▁părinții	-10.8273
▁marketing	-10.8275
▁notion	-10.8275
wh	-10.828
▁ski	-10.8281
This	-10.8281
▁copie	-10.8288
▁liberal	-10.8291
▁urge	-10.8291
▁engineer	-10.8291
▁Qu	-10.8291
▁ecosystem	-10.8291
▁tehnologic	-10.8291
▁Foarte	-10.8291
▁adevarat	-10.8291
▁states	-10.8293
▁However	-10.8295
▁sunetul	-10.8295
▁optim	-10.8296
▁acelei	-10.8297
▁planetei	-10.831
▁ape	-10.8311
▁Unele	-10.8315
▁laser	-10.8315
▁adevărată	-10.8318
cru	-10.8319
Cum	-10.8319
izați	-10.8319
▁necesare	-10.8319
▁ies	-10.832
▁lit	-10.8328
▁gest	-10.8329
▁transplant	-10.8332
▁ciclu	-10.8333
▁designers	-10.8335
▁patent	-10.8343
▁suffer	-10.8348
▁fată	-10.8348
win	-10.8348
▁poet	-10.8355
▁none	-10.8359
▁Ya	-10.8362
▁cald	-10.8364
▁Gândiți	-10.8372
▁economist	-10.8372
▁religious	-10.8372
▁Știu	-10.8372
▁conduct	-10.8372
▁flight	-10.8375
▁Gro	-10.8379
▁alegere	-10.8379
▁degrees	-10.8382
▁presiune	-10.8383
▁picioarele	-10.8385
ilia	-10.8389
gar	-10.8393
▁Universitate	-10.8394
▁romantic	-10.8398
▁minunate	-10.8408
▁autonom	-10.8412
▁golf	-10.8413
▁Wikipedia	-10.8413
▁ador	-10.8414
▁mâini	-10.8422
▁credeam	-10.8423
▁respira	-10.8425
▁alături	-10.8427
▁tinere	-10.8429
▁oare	-10.8435
▁lemn	-10.8439
based	-10.8441
▁responsible	-10.8454
▁domestic	-10.8454
▁crucial	-10.8454
▁000	-10.8455
▁Azi	-10.8455
▁lucreze	-10.8456
▁roof	-10.8457
▁knowing	-10.847
▁fascinat	-10.8471
urge	-10.8475
▁replica	-10.8475
▁învăț	-10.8477
▁Pământului	-10.8478
▁promise	-10.8479
▁Park	-10.8479
hood	-10.8487
▁salt	-10.8488
▁favor	-10.8495
▁stuck	-10.8495
▁Înainte	-10.8495
▁influenţ	-10.8495
▁leadership	-10.8495
▁trafic	-10.8495
▁Fin	-10.8504
▁educaţie	-10.8505
▁continuat	-10.8506
▁economice	-10.8509
▁forever	-10.851
▁Tim	-10.8511
▁minți	-10.8521
▁identific	-10.8522
▁simpli	-10.8524
▁ştiam	-10.8528
▁author	-10.8533
▁experienţă	-10.8536
▁necessarily	-10.8536
▁şapte	-10.8536
▁mouth	-10.8536
▁seat	-10.8537
▁făceam	-10.854
▁întâlni	-10.8541
▁mediului	-10.8544
▁27	-10.8545
▁PM	-10.8556
▁ordine	-10.8559
▁luna	-10.857
nor	-10.8571
▁continuare	-10.8574
▁artists	-10.8574
▁chose	-10.8578
▁păstra	-10.858
▁apei	-10.8583
▁aflu	-10.8588
▁Red	-10.8597
▁pana	-10.8603
▁Pur	-10.8605
▁copac	-10.8612
▁stranger	-10.8616
state	-10.8617
▁monkey	-10.8619
▁museum	-10.8619
▁possibility	-10.8619
▁remote	-10.8619
▁Puteţi	-10.8619
▁Again	-10.8619
▁sursă	-10.8619
▁Apple	-10.8619
▁decenii	-10.8619
▁Center	-10.8619
▁adaug	-10.8619
rci	-10.8619
▁Mulți	-10.8619
dding	-10.8626
▁flower	-10.8637
▁finish	-10.8638
▁porni	-10.8646
hop	-10.865
cade	-10.865
place	-10.8653
▁identify	-10.866
▁situație	-10.866
▁proud	-10.8661
▁atenție	-10.8661
▁munte	-10.8663
▁root	-10.8663
glo	-10.8667
▁Take	-10.8673
▁surprise	-10.8676
▁creșterea	-10.8681
life	-10.8683
▁orașul	-10.8689
▁deeply	-10.8693
▁Pat	-10.8693
▁Middle	-10.8702
▁ecosistem	-10.8702
▁confirm	-10.8702
▁nisip	-10.8702
▁dvs	-10.8702
▁atenția	-10.8703
▁graph	-10.8703
▁lent	-10.8707
▁island	-10.8709
▁norm	-10.8713
▁majority	-10.8716
▁frustrat	-10.8722
▁pună	-10.8724
▁zilele	-10.8726
▁pregătit	-10.8731
▁ocup	-10.8734
▁rost	-10.8737
tech	-10.8741
▁architect	-10.8743
▁principii	-10.8744
▁strategy	-10.8744
▁emoţi	-10.8744
▁refuz	-10.8744
▁rețea	-10.8745
▁cifre	-10.8745
▁radia	-10.8745
▁eating	-10.8747
▁reale	-10.875
▁emotion	-10.8757
▁Korea	-10.8757
▁somn	-10.8759
▁starea	-10.8764
▁convers	-10.8769
▁intri	-10.8776
▁600	-10.8777
▁cast	-10.8779
înd	-10.8782
▁agent	-10.8785
▁narrative	-10.8786
▁yellow	-10.8786
▁recuper	-10.8786
▁legături	-10.8787
▁desert	-10.8788
▁inceput	-10.8788
mark	-10.8795
▁senzori	-10.8798
▁turning	-10.88
▁ph	-10.8802
▁tata	-10.8802
▁locale	-10.8804
▁manage	-10.8812
▁râs	-10.8827
▁experiența	-10.8829
▁Londra	-10.8829
▁teenage	-10.8829
▁titlu	-10.883
▁bright	-10.8831
▁sensibil	-10.8832
▁ultimately	-10.8836
▁echipament	-10.8837
▁fals	-10.8837
▁simţ	-10.8842
▁poem	-10.8846
▁opened	-10.8851
▁vaccine	-10.8851
▁reuși	-10.8856
▁acid	-10.8857
▁Cele	-10.8858
rrow	-10.8863
▁Vede	-10.887
meter	-10.8871
▁Britanie	-10.8871
▁advantage	-10.8871
▁adăpost	-10.8871
▁competition	-10.8871
▁technical	-10.8871
▁asistent	-10.8871
▁gift	-10.8871
▁iubire	-10.8872
▁Good	-10.8872
▁climatice	-10.8872
▁minut	-10.8872
▁atins	-10.8873
▁gender	-10.8875
▁Pan	-10.8875
▁Adam	-10.8877
▁crească	-10.8881
▁compared	-10.8883
▁promis	-10.8889
▁meters	-10.889
▁orașului	-10.8896
▁arata	-10.8901
▁importantly	-10.8902
▁viețile	-10.8902
wood	-10.8904
▁exprim	-10.8906
▁limitat	-10.8913
▁Thomas	-10.8914
▁marriage	-10.8914
▁diabet	-10.8914
▁gândești	-10.8916
▁îndoi	-10.8931
▁holding	-10.894
▁vârful	-10.894
▁răni	-10.8941
▁urme	-10.8942
▁figured	-10.8942
nny	-10.895
▁exercise	-10.8957
▁galben	-10.8957
▁empower	-10.8957
▁lichid	-10.8957
▁fold	-10.8963
▁Lab	-10.8964
▁Joe	-10.8964
▁repeat	-10.8966
▁aştepta	-10.8967
▁parcă	-10.8971
▁jurnal	-10.8973
▁susține	-10.8974
▁tradition	-10.898
▁Ver	-10.898
▁expression	-10.8981
▁suffering	-10.8983
▁evenimente	-10.8992
▁journalist	-10.8996
▁extend	-10.9
▁novel	-10.9003
▁translate	-10.9003
▁apuc	-10.9004
asă	-10.9004
40	-10.9005
▁university	-10.9006
▁perception	-10.9007
▁warm	-10.9021
▁fabrica	-10.9022
▁vocea	-10.9027
▁engineers	-10.9038
▁invizibil	-10.9043
▁airplane	-10.9043
▁disorder	-10.9043
▁club	-10.9043
▁distrus	-10.9044
▁jucător	-10.9044
▁invitat	-10.9045
▁conving	-10.9046
▁2007	-10.9048
Y	-10.9054
▁adults	-10.9066
▁braț	-10.9067
▁înregistra	-10.9069
▁alţi	-10.9069
▁artistic	-10.9071
▁structures	-10.9073
cina	-10.908
▁îngrijire	-10.9084
▁neapărat	-10.9087
▁professor	-10.9087
▁transparent	-10.9087
▁Valley	-10.9087
▁întunecat	-10.9087
ccording	-10.9087
▁antrena	-10.9087
▁vreți	-10.9087
▁debate	-10.9088
▁știința	-10.9089
▁whale	-10.9089
▁pin	-10.9089
▁inject	-10.9092
▁pair	-10.9096
▁drepturile	-10.9101
▁belong	-10.9101
▁fluid	-10.9103
▁birds	-10.911
▁tind	-10.9119
▁partener	-10.912
That	-10.912
▁calitatea	-10.9121
test	-10.9122
▁sigură	-10.9123
▁individ	-10.913
▁metaphor	-10.913
▁situația	-10.913
▁studied	-10.913
▁depozit	-10.9131
▁hurt	-10.9131
▁alimente	-10.9132
izări	-10.9132
▁informația	-10.9133
▁More	-10.9134
▁May	-10.9137
▁beneficii	-10.9137
▁cancerului	-10.9138
▁farmers	-10.9138
▁practică	-10.9139
▁Sal	-10.9139
▁believed	-10.9152
▁biologie	-10.9152
▁edit	-10.9152
intelige	-10.9154
cît	-10.9159
▁locurile	-10.9165
▁beneficia	-10.9168
▁simţit	-10.917
▁asemănător	-10.9174
▁fashion	-10.9174
▁instala	-10.9177
jur	-10.9181
erial	-10.9184
▁interesează	-10.9185
▁truck	-10.9187
▁fairly	-10.9188
▁dormi	-10.9195
▁listă	-10.9198
▁spațiul	-10.9203
▁reprezentat	-10.9206
▁Internetul	-10.9206
▁Since	-10.9208
town	-10.9214
▁French	-10.9218
▁vol	-10.9218
▁vizibil	-10.9218
▁Japan	-10.9219
▁imaginaţi	-10.922
▁rapidă	-10.922
fund	-10.9222
gging	-10.9234
▁descoperire	-10.9243
▁events	-10.9252
▁descoperiri	-10.9254
▁englez	-10.9259
▁Afganistan	-10.9263
▁musulman	-10.9263
▁foreign	-10.9263
▁sticlă	-10.9263
▁instant	-10.9265
▁drone	-10.9267
▁trecem	-10.9267
▁premiu	-10.9269
▁cunoștințe	-10.9271
▁stream	-10.9272
▁marine	-10.9274
▁due	-10.9275
▁anual	-10.9282
▁uitaţi	-10.9289
▁mini	-10.9293
▁vieți	-10.9298
▁statistici	-10.9301
▁conscious	-10.9305
▁intelectual	-10.9307
▁paradigm	-10.9307
▁condiții	-10.9307
▁Robert	-10.9307
▁decizie	-10.9307
▁gratuit	-10.9308
▁crash	-10.9308
▁Wh	-10.9308
▁lungi	-10.931
▁ieșit	-10.9312
▁cânta	-10.9317
▁omul	-10.9318
ential	-10.9319
▁eliminat	-10.9334
▁formează	-10.934
▁iron	-10.934
▁dinner	-10.9344
▁manager	-10.9349
▁walls	-10.9351
▁attempt	-10.9352
▁volunteer	-10.9352
▁lăsăm	-10.9352
▁breast	-10.9352
▁ilustr	-10.9352
Muzică	-10.9352
▁kilometri	-10.9352
▁voci	-10.9353
▁imprim	-10.9354
▁oricum	-10.9354
▁2009	-10.9355
▁educa	-10.9358
▁dispozitive	-10.9358
▁obținut	-10.9361
▁întoarcem	-10.9371
▁ecolog	-10.9372
▁apropie	-10.9377
▁Vin	-10.9384
▁profil	-10.9384
▁limbă	-10.9388
▁Zi	-10.9394
▁mișcă	-10.9394
▁domn	-10.9395
▁persoanele	-10.9395
▁componente	-10.9396
▁împărtăși	-10.9397
▁pagină	-10.9397
▁învață	-10.9397
▁copilărie	-10.9397
▁căutăm	-10.9397
▁childhood	-10.9398
▁adună	-10.94
▁necesită	-10.94
▁teamă	-10.9405
▁everyday	-10.9405
▁voce	-10.9414
▁incredibilă	-10.9415
▁mamă	-10.9419
▁tolera	-10.9435
▁înconjur	-10.944
▁tradițional	-10.9442
▁brilliant	-10.9442
▁diploma	-10.9442
▁exterior	-10.9442
▁previous	-10.9442
▁treabă	-10.9442
▁împiedic	-10.9442
▁ascund	-10.9442
▁strâns	-10.9442
▁şcoli	-10.9442
▁leaving	-10.9442
▁dress	-10.9442
▁admir	-10.9443
▁broad	-10.9445
▁boala	-10.9446
▁merit	-10.9447
▁mâncarea	-10.945
▁discovery	-10.9466
bro	-10.9468
▁operate	-10.9468
▁Mor	-10.9472
▁degree	-10.9476
▁stabilit	-10.9485
▁bubble	-10.9487
▁roboți	-10.9487
▁arhitectura	-10.9488
▁reveal	-10.9488
▁combine	-10.9489
▁BG	-10.9502
▁acceler	-10.9503
▁Did	-10.9509
▁moartea	-10.951
▁avansat	-10.9512
source	-10.9515
▁dețin	-10.9521
raţi	-10.9522
▁faptului	-10.9524
▁ego	-10.9532
▁ignor	-10.9532
▁succeed	-10.9532
▁caught	-10.9532
▁esențial	-10.9532
▁întreabă	-10.9532
▁compania	-10.9532
▁fragil	-10.9532
▁disaster	-10.9532
▁creatures	-10.9532
▁depăși	-10.9533
▁scăpa	-10.9533
▁furnici	-10.9534
▁trained	-10.9536
▁spăl	-10.954
▁soil	-10.954
▁EM	-10.9541
▁creation	-10.9546
▁pierd	-10.9547
▁sistemele	-10.9553
iunii	-10.9555
▁Între	-10.9556
▁spaţiul	-10.9558
▁earn	-10.9564
▁tipar	-10.9567
path	-10.9567
▁stereo	-10.957
▁survey	-10.9578
▁necessary	-10.9578
▁săptămâna	-10.9578
▁viteză	-10.9578
▁soluție	-10.9578
▁materie	-10.9578
▁pounds	-10.9578
▁cheie	-10.9578
▁score	-10.958
▁wireless	-10.958
gust	-10.9584
▁Once	-10.9585
▁nurse	-10.9587
▁construiesc	-10.9589
▁medii	-10.9591
▁Jim	-10.9595
▁valoarea	-10.9608
▁afectat	-10.9616
ography	-10.9618
▁dollar	-10.9621
▁Sch	-10.9623
▁AIDS	-10.9624
▁plăcere	-10.9624
▁adunat	-10.9624
▁strâng	-10.9624
▁devastat	-10.9624
▁gunoi	-10.9624
▁battle	-10.9625
▁editor	-10.9628
▁Păi	-10.9634
▁altora	-10.9638
▁coal	-10.9638
▁x	-10.9641
▁weak	-10.9662
▁motivat	-10.9662
▁businesses	-10.9664
▁Tri	-10.9666
▁câine	-10.967
▁spectacol	-10.967
▁fresh	-10.967
▁preveni	-10.967
▁renunţ	-10.967
▁domenii	-10.967
▁Totuși	-10.9671
▁honor	-10.9671
▁Studi	-10.9674
▁organizații	-10.9674
▁alarm	-10.9687
▁resursele	-10.9689
▁înregistrat	-10.9689
▁insecte	-10.9693
▁hell	-10.9695
▁similare	-10.9698
▁activitate	-10.9699
▁writer	-10.97
▁typical	-10.9705
▁gaze	-10.9707
▁related	-10.9709
▁scena	-10.9711
▁mathematics	-10.9716
▁lunch	-10.9716
▁Lumea	-10.9716
▁promot	-10.9716
▁ultra	-10.9717
▁Ah	-10.9717
▁bill	-10.9718
▁palm	-10.972
▁impactul	-10.9725
plan	-10.9729
▁react	-10.9731
▁odd	-10.9738
▁constantly	-10.9741
▁geniu	-10.9741
▁Pal	-10.9743
▁leading	-10.9744
▁organize	-10.9745
▁cow	-10.975
▁sudden	-10.9752
▁institut	-10.9758
▁consequences	-10.9759
▁aceia	-10.9759
▁location	-10.9762
▁cetățeni	-10.9763
▁intellectual	-10.9763
▁Global	-10.9763
▁otherwise	-10.9763
▁extinct	-10.9763
▁cartoon	-10.9763
▁display	-10.9765
▁mențin	-10.9769
▁învățăm	-10.9769
▁wearing	-10.977
▁fighting	-10.9771
▁activist	-10.9774
▁fascinating	-10.9791
▁hacker	-10.9796
▁politica	-10.98
▁complexitate	-10.9807
▁Central	-10.9809
▁grandmother	-10.9809
▁televizor	-10.9809
▁sarcini	-10.9809
▁married	-10.981
▁cărora	-10.981
▁vase	-10.9814
▁2005	-10.9815
▁mame	-10.9816
▁trecută	-10.9822
▁capable	-10.9824
▁watched	-10.9827
▁finished	-10.9835
▁organisme	-10.9838
▁următoarele	-10.9841
▁ocupă	-10.9844
▁circa	-10.9844
▁School	-10.9856
▁dinozaur	-10.9857
▁receptor	-10.9857
▁interface	-10.9858
itățile	-10.9859
▁unfortunately	-10.9859
▁curve	-10.986
▁insight	-10.986
▁fum	-10.9868
▁colabora	-10.9869
▁rut	-10.9871
▁provocat	-10.9878
▁lipsa	-10.9885
▁counter	-10.9889
cop	-10.9893
▁programul	-10.9893
▁false	-10.9898
▁muncii	-10.9899
▁rezolvat	-10.9901
▁tent	-10.9902
▁volume	-10.9902
▁1990	-10.9904
▁soluții	-10.9904
▁sustenabil	-10.9904
▁mort	-10.9904
▁Odată	-10.9904
▁dozen	-10.9906
▁privește	-10.9907
▁Act	-10.9907
▁suport	-10.9908
▁Mr	-10.9909
▁smile	-10.991
▁Haiti	-10.9913
▁răspândi	-10.9925
▁mişcă	-10.9925
▁contrast	-10.9926
▁spuneau	-10.9931
room	-10.9934
▁Mary	-10.9934
▁German	-10.9935
▁65	-10.9938
▁mese	-10.9942
▁leader	-10.9945
▁procente	-10.9951
▁grip	-10.9951
▁dezvălui	-10.9951
▁fiecărui	-10.9951
▁îmbunătăţi	-10.9951
▁soluţii	-10.9951
▁autobuz	-10.9951
▁piață	-10.9951
▁horse	-10.9951
▁stone	-10.9955
▁aruncat	-10.9964
▁assume	-10.9965
▁poza	-10.9971
▁stoc	-10.9974
▁Mark	-10.9977
ologia	-10.9981
▁fonduri	-10.9984
▁poster	-10.9985
▁stran	-10.9999
▁Război	-10.9999
▁Texas	-10.9999
▁brusc	-10.9999
▁contribute	-10.9999
▁phenomenon	-10.9999
▁suprafață	-10.9999
▁acțiune	-10.9999
▁satisfac	-10.9999
▁hrană	-10.9999
▁eradica	-10.9999
▁invited	-11.0001
▁Singur	-11.0004
▁clinical	-11.0007
▁aerul	-11.0008
ificare	-11.0021
▁descris	-11.0021
▁emoțional	-11.0022
▁frame	-11.0022
▁matur	-11.0023
▁înaltă	-11.0025
▁omului	-11.0027
▁failed	-11.0035
▁imensă	-11.0036
▁Vrem	-11.0036
▁foundation	-11.0039
▁următoare	-11.0046
▁Microsoft	-11.0046
▁channel	-11.0046
▁străluci	-11.0046
▁hrăni	-11.0046
▁Fără	-11.0047
▁inegal	-11.0047
▁trillion	-11.0047
▁citesc	-11.0047
▁grown	-11.0051
▁Jack	-11.0054
▁lasă	-11.0057
0.000	-11.0057
▁mega	-11.0059
▁Acolo	-11.0059
▁tren	-11.006
▁tratat	-11.0064
▁researchers	-11.0065
▁described	-11.0086
▁fizice	-11.009
▁infra	-11.0093
▁Manhattan	-11.0095
▁potenţial	-11.0095
▁opinion	-11.0095
▁bread	-11.0095
▁Mama	-11.0098
▁termina	-11.0098
▁planific	-11.0113
▁shop	-11.0121
▁proprii	-11.0121
iștii	-11.0123
▁sunat	-11.0126
▁ascultă	-11.0127
▁largă	-11.0128
▁citat	-11.0132
▁continuu	-11.0134
▁compare	-11.0134
▁intuitiv	-11.0138
▁bolnav	-11.0143
▁cultiva	-11.0143
▁1980	-11.0144
▁intelligent	-11.0144
▁negativ	-11.0145
▁theater	-11.0148
▁comunică	-11.0153
ston	-11.0154
▁speaker	-11.0155
But	-11.0155
▁haine	-11.0161
▁limited	-11.0162
▁copy	-11.0163
▁flat	-11.0165
maker	-11.0168
▁verific	-11.0168
▁verb	-11.0171
▁naturală	-11.0175
▁”„	-11.0189
▁experienced	-11.019
▁Japonia	-11.0191
▁dinosaur	-11.0191
▁newspaper	-11.0191
▁symptom	-11.0191
▁invisible	-11.0191
▁populația	-11.0191
▁instrui	-11.0192
▁Întrebare	-11.0192
▁surse	-11.0192
▁folosește	-11.0193
▁north	-11.0207
▁250	-11.0211
▁concerned	-11.0213
▁bird	-11.0214
▁Will	-11.0215
▁launch	-11.022
▁26	-11.0221
bilă	-11.0229
▁proprie	-11.0232
▁insist	-11.0232
izării	-11.0233
▁scufund	-11.024
▁societăţi	-11.024
▁împrumut	-11.024
▁funcție	-11.024
▁Folosi	-11.024
▁alimentar	-11.024
▁naţional	-11.0242
▁sfat	-11.0244
▁Poţi	-11.0249
▁stadiu	-11.025
cide	-11.0257
chan	-11.026
▁currently	-11.026
▁status	-11.026
▁plate	-11.0261
▁release	-11.0265
▁daily	-11.0266
▁orienta	-11.0272
▁ring	-11.0274
▁bias	-11.0279
fully	-11.0287
▁SIDA	-11.0289
▁mathematical	-11.0289
▁worried	-11.0289
▁încuraja	-11.0289
▁Nobel	-11.0289
▁negru	-11.029
▁electron	-11.0291
▁round	-11.0292
▁distribution	-11.0295
▁înot	-11.0297
▁cafea	-11.0312
▁dezvolta	-11.0313
▁universului	-11.0317
▁sorry	-11.032
▁revin	-11.0323
▁capitalism	-11.0334
▁harder	-11.0337
▁galaxii	-11.0338
▁flexibil	-11.0338
▁folks	-11.0338
▁judge	-11.0338
▁naștere	-11.0339
▁cardiac	-11.0339
▁garden	-11.034
▁mișcări	-11.0341
nțele	-11.0344
▁privesc	-11.0345
▁followed	-11.0346
▁definit	-11.0348
▁treated	-11.0351
scale	-11.0352
spiration	-11.0357
▁nevoia	-11.0361
ământ	-11.0365
▁parcursul	-11.0366
▁managed	-11.0369
▁credeţi	-11.0374
power	-11.0378
▁closed	-11.0381
▁32	-11.0387
▁cunoaşte	-11.0388
▁Copiii	-11.0388
▁Rwanda	-11.0388
▁survival	-11.0388
▁hidden	-11.0388
▁șanse	-11.0388
▁soluţie	-11.0388
▁attach	-11.0389
▁pătrat	-11.0389
▁mark	-11.0397
▁laboratorul	-11.0399
▁caused	-11.0399
bio	-11.0401
▁discussion	-11.0404
▁highest	-11.0409
▁digitală	-11.0409
▁vremuri	-11.0418
▁iese	-11.042
▁începi	-11.0428
▁repara	-11.0429
point	-11.043
▁volum	-11.0437
▁dreaptă	-11.0438
▁equation	-11.0438
▁instituții	-11.0438
▁surprinzător	-11.0438
▁totdeauna	-11.0438
▁Ocean	-11.0438
▁quiet	-11.0438
▁muzeu	-11.0438
▁abuse	-11.0445
▁paying	-11.0448
▁exprima	-11.045
▁transformation	-11.0451
▁comment	-11.0453
▁perfectly	-11.0459
▁puls	-11.0465
▁călător	-11.0469
▁analize	-11.0471
▁implic	-11.0472
▁receive	-11.0474
▁prinde	-11.0479
▁stabili	-11.0479
▁sfârşit	-11.0487
▁accurate	-11.0488
▁ceilalţi	-11.0488
▁collapse	-11.0488
▁dimineața	-11.0488
▁internațional	-11.0488
▁Black	-11.0488
▁kilometers	-11.0488
▁crack	-11.0488
▁războiul	-11.0489
omb	-11.0491
▁wake	-11.0492
▁aduna	-11.0493
▁solară	-11.0494
▁alternativ	-11.05
▁considerare	-11.0501
▁uite	-11.051
▁părinți	-11.0511
▁pomp	-11.0513
▁slowly	-11.0516
▁tail	-11.0518
▁semnale	-11.052
▁tape	-11.0521
▁scap	-11.0521
▁misiune	-11.0523
▁Acel	-11.053
▁atitudine	-11.0538
▁filozof	-11.0538
▁relax	-11.0538
▁shoes	-11.0538
▁infant	-11.0539
▁priveşte	-11.0541
▁seară	-11.0541
▁hunt	-11.0544
▁știri	-11.0547
▁sentimente	-11.0548
▁rezolvăm	-11.0548
Şi	-11.055
If	-11.0552
▁caută	-11.0555
▁Very	-11.0559
▁relative	-11.0561
▁limbajul	-11.0562
▁sperăm	-11.0565
▁surprised	-11.057
▁considered	-11.0576
▁roman	-11.0579
▁antreprenori	-11.0582
stream	-11.0584
▁skill	-11.0588
▁refugi	-11.0588
▁suprafața	-11.0588
▁temperatura	-11.0588
▁brief	-11.0589
▁script	-11.0589
▁Sigur	-11.0589
▁1960	-11.059
▁losing	-11.059
▁2,000	-11.0597
▁operating	-11.0598
▁presu	-11.0603
▁Mult	-11.0607
▁row	-11.0613
▁interviu	-11.0614
▁received	-11.0615
▁Multe	-11.0619
▁rândul	-11.0619
nna	-11.0627
▁responsabilitat	-11.0634
▁acțiuni	-11.0639
▁budget	-11.0639
▁legătura	-11.0639
▁sacrific	-11.0639
▁suferă	-11.0639
▁piaţă	-11.0639
▁Ghana	-11.064
▁obişnui	-11.0644
▁taxe	-11.0644
▁myth	-11.0648
▁lifetime	-11.0653
▁ţările	-11.0662
▁advance	-11.0664
▁utilizatori	-11.0666
▁filled	-11.0671
Dacă	-11.0685
▁dezastru	-11.069
▁tropical	-11.069
▁apropo	-11.069
▁clasic	-11.069
▁adresa	-11.069
▁ordinary	-11.0691
▁comfortable	-11.0692
▁costă	-11.0692
▁processes	-11.0696
▁habit	-11.0699
▁mentioned	-11.0711
▁pricep	-11.0714
▁seara	-11.0719
active	-11.0722
▁coleg	-11.0722
▁curious	-11.0723
▁extraordinare	-11.0723
▁priviți	-11.0724
▁Stanford	-11.0742
▁confrunta	-11.0742
▁federal	-11.0742
▁accent	-11.0745
▁stați	-11.0749
▁albi	-11.075
▁brut	-11.0762
▁învățare	-11.0767
▁Mexico	-11.0767
▁unghi	-11.0769
▁coborâ	-11.077
▁concern	-11.0771
▁incep	-11.0772
▁exces	-11.0776
▁proven	-11.0778
oaie	-11.0779
▁obişnuit	-11.0788
▁Mijlociu	-11.0793
▁analysis	-11.0793
▁conținut	-11.0793
▁fossil	-11.0793
▁temporar	-11.0793
▁Înseamnă	-11.0793
▁Americii	-11.0793
▁official	-11.0793
▁lawyer	-11.0793
▁Three	-11.0794
ismului	-11.0796
▁buget	-11.0796
▁fosil	-11.0801
▁dry	-11.0801
▁strig	-11.0802
▁expected	-11.0804
▁broke	-11.0806
raj	-11.0813
▁reţele	-11.0817
▁seriously	-11.0818
▁involve	-11.0819
ografie	-11.0825
▁picked	-11.0826
▁grupul	-11.083
▁proteine	-11.0841
▁necunoscut	-11.0845
▁prototip	-11.0845
▁England	-11.0845
▁exchange	-11.0845
▁situaţie	-11.0845
▁prezice	-11.0845
▁error	-11.0845
Hey	-11.0848
▁existence	-11.0849
▁gang	-11.085
▁initial	-11.0852
▁tehnici	-11.0854
▁50%	-11.0859
▁Port	-11.0862
▁severe	-11.0862
▁lider	-11.0864
▁desk	-11.0864
▁Other	-11.0864
▁Have	-11.088
▁invention	-11.0887
▁deeper	-11.0892
▁reciproc	-11.0897
▁associated	-11.0897
▁equivalent	-11.0897
▁mirror	-11.0897
▁determină	-11.0897
▁roboţi	-11.0897
▁XX	-11.0897
▁guide	-11.0899
▁acceptat	-11.09
▁calm	-11.09
▁planning	-11.0903
▁informat	-11.0904
▁95	-11.0905
▁Vedeţi	-11.0909
▁fellow	-11.091
▁Germany	-11.091
▁riscuri	-11.091
▁shut	-11.0911
▁moderne	-11.0912
▁fetele	-11.0919
oasa	-11.092
▁launched	-11.0921
odata	-11.0929
▁libertate	-11.0931
▁necesară	-11.0938
▁memoria	-11.094
▁icon	-11.0941
▁calling	-11.0943
▁Africii	-11.0949
▁Trebuia	-11.0949
▁exploat	-11.0949
▁wisdom	-11.0949
▁distractiv	-11.0949
▁Doamne	-11.0949
▁maimuț	-11.095
▁concert	-11.0951
▁criză	-11.0952
▁safety	-11.0954
▁optic	-11.0963
▁Bang	-11.0971
▁grass	-11.0971
▁cord	-11.0975
▁răspândit	-11.0978
▁warming	-11.098
▁afecta	-11.0986
Yes	-11.1002
▁2011	-11.1002
▁diferențe	-11.1002
▁epidemic	-11.1002
▁Alex	-11.1009
▁primă	-11.1015
▁nave	-11.1016
▁Latin	-11.1026
▁hide	-11.1033
▁efecte	-11.1045
▁schimbările	-11.1045
▁lovi	-11.105
▁Fiindcă	-11.1055
▁echivalent	-11.1055
▁elephant	-11.1055
▁periculos	-11.1055
▁stood	-11.1055
▁supraveghe	-11.1055
▁îndeplin	-11.1055
▁membru	-11.1055
▁populaţie	-11.1055
▁poartă	-11.1055
▁uiţi	-11.1055
▁uiți	-11.1055
▁kick	-11.1055
▁1950	-11.1057
▁durabil	-11.1059
▁victime	-11.1063
▁chart	-11.1064
▁cauze	-11.1066
▁lansa	-11.1077
▁întrebăm	-11.1077
ification	-11.1079
▁plătit	-11.1081
▁pleca	-11.1084
far	-11.109
▁forced	-11.1091
▁opening	-11.1099
▁galaxy	-11.1108
▁doubt	-11.1108
▁illness	-11.1108
▁vândut	-11.111
▁nervous	-11.111
▁extract	-11.1114
▁demn	-11.1115
▁dădea	-11.1115
▁susțin	-11.1116
gged	-11.1119
asta	-11.1123
▁member	-11.1133
▁resource	-11.1138
▁Acela	-11.114
▁uz	-11.1141
▁vindeca	-11.1143
▁inginer	-11.1143
▁button	-11.115
▁peşti	-11.1157
house	-11.1159
▁arhitect	-11.116
▁susţin	-11.1161
▁ocazia	-11.1162
▁wheel	-11.1162
▁uriaş	-11.1162
▁maintain	-11.1162
▁ilegal	-11.1162
▁atenţie	-11.1163
▁cînd	-11.1163
▁weather	-11.1163
▁Trans	-11.1166
▁experimental	-11.1171
▁iasă	-11.1172
▁revel	-11.1173
▁electrical	-11.1174
▁wondering	-11.1176
rick	-11.1195
▁Super	-11.12
▁hall	-11.1205
▁jocul	-11.1205
▁south	-11.1211
▁alcătui	-11.1215
▁establish	-11.1215
▁asemănătoare	-11.1215
▁atmosferă	-11.1215
▁heavy	-11.1215
▁obstacol	-11.1215
▁pocket	-11.1215
▁caracteristici	-11.1215
▁treacă	-11.1215
▁piesă	-11.1217
▁rar	-11.1224
▁36	-11.1225
▁increasingly	-11.1226
how	-11.1227
▁gânduri	-11.1237
rab	-11.1243
rific	-11.1247
▁Matt	-11.125
▁cioc	-11.1254
▁riscul	-11.126
▁compromis	-11.1269
▁introdus	-11.1269
▁surprins	-11.1269
▁distanță	-11.1269
▁sălbatic	-11.1269
▁religie	-11.1269
▁empty	-11.1269
▁întinde	-11.127
▁apartament	-11.127
▁defect	-11.127
▁prag	-11.1275
▁bazează	-11.1277
Un	-11.1279
▁load	-11.128
ităţile	-11.128
▁venituri	-11.1285
▁sărac	-11.1288
▁rugat	-11.1291
▁participate	-11.1294
▁tipic	-11.1295
▁conducă	-11.13
▁fiction	-11.13
▁contextul	-11.1304
▁medita	-11.1304
▁blo	-11.1305
▁extraordinară	-11.1305
view	-11.1306
▁grav	-11.1306
▁Toat	-11.1307
▁braţ	-11.1312
gener	-11.1317
▁gram	-11.1318
▁Star	-11.1318
▁Observ	-11.1324
▁Republic	-11.1324
▁economisi	-11.1324
▁embrace	-11.1324
▁GDP	-11.1324
▁satelit	-11.1324
▁cateva	-11.1324
▁hopefully	-11.1325
▁generație	-11.1329
▁colaborare	-11.1329
▁facial	-11.1332
▁științe	-11.1336
▁dependent	-11.1339
▁arrived	-11.1339
▁construction	-11.1341
▁killing	-11.1341
▁Bob	-11.1347
key	-11.1347
▁reproduce	-11.135
▁dealing	-11.1353
▁publish	-11.1356
▁democrați	-11.1361
▁bizar	-11.1361
▁rig	-11.1371
▁encounter	-11.1378
▁energetic	-11.1378
▁1970	-11.1378
▁roșu	-11.1378
▁Orientul	-11.1378
▁ride	-11.1381
▁profesorii	-11.1387
▁sǎ	-11.1399
▁combination	-11.1401
▁setting	-11.1401
▁codul	-11.1411
▁ținut	-11.1412
▁normally	-11.1414
▁colect	-11.1418
▁activitatea	-11.1419
▁frontier	-11.1432
▁1000	-11.1433
▁Everybody	-11.1433
▁Hollywood	-11.1433
▁bebeluș	-11.1433
▁discipline	-11.1433
▁quantum	-11.1433
▁britanic	-11.1433
▁suburb	-11.1434
▁sugar	-11.1435
▁incerca	-11.1435
▁Astea	-11.1435
▁iubit	-11.1436
▁lup	-11.1436
▁dictat	-11.1438
▁colț	-11.1439
▁2004	-11.1439
▁inimă	-11.1444
▁Dur	-11.1445
▁studiul	-11.1453
metru	-11.1454
▁câștigat	-11.1456
▁productive	-11.1466
▁ființe	-11.1469
▁urmărit	-11.1475
liber	-11.1477
▁aplică	-11.1478
▁deschisă	-11.1483
▁regulile	-11.1484
▁cumpără	-11.1487
▁mention	-11.1488
▁Would	-11.1489
▁agricultura	-11.1489
▁assumption	-11.1489
▁equipment	-11.1489
▁groaznic	-11.1489
▁deosebire	-11.1489
▁Everything	-11.1489
▁Does	-11.1495
▁Bush	-11.1496
▁keeping	-11.1503
▁stiti	-11.1503
▁100,000	-11.1506
▁organe	-11.1509
▁poveștile	-11.1514
▁saved	-11.1514
▁gig	-11.1517
▁Wall	-11.1518
▁apărea	-11.1529
▁essential	-11.1532
▁privinț	-11.1535
▁spectru	-11.1542
▁comfort	-11.1542
▁Atlantic	-11.1544
▁empathy	-11.1544
▁tomorrow	-11.1544
▁carieră	-11.1544
▁rational	-11.1545
▁pieţe	-11.1545
▁Talk	-11.1545
water	-11.1552
▁conducere	-11.1561
▁stâng	-11.1566
▁zoom	-11.157
▁căutat	-11.1575
▁Peter	-11.158
▁bazată	-11.1582
▁discuss	-11.1582
▁factory	-11.1586
Sunt	-11.1595
▁Oxford	-11.16
▁ansamblu	-11.16
▁marginea	-11.16
▁pleasure	-11.16
▁precedent	-11.16
▁evoluție	-11.16
▁title	-11.1603
▁electrice	-11.1606
▁oficial	-11.1608
▁Mac	-11.1609
▁extrage	-11.1613
▁realizez	-11.1615
▁legată	-11.1617
▁28	-11.1619
▁sentimentul	-11.1628
scris	-11.1629
▁uscat	-11.1632
▁surround	-11.1633
even	-11.1634
X	-11.1645
friend	-11.1646
clip	-11.1646
▁voluntari	-11.1649
▁plictis	-11.1656
▁CEO	-11.1656
▁conexiuni	-11.1656
▁frecvent	-11.1656
▁mulțumi	-11.1656
▁vulnerable	-11.1656
▁eroi	-11.1656
▁Ebola	-11.1656
▁command	-11.1656
▁silence	-11.1656
▁aceleaşi	-11.1656
▁civic	-11.1658
▁ghid	-11.166
▁2006	-11.1662
▁fruit	-11.1662
▁Trăi	-11.1663
▁ignore	-11.1665
▁advers	-11.1665
▁algoritmi	-11.167
▁dificilă	-11.1676
▁rezult	-11.1685
▁mamei	-11.1688
▁reproduc	-11.169
▁organized	-11.1691
▁valabil	-11.1692
▁Începe	-11.1702
▁Ku	-11.1704
▁Air	-11.1705
▁întâlnire	-11.1707
▁familiile	-11.1709
▁consecințe	-11.1713
▁Design	-11.1713
▁vessel	-11.1713
▁piatră	-11.1713
▁escape	-11.1713
▁Fund	-11.1714
▁importance	-11.1714
▁respir	-11.1721
▁medici	-11.1735
▁Far	-11.1738
▁pill	-11.1741
▁Gar	-11.1742
▁released	-11.1743
▁încercare	-11.1749
▁imaginile	-11.1753
▁fourth	-11.1753
▁sight	-11.176
▁Cercet	-11.1769
▁liquid	-11.1769
▁recomand	-11.1769
▁asteroid	-11.1769
▁orizont	-11.1769
▁Christian	-11.1769
▁jail	-11.177
▁sclavi	-11.177
▁polen	-11.1771
▁medicină	-11.1772
▁combat	-11.1773
▁panou	-11.1773
▁covered	-11.1774
▁centre	-11.1776
▁pray	-11.1776
▁obţinut	-11.1776
▁rezistent	-11.1778
▁tall	-11.1782
▁aparate	-11.1787
▁apropiere	-11.1795
tub	-11.1797
▁dominant	-11.1799
▁utilizat	-11.1799
▁morți	-11.1801
▁concrete	-11.1803
▁uitam	-11.1803
▁Vre	-11.1816
oara	-11.1823
▁adolescent	-11.1827
▁diagnose	-11.1827
▁inevitabil	-11.1827
▁întuneric	-11.1827
▁courage	-11.1827
▁ţara	-11.1827
▁dinainte	-11.1827
▁hardware	-11.1827
▁incident	-11.1827
▁elegant	-11.1827
▁uniform	-11.1828
▁evil	-11.1829
▁rupt	-11.1829
▁extern	-11.183
▁negre	-11.1831
▁practical	-11.1837
ological	-11.1842
▁flori	-11.1844
▁blu	-11.1845
▁pasiona	-11.1845
▁scria	-11.1852
▁collection	-11.1857
pod	-11.186
▁relat	-11.1868
▁Desp	-11.1876
plica	-11.188
▁efectele	-11.188
▁carefully	-11.1881
▁îndrăgost	-11.1884
▁reinvent	-11.1884
▁perceive	-11.1884
▁'80	-11.1884
▁avioane	-11.1884
▁privilege	-11.1884
▁celebrate	-11.1884
▁susţine	-11.1886
▁semne	-11.1891
▁addict	-11.1903
▁sărace	-11.1904
▁relate	-11.1906
▁fake	-11.1908
▁Mexic	-11.1913
▁Cli	-11.1913
▁Their	-11.1919
▁mentor	-11.1933
▁wing	-11.1934
ridge	-11.1934
▁agriculture	-11.1942
▁possibilities	-11.1942
▁psycho	-11.1942
▁feminist	-11.1942
▁sweet	-11.1942
▁excelent	-11.1942
▁preserv	-11.1942
▁sugera	-11.1943
▁rocket	-11.1943
▁găuri	-11.1944
▁rub	-11.1944
▁awful	-11.1945
▁persist	-11.1945
▁dominat	-11.1946
rious	-11.1947
▁chestia	-11.1947
▁specifically	-11.1948
▁evita	-11.1954
▁panic	-11.1958
▁meaningful	-11.1958
▁Toţi	-11.1965
▁interesul	-11.1968
▁cadru	-11.1969
▁advanced	-11.1972
▁mişcări	-11.1973
▁internal	-11.1975
long	-11.198
▁magnet	-11.1984
▁efectul	-11.1987
▁grave	-11.1989
▁administrat	-11.1992
▁fabrică	-11.1994
▁separa	-11.1995
▁agre	-11.1997
▁Motivul	-11.2
▁buzunar	-11.2
▁prototype	-11.2
▁Economi	-11.2
▁Smith	-11.2
▁Health	-11.2
▁naştere	-11.2
▁teribil	-11.2001
▁rechini	-11.2001
guvernamental	-11.2001
▁Ken	-11.2002
▁House	-11.2005
Dar	-11.2008
▁emit	-11.2016
▁regula	-11.2016
60	-11.2021
▁Last	-11.205
▁aducă	-11.2053
▁underneath	-11.2058
▁church	-11.2058
▁noastra	-11.2059
▁aprecia	-11.2059
▁părăsi	-11.2059
▁kilogram	-11.2059
▁griji	-11.2059
▁câteodată	-11.206
▁informaţia	-11.2061
▁roughly	-11.2066
▁limb	-11.2067
▁șoc	-11.2071
mail	-11.2072
▁relatively	-11.2072
▁afirm	-11.2074
▁Plan	-11.2075
▁obținem	-11.2079
▁scade	-11.208
▁10.000	-11.2082
▁plimb	-11.2082
▁prezintă	-11.2084
▁polar	-11.2092
zin	-11.2098
▁aborda	-11.2099
▁aşez	-11.2105
▁increasing	-11.2106
▁alter	-11.2108
▁distribut	-11.211
oscop	-11.2114
▁desenat	-11.2116
▁Imaginaţi	-11.2117
▁suprafaţă	-11.2117
▁PIB	-11.2117
▁valuable	-11.2117
▁variety	-11.2117
▁suspect	-11.2117
▁Corect	-11.2117
▁Japanese	-11.2118
▁adulți	-11.2118
▁loud	-11.2119
▁apartment	-11.2125
▁datelor	-11.2127
▁string	-11.2134
▁activități	-11.2136
just	-11.2138
▁server	-11.2139
▁sending	-11.214
▁Rob	-11.2146
load	-11.2163
▁label	-11.2167
▁President	-11.2176
▁kitchen	-11.2176
▁mosquito	-11.2176
▁slujbă	-11.2176
▁chicken	-11.2176
▁conexiune	-11.2177
▁transition	-11.2177
▁William	-11.2177
▁urât	-11.2177
ocmai	-11.2177
▁deseori	-11.2177
▁filter	-11.2177
▁reject	-11.2178
▁ştiinţa	-11.2178
▁France	-11.218
▁clase	-11.2183
▁fiica	-11.2195
▁orașele	-11.2196
▁învăţ	-11.2213
▁tragic	-11.2215
▁războiului	-11.2217
▁Uganda	-11.2236
▁baseball	-11.2236
▁teeth	-11.2237
▁peak	-11.2239
▁trăiască	-11.224
▁construiască	-11.224
▁locuiesc	-11.2245
▁jet	-11.2246
▁alien	-11.2251
▁aplicat	-11.2256
▁tema	-11.2258
▁libertatea	-11.2261
▁Gold	-11.2261
tiva	-11.2271
▁modifică	-11.228
▁afirma	-11.2281
▁2012	-11.2296
▁physicist	-11.2296
▁property	-11.2296
▁vorbește	-11.2296
▁intermediu	-11.2296
▁francez	-11.2296
▁joke	-11.2296
▁trezit	-11.2296
▁classic	-11.23
▁propus	-11.23
▁season	-11.2301
▁Congo	-11.2304
▁creator	-11.2307
▁începând	-11.2317
▁ants	-11.2324
▁Kar	-11.2326
▁dense	-11.2327
▁flip	-11.2332
▁guvernului	-11.2341
▁bandă	-11.2343
▁relation	-11.2353
▁affected	-11.2354
▁Britain	-11.2356
▁chemistry	-11.2356
▁properties	-11.2356
▁porumb	-11.2356
▁regard	-11.2356
▁microbes	-11.2356
▁intention	-11.2356
▁obligat	-11.2357
▁ucis	-11.2357
▁foloseşte	-11.2358
▁puterii	-11.2358
▁întrerup	-11.236
▁teatru	-11.2362
▁expune	-11.2363
▁proprietate	-11.237
▁existau	-11.2373
uthern	-11.2374
▁grid	-11.2378
▁height	-11.2386
▁Rio	-11.2395
quality	-11.24
▁provoc	-11.2404
▁85	-11.2405
▁alegerile	-11.2415
▁ţesut	-11.2417
▁Anglia	-11.2417
▁Aproape	-11.2417
▁Institute	-11.2417
▁japonez	-11.2417
▁manufacturing	-11.2417
▁refugee	-11.2417
▁Evident	-11.2417
▁Oricum	-11.2417
▁Brown	-11.2417
▁vreţi	-11.2417
▁Irak	-11.2418
▁activities	-11.2421
▁Germania	-11.2421
▁90%	-11.2422
▁descoperim	-11.2423
▁fundamentally	-11.2424
▁route	-11.2427
▁spitale	-11.2428
▁sheet	-11.244
▁convinced	-11.2441
▁effectively	-11.2442
box	-11.2446
▁fermieri	-11.2453
lose	-11.2461
▁treime	-11.2465
▁Scott	-11.2478
▁district	-11.2478
▁explanation	-11.2478
▁explode	-11.2478
▁surgeon	-11.2478
▁țesut	-11.2478
▁maşina	-11.2478
▁quarter	-11.2478
▁worldwide	-11.2478
▁proastă	-11.2478
▁employees	-11.2478
▁snow	-11.2478
▁consumption	-11.2479
▁îngriji	-11.2481
▁opere	-11.2483
▁80%	-11.2484
▁review	-11.2486
▁izolat	-11.249
▁mesajul	-11.2491
▁frica	-11.2491
▁flash	-11.2492
▁threaten	-11.2494
down	-11.2496
▁câştigat	-11.2512
▁Ştiu	-11.2518
▁exception	-11.2525
▁forţa	-11.253
▁paradox	-11.2539
▁școala	-11.2539
▁speranță	-11.2539
▁genocid	-11.2539
▁deserve	-11.2539
▁stomac	-11.2539
▁terrorist	-11.2547
▁cutting	-11.255
▁ucide	-11.2558
▁stock	-11.256
▁tipare	-11.2563
▁studiile	-11.2564
▁CD	-11.2571
▁condiţii	-11.2573
▁adăuga	-11.2576
▁presentation	-11.2587
▁ghi	-11.259
▁Alb	-11.2593
▁costurile	-11.2595
▁120	-11.2596
▁engaged	-11.26
▁Răspunsul	-11.2601
▁homosexual	-11.2601
▁strategic	-11.2601
▁promova	-11.2601
▁disrupt	-11.2601
▁hyper	-11.2601
▁furtun	-11.2601
▁regiuni	-11.2602
▁corruption	-11.2602
▁healthcare	-11.2603
▁danger	-11.2605
▁înclin	-11.2605
▁aplic	-11.2605
▁logo	-11.2606
▁angajați	-11.2607
▁Cineva	-11.2607
▁generații	-11.2608
▁toilet	-11.2617
▁nebunie	-11.2619
▁20%	-11.2629
▁appreciate	-11.2636
▁inspire	-11.2637
▁protection	-11.2641
▁lupte	-11.2641
▁Fer	-11.2656
▁producing	-11.2658
▁Science	-11.2663
▁advice	-11.2663
▁dolphin	-11.2663
▁economii	-11.2663
▁technological	-11.2663
▁balloon	-11.2663
▁campanie	-11.2663
▁length	-11.2663
▁învețe	-11.2664
▁Titan	-11.2665
▁evolutionary	-11.2665
▁litere	-11.2666
▁spring	-11.2668
▁neural	-11.2673
▁nucleu	-11.2675
▁biroul	-11.2677
▁transportation	-11.2678
ball	-11.2688
numită	-11.2688
▁however	-11.269
▁Trei	-11.2694
numit	-11.2699
▁hack	-11.2701
▁spectrum	-11.2704
▁pân	-11.2724
▁'90	-11.2725
▁Proiect	-11.2725
▁chimpanzee	-11.2725
▁mammal	-11.2725
▁întâlnesc	-11.2725
▁Guvern	-11.2725
▁situații	-11.2725
▁incentive	-11.2725
Audience	-11.2726
▁atrage	-11.2727
▁appropriate	-11.2727
▁Gates	-11.2728
ville	-11.2729
▁organizaţii	-11.273
▁staff	-11.2731
▁passionate	-11.2735
▁Yet	-11.2736
▁trag	-11.2736
▁rapidly	-11.274
▁politicieni	-11.2765
graph	-11.2774
▁izola	-11.2775
▁sofisticat	-11.2788
▁announce	-11.2788
▁categorie	-11.2788
▁diferența	-11.2788
▁yesterday	-11.2788
▁șansa	-11.2788
▁swim	-11.2789
▁Could	-11.2789
▁ştiinţe	-11.279
▁abilități	-11.279
break	-11.2791
▁2003	-11.2794
▁creaturi	-11.2801
▁attitude	-11.2803
▁funding	-11.2805
hold	-11.2813
▁parcurs	-11.2816
▁thin	-11.2825
▁kg	-11.2827
▁psiho	-11.2847
▁conclusion	-11.2852
▁occasion	-11.2852
▁îndrăzn	-11.2852
▁șansă	-11.2852
▁mâine	-11.2852
▁suspend	-11.2852
▁bucăți	-11.2852
▁pachet	-11.2852
▁colecta	-11.2852
▁drumuri	-11.2853
▁deceniu	-11.2853
▁balene	-11.2854
▁shame	-11.2855
▁ieri	-11.2857
▁Human	-11.2858
back	-11.2876
▁divin	-11.2877
▁gândind	-11.2879
grade	-11.2885
▁melt	-11.2893
▁probe	-11.2901
▁observați	-11.2911
▁accomplish	-11.2915
▁mijloace	-11.2915
▁împărți	-11.2915
▁dezbatere	-11.2915
▁battery	-11.2915
▁extins	-11.2915
▁inequality	-11.2916
▁Italia	-11.2916
▁băut	-11.2916
▁închide	-11.2916
▁infection	-11.2918
▁Compani	-11.2918
▁radiation	-11.2919
▁verifica	-11.292
▁menţin	-11.2923
▁Antarctica	-11.2939
▁guvernele	-11.294
▁adăugat	-11.2941
▁panel	-11.295
ografia	-11.2956
▁oprim	-11.296
▁primary	-11.296
▁transformare	-11.2963
▁următor	-11.297
▁collaboration	-11.2979
▁declanș	-11.2979
▁experienţe	-11.2979
▁psychological	-11.2979
▁Higgs	-11.2979
▁pescuit	-11.2979
▁oricând	-11.298
▁agenda	-11.298
▁historical	-11.298
▁diviz	-11.2981
▁clever	-11.2983
asambla	-11.2985
▁Bank	-11.2987
▁pump	-11.299
▁doream	-11.2991
▁prepared	-11.2995
▁luc	-11.2998
▁physically	-11.3028
▁surprind	-11.3044
▁drăguț	-11.3044
▁recunoaşte	-11.3044
▁secundar	-11.3044
▁albastră	-11.3044
▁illegal	-11.3044
▁înțeleagă	-11.3044
▁Silicon	-11.3044
▁cosmic	-11.3044
▁angry	-11.3045
▁inițial	-11.3045
▁mândri	-11.3046
▁stând	-11.3048
▁lungime	-11.3051
▁2001	-11.3051
▁acoperit	-11.3052
▁added	-11.3054
▁învăţăm	-11.306
▁rip	-11.3067
▁afle	-11.3069
▁gravity	-11.307
▁frustr	-11.3078
▁deschid	-11.3079
▁convince	-11.3082
▁indicator	-11.3089
▁Shi	-11.3105
▁defined	-11.3107
▁războaie	-11.3109
▁'70	-11.3109
▁Florida	-11.3109
▁sponsor	-11.3109
▁gaură	-11.3109
▁repair	-11.3109
▁sursa	-11.3109
▁robust	-11.3109
▁propose	-11.311
▁shall	-11.3117
▁citizen	-11.3128
▁campus	-11.3129
▁acuz	-11.3136
ague	-11.3141
▁scor	-11.3143
▁Intr	-11.3146
▁mascul	-11.315
▁elite	-11.3164
▁înțelegeți	-11.3171
▁prize	-11.3173
▁reconstrui	-11.3174
▁condamna	-11.3174
▁phrase	-11.3174
▁septembrie	-11.3174
▁situaţia	-11.3174
▁funcţie	-11.3174
▁metoda	-11.3174
▁feminin	-11.3174
▁lucrând	-11.3174
▁General	-11.3174
▁behave	-11.3174
▁steel	-11.3175
▁observation	-11.3179
▁pitch	-11.318
▁wrap	-11.3182
▁export	-11.3183
▁Hy	-11.3185
▁invata	-11.3185
▁părinte	-11.3195
▁predator	-11.3211
▁bond	-11.3213
▁optimism	-11.3219
plat	-11.3225
▁răc	-11.3226
▁Cambridge	-11.324
▁automobile	-11.324
▁awesome	-11.324
▁confruntăm	-11.324
▁câini	-11.324
▁gentlemen	-11.324
▁influența	-11.324
▁profesional	-11.324
▁emerging	-11.324
▁internaţional	-11.324
▁episod	-11.324
▁definitely	-11.324
▁Saturn	-11.324
▁videoclip	-11.3242
▁required	-11.3247
▁Also	-11.3252
▁primar	-11.3255
▁democrație	-11.3261
▁ţinut	-11.3264
▁statement	-11.3268
▁stiu	-11.3288
▁dolar	-11.3291
▁truc	-11.3291
▁bike	-11.3296
foot	-11.3296
▁candida	-11.3297
know	-11.3298
▁materia	-11.3301
▁challenging	-11.3306
▁dimineață	-11.3306
▁frumusețe	-11.3306
▁hydrogen	-11.3306
▁tradiţional	-11.3306
▁privacy	-11.3306
▁witness	-11.3306
▁'60	-11.3306
▁caricatur	-11.3306
▁relație	-11.3306
▁framework	-11.3307
▁therapy	-11.3307
▁700	-11.3309
▁sculpture	-11.3309
▁atoms	-11.331
▁reef	-11.3312
▁părut	-11.3314
▁typically	-11.3323
ifying	-11.3325
▁Four	-11.3328
▁statului	-11.3328
▁identic	-11.334
▁potentially	-11.3347
▁modificat	-11.3351
▁oribil	-11.3351
intele	-11.3354
▁întrebați	-11.3357
▁scared	-11.3363
▁Bineînțeles	-11.3373
▁Project	-11.3373
▁Vietnam	-11.3373
▁grandfather	-11.3373
▁illusion	-11.3373
▁sarcină	-11.3373
▁sophisticated	-11.3373
▁fotbal	-11.3373
▁Egipt	-11.3373
▁applied	-11.3373
▁conceput	-11.3375
▁educația	-11.3376
▁improvement	-11.3382
▁winter	-11.3385
▁legitim	-11.3395
▁ferme	-11.3408
▁raze	-11.3411
Z	-11.343
▁innovative	-11.344
▁smartphone	-11.344
▁supermarket	-11.344
▁terorism	-11.344
▁înceapă	-11.344
▁assign	-11.344
▁gheață	-11.344
▁plăci	-11.344
▁depresie	-11.344
▁sphere	-11.344
▁arhitectură	-11.3441
▁Mulţi	-11.3441
▁silk	-11.3441
▁Exact	-11.3442
▁grain	-11.3447
▁aprob	-11.345
▁29	-11.3451
▁obțin	-11.3452
▁elevii	-11.3455
▁creste	-11.3464
▁Video	-11.3468
▁contest	-11.3483
▁construirea	-11.3489
▁55	-11.3489
▁tin	-11.3503
▁esenţial	-11.3508
▁experienţa	-11.3508
▁shadow	-11.3508
▁mystery	-11.3508
▁distant	-11.3509
▁confront	-11.3509
▁quo	-11.351
▁audio	-11.351
▁afli	-11.3511
▁plot	-11.3512
▁voluntar	-11.3516
▁settle	-11.3518
▁detector	-11.352
▁scrisoare	-11.3522
▁utilizarea	-11.3524
▁graphic	-11.3525
▁benefic	-11.3535
▁march	-11.3536
▁priviţi	-11.3537
▁33	-11.354
▁muncitori	-11.3546
▁considerăm	-11.3554
▁sustain	-11.3573
▁Tehnologi	-11.3576
▁cimpanzei	-11.3576
▁televiziune	-11.3576
▁fericiți	-11.3576
▁stăpân	-11.3576
▁Sistemul	-11.3576
▁împlini	-11.3576
▁sondaj	-11.3576
▁visible	-11.3579
▁locuitori	-11.3582
▁Hill	-11.3595
▁observăm	-11.3598
▁equally	-11.36
▁plimba	-11.3616
▁stimulat	-11.3631
▁Ş	-11.3631
▁privinţ	-11.3633
American	-11.3634
▁Păr	-11.3634
▁immune	-11.3644
▁Apropo	-11.3644
▁joace	-11.3644
▁Haideți	-11.3644
▁afternoon	-11.3644
▁High	-11.3646
▁strada	-11.3647
▁Space	-11.3647
▁însuși	-11.3648
▁ghici	-11.3649
▁Media	-11.3649
▁medicina	-11.3651
▁Grand	-11.3655
▁musician	-11.3657
▁evolve	-11.3687
▁driven	-11.3705
▁fotograf	-11.3713
▁ancestors	-11.3713
▁exclusiv	-11.3713
▁sănătos	-11.3713
▁Minister	-11.3713
▁capitol	-11.3713
▁emissions	-11.3713
▁dovadă	-11.3713
▁mechanical	-11.3713
▁umple	-11.3713
▁computing	-11.3713
▁department	-11.3713
▁Două	-11.3714
▁branch	-11.3714
▁rescue	-11.3714
▁journal	-11.3719
▁bound	-11.3721
▁comic	-11.3727
▁Orice	-11.373
▁cerceta	-11.3735
▁kit	-11.3743
▁monitoriza	-11.3774
▁fasci	-11.3776
▁external	-11.378
▁Egypt	-11.3781
▁officer	-11.3782
▁instituţii	-11.3782
▁interconect	-11.3782
▁preocupa	-11.3782
▁psychology	-11.3782
▁împărtăşi	-11.3782
▁distanţă	-11.3782
▁muşchi	-11.3782
▁unusual	-11.3782
▁stretch	-11.3782
▁computation	-11.3782
▁lecture	-11.3783
▁origami	-11.3783
▁scuze	-11.3783
▁reference	-11.3783
▁spider	-11.3783
▁făcuse	-11.3783
▁hidrogen	-11.3783
▁gratis	-11.3783
▁Exista	-11.3783
▁îndoială	-11.3785
▁hoping	-11.3786
▁split	-11.3787
▁While	-11.3787
▁discutat	-11.3793
▁Recent	-11.3794
▁anunț	-11.3797
▁tank	-11.3798
▁boom	-11.38
▁valid	-11.3803
titude	-11.3804
Sahara	-11.3806
burg	-11.3806
▁recunoscut	-11.3814
cast	-11.3814
▁viruses	-11.3819
▁producător	-11.3826
▁specialist	-11.385
▁concentrăm	-11.3852
▁drăguţ	-11.3852
▁oglind	-11.3852
▁seamănă	-11.3852
▁simultan	-11.3852
▁pagina	-11.3852
▁harta	-11.3853
▁finance	-11.3853
▁plasa	-11.3853
▁Disney	-11.3853
▁abilităţi	-11.3854
▁reverse	-11.3854
▁phase	-11.3854
▁încărca	-11.3854
▁modest	-11.3854
▁înconjurător	-11.3855
▁căreia	-11.3858
▁mărime	-11.3859
▁tari	-11.3864
▁pipe	-11.3864
▁povestesc	-11.3866
▁Arch	-11.3885
▁percentage	-11.3888
▁fertiliz	-11.3889
▁10%	-11.389
▁intui	-11.3899
volt	-11.3902
▁Cost	-11.3911
▁expus	-11.3913
▁Olympic	-11.3923
▁Perhaps	-11.3923
▁prăji	-11.3923
▁Totuşi	-11.3923
▁schelet	-11.3923
▁struck	-11.3923
▁fratele	-11.3923
▁Anyway	-11.3924
▁awareness	-11.3926
▁mortality	-11.3928
▁exploration	-11.3929
▁recif	-11.3936
▁puteti	-11.3937
▁luck	-11.3938
▁armată	-11.3948
▁busy	-11.3954
▁amintiri	-11.3956
▁ultimate	-11.3959
▁costuri	-11.3968
type	-11.3972
▁tasta	-11.3973
▁analyze	-11.3994
▁clothes	-11.3994
▁password	-11.3994
▁penguin	-11.3994
▁președinte	-11.3994
▁conştient	-11.3994
▁Henry	-11.3994
▁citească	-11.3994
▁emoţional	-11.3994
OK	-11.3994
▁Number	-11.3994
▁specul	-11.3994
▁senior	-11.3997
▁boring	-11.4002
▁biologist	-11.4012
▁leagă	-11.4017
▁masculin	-11.402
▁hiper	-11.4023
▁implicați	-11.4027
▁ordin	-11.4033
10	-11.4035
▁brutal	-11.404
control	-11.4056
▁strip	-11.4057
▁diferenţe	-11.4065
▁Beijing	-11.4065
▁Research	-11.4065
▁destruction	-11.4065
▁dezamăg	-11.4065
▁diferență	-11.4065
▁LED	-11.4065
▁Women	-11.4065
▁poezie	-11.4065
▁pietre	-11.4066
▁furniza	-11.4066
▁narrow	-11.4066
▁gândeşti	-11.4069
Î	-11.4074
▁variation	-11.4076
Femei	-11.41
▁balon	-11.411
▁stronger	-11.4112
▁800	-11.4115
▁Crăciun	-11.4137
▁concentrez	-11.4137
▁jihad	-11.4137
▁manufacture	-11.4137
▁2015	-11.4137
▁trigger	-11.4137
▁acţiune	-11.4137
▁literature	-11.4137
▁difuz	-11.4137
▁Priviți	-11.4137
▁livra	-11.4138
▁knee	-11.4138
▁lanț	-11.4138
▁terrorism	-11.4138
▁căror	-11.4141
▁gândească	-11.4142
▁Tony	-11.4142
▁aripi	-11.4145
▁cursuri	-11.4152
▁instruction	-11.4168
▁documentar	-11.4175
profit	-11.4199
▁credeau	-11.4199
▁centuries	-11.421
▁horrible	-11.421
▁library	-11.421
▁pinguin	-11.421
▁raspuns	-11.421
▁surveillance	-11.421
▁examina	-11.421
▁vocal	-11.421
▁căzut	-11.421
▁iniţial	-11.4211
▁rude	-11.4212
▁clock	-11.4212
▁șef	-11.4217
▁planuri	-11.4222
▁secure	-11.4223
▁license	-11.4231
▁kilo	-11.4236
▁dish	-11.4236
▁spații	-11.4247
▁durează	-11.425
▁presa	-11.4277
▁motivation	-11.4278
▁dialog	-11.4282
▁bănci	-11.4283
▁physician	-11.4283
▁psychologist	-11.4283
▁bicycle	-11.4283
▁unknown	-11.4283
▁deșert	-11.4283
▁salvez	-11.4283
▁malarie	-11.4283
▁thick	-11.4283
▁Bibli	-11.4283
▁ulei	-11.4283
▁colonie	-11.4284
▁segment	-11.4284
▁dropped	-11.4284
▁proprietar	-11.4285
▁“	-11.4286
▁distrug	-11.4291
▁greș	-11.4295
▁gândac	-11.43
▁Brian	-11.43
▁mergând	-11.4308
biți	-11.4312
▁functional	-11.432
▁Pra	-11.4345
▁Bangladesh	-11.4356
▁telephone	-11.4356
▁harvest	-11.4356
▁Practic	-11.4356
▁naiba	-11.4356
ncluzi	-11.4359
,500	-11.4359
▁cablu	-11.4359
▁2050	-11.4362
▁intervention	-11.4362
▁realizăm	-11.4365
▁etern	-11.4366
▁rigid	-11.4373
▁imita	-11.4375
▁confer	-11.4391
▁celula	-11.4395
▁urmez	-11.4403
lope	-11.4405
▁urcat	-11.4408
▁biolog	-11.4416
▁capta	-11.4417
▁imaginez	-11.4427
▁pour	-11.443
▁confidence	-11.443
▁exponential	-11.443
▁fortunate	-11.443
▁sugerează	-11.443
▁suprafaţa	-11.443
▁configura	-11.443
▁transcend	-11.443
▁protecți	-11.443
▁Before	-11.443
▁housing	-11.443
▁clienți	-11.443
▁relația	-11.443
▁Soviet	-11.4431
▁vizion	-11.4431
▁vizite	-11.4431
▁propaga	-11.4431
▁exager	-11.4431
▁înșine	-11.4432
▁storm	-11.4433
▁solving	-11.4433
▁ruși	-11.4433
▁weekend	-11.4433
▁Scri	-11.4434
▁authority	-11.4436
▁Johnson	-11.4436
▁producție	-11.4444
▁deţin	-11.4445
▁dedic	-11.4453
▁medication	-11.4455
▁german	-11.4456
▁salariu	-11.4472
▁apropia	-11.4494
half	-11.4495
▁diferiți	-11.4505
▁providing	-11.4505
▁încântat	-11.4505
▁somewhat	-11.4505
▁gheaţă	-11.4505
▁murder	-11.4505
▁presence	-11.4505
▁învaţă	-11.4505
▁avocat	-11.4505
▁prelua	-11.4505
▁detaliu	-11.4505
▁barrier	-11.4506
▁birthday	-11.4506
▁încetini	-11.4506
▁comanda	-11.4507
▁ruin	-11.4507
▁White	-11.4507
▁minister	-11.4507
▁occurred	-11.4507
▁indică	-11.4508
▁relaţii	-11.4509
▁cercetător	-11.4515
▁trauma	-11.4523
▁Long	-11.4525
▁lipsit	-11.4555
▁umil	-11.4564
▁posibilități	-11.4574
▁weigh	-11.4575
▁minge	-11.4577
▁Institutul	-11.458
▁Unfortunately	-11.458
▁pantofi	-11.458
▁recommend	-11.458
▁resistance	-11.458
▁împărtășesc	-11.458
▁departament	-11.458
▁constitui	-11.458
▁corporate	-11.458
▁sensitive	-11.458
▁îmbrăca	-11.458
▁stigma	-11.458
▁ought	-11.458
▁ameninţ	-11.4581
▁Drept	-11.4582
▁poetry	-11.4584
born	-11.4585
▁Nick	-11.4594
▁dureri	-11.4594
▁Howard	-11.4597
▁angle	-11.4597
▁Pop	-11.46
▁suck	-11.4602
fish	-11.4605
▁boxes	-11.461
▁Timp	-11.4614
▁creierele	-11.4622
▁subtil	-11.4626
▁bucurie	-11.4636
▁democrat	-11.4637
▁commit	-11.4651
▁repetat	-11.4652
▁reziste	-11.4655
▁Square	-11.4656
▁absurd	-11.4656
▁direcția	-11.4656
▁exploit	-11.4656
▁occidental	-11.4656
▁opțiuni	-11.4656
▁tsunami	-11.4656
▁unexpected	-11.4656
▁pollution	-11.4656
▁discuție	-11.4656
▁Câți	-11.4656
▁speranţă	-11.4656
▁style	-11.4657
▁causing	-11.4657
▁milk	-11.4658
▁consistent	-11.4658
▁sunlight	-11.4659
▁wound	-11.4659
▁attend	-11.4659
▁propuls	-11.4659
▁$1	-11.466
▁bombard	-11.4661
▁flies	-11.4662
▁revolt	-11.4664
▁creadă	-11.4672
▁100%	-11.4675
▁3,000	-11.4675
▁Intel	-11.4675
▁Credem	-11.4683
▁surrounded	-11.4686
▁întâlniri	-11.4693
▁atras	-11.4721
▁geologi	-11.4727
▁celular	-11.4728
râsete	-11.4732
▁Christmas	-11.4732
▁conclude	-11.4732
▁efficiency	-11.4732
▁flood	-11.4732
▁trilioane	-11.4732
▁rezerva	-11.4732
▁Museum	-11.4732
▁strădui	-11.4732
▁autentic	-11.4733
▁Lagos	-11.4733
▁experți	-11.4733
▁Știi	-11.4733
▁soarelui	-11.4735
▁objective	-11.4741
▁rob	-11.4742
▁5,000	-11.4745
▁psihologic	-11.4752
▁classes	-11.4763
▁blocat	-11.4766
▁leap	-11.4769
▁marker	-11.4786
▁commun	-11.4805
▁Public	-11.4809
▁September	-11.4809
▁fiecărei	-11.4809
▁impresia	-11.4809
▁judgment	-11.4809
▁pregnant	-11.4809
▁studiem	-11.4809
▁tunnel	-11.4809
▁zboară	-11.4809
▁deploy	-11.4809
▁pâine	-11.4809
▁Something	-11.4809
▁swimming	-11.4809
▁urechi	-11.4809
▁Louis	-11.4809
▁cariera	-11.4809
▁intelege	-11.4809
▁plase	-11.481
▁folosești	-11.4811
▁retire	-11.4813
▁capacitate	-11.4814
▁rush	-11.4814
▁guard	-11.4814
▁impos	-11.4817
▁Putea	-11.4824
▁comparativ	-11.4832
▁Jane	-11.4839
▁activate	-11.4851
▁egalitate	-11.4856
▁static	-11.4864
▁painful	-11.4865
▁chapter	-11.4887
▁direcție	-11.4887
▁grădini	-11.4887
▁imaginăm	-11.4887
▁revenue	-11.4887
▁trăsături	-11.4887
▁concluzia	-11.4887
▁numeroase	-11.4887
▁vazut	-11.4887
▁domnilor	-11.489
▁commitment	-11.489
▁praf	-11.4891
▁artiști	-11.4892
▁cognitiv	-11.4892
▁conservation	-11.4894
▁eroare	-11.4898
ngue	-11.4902
▁verzi	-11.4902
▁presupun	-11.4904
▁includ	-11.4917
▁scary	-11.4922
coli	-11.4932
design	-11.4955
▁govern	-11.4962
▁zahăr	-11.4965
▁înfrunt	-11.4965
▁desperate	-11.4965
▁engaging	-11.4965
▁complain	-11.4965
▁Next	-11.4965
▁cheia	-11.4965
▁greenhouse	-11.4965
▁agit	-11.4966
▁dramatically	-11.4968
▁lying	-11.4969
▁Oameni	-11.4971
▁neurolog	-11.4972
▁defend	-11.4973
▁selection	-11.4975
▁reuşi	-11.4976
▁candidate	-11.4978
▁colţ	-11.498
▁deliberat	-11.499
▁variabil	-11.4994
▁colleague	-11.5008
▁jurnalist	-11.5014
▁semnifica	-11.5018
▁duș	-11.5031
▁naiv	-11.5032
▁International	-11.5043
▁așteaptă	-11.5043
▁băieţi	-11.5043
▁cutremur	-11.5043
▁diferenţă	-11.5043
▁perioade	-11.5043
▁ȋn	-11.5043
▁confident	-11.5043
▁epidemie	-11.5043
▁menționat	-11.5043
▁învârt	-11.5043
▁constrain	-11.5043
▁inainte	-11.5044
▁plug	-11.5045
▁Albert	-11.5045
▁silent	-11.5045
▁42	-11.5045
▁cumpere	-11.5045
▁conversație	-11.5045
▁Free	-11.5046
▁download	-11.5048
▁biologia	-11.5049
▁întregime	-11.5052
▁reuni	-11.5055
▁motoare	-11.5056
▁copia	-11.5058
80	-11.5058
▁straturi	-11.5064
▁afect	-11.5077
▁bunica	-11.5084
▁rus	-11.5092
american	-11.5112
▁faimos	-11.5123
▁Blue	-11.5123
▁Mandela	-11.5123
▁îmbătrâni	-11.5123
▁concluzie	-11.5123
▁găsești	-11.5123
▁smoke	-11.5123
▁deficit	-11.5123
▁tumoare	-11.5123
▁opresc	-11.5123
▁nowhere	-11.5123
▁carried	-11.5123
▁sustainability	-11.5123
▁drill	-11.5123
▁Moore	-11.5125
▁viral	-11.513
▁micuț	-11.5143
▁Abou	-11.5146
▁pool	-11.5148
▁angajament	-11.5167
▁gel	-11.517
▁capita	-11.5174
mărul	-11.5175
illion	-11.5182
▁situat	-11.5188
▁190	-11.5192
▁Informa	-11.5202
▁Nobody	-11.5203
▁diferenţa	-11.5203
▁revoluție	-11.5203
▁Jeff	-11.5203
▁spiral	-11.5203
▁relaţie	-11.5203
▁minuscul	-11.5204
▁ateriza	-11.5204
▁Turn	-11.5205
▁Berlin	-11.5205
▁târ	-11.5207
▁piept	-11.5208
▁organizație	-11.5209
▁cǎ	-11.5209
▁universitate	-11.5217
▁asigurăm	-11.5221
▁Priv	-11.523
▁inclus	-11.5233
▁eforturi	-11.5239
▁poporul	-11.5258
▁spaţii	-11.5268
▁correspond	-11.5283
▁fierbinte	-11.5283
▁frankly	-11.5283
▁impresionant	-11.5283
▁mulţumi	-11.5283
▁oportunităţi	-11.5283
▁pretutindeni	-11.5283
▁psihic	-11.5283
▁tablou	-11.5283
▁Bronx	-11.5283
▁albastre	-11.5283
▁orchestra	-11.5283
▁prânz	-11.5283
▁Nelson	-11.5283
▁Consider	-11.5283
▁descend	-11.5284
▁degetele	-11.5284
▁înşine	-11.5285
▁eșec	-11.5285
▁generează	-11.5286
▁fețe	-11.5286
▁urmăresc	-11.5287
▁depth	-11.5288
▁tratăm	-11.529
▁2002	-11.5295
▁chestiune	-11.5314
▁paralel	-11.5322
▁informatic	-11.5326
▁suppose	-11.5338
material	-11.5357
called	-11.5361
▁cetăţeni	-11.5365
▁iPod	-11.5365
▁mathematician	-11.5365
▁philosophy	-11.5365
▁plămân	-11.5365
▁populaţia	-11.5365
▁strategii	-11.5365
▁cărbune	-11.5365
▁religia	-11.5365
▁SMS	-11.5365
▁varietate	-11.5365
▁rising	-11.5365
▁Atât	-11.5365
▁axa	-11.5365
▁conservative	-11.5366
▁Finally	-11.5367
▁Model	-11.5367
▁Golf	-11.5368
▁superior	-11.5368
▁overall	-11.5369
▁continuous	-11.5369
▁existente	-11.5369
produc	-11.5371
▁criza	-11.5372
▁utilizator	-11.5373
▁exhibition	-11.5374
▁singing	-11.5376
▁portret	-11.5379
▁împart	-11.5384
▁cents	-11.5388
▁sportiv	-11.5406
▁atacuri	-11.5415
itatii	-11.5429
▁îngrozit	-11.5432
cepţi	-11.5433
worth	-11.5436
field	-11.5437
▁mineral	-11.5438
▁favorit	-11.5439
▁adecvat	-11.5447
▁dezvolte	-11.5447
▁evoluția	-11.5447
▁knock	-11.5447
▁magnific	-11.5447
▁mamifere	-11.5447
▁oportunități	-11.5447
▁coordona	-11.5447
▁Scopul	-11.5447
▁cluster	-11.5447
▁găseşti	-11.5447
▁proprietăți	-11.5447
▁veteran	-11.5447
▁Arctic	-11.5447
▁telecom	-11.5447
▁flew	-11.5447
▁confuz	-11.5447
▁amplific	-11.5448
▁nonprofit	-11.5448
▁încăpere	-11.5448
▁implications	-11.5451
▁intersect	-11.5451
▁Jenn	-11.5451
▁artişti	-11.5452
▁pahar	-11.5453
▁trăiește	-11.5455
▁raft	-11.5456
▁River	-11.5456
▁Lucruri	-11.5477
▁identical	-11.5487
▁reactor	-11.5494
▁Gh	-11.5511
Asta	-11.5524
▁Brooklyn	-11.5529
▁Occident	-11.5529
▁Ultima	-11.5529
▁bicicletă	-11.5529
▁bucătărie	-11.5529
▁curiozitate	-11.5529
▁dimineaţa	-11.5529
▁inseamna	-11.5529
▁nefericire	-11.5529
▁tweet	-11.5529
▁umplu	-11.5529
▁eşec	-11.5529
▁Rusia	-11.553
▁vizită	-11.553
▁simțeam	-11.553
▁esență	-11.553
▁overcome	-11.553
▁cunoştinţe	-11.553
▁Derek	-11.553
▁pretend	-11.553
▁sfert	-11.5531
▁acoperiș	-11.5535
▁Doctor	-11.5535
▁sparg	-11.5537
assemble	-11.5543
▁obții	-11.5546
▁100.000	-11.5549
▁cheat	-11.556
▁blame	-11.5572
▁Islamic	-11.5603
▁piețe	-11.561
▁phenomena	-11.5613
▁procedure	-11.5613
▁reconstruct	-11.5613
▁lifestyle	-11.5613
▁parallel	-11.5613
▁sărăcia	-11.5613
▁pixel	-11.5613
▁brevet	-11.5613
▁policies	-11.5613
▁intestin	-11.5614
▁sweat	-11.5614
▁committed	-11.5615
▁gandit	-11.5617
▁geam	-11.5617
▁câr	-11.5618
▁ridicol	-11.5623
▁orbi	-11.5629
▁controlled	-11.563
▁prezentări	-11.5631
▁râde	-11.5635
▁referito	-11.5649
person	-11.5668
▁conservare	-11.5679
▁mişca	-11.5685
Look	-11.5693
▁philosopher	-11.5697
▁pătrund	-11.5697
▁reflex	-11.5697
▁sănătății	-11.5697
▁NSA	-11.5697
▁tăcere	-11.5697
▁conventional	-11.5697
▁dancing	-11.5697
▁scenario	-11.5697
▁gigantic	-11.5697
▁sarcina	-11.5697
▁lux	-11.5697
▁welcome	-11.5697
▁scream	-11.5697
▁pluti	-11.5698
▁spaţial	-11.5699
▁compound	-11.5705
▁curte	-11.5705
▁umfl	-11.5706
▁genial	-11.5706
▁surf	-11.5707
▁inovație	-11.5708
▁confortabil	-11.5711
▁generaţie	-11.5716
▁Dintr	-11.5731
▁insula	-11.5759
▁puteri	-11.576
▁Columbia	-11.5781
▁Stephen	-11.5781
▁Tanzania	-11.5781
▁anxiety	-11.5781
▁conţinut	-11.5781
▁infrastructură	-11.5781
▁literalmente	-11.5781
▁împărtăşesc	-11.5781
▁îngheț	-11.5781
▁reacție	-11.5781
▁vorbești	-11.5781
▁situaţii	-11.5782
▁exploring	-11.5782
▁cheltuieli	-11.5782
▁Coreea	-11.5782
▁tridimensional	-11.5783
▁underwater	-11.5783
▁August	-11.5785
▁gînd	-11.5785
▁scanner	-11.5787
▁ladies	-11.5789
▁scenariu	-11.5792
▁îngrozitor	-11.5797
▁Indus	-11.58
▁gură	-11.5807
▁tower	-11.5812
▁numar	-11.5813
scribe	-11.5816
▁închisori	-11.5816
▁pierderi	-11.5824
play	-11.5854
normal	-11.5859
▁48	-11.586
▁populat	-11.5861
▁Gândiţi	-11.5867
▁Remember	-11.5867
▁Împreună	-11.5867
▁păstrez	-11.5867
▁frunze	-11.5867
▁hunger	-11.5867
▁aglomer	-11.5867
▁religii	-11.5867
▁extent	-11.5867
▁comportă	-11.5868
▁Creierul	-11.5868
▁appeal	-11.5869
▁Everyone	-11.5871
▁metrou	-11.5889
▁activităţi	-11.5915
digit	-11.5921
▁celebri	-11.5934
class	-11.5944
▁Parkinson	-11.5953
▁interviev	-11.5953
▁Carolina	-11.5953
▁Povestea	-11.5953
▁Următorul	-11.5953
▁jucării	-11.5953
▁şcoala	-11.5953
▁pizza	-11.5953
disciplina	-11.5953
▁cheamă	-11.5953
▁realmente	-11.5954
▁automatically	-11.5954
▁restrict	-11.5957
▁tight	-11.5957
▁lapte	-11.5957
▁căutând	-11.596
▁interval	-11.5964
▁poliție	-11.597
▁audit	-11.5973
▁inutil	-11.5973
▁bunicul	-11.5981
▁algoritm	-11.6005
▁polariz	-11.6006
level	-11.6016
▁Philip	-11.604
▁Revolution	-11.604
▁scădere	-11.604
▁thumb	-11.604
▁murdar	-11.604
▁ridiculous	-11.604
▁reserve	-11.604
▁tendința	-11.604
▁ugly	-11.604
▁proportion	-11.604
▁intimitate	-11.604
▁masina	-11.604
▁adâncime	-11.604
▁refuse	-11.6041
▁gât	-11.6041
▁curiosity	-11.6043
▁acelasi	-11.6047
▁cariere	-11.6048
▁armata	-11.605
▁database	-11.6053
▁350	-11.6075
ounce	-11.6098
▁cuplu	-11.611
▁dorm	-11.6111
changing	-11.6118
neclar	-11.6119
▁ONG	-11.6128
▁Shanghai	-11.6128
▁guarantee	-11.6128
▁obsessed	-11.6128
▁omenirii	-11.6128
▁religioase	-11.6128
▁Seattle	-11.6128
▁dignity	-11.6128
▁genunchi	-11.6128
▁scratch	-11.6128
▁raising	-11.6128
▁Basically	-11.6128
▁treptat	-11.6128
▁proaste	-11.6128
▁shelter	-11.6128
▁Homo	-11.6129
▁rebel	-11.6136
▁curăț	-11.6137
▁loop	-11.6138
▁dorința	-11.6139
▁quit	-11.6156
▁aspira	-11.616
▁Foundation	-11.6216
▁fereastră	-11.6216
▁laolaltă	-11.6216
▁prizonier	-11.6216
▁resolution	-11.6216
▁încorpor	-11.6216
▁amenință	-11.6216
▁suicide	-11.6216
▁terapie	-11.6216
▁scurge	-11.6216
▁discuții	-11.6216
▁Yemen	-11.6216
▁văzuse	-11.6216
▁enemy	-11.6216
▁reviste	-11.6217
▁augment	-11.6217
▁neither	-11.6217
▁potrivi	-11.6218
▁tactic	-11.6219
▁shake	-11.622
▁tired	-11.6229
▁monta	-11.6235
▁Kan	-11.6236
▁scări	-11.6239
▁representation	-11.6275
Organiz	-11.6278
▁corela	-11.6297
▁1998	-11.6306
▁NGO	-11.6306
▁Shakespeare	-11.6306
▁emergency	-11.6306
▁frumuseţe	-11.6306
▁illustrate	-11.6306
▁obstacle	-11.6306
▁recognition	-11.6306
▁scholar	-11.6306
▁Schimb	-11.6306
▁authentic	-11.6306
▁neutral	-11.6306
▁ochelari	-11.6306
▁piața	-11.6306
▁Centrul	-11.6306
▁decizia	-11.6306
▁Greek	-11.6306
▁dezgust	-11.6307
▁slum	-11.6307
▁2020	-11.6312
▁70%	-11.6313
▁subtle	-11.6316
▁valuri	-11.6319
▁bord	-11.632
▁picturi	-11.6337
▁feţe	-11.637
▁ironic	-11.6383
osphere	-11.6396
▁Lincoln	-11.6396
▁chocolate	-11.6396
▁infrastructura	-11.6396
▁moleculă	-11.6396
▁skull	-11.6396
▁Watson	-11.6396
▁nutrient	-11.6396
▁agricol	-11.6396
▁inspiră	-11.6396
▁grateful	-11.6396
▁ureche	-11.6396
▁corporation	-11.6396
▁cuantică	-11.6396
▁evrei	-11.6396
▁Delhi	-11.6396
▁roșie	-11.6396
▁esenţă	-11.6396
▁pension	-11.6396
▁household	-11.6397
▁shopping	-11.6397
▁bunăstare	-11.6399
▁deplin	-11.6408
▁şoc	-11.6412
▁crud	-11.6429
▁domina	-11.6474
century	-11.6476
▁coincide	-11.6487
▁January	-11.6487
▁acţiuni	-11.6487
▁column	-11.6487
▁dedesubt	-11.6487
▁depărtare	-11.6487
▁embedded	-11.6487
▁miracle	-11.6487
▁pleacă	-11.6487
▁portrait	-11.6487
▁pyramid	-11.6487
▁vocabular	-11.6487
▁fericiţi	-11.6487
▁violență	-11.6487
▁stroke	-11.6487
▁bucăţi	-11.6487
▁football	-11.6487
▁density	-11.6488
▁contradict	-11.6488
▁depressed	-11.6488
▁existența	-11.6493
▁simulation	-11.6493
▁dezvoltării	-11.6493
▁captivant	-11.6514
free	-11.6515
▁miezul	-11.6515
▁urgent	-11.6524
treaga	-11.6527
▁rula	-11.6547
▁arrive	-11.6554
▁inovaţie	-11.6555
▁rough	-11.6569
▁selectiv	-11.6576
▁Democrat	-11.6578
▁Alexander	-11.6578
▁atmosfera	-11.6578
▁earthquake	-11.6578
▁measuring	-11.6578
▁plenty	-11.6578
▁insurance	-11.6578
▁nedrept	-11.6578
volving	-11.6578
▁bogați	-11.6578
▁anonim	-11.6579
▁drove	-11.6579
▁ensure	-11.6579
▁Gulf	-11.6579
▁pisici	-11.658
▁breed	-11.658
▁Ți	-11.658
▁Noua	-11.658
▁expectations	-11.6582
▁Tatăl	-11.6582
▁animation	-11.6583
▁haos	-11.6584
▁dorinţa	-11.6584
▁neurologic	-11.6594
▁dublu	-11.6601
▁cobor	-11.6623
▁implicit	-11.6654
computer	-11.6661
walk	-11.6665
▁captiv	-11.6669
▁Singapore	-11.6671
▁categorii	-11.6671
▁oricât	-11.6671
▁rebuild	-11.6671
▁defense	-11.6671
▁monument	-11.6671
▁footprint	-11.6671
▁vorbeşte	-11.6671
▁Please	-11.6671
▁utter	-11.6671
▁Sierra	-11.6671
▁laboratoare	-11.6672
▁oarecare	-11.6672
▁Tesla	-11.6672
▁recrut	-11.6674
▁borrow	-11.6674
▁autonomous	-11.6674
▁accessible	-11.6674
▁spray	-11.6674
▁Coast	-11.668
▁înlătur	-11.668
▁munți	-11.6685
ușcă	-11.6688
▁inițiat	-11.6689
▁speriat	-11.6693
▁aplicații	-11.6701
▁glume	-11.6734
▁particle	-11.676
▁adventure	-11.6764
▁funcționeze	-11.6764
▁opposed	-11.6764
▁bătut	-11.6764
▁empatie	-11.6764
▁bullet	-11.6764
▁Secret	-11.6764
▁heaven	-11.6764
▁reacții	-11.6764
▁comandă	-11.6764
▁lecții	-11.6765
▁cauzează	-11.6766
▁disgust	-11.6767
▁intact	-11.6768
▁Syria	-11.677
▁hook	-11.6771
anthrop	-11.6778
▁mancare	-11.678
▁deșeuri	-11.6793
▁măsuri	-11.6817
▁instabil	-11.6821
Yeah	-11.6848
▁câți	-11.6856
▁slip	-11.6858
▁refriger	-11.6859
▁aşteaptă	-11.6859
▁hungry	-11.6859
▁sceptic	-11.6859
▁ticket	-11.6859
▁Clinton	-11.6859
▁Hawaii	-11.6859
▁unealtă	-11.6859
▁request	-11.6859
▁properly	-11.6859
▁Venus	-11.6859
▁cousin	-11.6859
▁minus	-11.6859
▁necesita	-11.686
▁session	-11.6861
▁parole	-11.6861
▁pereche	-11.6861
▁gestiona	-11.6862
▁Național	-11.6863
▁Luther	-11.6865
▁2030	-11.6865
▁crab	-11.6869
▁erup	-11.6879
▁sociolog	-11.688
▁indian	-11.6929
third	-11.6944
▁Jupiter	-11.6954
▁dimineaţă	-11.6954
▁jazz	-11.6954
▁neuroscience	-11.6954
▁provoacă	-11.6954
▁Absolut	-11.6954
▁passenger	-11.6954
▁cyber	-11.6954
▁sintetiz	-11.6954
▁legacy	-11.6954
▁pauză	-11.6954
▁roșii	-11.6954
▁adjust	-11.6955
▁brown	-11.6955
▁inimii	-11.6955
▁blank	-11.6957
▁întins	-11.6958
▁Kong	-11.6958
▁mimic	-11.6961
▁fiinţe	-11.6963
▁Încep	-11.6982
▁organizaţie	-11.6986
▁autoritate	-11.6987
▁insule	-11.6997
▁improviza	-11.6999
▁cadou	-11.7043
▁biciclete	-11.705
▁cromozom	-11.705
▁ușa	-11.705
▁cricket	-11.705
▁eticheta	-11.705
▁executiv	-11.705
▁exposed	-11.705
▁aeroport	-11.705
▁fluctu	-11.705
▁privilegiu	-11.705
▁recruit	-11.705
▁Femeile	-11.705
▁strike	-11.705
▁poison	-11.705
▁backwards	-11.7051
▁pursue	-11.7051
▁heroes	-11.7051
▁nervos	-11.7052
▁surori	-11.7052
▁norocos	-11.7052
▁titan	-11.7052
▁agresiv	-11.7052
▁spark	-11.7053
▁gesture	-11.7054
▁protejeze	-11.7057
▁posibilităţi	-11.7078
▁anunţ	-11.708
▁bilet	-11.7082
▁facilita	-11.7099
▁vizualiza	-11.7116
▁fulfill	-11.7147
▁1999	-11.7147
▁Abraham	-11.7147
▁ONU	-11.7147
▁chromosome	-11.7147
▁description	-11.7147
▁periculoase	-11.7147
▁rainforest	-11.7147
▁rhythm	-11.7147
▁struggling	-11.7147
▁terorist	-11.7147
▁transparency	-11.7147
▁uncomfortable	-11.7147
▁ușă	-11.7147
▁vacuum	-11.7147
▁Nimic	-11.7147
▁rachete	-11.7147
▁dulce	-11.7147
▁Geographic	-11.7148
▁coadă	-11.7148
▁depăşi	-11.7148
▁Indiei	-11.7148
▁poluare	-11.7148
▁Way	-11.7149
▁conceptual	-11.715
▁umanitar	-11.7151
▁sistematic	-11.7151
▁package	-11.7151
▁ingenio	-11.7153
▁apărare	-11.7153
▁multiplic	-11.7159
▁soțul	-11.7186
▁obţin	-11.7189
turn	-11.7205
▁uimit	-11.7227
▁zoo	-11.7229
▁sync	-11.724
▁prăbuş	-11.7245
▁Gabby	-11.7245
▁Virginia	-11.7245
▁entertainment	-11.7245
▁frozen	-11.7245
▁precizie	-11.7245
▁slujbe	-11.7245
▁împărţi	-11.7245
▁îndreaptă	-11.7245
▁Gandhi	-11.7245
▁enhance	-11.7245
▁submarin	-11.7245
▁obesity	-11.7245
▁teoretic	-11.7245
▁clasific	-11.7245
▁Edward	-11.7245
▁worm	-11.7246
▁fusion	-11.7246
▁temple	-11.7246
▁învățământ	-11.7246
▁pasager	-11.7247
▁twin	-11.7247
▁colony	-11.7247
▁Egyptian	-11.7248
▁Brad	-11.7248
▁clue	-11.7249
▁insulin	-11.7249
▁adrese	-11.7249
▁roşu	-11.7253
▁freak	-11.7254
▁judecător	-11.7261
▁susținut	-11.7282
▁Feynman	-11.7344
▁Leonardo	-11.7344
▁Zimbabwe	-11.7344
▁disagree	-11.7344
▁disappoint	-11.7344
▁explosion	-11.7344
▁frequent	-11.7344
▁smooth	-11.7344
▁underground	-11.7344
▁2013	-11.7344
▁2014	-11.7344
▁anterior	-11.7344
▁decrease	-11.7344
▁şanse	-11.7344
▁dovada	-11.7344
▁granted	-11.7344
▁singular	-11.7344
▁dialogue	-11.7344
▁persever	-11.7344
▁bonus	-11.7345
▁dărui	-11.7345
▁Permite	-11.7345
▁exotic	-11.7346
▁intrebare	-11.7346
▁partnership	-11.7346
▁Emma	-11.735
▁şef	-11.7353
When	-11.7434
▁Ethiopia	-11.7444
▁Industrial	-11.7444
▁comentarii	-11.7444
▁identified	-11.7444
▁metaforă	-11.7444
▁opțiune	-11.7444
▁preşedinte	-11.7444
▁textbook	-11.7444
▁închipui	-11.7444
▁boundaries	-11.7444
▁substanțe	-11.7444
▁charity	-11.7444
▁speranța	-11.7444
▁serioase	-11.7444
▁reclame	-11.7445
▁rețeaua	-11.7445
▁aprox	-11.7445
▁deşeuri	-11.7445
▁licen	-11.7446
▁emisiile	-11.7446
▁consequence	-11.7453
plast	-11.7473
▁umbl	-11.7506
▁mandat	-11.7514
▁cunoști	-11.7527
▁lanţ	-11.7529
▁curios	-11.7542
▁căldură	-11.7545
▁disturb	-11.7545
▁festival	-11.7545
▁happier	-11.7545
▁republic	-11.7545
▁spectacular	-11.7545
▁sănătoasă	-11.7545
▁zâmbet	-11.7545
▁înregistrări	-11.7545
▁DVD	-11.7545
▁expresie	-11.7545
▁filosof	-11.7545
▁liniște	-11.7545
▁routine	-11.7545
▁influențe	-11.7545
▁Arthur	-11.7545
▁alcool	-11.7545
▁ferestre	-11.7545
▁substance	-11.7545
▁chaos	-11.7545
▁sugerez	-11.7545
▁îndrum	-11.7545
▁jucăm	-11.7545
▁participants	-11.7546
▁slavery	-11.7547
▁sharp	-11.7548
▁intuition	-11.7548
▁frog	-11.7549
▁umăr	-11.7549
▁Social	-11.7549
▁deranja	-11.7563
▁erori	-11.7569
▁fertil	-11.7598
▁usual	-11.7638
Ț	-11.7645
=	-11.7647
▁Monterey	-11.7647
▁renewable	-11.7647
▁sărbători	-11.7647
▁însărcina	-11.7647
▁înţeleagă	-11.7647
gnostic	-11.7647
▁atribui	-11.7647
▁poziţie	-11.7647
▁Uitați	-11.7647
▁nesigur	-11.7647
▁revista	-11.7647
▁exploda	-11.7647
▁Chinei	-11.7647
▁Stasi	-11.7648
▁simplific	-11.7648
▁injury	-11.7648
▁epuiz	-11.7648
▁demographic	-11.7648
▁domain	-11.7648
▁retina	-11.7648
▁chinui	-11.7648
▁gătit	-11.7648
▁spill	-11.7648
▁honey	-11.7649
▁foloseşti	-11.765
▁universities	-11.7651
▁educaţia	-11.7651
adevar	-11.7706
▁130	-11.772
dollar	-11.774
▁apparently	-11.775
▁confused	-11.775
▁contribution	-11.775
▁elsewhere	-11.775
▁inspiring	-11.775
▁membrane	-11.775
▁nefericit	-11.775
▁plajă	-11.775
▁sandwich	-11.775
▁slujba	-11.775
▁synthetic	-11.775
▁FDA	-11.775
▁dezbateri	-11.775
▁deteriora	-11.775
▁Detroit	-11.775
▁simpla	-11.775
▁Nature	-11.775
▁greșeli	-11.7751
▁serioasă	-11.7751
▁dispărea	-11.7751
▁fifth	-11.7751
▁dobând	-11.7751
▁înveţe	-11.7752
▁lăsând	-11.7752
▁revistă	-11.7752
▁programming	-11.7752
▁arabă	-11.7752
▁paraliza	-11.7756
▁consist	-11.7758
▁craniu	-11.7771
▁parcurg	-11.7798
▁îndepărta	-11.7854
▁Sweden	-11.7855
▁acknowledge	-11.7855
▁ianuarie	-11.7855
▁vârste	-11.7855
▁basket	-11.7855
▁contempl	-11.7855
▁miracol	-11.7855
▁ocazie	-11.7855
▁prădător	-11.7855
▁conferință	-11.7855
▁executa	-11.7855
▁cabinet	-11.7855
▁characteristics	-11.7855
▁Prieten	-11.7855
▁comerț	-11.7855
▁sensory	-11.7855
▁pielii	-11.7855
▁teritoriu	-11.7855
▁calendar	-11.7855
▁relief	-11.7855
▁masura	-11.7855
▁permission	-11.7855
▁substanţ	-11.7855
▁spell	-11.7856
▁toxin	-11.7877
▁steril	-11.7879
▁misca	-11.7926
▁immediate	-11.7948
▁skeptic	-11.796
▁ușoară	-11.796
▁bănui	-11.796
▁Atlanta	-11.796
▁poziția	-11.796
▁poziție	-11.796
▁northern	-11.796
▁Câţi	-11.796
▁whistle	-11.796
▁hrana	-11.796
▁șofer	-11.796
▁copyright	-11.796
▁kidney	-11.7961
▁omenire	-11.7962
▁Kevin	-11.7962
▁naked	-11.7963
▁tragedy	-11.7963
▁socio	-11.7965
▁misiuni	-11.7971
▁găsea	-11.7975
▁capete	-11.7976
▁califica	-11.8032
▁germ	-11.806
Cola	-11.8063
▁1995	-11.8066
▁champion	-11.8066
▁contemporan	-11.8066
▁spontan	-11.8066
▁agricultură	-11.8066
▁altcuiva	-11.8066
▁metabolism	-11.8066
▁perpetu	-11.8066
▁simplicity	-11.8066
▁sketch	-11.8066
▁Câteodată	-11.8066
▁națiuni	-11.8066
▁reclamă	-11.8066
▁sateliţi	-11.8066
▁twist	-11.8066
▁ușur	-11.8066
▁comparison	-11.8066
▁găsește	-11.8066
▁obsedat	-11.8066
▁isolated	-11.8066
▁umbre	-11.8066
▁afterwards	-11.8066
▁IBM	-11.8067
▁chief	-11.8067
▁Ziua	-11.8067
▁eșua	-11.8067
▁examine	-11.8067
▁agency	-11.8067
▁convey	-11.8067
▁Indeed	-11.8067
▁genital	-11.8067
▁legume	-11.8067
▁Domnul	-11.8068
▁coloniz	-11.807
▁vapor	-11.8079
▁specia	-11.8081
▁Simpl	-11.8092
Okay	-11.8163
second	-11.8164
▁Kennedy	-11.8174
▁cosmos	-11.8174
▁yield	-11.8174
▁Berkeley	-11.8174
▁Business	-11.8174
▁Presupun	-11.8174
▁advertising	-11.8174
▁affair	-11.8174
▁astronaut	-11.8174
▁direcţie	-11.8174
▁experiencing	-11.8174
▁funcţioneze	-11.8174
▁inteligență	-11.8174
▁muncesc	-11.8174
▁temporal	-11.8174
▁întoarcă	-11.8174
▁Department	-11.8174
▁essence	-11.8174
▁împrejur	-11.8174
▁soluția	-11.8174
▁Computer	-11.8174
▁incendi	-11.8174
▁'50	-11.8174
▁Queen	-11.8174
resistant	-11.8174
▁sintetic	-11.8174
▁axis	-11.8174
▁Jones	-11.8175
▁disperare	-11.8175
▁vorbă	-11.8176
▁mutual	-11.8177
▁izb	-11.8179
▁Muzeul	-11.8181
▁Robot	-11.8187
▁curge	-11.8189
▁prepare	-11.8258
cellular	-11.8271
Hohote	-11.8282
▁Apollo	-11.8282
▁Benjamin	-11.8282
▁Nairobi	-11.8282
▁Ultimul	-11.8282
▁adolescenți	-11.8282
▁amenințare	-11.8282
▁curriculum	-11.8282
▁elicopter	-11.8282
▁evoluţia	-11.8282
▁evoluţie	-11.8282
▁excepția	-11.8282
▁furniture	-11.8282
▁nenumărate	-11.8282
▁nimănui	-11.8282
▁resilience	-11.8282
▁sincroniz	-11.8282
▁întâmpin	-11.8282
í	-11.8282
▁interconnect	-11.8282
▁plâns	-11.8282
▁MRI	-11.8282
▁fought	-11.8282
▁funcții	-11.8282
▁reputation	-11.8282
▁descompun	-11.8282
▁introvert	-11.8282
▁Nothing	-11.8283
▁ethnic	-11.8283
▁tackle	-11.8283
▁educațional	-11.8284
▁governance	-11.8284
▁experţi	-11.8284
▁buried	-11.8284
▁hidro	-11.829
▁restore	-11.8301
▁conversații	-11.832
▁încarc	-11.832
▁profession	-11.8321
▁instruct	-11.8345
▁horizon	-11.8391
▁slave	-11.8392
▁agencies	-11.8392
▁bacterie	-11.8392
▁breakthrough	-11.8392
▁diagnosis	-11.8392
▁joaca	-11.8392
▁neobișnuit	-11.8392
▁obisnui	-11.8392
▁profesionist	-11.8392
▁revoluţie	-11.8392
▁rădăcini	-11.8392
▁symmetry	-11.8392
▁voștri	-11.8392
▁Joseph	-11.8392
▁ploaie	-11.8392
▁reconcil	-11.8392
▁initiative	-11.8392
▁împerech	-11.8392
▁leverage	-11.8392
▁rezonabil	-11.8392
▁virgin	-11.8392
▁acquire	-11.8392
▁Daniel	-11.8392
▁camioane	-11.8392
▁obezitate	-11.8393
▁plictisitor	-11.8393
▁alunec	-11.8393
▁matern	-11.8393
▁aşadar	-11.8393
▁rabbi	-11.8393
▁Civil	-11.8393
▁informed	-11.8393
▁interzis	-11.8395
▁gear	-11.8395
▁iubea	-11.8396
▁plute	-11.8405
▁dovedi	-11.8477
▁heliu	-11.8487
▁Celălalt	-11.8503
▁Through	-11.8503
▁alcohol	-11.8503
▁democraţie	-11.8503
▁descărca	-11.8503
▁glamour	-11.8503
▁inevitable	-11.8503
▁Charlie	-11.8503
▁athlete	-11.8503
▁Church	-11.8503
▁Girl	-11.8503
▁opinia	-11.8503
▁plain	-11.8504
▁fuziune	-11.8504
▁sacred	-11.8504
▁facility	-11.8504
▁însuşi	-11.8504
▁esența	-11.8504
▁aprinde	-11.8504
▁așadar	-11.8505
▁prezenţ	-11.8505
▁begun	-11.8506
▁iniţiat	-11.8524
▁invade	-11.8526
▁corupție	-11.8616
▁frigider	-11.8616
▁nemaipomenit	-11.8616
▁pesticide	-11.8616
▁vânzări	-11.8616
▁Mozart	-11.8616
▁RMN	-11.8616
▁demonstrez	-11.8616
▁fericirii	-11.8616
▁filantrop	-11.8616
▁flexible	-11.8616
▁skeleton	-11.8616
▁sănătăţii	-11.8616
▁Third	-11.8616
▁nutrition	-11.8616
▁resolve	-11.8616
▁mândru	-11.8616
▁glacier	-11.8616
▁pioneer	-11.8616
▁clienţi	-11.8616
▁detaliat	-11.8616
▁obscur	-11.8616
▁broadcast	-11.8616
▁drift	-11.8616
▁margini	-11.8616
▁cristal	-11.8617
▁Aceea	-11.8617
▁macro	-11.8617
▁certificat	-11.8618
▁mood	-11.8618
▁ratio	-11.8626
▁mask	-11.8634
▁slice	-11.8652
▁traseu	-11.8682
▁condiţi	-11.8693
▁confort	-11.8711
▁terror	-11.8713
Where	-11.8719
▁1994	-11.8729
▁Jewish	-11.8729
▁McDonald	-11.8729
▁SETI	-11.8729
▁XIX	-11.8729
▁astonishing	-11.8729
▁bebeluş	-11.8729
▁helicopter	-11.8729
▁lacrimi	-11.8729
▁mysterious	-11.8729
▁mâncăm	-11.8729
▁neocortex	-11.8729
▁perturb	-11.8729
▁terrifying	-11.8729
▁immense	-11.8729
▁lobby	-11.8729
▁Somalia	-11.8729
▁logistic	-11.8729
▁poziţia	-11.8729
▁amândoi	-11.8729
▁Eastern	-11.8729
▁Cinci	-11.873
▁epoca	-11.873
▁temperaturi	-11.873
▁examen	-11.873
▁țel	-11.873
llowing	-11.8732
▁index	-11.8733
▁mărunt	-11.8735
▁damn	-11.8735
▁justific	-11.8783
▁snap	-11.8783
clav	-11.883
Trebuie	-11.8834
+	-11.8844
▁Mumbai	-11.8844
▁anxietate	-11.8844
▁distribuție	-11.8844
▁figuring	-11.8844
▁ultraviolet	-11.8844
▁Întotdeauna	-11.8844
▁păstrăm	-11.8844
▁Children	-11.8844
▁woke	-11.8844
▁speranţa	-11.8844
▁violența	-11.8844
▁piaţa	-11.8844
▁viziuni	-11.8844
▁abilities	-11.8844
▁deşert	-11.8844
▁remix	-11.8845
▁competitor	-11.8845
▁transmission	-11.8845
▁lecție	-11.8845
▁atelier	-11.8845
▁gamă	-11.8847
▁inspect	-11.8847
▁cumpăr	-11.8852
▁natal	-11.8852
▁flee	-11.8854
▁înspăimânt	-11.8854
social	-11.8878
▁indieni	-11.8879
ographic	-11.8929
▁erou	-11.8948
cuvânt	-11.895
▁overwhelming	-11.8961
▁plănui	-11.8961
▁Interesant	-11.8961
▁Mountain	-11.8961
▁October	-11.8961
▁adăugăm	-11.8961
▁attribute	-11.8961
▁choosing	-11.8961
▁corespund	-11.8961
▁dictionary	-11.8961
▁evoluează	-11.8961
▁exhaust	-11.8961
▁frequency	-11.8961
▁imunitar	-11.8961
▁mechanics	-11.8961
▁muzicii	-11.8961
▁mușchi	-11.8961
▁neobişnuit	-11.8961
▁plătească	-11.8961
▁proaspăt	-11.8961
▁surpriză	-11.8961
▁survivor	-11.8961
▁înălţime	-11.8961
▁Întâi	-11.8961
▁catalog	-11.8961
▁multumesc	-11.8961
▁relaţia	-11.8961
▁pencil	-11.8961
▁manieră	-11.8961
▁translation	-11.8961
▁Child	-11.8961
▁kiss	-11.8961
▁Open	-11.8961
▁altruism	-11.8961
▁primarily	-11.8961
▁Ţi	-11.8962
▁annual	-11.8964
▁shore	-11.8965
▁cantităţi	-11.8981
▁vesel	-11.9011
touch	-11.9069
▁Obiect	-11.9078
▁Similar	-11.9078
▁izbucn	-11.9078
▁tulbura	-11.9078
▁Adevărul	-11.9078
▁Jersey	-11.9078
▁Obviously	-11.9078
▁aggressive	-11.9078
▁cauciuc	-11.9078
▁collaborative	-11.9078
▁competiție	-11.9078
▁dezavantaj	-11.9078
▁dispoziție	-11.9078
▁incluzând	-11.9078
▁muzicieni	-11.9078
▁uşoară	-11.9078
▁descriu	-11.9078
▁ventilat	-11.9078
▁menţionat	-11.9078
▁deoparte	-11.9078
▁discuţii	-11.9078
▁elefant	-11.9078
▁shrink	-11.9078
▁cliff	-11.9078
▁Asadar	-11.9078
▁Suedia	-11.9078
▁apariția	-11.9078
▁screw	-11.9078
▁juridic	-11.9078
▁underlying	-11.9079
▁Ridic	-11.9079
▁tremur	-11.908
▁vagina	-11.9082
▁încălca	-11.9085
▁suprem	-11.9087
▁înșel	-11.9113
▁câţi	-11.9194
▁crystal	-11.9197
▁electoral	-11.9197
▁veterinar	-11.9197
▁Alaska	-11.9197
▁Buddha	-11.9197
▁Philadelphia	-11.9197
▁Următoarea	-11.9197
▁biserică	-11.9197
▁grandchildren	-11.9197
▁grădină	-11.9197
▁revoluția	-11.9197
▁sindrom	-11.9197
▁unbelievable	-11.9197
▁vânzare	-11.9197
▁școlar	-11.9197
▁Tunisia	-11.9197
▁Tokyo	-11.9197
▁dezastre	-11.9197
▁greșeală	-11.9197
▁Brother	-11.9197
▁coboară	-11.9197
▁Everest	-11.9197
▁slogan	-11.9197
▁acționa	-11.9197
▁temper	-11.9198
▁avatar	-11.9198
front	-11.9199
▁comunitar	-11.9201
▁înşel	-11.9205
▁credințe	-11.921
▁redefini	-11.9218
▁acoperă	-11.924
▁extind	-11.9251
estimează	-11.9254
▁displac	-11.9301
▁cunoşti	-11.9317
▁Departamentul	-11.9318
▁aptitudini	-11.9318
▁aventură	-11.9318
▁climei	-11.9318
▁demonstrează	-11.9318
▁direcţia	-11.9318
▁interacționa	-11.9318
▁metabolic	-11.9318
▁mushroom	-11.9318
▁oricărui	-11.9318
▁wheelchair	-11.9318
▁înălțime	-11.9318
▁demografic	-11.9318
▁garbage	-11.9318
▁impression	-11.9318
▁neașteptat	-11.9318
▁qualities	-11.9318
▁respins	-11.9318
▁predispu	-11.9318
▁conspir	-11.9318
▁modalităţi	-11.9318
▁beetle	-11.9318
▁opinii	-11.932
▁dumb	-11.9322
▁interfere	-11.9326
▁flutur	-11.9356
▁remarca	-11.9422
▁Michigan	-11.944
▁Should	-11.944
▁Special	-11.944
▁cibernetic	-11.944
▁diferiţi	-11.944
▁disconnect	-11.944
▁expansion	-11.944
▁expedition	-11.944
▁extension	-11.944
▁fabulous	-11.944
▁incomplet	-11.944
▁intimida	-11.944
▁şansă	-11.944
▁Jesus	-11.944
▁vulcan	-11.944
▁Craig	-11.944
▁încoace	-11.944
▁elastic	-11.944
▁queen	-11.944
▁inherit	-11.944
▁lucrător	-11.944
▁Water	-11.9441
▁bulb	-11.9442
unclear	-11.9443
▁cumpărături	-11.9443
plex	-11.9454
▁scala	-11.9482
▁concret	-11.9491
▁emoțion	-11.9503
▁Bhutan	-11.9563
▁Georgia	-11.9563
▁Snowden	-11.9563
▁aesthetic	-11.9563
▁anonymous	-11.9563
▁consilier	-11.9563
▁contemporary	-11.9563
▁industrii	-11.9563
▁inteligența	-11.9563
▁interacțiuni	-11.9563
▁murmur	-11.9563
▁purchase	-11.9563
▁smoking	-11.9563
▁tabăra	-11.9563
▁FBI	-11.9563
▁violenței	-11.9563
▁Tibet	-11.9563
▁reliable	-11.9563
▁trivial	-11.9563
▁periferi	-11.9563
▁scandal	-11.9563
▁etapă	-11.9563
▁modalități	-11.9564
▁slăbi	-11.9564
▁înflori	-11.9564
▁chimie	-11.9564
▁universitar	-11.9564
▁cosmolog	-11.9565
▁outrage	-11.9571
▁maximiz	-11.9577
▁rezistenţ	-11.9669
technology	-11.9678
sexual	-11.9678
organiza	-11.9681
▁December	-11.9688
▁System	-11.9688
▁Turkey	-11.9688
▁biodiversity	-11.9688
▁breakfast	-11.9688
▁construcție	-11.9688
▁prosthetic	-11.9688
▁rinichi	-11.9688
▁sfarsit	-11.9688
▁neplăcut	-11.9688
▁importanță	-11.9688
▁architectural	-11.9688
▁oprească	-11.9688
▁bogaţi	-11.9688
▁iunie	-11.9689
▁enerva	-11.9689
▁prematur	-11.9689
▁vândă	-11.9689
▁noțiune	-11.9689
▁roşii	-11.9689
▁islamic	-11.9689
▁forgive	-11.969
▁stimulente	-11.969
▁adulţi	-11.969
▁fraud	-11.9691
▁devenea	-11.9693
▁dorințe	-11.9753
ținuți	-11.9765
school	-11.9804
looking	-11.9805
▁Cyrus	-11.9815
▁ciuperci	-11.9815
▁jucărie	-11.9815
▁opţiuni	-11.9815
▁surplus	-11.9815
▁sănătoase	-11.9815
▁arbitrar	-11.9815
▁beneath	-11.9815
▁favoarea	-11.9815
▁hărţi	-11.9815
▁șoarece	-11.9815
▁Little	-11.9815
▁Sarah	-11.9815
▁expresii	-11.9815
▁rezista	-11.9815
▁Priviţi	-11.9815
▁recolta	-11.9815
▁Vroia	-11.9815
▁innocent	-11.9815
assembly	-11.9815
▁Warren	-11.9815
▁expertise	-11.9815
▁fractur	-11.9815
▁accus	-11.9816
Audio	-11.9848
▁beneficiu	-11.989
á	-11.9943
▁controversa	-11.9943
▁1984	-11.9943
▁advocate	-11.9943
▁alfabet	-11.9943
▁awkward	-11.9943
▁bathroom	-11.9943
▁biblioteca	-11.9943
▁consecinţe	-11.9943
▁hypothesis	-11.9943
▁interacțiune	-11.9943
▁pandemic	-11.9943
▁protocol	-11.9943
▁threshold	-11.9943
▁unprecedented	-11.9943
▁înconjoară	-11.9943
▁compelling	-11.9943
▁dureros	-11.9943
▁reaminti	-11.9943
▁diametru	-11.9943
▁fractal	-11.9943
▁facilities	-11.9943
▁Northern	-11.9943
▁Bruno	-11.9943
▁Înțeleg	-11.9943
▁frunte	-11.9943
▁imperativ	-11.9944
▁April	-11.9945
▁luând	-11.9958
▁tricou	-11.9961
▁prostitu	-12.0021
▁Printr	-12.0034
▁exhibit	-12.0058
model	-12.0063
▁interdepende	-12.0065
▁Jefferson	-12.0073
▁direcții	-12.0073
▁dizabilități	-12.0073
▁electromagnetic	-12.0073
▁pharmaceutical	-12.0073
▁procrastin	-12.0073
#	-12.0073
▁Cealaltă	-12.0073
▁February	-12.0073
▁Spanish	-12.0073
▁Vorbesc	-12.0073
▁abordări	-12.0073
▁altundeva	-12.0073
▁aplaud	-12.0073
▁celorlalți	-12.0073
▁conectează	-12.0073
▁exercițiu	-12.0073
▁hărți	-12.0073
▁immigrant	-12.0073
▁impresionat	-12.0073
▁melodie	-12.0073
▁plătesc	-12.0073
▁spontaneous	-12.0073
▁County	-12.0073
▁minciuni	-12.0073
▁ownership	-12.0073
▁lilieci	-12.0073
▁zboare	-12.0073
▁versiuni	-12.0073
▁orgasm	-12.0073
▁College	-12.0073
▁elderly	-12.0073
▁superioară	-12.0073
▁decursul	-12.0073
▁elefanți	-12.0073
▁sublinia	-12.0073
▁Natural	-12.0073
▁granițe	-12.0073
▁elaborate	-12.0073
▁stunt	-12.0073
▁parasite	-12.0073
▁sticla	-12.0073
▁oricui	-12.0074
▁traverse	-12.0075
▁strain	-12.0076
▁abilitate	-12.0132
▁locuințe	-12.0171
traumatic	-12.0177
economic	-12.0194
▁1997	-12.0204
▁Phoenix	-12.0204
▁category	-12.0204
▁descuraj	-12.0204
▁distinguish	-12.0204
▁furnizor	-12.0204
▁geografic	-12.0204
▁greşeli	-12.0204
▁indirect	-12.0204
▁influență	-12.0204
▁primordial	-12.0204
▁păstrează	-12.0204
▁simultaneously	-12.0204
▁spaniol	-12.0204
▁zăpadă	-12.0204
▁îndelungat	-12.0204
▁șobolan	-12.0204
▁Turcia	-12.0204
▁whatsoever	-12.0204
▁cocaine	-12.0204
▁conferinţă	-12.0204
▁depresia	-12.0204
▁generous	-12.0204
▁cheese	-12.0205
▁discuţie	-12.0205
▁intercept	-12.0205
▁thrive	-12.0205
▁siguranța	-12.0205
▁snake	-12.0205
▁Nepal	-12.0205
▁Spain	-12.0205
▁sediment	-12.0205
▁viteze	-12.0205
▁penetra	-12.021
▁clap	-12.0213
▁influent	-12.0232
▁tratez	-12.0249
▁Although	-12.0338
▁Bineînţeles	-12.0338
▁Council	-12.0338
▁Journal	-12.0338
▁altitudine	-12.0338
▁ciocolată	-12.0338
▁empiric	-12.0338
▁evapora	-12.0338
▁exclude	-12.0338
▁explozie	-12.0338
▁extrovert	-12.0338
▁hamburger	-12.0338
▁improbabil	-12.0338
▁recipient	-12.0338
▁tabără	-12.0338
▁hallucinat	-12.0338
▁jewel	-12.0338
▁signature	-12.0338
▁smallpox	-12.0338
▁Friday	-12.0338
▁haideți	-12.0338
▁soluţia	-12.0338
▁harness	-12.0338
▁explorăm	-12.0338
▁găseşte	-12.0338
▁default	-12.0338
▁Bosnia	-12.0338
▁pregătea	-12.0338
▁pierzi	-12.0338
▁ploi	-12.0338
▁nopții	-12.0338
▁hectare	-12.0338
▁microfon	-12.0338
▁recolte	-12.0338
▁parţial	-12.0339
▁crush	-12.034
▁tabere	-12.0341
▁semințe	-12.0345
▁compensa	-12.0349
Listen	-12.0402
organism	-12.0462
ocracy	-12.0472
▁Joshua	-12.0473
▁cocktail	-12.0473
▁microphone	-12.0473
▁CRISPR	-12.0473
▁Elizabeth	-12.0473
▁căldura	-12.0473
▁pancreatic	-12.0473
▁genuine	-12.0473
▁idiot	-12.0473
▁Explor	-12.0473
▁excursi	-12.0473
▁inhibit	-12.0473
▁vitamin	-12.0473
▁rival	-12.0473
▁capacități	-12.0474
▁tocilar	-12.0474
▁altruist	-12.048
▁browser	-12.061
▁commission	-12.061
▁encrypt	-12.061
▁european	-12.061
▁1996	-12.061
▁PowerPoint	-12.061
▁absence	-12.061
▁collaborator	-12.061
▁evolutiv	-12.061
▁hârtia	-12.061
▁iPad	-12.061
▁instantaneu	-12.061
▁kingdom	-12.061
▁magnitude	-12.061
▁offshore	-12.061
▁potrivesc	-12.061
▁strategia	-12.061
▁terrified	-12.061
▁Princeton	-12.061
▁crawl	-12.061
▁oricărei	-12.061
▁suprafețe	-12.061
▁Ajung	-12.061
▁Hubble	-12.061
▁shrimp	-12.061
▁inhabit	-12.061
▁vorbeşti	-12.061
▁striking	-12.061
▁câtorva	-12.061
▁vinovat	-12.061
▁translator	-12.061
▁converge	-12.061
▁poarte	-12.061
▁auditoriu	-12.0613
▁antreprenor	-12.0627
▁appreciat	-12.0671
▁ucid	-12.0707
engineer	-12.0738
natural	-12.0743
▁comporta	-12.0747
▁Himalaya	-12.0749
▁Technology	-12.0749
▁abordăm	-12.0749
▁bibliotecă	-12.0749
▁coordinate	-12.0749
▁decembrie	-12.0749
▁expectancy	-12.0749
▁exposure	-12.0749
▁gentleman	-12.0749
▁greşeală	-12.0749
▁găzdui	-12.0749
▁paianjen	-12.0749
▁paralyzed	-12.0749
▁rapoarte	-12.0749
▁reușesc	-12.0749
▁specimen	-12.0749
▁tattoo	-12.0749
▁testosteron	-12.0749
▁desfăşura	-12.0749
▁ipoteze	-12.0749
▁întâlnea	-12.0749
▁luxury	-12.0749
▁prezența	-12.0749
▁injustice	-12.0749
▁Diego	-12.0749
▁concluzion	-12.0749
▁disabled	-12.0749
▁plasă	-12.0749
▁hub	-12.0749
▁disperat	-12.0756
▁crater	-12.0759
▁tabel	-12.0761
▁măreţ	-12.0784
▁conversaţii	-12.0786
▁fundament	-12.0804
interest	-12.0879
keeper	-12.0881
▁Carnegie	-12.089
▁TEDTalk	-12.089
▁Twenty	-12.089
▁cigarette	-12.089
▁dilemma	-12.089
▁encouraging	-12.089
▁enterprise	-12.089
▁excitement	-12.089
▁neaşteptat	-12.089
▁octombrie	-12.089
▁persuade	-12.089
▁recompense	-12.089
▁reprezinta	-12.089
▁rezervă	-12.089
▁ruşine	-12.089
▁storytelling	-12.089
▁triunghi	-12.089
▁ulterior	-12.089
▁voştri	-12.089
▁Continu	-12.089
▁Linux	-12.089
▁Orleans	-12.089
▁dopamine	-12.089
▁halucina	-12.089
▁bărci	-12.089
▁intended	-12.089
▁cruel	-12.089
▁corporații	-12.089
▁tăcut	-12.089
▁inapoi	-12.089
▁pigeon	-12.089
▁vietii	-12.089
▁silicon	-12.089
▁acopere	-12.0891
▁handicap	-12.0891
▁meduz	-12.0893
Ştii	-12.1001
▁ţânţar	-12.1032
▁Amsterdam	-12.1032
▁ambitious	-12.1032
▁amândouă	-12.1032
▁conștienți	-12.1032
▁desfășura	-12.1032
▁expresia	-12.1032
▁februarie	-12.1032
▁grăsime	-12.1032
▁impressive	-12.1032
▁nicăieri	-12.1032
▁substantial	-12.1032
▁terribly	-12.1032
▁thylacin	-12.1032
▁unconscious	-12.1032
▁yourselves	-12.1032
▁2016	-12.1032
▁excepţia	-12.1032
▁antropolog	-12.1033
▁closing	-12.1033
▁division	-12.1033
▁intitulat	-12.1033
▁proprietăţi	-12.1033
▁geographic	-12.1033
▁methane	-12.1033
▁Woman	-12.1033
▁interrupt	-12.1033
▁lonely	-12.1033
▁visceral	-12.1033
▁aventuri	-12.1033
▁scheme	-12.1033
▁subteran	-12.1033
▁acustic	-12.1033
▁pescari	-12.1034
▁miniatur	-12.1034
▁horizontal	-12.1034
▁băga	-12.1036
credit	-12.1057
efficient	-12.1167
food	-12.1167
politic	-12.1168
▁Cambodia	-12.1177
▁Celsius	-12.1177
▁Galapagos	-12.1177
▁Neanderthal	-12.1177
▁Oklahoma	-12.1177
▁Pennsylvania	-12.1177
▁accumulate	-12.1177
▁civilizaţie	-12.1177
▁dintotdeauna	-12.1177
▁excellent	-12.1177
▁moștenire	-12.1177
▁oxytocin	-12.1177
▁possess	-12.1177
▁prăbuși	-12.1177
▁straightforward	-12.1177
▁syndrome	-12.1177
▁trajectory	-12.1177
▁CMU	-12.1177
▁prezervativ	-12.1177
▁şansa	-12.1177
▁drought	-12.1177
▁theoretical	-12.1177
▁Norway	-12.1177
▁eliberează	-12.1177
▁importanța	-12.1177
▁Uitaţi	-12.1177
▁compliment	-12.1177
▁divorce	-12.1177
▁urăsc	-12.1178
▁distanțe	-12.1178
▁antenna	-12.1178
▁cumplit	-12.1178
▁acţiona	-12.1178
▁Punct	-12.1178
▁vopsea	-12.1179
▁Work	-12.1179
▁sufere	-12.1179
▁tradus	-12.1179
▁Micro	-12.1181
▁aparţin	-12.1182
▁presiuni	-12.1184
▁fermier	-12.1236
Thank	-12.1314
▁recompensa	-12.1324
▁revoluțion	-12.1324
▁1991	-12.1324
▁Etiopia	-12.1324
▁Portugal	-12.1324
▁anterioare	-12.1324
▁collaborate	-12.1324
▁flourish	-12.1324
▁geometry	-12.1324
▁graffiti	-12.1324
▁humanitarian	-12.1324
▁jumatate	-12.1324
▁răbdare	-12.1324
▁supplies	-12.1324
▁tarziu	-12.1324
▁înțelepciune	-12.1324
▁despair	-12.1324
▁matrice	-12.1324
▁trezesc	-12.1324
▁Consili	-12.1324
▁inferior	-12.1324
▁conferinţe	-12.1325
▁diameter	-12.1325
▁reacția	-12.1325
▁heritage	-12.1325
▁sulfur	-12.1325
▁parlament	-12.1325
▁pînă	-12.1325
▁preference	-12.1325
▁alimentat	-12.1325
prehensi	-12.1325
▁Colegi	-12.1325
▁loose	-12.1325
▁proceduri	-12.1325
▁bronz	-12.1325
▁irosi	-12.1326
dovedeşte	-12.1326
▁focaliza	-12.1326
▁sanitar	-12.1328
▁interzic	-12.1329
▁transpir	-12.1353
Ş	-12.2173
Ţ	-12.3462
_	-12.3649
Ă	-12.3838
ó	-12.4226
“	-12.462
*	-12.5491
«	-12.5491
ö	-12.5951
è	-12.6433
—	-12.7192
―	-12.8946
^	-12.9601
ü	-13.0303
⁄	-13.3741
à	-13.4267
ā	-13.6036
@	-13.6036
‘	-13.9019
ä	-13.9928
ø	-13.9928
ù	-13.9928
ê	-13.9928
♫	-14.3279
ȃ	-14.3289
(	-14.6351
”	-14.6374
ī	-14.6385
/	-14.8374
	-14.8385
ô	-14.8385
Á	-15.0885
•	-15.0885
~	-15.4218
ć	-15.4218
♪	-15.9208
̀	-15.9218
म	-15.9218
ọ	-15.9218
ë	-15.9218
送	-15.9218
¡	-15.9218
Å	-15.9218
Ç	-15.9218
È	-15.9218
Č	-15.9218
ě	-15.9218
Ō	-15.9218
ū	-15.9218
̊	-15.9218
प	-15.9218
र	-15.9218
े	-15.9218
्	-15.9218
ẹ	-15.9218
你	-15.9218
葱	-15.9218
Â	-15.9218
ú	-16.9196
É	-16.9197
€	-16.9198
	-16.9199
่	-16.92
ร	-16.9201
ย	-16.9202
ì	-16.9203
Ö	-16.9204
́	-16.9205
£	-16.9206
	-16.9207
อ	-16.9208
–	-16.9209
̈	-16.9209
ï	-16.921
ñ	-16.9211
°	-16.9212
ç	-16.9213
»	-16.9214
ȋ	-16.9215
$	-16.9216
’	-16.9217
¢	-16.9218
ʿ	-16.9218
ӧ	-16.9218
ِ	-16.9218
	-16.9218
¥	-16.9218
®	-16.9218
·	-16.9218
Ï	-16.9218
æ	-16.9218
ò	-16.9218
û	-16.9218
đ	-16.9218
ğ	-16.9218
Š	-16.9218
Ť	-16.9218
ʼ	-16.9218
Φ	-16.9218
[	-16.9218
Ȋ	-16.9218
