<s>	0
<pad>	0
</s>	0
<unk>	0
,	-2.89445
.	-3.23633
s	-4.09522
▁the	-4.17238
▁to	-4.59247
'	-4.65464
▁of	-4.71059
▁a	-4.72346
▁в	-4.73647
▁and	-4.7686
▁и	-4.79675
▁that	-4.95001
▁I	-5.00634
▁in	-5.06592
▁	-5.13009
▁что	-5.20126
а	-5.28849
е	-5.31046
▁is	-5.31902
▁не	-5.33111
▁you	-5.3545
▁на	-5.3593
▁с	-5.36905
▁it	-5.37299
▁we	-5.40651
-	-5.45552
▁—	-5.53574
t	-5.5736
▁я	-5.71874
?	-5.72256
▁And	-5.74409
▁this	-5.75714
▁это	-5.76412
и	-5.81036
:	-5.81226
ы	-5.85641
▁мы	-5.89049
▁по	-5.9033
ing	-5.9576
у	-5.9881
м	-6.00008
▁was	-6.01461
ed	-6.04467
▁for	-6.05187
▁как	-6.09696
d	-6.12012
▁are	-6.1208
▁have	-6.14722
re	-6.15356
▁вы	-6.15882
▁they	-6.19404
▁on	-6.20056
▁у	-6.20251
▁"	-6.2032
▁И	-6.21118
▁за	-6.21799
▁with	-6.24165
▁из	-6.26981
▁о	-6.27471
ов	-6.27933
▁can	-6.29335
▁be	-6.31579
о	-6.31977
▁к	-6.33267
й	-6.35615
▁So	-6.35673
▁what	-6.38747
▁about	-6.40323
▁Я	-6.40356
m	-6.45946
х	-6.46217
т	-6.46528
ом	-6.4765
ли	-6.47857
▁not	-6.49272
я	-6.50104
▁«	-6.53249
▁от	-6.5408
▁do	-6.54422
▁at	-6.54457
с	-6.54507
▁as	-6.55783
▁all	-6.56425
▁my	-6.60285
в	-6.60646
▁so	-6.6297
ой	-6.64288
▁Это	-6.64769
▁для	-6.64893
ly	-6.65074
▁people	-6.65333
)	-6.65466
▁like	-6.66171
▁(	-6.67435
▁there	-6.68311
▁one	-6.69259
▁а	-6.70443
▁from	-6.71594
▁It	-6.73287
▁они	-6.74794
▁our	-6.75124
▁an	-6.75482
▁but	-6.75652
▁то	-6.77276
▁но	-6.77751
▁me	-6.79676
▁or	-6.80895
y	-6.81237
то	-6.81568
▁В	-6.81741
ve	-6.82221
л	-6.82742
▁just	-6.85063
д	-6.8602
ла	-6.86082
▁We	-6.8693
▁так	-6.87645
c	-6.87679
▁Но	-6.88682
▁But	-6.89931
к	-6.89999
▁out	-6.90561
▁чтобы	-6.91459
▁if	-6.93517
▁these	-6.942
er	-6.95198
▁Мы	-6.9593
▁до	-6.96057
▁бы	-6.96548
▁The	-6.96682
▁при	-6.97575
▁know	-6.97585
▁up	-6.98155
al	-6.99175
▁by	-6.99839
▁же	-7.002
▁very	-7.00203
н	-7.00394
ся	-7.00849
▁them	-7.01383
▁when	-7.01573
▁he	-7.02819
ть	-7.03147
ю	-7.03396
▁more	-7.03534
▁had	-7.04131
▁когда	-7.04259
но	-7.05084
n	-7.05318
▁going	-7.05412
▁because	-7.05439
▁их	-7.05602
▁или	-7.06451
р	-7.06583
▁who	-7.07185
▁про	-7.07477
▁see	-7.09122
▁their	-7.09247
▁об	-7.10812
▁А	-7.11297
▁think	-7.11305
го	-7.1137
▁он	-7.11767
▁were	-7.12316
▁your	-7.12942
ет	-7.14387
▁how	-7.15366
ми	-7.1626
▁если	-7.16272
▁было	-7.16306
▁us	-7.16455
▁would	-7.16728
на	-7.17201
ка	-7.18018
ж	-7.18359
▁меня	-7.19344
ки	-7.19353
▁есть	-7.19383
ll	-7.19859
▁really	-7.20325
▁нас	-7.20552
▁which	-7.21192
▁get	-7.22226
ра	-7.22733
▁которые	-7.23972
▁time	-7.2507
e	-7.25491
▁очень	-7.25554
▁раз	-7.27356
▁его	-7.2737
▁со	-7.27449
ами	-7.27968
ем	-7.28569
▁world	-7.29774
п	-7.31497
▁все	-7.31866
▁has	-7.32081
ло	-7.32207
▁С	-7.3226
▁».	-7.32421
es	-7.33086
да	-7.34201
ст	-7.34544
з	-7.35757
▁под	-7.35819
▁some	-7.36626
ая	-7.37051
▁here	-7.37136
▁then	-7.37337
▁don	-7.37462
▁into	-7.37822
▁мне	-7.38304
▁This	-7.38912
o	-7.39443
▁лет	-7.3967
▁way	-7.39677
▁»	-7.40124
▁will	-7.40889
ш	-7.41283
le	-7.41878
▁want	-7.42553
ти	-7.42626
ль	-7.43207
▁where	-7.43471
▁всё	-7.43728
▁years	-7.43907
▁actually	-7.44002
p	-7.447
▁other	-7.44907
▁You	-7.45027
ого	-7.45939
▁go	-7.46436
ах	-7.46664
▁could	-7.46785
▁только	-7.47258
▁now	-7.47651
▁things	-7.47913
ых	-7.49533
▁был	-7.4993
▁make	-7.49943
b	-7.50093
."	-7.50481
g	-7.51067
▁been	-7.51334
▁Now	-7.51694
▁re	-7.52185
▁том	-7.52189
ные	-7.52266
ия	-7.52588
ре	-7.53765
▁They	-7.54042
▁ли	-7.54339
l	-7.5489
им	-7.55327
ку	-7.55837
ые	-7.56546
▁нам	-7.56736
r	-7.57166
▁s	-7.57598
ных	-7.57827
▁людей	-7.58368
▁потому	-7.58515
ri	-7.58861
▁right	-7.58996
▁-	-7.59171
ие	-7.59247
б	-7.59258
г	-7.59734
▁no	-7.60147
u	-7.60586
ей	-7.60843
▁У	-7.61197
▁чем	-7.61241
ый	-7.61281
▁во	-7.61293
▁быть	-7.6139
ри	-7.6143
▁того	-7.61612
ч	-7.61896
ую	-7.62523
▁over	-7.62768
ить	-7.63656
▁than	-7.63665
▁said	-7.64043
▁A	-7.64093
ной	-7.64099
▁больше	-7.6423
▁она	-7.64234
i	-7.64343
сти	-7.64546
▁something	-7.64574
▁those	-7.64689
ic	-7.65056
▁эти	-7.65118
in	-7.66217
ь	-7.66634
;	-7.67138
ий	-7.67477
▁even	-7.68237
▁может	-7.68249
▁first	-7.68341
▁вам	-7.68356
▁two	-7.6864
▁просто	-7.69125
▁In	-7.69625
ле	-7.69968
чи	-7.70018
▁also	-7.70577
та	-7.70602
▁much	-7.7084
▁work	-7.70938
ни	-7.7118
▁этого	-7.71241
▁back	-7.71564
▁Они	-7.71849
a	-7.73159
ро	-7.73435
▁she	-7.73493
ный	-7.74423
▁этом	-7.74832
▁thing	-7.75338
ое	-7.75796
ам	-7.75804
▁На	-7.76527
за	-7.77173
▁были	-7.7718
▁need	-7.77236
▁look	-7.77539
"	-7.77561
or	-7.7771
ля	-7.78228
▁say	-7.78587
▁который	-7.79071
ar	-7.79095
▁где	-7.79136
▁got	-7.79278
▁little	-7.79387
▁life	-7.80009
▁ещё	-7.809
▁his	-7.81062
▁время	-7.81308
▁люди	-7.81444
▁most	-7.81616
▁only	-7.81635
ит	-7.81897
▁была	-7.82301
▁можно	-7.82368
ur	-7.82546
▁Так	-7.83176
▁вас	-7.83317
▁вот	-7.83662
ва	-7.83913
Laughter	-7.84137
▁Он	-7.84438
▁That	-7.84796
w	-7.84929
ется	-7.85629
▁many	-7.86218
▁более	-7.86312
ения	-7.86541
Смех	-7.87283
▁take	-7.87435
▁Вы	-7.88949
▁них	-7.8951
не	-7.90076
▁её	-7.90086
▁будет	-7.90297
ют	-7.90358
▁Если	-7.91017
▁lot	-7.91249
h	-7.91696
об	-7.91784
ная	-7.91827
ым	-7.92024
▁new	-7.92075
ии	-7.92213
ного	-7.92289
те	-7.92529
li	-7.92631
▁пере	-7.92733
их	-7.93324
st	-7.93387
▁Как	-7.94321
▁kind	-7.94374
▁her	-7.94644
th	-7.94661
▁did	-7.9468
ен	-7.9475
▁этот	-7.94935
▁good	-7.95345
ф	-7.95685
▁around	-7.95898
il	-7.9633
ion	-7.96353
ться	-7.96388
▁тем	-7.96538
во	-7.96616
▁What	-7.96786
la	-7.96934
en	-7.96949
▁много	-7.97499
ны	-7.97659
▁К	-7.98006
ок	-7.98031
▁different	-7.98054
▁c	-7.99282
▁даже	-7.99371
вер	-7.99929
▁down	-8.00261
▁Вот	-8.00874
!	-8.00896
▁being	-8.01066
ers	-8.01536
ве	-8.01743
▁уже	-8.02159
▁ре	-8.02229
па	-8.02793
▁нужно	-8.02925
ation	-8.0311
▁every	-8.03259
ным	-8.03546
it	-8.03672
▁S	-8.03838
▁кто	-8.03887
▁этой	-8.04106
▁There	-8.04117
I	-8.04558
ко	-8.0471
▁use	-8.04781
▁through	-8.04796
ro	-8.05242
▁10	-8.05336
▁He	-8.05408
▁g	-8.05606
▁сделать	-8.05817
f	-8.059
▁same	-8.06213
▁жизни	-8.06646
ке	-8.07913
▁come	-8.07962
ch	-8.08228
▁себя	-8.08437
ру	-8.08744
▁Что	-8.09543
▁нет	-8.09887
▁один	-8.10103
ме	-8.10371
ra	-8.10605
▁всего	-8.10896
▁–	-8.11105
ин	-8.11178
▁можем	-8.11449
ать	-8.11833
▁B	-8.12175
▁day	-8.12262
ive	-8.12263
ан	-8.12486
га	-8.13664
жи	-8.13843
▁20	-8.13853
ent	-8.14997
▁здесь	-8.15436
ются	-8.15544
ци	-8.15651
an	-8.16384
че	-8.1733
el	-8.1751
▁de	-8.1755
▁put	-8.17586
▁doing	-8.18108
▁сейчас	-8.18226
▁tell	-8.18525
et	-8.18841
▁По	-8.18983
▁three	-8.19091
▁percent	-8.19094
ce	-8.19257
ров	-8.1954
▁также	-8.19608
us	-8.21173
му	-8.21211
▁P	-8.21213
▁If	-8.21618
▁им	-8.2201
де	-8.22056
▁human	-8.22137
▁ма	-8.22532
▁own	-8.22628
▁этих	-8.22649
ча	-8.23444
▁any	-8.23996
ят	-8.24038
ное	-8.24068
▁Когда	-8.24286
▁могут	-8.24295
сть	-8.24322
▁Не	-8.24375
ение	-8.24582
пи	-8.2494
ment	-8.25222
ity	-8.25346
▁well	-8.25464
▁called	-8.25888
se	-8.25996
▁ни	-8.26235
или	-8.26348
▁самом	-8.26752
▁made	-8.27292
▁fact	-8.27986
ную	-8.28139
▁должны	-8.28286
▁которая	-8.28449
▁рас	-8.28453
▁find	-8.2852
▁всех	-8.29055
ты	-8.29241
S	-8.29519
лись	-8.29782
▁should	-8.30015
▁C	-8.30055
▁change	-8.30268
ду	-8.30424
ста	-8.31032
k	-8.3107
от	-8.31409
▁why	-8.31477
▁F	-8.31633
ne	-8.318
able	-8.31943
ил	-8.31944
▁part	-8.32088
▁didn	-8.32182
▁без	-8.32921
▁year	-8.33161
ate	-8.33257
▁О	-8.33383
▁un	-8.33735
▁after	-8.33939
▁Well	-8.33944
▁co	-8.34908
▁talk	-8.35066
ви	-8.35083
ir	-8.35342
▁деле	-8.3544
▁today	-8.35579
ту	-8.3563
▁там	-8.36392
▁let	-8.36517
te	-8.36546
x	-8.36578
лю	-8.36747
лу	-8.36776
ну	-8.37029
▁started	-8.37397
▁thought	-8.3747
▁г	-8.37697
▁E	-8.38492
▁idea	-8.38841
A	-8.39114
ul	-8.39231
▁great	-8.39295
ры	-8.39596
▁19	-8.39655
▁да	-8.40014
▁хочу	-8.40728
ше	-8.40782
▁вопрос	-8.40964
▁might	-8.4113
ал	-8.41348
▁better	-8.41471
▁Она	-8.41609
по	-8.41673
▁before	-8.41719
▁con	-8.41886
▁эту	-8.41955
▁себе	-8.4197
ter	-8.42361
ают	-8.42394
ор	-8.42486
▁last	-8.42702
▁назад	-8.42721
кой	-8.42742
ies	-8.42789
ний	-8.43114
он	-8.43441
ости	-8.43801
▁ты	-8.43866
▁думаю	-8.43893
▁never	-8.43921
▁мир	-8.44307
ными	-8.44472
ma	-8.44669
,"	-8.44725
▁off	-8.45138
▁problem	-8.45148
▁те	-8.45185
▁после	-8.45247
%	-8.45363
▁пред	-8.45381
▁important	-8.45492
▁give	-8.45712
▁через	-8.45817
▁сказал	-8.46013
id	-8.46206
ё	-8.46431
▁пол	-8.46512
▁still	-8.46597
▁жизнь	-8.47
▁Итак	-8.47289
▁можете	-8.47324
ию	-8.47329
▁big	-8.47531
▁над	-8.4756
▁system	-8.47601
▁p	-8.47682
▁человек	-8.47924
▁3	-8.48039
▁point	-8.48046
▁действительно	-8.48046
▁Э	-8.48185
▁д	-8.48227
▁went	-8.48449
тор	-8.48599
▁end	-8.48688
▁день	-8.48741
on	-8.49055
лась	-8.49143
▁together	-8.49145
▁з	-8.49198
est	-8.49278
▁able	-8.49325
ность	-8.49339
▁bit	-8.4934
зна	-8.49463
щ	-8.50255
▁лучше	-8.50438
▁start	-8.50532
▁ко	-8.50591
▁few	-8.50879
?"	-8.51053
▁мире	-8.51243
бы	-8.51621
ыми	-8.51729
▁long	-8.51736
ает	-8.51778
▁another	-8.51863
би	-8.52046
▁place	-8.52066
ма	-8.52154
али	-8.52237
▁brain	-8.52363
ход	-8.52395
▁him	-8.52495
▁тех	-8.52542
▁Б	-8.52559
ар	-8.52719
▁делать	-8.53008
▁call	-8.53253
▁несколько	-8.5346
ер	-8.53487
lo	-8.53591
▁help	-8.53594
▁эта	-8.53609
ol	-8.53614
at	-8.53688
▁course	-8.54092
лен	-8.54373
▁года	-8.54576
▁story	-8.54625
▁show	-8.54753
▁next	-8.5487
мен	-8.55058
▁When	-8.55083
▁came	-8.55171
ist	-8.55171
ите	-8.55215
ди	-8.55295
D	-8.55394
тер	-8.55562
ков	-8.55649
▁ago	-8.5568
ож	-8.55894
▁st	-8.56128
▁found	-8.56135
▁де	-8.5624
▁t	-8.56474
▁этим	-8.5651
▁women	-8.56516
ств	-8.56634
▁real	-8.56896
▁между	-8.56951
ном	-8.57055
▁water	-8.57217
▁Да	-8.5725
▁each	-8.57357
▁too	-8.57709
▁love	-8.57804
ив	-8.57857
▁feel	-8.57938
ности	-8.58126
пе	-8.58318
▁которых	-8.5841
ня	-8.58561
ировать	-8.58776
▁году	-8.58779
ете	-8.58843
age	-8.59103
▁mean	-8.59238
▁возможно	-8.59354
▁data	-8.59555
ба	-8.59624
▁question	-8.59642
z	-8.59764
▁пре	-8.5984
▁design	-8.59841
▁does	-8.59951
▁»,	-8.60079
же	-8.60203
▁времени	-8.60266
сто	-8.60319
ще	-8.60402
про	-8.60417
ком	-8.60897
са	-8.61016
▁способ	-8.61107
▁п	-8.61163
ness	-8.6124
▁used	-8.61244
2	-8.61544
▁М	-8.61631
▁again	-8.61772
▁U	-8.61856
ut	-8.62256
pe	-8.6226
▁between	-8.62348
▁believe	-8.62387
um	-8.62462
▁б	-8.62727
▁live	-8.63027
ши	-8.63031
▁сегодня	-8.63154
ство	-8.63171
M	-8.63301
▁пока	-8.63558
▁technology	-8.63598
v	-8.63605
▁home	-8.63628
to	-8.6365
▁перед	-8.63749
ine	-8.63892
C	-8.6416
▁происходит	-8.64178
ним	-8.64421
...	-8.6457
ния	-8.64781
ia	-8.65391
▁ш	-8.65564
▁understand	-8.65631
▁Д	-8.65643
as	-8.65695
▁example	-8.6581
▁момент	-8.6639
▁30	-8.66511
▁sort	-8.6664
mp	-8.66663
▁каждый	-8.66675
▁бо	-8.66934
▁b	-8.67301
ck	-8.67384
лся	-8.67853
ta	-8.67979
ние	-8.6894
ость	-8.69328
бо	-8.69613
ении	-8.69771
▁v	-8.69996
лет	-8.70467
▁год	-8.70467
▁doesn	-8.70485
▁па	-8.70689
▁wanted	-8.71078
▁которой	-8.7143
1	-8.71534
▁man	-8.71621
▁Ф	-8.71813
3	-8.71871
до	-8.72061
▁person	-8.7241
ги	-8.72437
▁почему	-8.72525
5	-8.72643
▁looking	-8.72772
мер	-8.72797
▁may	-8.7285
▁four	-8.72877
▁50	-8.72921
nt	-8.72975
ho	-8.73201
▁образом	-8.73218
▁сказать	-8.73261
▁именно	-8.73263
дер	-8.73269
ол	-8.73279
▁school	-8.7329
▁e	-8.73324
▁мо	-8.7335
▁П	-8.73414
▁space	-8.73504
▁light	-8.73654
▁always	-8.73718
▁э	-8.73744
▁других	-8.73791
▁детей	-8.7389
▁всегда	-8.74061
▁children	-8.74363
▁experience	-8.74406
▁create	-8.74662
mo	-8.74765
de	-8.74783
▁т	-8.74806
▁done	-8.74924
ry	-8.75132
▁человека	-8.75197
вод	-8.75595
▁ever	-8.7564
vi	-8.75704
▁Поэтому	-8.75709
is	-8.76066
▁♫	-8.76148
▁два	-8.76158
ru	-8.76161
ver	-8.7631
нов	-8.76421
ge	-8.76675
▁second	-8.76985
ted	-8.77178
▁car	-8.77191
▁никогда	-8.77206
▁country	-8.77299
▁high	-8.77628
▁working	-8.77825
▁могли	-8.77884
▁Г	-8.78057
▁То	-8.78074
▁pro	-8.78246
0	-8.78366
раж	-8.78438
tic	-8.78514
▁million	-8.78683
▁нашей	-8.78694
sh	-8.78699
im	-8.78788
▁power	-8.78819
▁наши	-8.78883
▁G	-8.78966
▁po	-8.79029
▁whole	-8.79116
▁away	-8.79233
бе	-8.79244
раз	-8.7933
]	-8.79405
су	-8.79604
▁100	-8.79616
▁своей	-8.7962
▁M	-8.79735
▁[	-8.79814
▁trying	-8.79927
▁мой	-8.79972
▁которую	-8.79996
лы	-8.80059
пу	-8.80123
▁кор	-8.80377
▁Because	-8.80454
▁является	-8.80461
ём	-8.80479
un	-8.80603
мы	-8.80986
ель	-8.81051
▁dis	-8.81228
си	-8.81743
▁свою	-8.81746
мо	-8.82012
▁проект	-8.82293
me	-8.82297
▁три	-8.82301
▁вместе	-8.82304
na	-8.82357
ел	-8.82434
▁small	-8.82442
ance	-8.82512
из	-8.82554
▁its	-8.82671
ён	-8.82748
ting	-8.82808
▁компьютер	-8.82866
ща	-8.82958
no	-8.83046
▁важно	-8.83064
▁теперь	-8.8329
▁open	-8.83386
▁try	-8.83479
ty	-8.8357
7	-8.83663
▁form	-8.83892
▁которое	-8.84057
▁будут	-8.84494
▁Мне	-8.84667
▁under	-8.84723
▁4	-8.84799
▁using	-8.84868
▁него	-8.85033
▁For	-8.85054
▁часть	-8.85091
▁такой	-8.85096
▁ба	-8.8517
▁thinking	-8.85227
вать	-8.85255
▁How	-8.85332
▁тогда	-8.85435
зи	-8.85463
▁Т	-8.85617
▁means	-8.85722
ism	-8.86013
▁maybe	-8.86221
▁моей	-8.86412
▁am	-8.86697
▁Thank	-8.86744
со	-8.86749
▁использовать	-8.86891
▁old	-8.87128
ша	-8.8715
▁money	-8.87335
уд	-8.87397
▁information	-8.8743
ating	-8.87447
▁moment	-8.87498
▁TED	-8.87676
▁лишь	-8.87686
▁hard	-8.87736
ев	-8.87813
▁могу	-8.8791
ёт	-8.8796
▁T	-8.87969
8	-8.8805
▁такие	-8.88067
▁social	-8.8825
▁тот	-8.8832
сь	-8.88392
▁took	-8.88512
▁future	-8.88616
▁kids	-8.88699
▁everything	-8.88816
▁become	-8.88846
▁Mo	-8.89373
▁hand	-8.8954
▁five	-8.89636
▁D	-8.89743
сс	-8.90059
▁женщин	-8.90329
po	-8.90405
нт	-8.90855
▁ex	-8.90964
▁5	-8.90967
ней	-8.911
▁number	-8.91102
бу	-8.91112
▁друг	-8.91178
▁15	-8.91363
ек	-8.91373
емся	-8.91408
▁другой	-8.9147
уч	-8.9154
▁My	-8.91617
▁план	-8.91692
▁кон	-8.91701
▁enough	-8.91803
▁За	-8.91876
▁потом	-8.91946
вы	-8.91983
▁sense	-8.92006
▁пример	-8.92202
▁знаю	-8.92233
▁наших	-8.92307
▁process	-8.92367
▁одна	-8.92439
▁мозг	-8.92544
▁care	-8.92607
иться	-8.92703
6	-8.92829
бер	-8.9288
▁видите	-8.92958
he	-8.92959
▁left	-8.92988
co	-8.93004
▁пор	-8.9306
жа	-8.93141
▁One	-8.93302
▁вещи	-8.93407
ca	-8.93442
род	-8.93516
ции	-8.93642
▁f	-8.93643
Applause	-8.93666
▁best	-8.93808
am	-8.9388
▁свои	-8.94026
▁ask	-8.94058
Аплодисменты	-8.94138
ated	-8.94236
ат	-8.94363
▁ничего	-8.94507
up	-8.94583
вид	-8.9485
▁ста	-8.95082
▁Все	-8.95459
▁хорошо	-8.9555
▁K	-8.95652
пол	-8.95713
▁2	-8.95756
▁США	-8.95781
э	-8.9598
▁getting	-8.9603
▁She	-8.96073
▁Ma	-8.9611
ous	-8.96119
B	-8.96302
▁истории	-8.9637
▁говорит	-8.96377
tor	-8.96572
тов	-8.96695
вал	-8.96781
▁lives	-8.96875
кра	-8.9691
▁прав	-8.96944
▁интерес	-8.96949
pa	-8.97089
нее	-8.97105
9	-8.97108
▁bring	-8.9712
▁тоже	-8.97133
ti	-8.97331
ца	-8.9735
▁мира	-8.97395
▁процесс	-8.97611
аем	-8.97754
ут	-8.97821
▁less	-8.97853
T	-8.97889
ства	-8.9819
пра	-8.98393
▁play	-8.98489
4	-8.98505
▁head	-8.98552
▁воз	-8.98689
op	-8.98724
▁поэтому	-8.98764
▁понять	-8.988
▁answer	-8.98874
▁without	-8.98943
▁затем	-8.99043
▁ответ	-8.99075
less	-8.99121
▁При	-8.99128
▁body	-8.99212
▁making	-8.99215
min	-8.99231
▁food	-8.99261
ска	-8.99296
▁per	-8.99597
ран	-8.99628
▁место	-8.99685
ник	-9.00224
▁немного	-9.00377
▁These	-9.00469
▁side	-9.00535
ед	-9.00591
▁talking	-9.00592
nd	-9.00773
▁men	-9.00811
▁face	-9.00823
▁например	-9.00934
цы	-9.0094
▁young	-9.00947
ful	-9.01006
зы	-9.01039
▁As	-9.01181
▁family	-9.01329
hi	-9.0141
▁told	-9.01457
▁planet	-9.01577
▁таких	-9.01637
ос	-9.01827
▁вер	-9.02263
▁probably	-9.02408
▁1	-9.02497
▁build	-9.02663
▁Теперь	-9.02693
▁проблема	-9.02767
▁room	-9.02784
▁quite	-9.03038
▁interesting	-9.03182
▁та	-9.0328
жен	-9.03347
▁happened	-9.03375
▁одной	-9.03378
▁другие	-9.03384
ha	-9.03401
▁h	-9.036
бл	-9.03626
▁значит	-9.03743
▁Co	-9.03753
ально	-9.03815
▁keep	-9.03845
tra	-9.03922
,000	-9.03982
▁000	-9.04252
▁matter	-9.04252
ды	-9.04316
ally	-9.04365
▁energy	-9.04368
▁конечно	-9.04641
▁ma	-9.04703
▁мест	-9.04776
▁comes	-9.0495
▁Ма	-9.05117
ир	-9.05348
▁чего	-9.05443
▁стар	-9.05509
▁times	-9.0551
▁health	-9.05547
▁move	-9.05555
▁To	-9.05615
хо	-9.05656
▁знаем	-9.05776
▁свет	-9.05823
▁найти	-9.05838
▁знаете	-9.05854
▁New	-9.05907
▁science	-9.05952
▁countries	-9.06013
лось	-9.0602
▁No	-9.06046
▁такое	-9.06222
ian	-9.06479
вали	-9.06551
▁reason	-9.06608
▁долларов	-9.06641
P	-9.06791
▁пе	-9.06862
▁Во	-9.06895
▁пар	-9.07017
▁global	-9.07083
▁anything	-9.07203
▁across	-9.07262
ke	-9.07292
▁such	-9.07333
▁building	-9.07364
bo	-9.07534
▁mo	-9.07536
▁ка	-9.07632
▁одно	-9.07954
▁Для	-9.08047
▁стать	-9.08108
стра	-9.08157
ис	-9.08169
▁пу	-9.08312
▁снова	-9.08413
L	-9.08498
▁цен	-9.08558
▁получ	-9.0878
▁проблемы	-9.08795
▁far	-9.08895
▁оно	-9.0895
▁возможность	-9.08955
▁pretty	-9.09138
▁помощью	-9.09228
ber	-9.09493
▁learn	-9.0956
▁Спасибо	-9.0975
ению	-9.09771
▁happen	-9.09785
▁simple	-9.09935
▁war	-9.09939
▁dollars	-9.1006
ad	-9.10091
▁billion	-9.10135
▁около	-9.10244
ig	-9.10505
▁ему	-9.10507
ip	-9.10797
▁наш	-9.10816
per	-9.10919
▁half	-9.10921
▁coming	-9.10927
▁работы	-9.10945
мет	-9.11043
com	-9.11063
ум	-9.11114
ary	-9.11234
▁control	-9.11395
▁самое	-9.11405
E	-9.11461
▁asked	-9.1152
▁м	-9.1159
▁bad	-9.11634
▁создать	-9.11637
▁saw	-9.11697
be	-9.1177
кон	-9.11777
▁некоторые	-9.11799
ись	-9.11829
▁конце	-9.1191
це	-9.12033
ure	-9.12148
ской	-9.12156
▁часто	-9.12164
▁Let	-9.12248
▁идея	-9.12328
▁living	-9.12618
▁тому	-9.12655
▁stuff	-9.12938
се	-9.13016
▁else	-9.13061
нии	-9.1322
bi	-9.13224
▁sh	-9.13236
▁40	-9.13379
▁having	-9.13383
▁работу	-9.13572
▁всем	-9.13586
▁d	-9.13609
▁дело	-9.13778
▁project	-9.13955
▁hope	-9.13979
▁18	-9.14046
▁хотел	-9.14102
▁while	-9.14148
▁надо	-9.14195
▁mind	-9.14211
чно	-9.14287
▁remember	-9.14404
▁сам	-9.14585
▁свой	-9.14651
▁моя	-9.14698
R	-9.14918
▁Here	-9.14986
▁later	-9.15038
▁своих	-9.1505
фи	-9.15144
▁set	-9.15149
вая	-9.15476
▁Ш	-9.15555
▁seen	-9.15624
▁single	-9.15716
▁Потому	-9.15716
▁работает	-9.15819
ring	-9.16088
▁often	-9.16105
▁public	-9.16129
юсь	-9.16149
▁O	-9.16242
king	-9.16272
▁state	-9.16296
▁ум	-9.16424
▁вид	-9.16466
▁community	-9.16554
▁данные	-9.16564
▁Эти	-9.16564
▁pre	-9.16644
ила	-9.16713
ie	-9.16792
▁J	-9.16893
▁age	-9.16919
▁выбор	-9.17023
▁St	-9.17053
гл	-9.17195
▁Про	-9.17345
▁почти	-9.17345
▁both	-9.17492
▁Мо	-9.17546
G	-9.17557
след	-9.17748
▁ней	-9.17819
ence	-9.17912
▁city	-9.18029
ling	-9.18198
ому	-9.18546
▁case	-9.18591
▁Нам	-9.18592
▁многие	-9.18611
тель	-9.18656
▁закон	-9.18756
▁работать	-9.18763
▁образ	-9.18767
▁Africa	-9.18782
▁работа	-9.18823
▁необходимо	-9.18864
ист	-9.18873
▁almost	-9.1888
old	-9.18939
man	-9.19015
O	-9.19041
▁две	-9.19043
▁случае	-9.19207
▁read	-9.19254
▁bo	-9.19259
▁гор	-9.19348
ni	-9.19429
ится	-9.1964
ц	-9.19641
дел	-9.1976
▁N	-9.1987
▁еще	-9.19968
▁прямо	-9.19973
нибудь	-9.20031
ак	-9.20065
▁Сейчас	-9.20099
ized	-9.20282
щих	-9.20284
▁Почему	-9.20372
▁делает	-9.20383
▁art	-9.20397
▁happens	-9.20601
▁ways	-9.20791
di	-9.20963
▁Earth	-9.20989
▁буду	-9.21109
▁picture	-9.21113
ция	-9.21193
▁days	-9.21257
▁имеет	-9.21262
▁должен	-9.21264
ова	-9.21322
ize	-9.2144
▁imagine	-9.21471
▁computer	-9.21605
бра	-9.21641
▁someone	-9.21669
▁myself	-9.21886
▁минут	-9.21897
К	-9.21925
овать	-9.21986
▁makes	-9.22047
▁пи	-9.22058
▁inside	-9.22158
▁увидеть	-9.22164
▁мог	-9.22271
щие	-9.22272
▁какой	-9.22309
▁течение	-9.22311
▁sure	-9.22316
▁goes	-9.22342
▁test	-9.22358
▁ле	-9.22501
ха	-9.22509
ден	-9.22563
▁already	-9.22652
▁двух	-9.22652
при	-9.22866
ot	-9.22894
▁оста	-9.23006
▁name	-9.23069
▁достаточно	-9.23073
▁людям	-9.23073
▁r	-9.23086
▁close	-9.23091
лей	-9.23105
va	-9.23293
▁само	-9.23395
▁кажется	-9.23425
▁сложно	-9.23429
▁All	-9.23583
mi	-9.23825
▁wrong	-9.23848
▁saying	-9.23965
▁says	-9.24025
▁тысяч	-9.24117
чит	-9.24301
▁таким	-9.24325
▁миллионов	-9.2446
▁yet	-9.24489
лин	-9.2465
▁стран	-9.24823
▁200	-9.24951
ac	-9.25024
▁12	-9.25102
▁части	-9.25192
▁ведь	-9.25202
▁До	-9.25249
▁research	-9.2531
ации	-9.25326
▁занима	-9.25331
▁мозга	-9.25458
▁problems	-9.25465
▁job	-9.25478
ять	-9.25528
▁стали	-9.25647
ba	-9.25766
▁технологии	-9.25777
▁меньше	-9.25849
▁своего	-9.25874
▁looked	-9.25885
▁sp	-9.26177
▁видим	-9.2627
ant	-9.26284
▁market	-9.2629
▁цел	-9.26367
▁слишком	-9.265
▁nothing	-9.26502
▁run	-9.26567
▁род	-9.26717
▁order	-9.2678
rt	-9.26977
ving	-9.26993
▁di	-9.26998
тся	-9.27044
▁L	-9.27199
пло	-9.27253
▁whether	-9.27376
ству	-9.27393
▁количество	-9.27449
▁amazing	-9.2767
▁history	-9.2767
▁быстро	-9.27744
▁once	-9.27835
оз	-9.2788
▁possible	-9.28038
▁six	-9.28038
ens	-9.28392
рог	-9.28476
▁Do	-9.28479
rs	-9.2848
▁music	-9.28563
ard	-9.28574
ran	-9.28774
▁этому	-9.28805
▁cancer	-9.28858
fi	-9.28976
С	-9.29011
one	-9.29074
▁business	-9.29084
▁изменить	-9.29128
▁mother	-9.29385
ес	-9.29437
оп	-9.29471
ились	-9.29536
▁program	-9.29604
▁Why	-9.29735
▁months	-9.29763
▁созда	-9.29811
▁app	-9.29842
ton	-9.29875
▁слова	-9.29917
ъ	-9.30275
▁гр	-9.30339
дать	-9.30348
▁book	-9.30588
▁group	-9.30732
▁government	-9.30737
либо	-9.30796
▁child	-9.30803
чу	-9.30857
ления	-9.3091
▁self	-9.30957
ster	-9.31039
▁опыт	-9.31048
che	-9.31092
▁Х	-9.31205
▁Давайте	-9.31261
▁всему	-9.31307
les	-9.31386
гла	-9.31431
▁ж	-9.31479
гу	-9.31542
ors	-9.31548
▁показать	-9.31676
▁доступ	-9.31722
ось	-9.3178
▁video	-9.31796
▁education	-9.31873
▁night	-9.32027
▁Дж	-9.32044
▁собира	-9.32419
вет	-9.32557
▁ген	-9.32666
▁wasn	-9.32773
▁жив	-9.32902
ial	-9.32917
▁words	-9.32949
▁within	-9.32981
ания	-9.33052
▁город	-9.33154
▁beautiful	-9.33185
▁true	-9.33185
итель	-9.33303
▁начал	-9.33379
▁точно	-9.33394
▁говорить	-9.33564
ight	-9.33606
том	-9.33796
ain	-9.33815
▁couple	-9.33886
▁language	-9.34121
▁past	-9.34159
ус	-9.34238
▁line	-9.34274
▁говорил	-9.34293
go	-9.34334
▁Ну	-9.3448
▁собой	-9.34517
▁тре	-9.34518
▁w	-9.34665
▁Есть	-9.34697
ских	-9.34733
хи	-9.34784
▁R	-9.34809
▁ус	-9.34828
▁stop	-9.3496
вин	-9.34962
▁совершенно	-9.35019
do	-9.35143
▁heart	-9.35193
нс	-9.35228
▁одного	-9.35572
▁особенно	-9.35587
дум	-9.3561
▁эксперимент	-9.35622
▁тут	-9.35644
▁cells	-9.35776
son	-9.35819
▁comp	-9.35918
ск	-9.36002
ешь	-9.36123
▁top	-9.36152
ясь	-9.36159
▁heard	-9.36316
ns	-9.36342
▁learned	-9.36411
▁Всё	-9.36502
жу	-9.36524
▁совсем	-9.36662
▁Re	-9.36691
▁United	-9.36823
ками	-9.3693
▁6	-9.36939
▁stories	-9.36984
▁мои	-9.37054
▁говорят	-9.37165
▁large	-9.37215
▁дома	-9.37519
ман	-9.37644
▁air	-9.37705
▁котором	-9.37706
▁видео	-9.37707
▁миру	-9.37719
пер	-9.37738
▁th	-9.3787
▁результат	-9.37908
land	-9.3803
▁внимание	-9.38202
▁turn	-9.38245
▁ее	-9.38324
ud	-9.38346
▁knew	-9.38365
ner	-9.38451
▁начали	-9.38498
▁ideas	-9.38614
▁share	-9.38637
▁guy	-9.38669
▁until	-9.38693
00	-9.38943
".	-9.3898
▁pay	-9.39023
▁lo	-9.39175
стве	-9.39345
▁woman	-9.39434
▁многих	-9.39517
▁Е	-9.39581
▁V	-9.39582
нос	-9.3967
▁black	-9.39682
▁Де	-9.39738
▁вокруг	-9.39765
N	-9.39894
fe	-9.39921
▁built	-9.39931
М	-9.40006
▁дети	-9.40073
▁difference	-9.40098
▁видеть	-9.40207
▁study	-9.40339
▁должно	-9.40348
▁environment	-9.40365
▁довольно	-9.40366
▁начала	-9.40446
рас	-9.40489
▁basically	-9.40521
ского	-9.40556
▁en	-9.40562
▁свобод	-9.40598
▁звук	-9.406
ёр	-9.40688
▁страны	-9.40712
▁системы	-9.40728
▁язык	-9.40732
▁система	-9.40748
▁бес	-9.40808
▁ди	-9.40809
▁act	-9.40912
▁60	-9.40984
кан	-9.40986
▁людьми	-9.41018
▁Ro	-9.41035
▁though	-9.41147
ях	-9.41188
▁нашего	-9.41195
▁team	-9.41311
▁сделали	-9.41315
▁От	-9.41334
▁наше	-9.41508
чат	-9.41523
▁Or	-9.41572
▁decided	-9.41599
ep	-9.41633
▁проблем	-9.4168
нем	-9.41688
▁класс	-9.41763
▁became	-9.41776
▁стал	-9.41854
▁must	-9.42016
▁Со	-9.42079
▁факт	-9.42202
ach	-9.42246
▁America	-9.42257
▁house	-9.42292
▁Ч	-9.42302
port	-9.42344
▁25	-9.42401
▁friends	-9.42446
ations	-9.42778
ик	-9.42834
ими	-9.42898
▁новые	-9.4295
The	-9.43004
▁чём	-9.43055
▁Нет	-9.43091
▁фильм	-9.43141
we	-9.43187
▁looks	-9.43187
que	-9.432
ea	-9.43219
▁view	-9.43232
▁front	-9.43398
цию	-9.43477
oc	-9.43599
сси	-9.43606
▁land	-9.43702
▁De	-9.43824
тен	-9.43869
ative	-9.4395
▁существует	-9.44002
▁обычно	-9.44019
▁Эта	-9.44054
con	-9.44075
▁исследования	-9.44175
▁голос	-9.44179
▁model	-9.44213
▁La	-9.44237
▁Этот	-9.44293
▁l	-9.44296
▁mi	-9.44345
▁free	-9.44427
▁sub	-9.44485
▁11	-9.44547
уп	-9.44672
way	-9.44682
K	-9.44709
▁делают	-9.4492
▁ho	-9.45017
▁Здесь	-9.45045
ень	-9.45061
пы	-9.45142
▁against	-9.4523
▁хотим	-9.45308
▁species	-9.45313
▁история	-9.45396
▁word	-9.45405
the	-9.45443
ap	-9.4545
▁ourselves	-9.45484
▁примерно	-9.45495
▁OK	-9.45582
ator	-9.45664
▁хотя	-9.45856
▁since	-9.45924
▁рак	-9.4593
ина	-9.46063
▁phone	-9.4608
▁бизнес	-9.461
▁hear	-9.46107
▁exactly	-9.46125
▁помочь	-9.46189
▁ос	-9.46336
▁помог	-9.46402
▁deal	-9.46435
▁труд	-9.4652
изм	-9.46528
▁experiment	-9.46632
ther	-9.46642
рон	-9.46761
▁самых	-9.468
▁внутри	-9.46811
▁всю	-9.46824
▁стоит	-9.46835
▁9	-9.46849
▁completely	-9.46859
▁W	-9.46878
▁Из	-9.46893
▁телефон	-9.46901
▁7	-9.46934
▁personal	-9.46978
▁sometimes	-9.46989
лов	-9.47
▁стороны	-9.4706
▁themselves	-9.47077
ский	-9.47103
▁Го	-9.47104
▁places	-9.4719
▁бел	-9.47243
нуть	-9.47259
▁суд	-9.47327
▁States	-9.47436
▁вроде	-9.47444
▁против	-9.47462
▁figure	-9.47484
нг	-9.47646
ang	-9.47695
▁force	-9.47777
▁taking	-9.47794
▁данных	-9.47801
▁сказала	-9.47895
кс	-9.4795
ями	-9.47981
▁leave	-9.48064
▁step	-9.48108
▁society	-9.48244
▁решения	-9.48244
тр	-9.48347
▁8	-9.48445
▁isn	-9.48472
▁piece	-9.48479
▁сами	-9.48486
▁company	-9.48516
▁huge	-9.48516
ники	-9.48544
форм	-9.48575
▁questions	-9.4858
▁sound	-9.48604
▁somebody	-9.48697
нут	-9.48728
ick	-9.48729
mer	-9.48742
▁получить	-9.48781
▁culture	-9.48788
▁информации	-9.48788
▁первый	-9.4879
чен	-9.48962
ite	-9.48986
ng	-9.48986
▁сильно	-9.48987
▁imp	-9.48999
gg	-9.49009
ился	-9.49033
▁культур	-9.49047
▁ним	-9.49163
▁уверен	-9.49273
▁works	-9.49291
and	-9.493
ish	-9.49318
▁everybody	-9.49334
▁happening	-9.49353
илась	-9.49431
▁ca	-9.49446
ью	-9.49599
dy	-9.49599
row	-9.4971
▁кого	-9.49735
раб	-9.49769
нию	-9.49783
▁80	-9.49819
▁natural	-9.49883
шёл	-9.49923
▁Ha	-9.49994
led	-9.5009
▁pi	-9.50168
▁историю	-9.50251
▁economic	-9.50343
▁hours	-9.50354
▁cause	-9.50356
▁места	-9.50359
ья	-9.50416
ее	-9.50461
▁Ро	-9.50497
▁след	-9.50529
▁настолько	-9.50805
▁рук	-9.50848
▁насколько	-9.50898
▁рассказать	-9.50922
зов	-9.5094
▁cell	-9.50999
▁se	-9.51003
io	-9.51018
▁support	-9.51083
ены	-9.51088
▁disease	-9.5109
▁интересно	-9.51096
чёт	-9.51138
вой	-9.5117
▁Об	-9.51208
▁instead	-9.51269
▁nature	-9.5127
▁разных	-9.51286
▁Be	-9.51476
нес	-9.51515
телей	-9.51601
ели	-9.51638
▁ло	-9.51674
ward	-9.51692
атель	-9.51792
▁ту	-9.51903
▁Однако	-9.51938
ация	-9.51943
ning	-9.51956
▁которым	-9.51998
▁отправ	-9.52081
▁walk	-9.52366
▁моего	-9.5241
▁everyone	-9.52434
ряд	-9.52452
его	-9.5256
▁York	-9.52675
▁дом	-9.52689
▁level	-9.5278
▁воды	-9.5283
▁Нью	-9.52868
тели	-9.53013
▁ком	-9.53086
дар	-9.53104
▁risk	-9.53148
ается	-9.53195
кор	-9.53237
▁itself	-9.53243
▁означает	-9.53243
▁открыт	-9.53324
▁difficult	-9.53338
ping	-9.53441
▁сред	-9.53626
ятся	-9.53639
▁students	-9.5364
▁Al	-9.53793
ур	-9.53827
▁worked	-9.53861
шу	-9.53881
▁деньги	-9.54052
▁сто	-9.54122
▁постоянно	-9.54176
▁speak	-9.54226
▁image	-9.54271
ец	-9.54298
▁couldn	-9.5431
▁компании	-9.54485
▁population	-9.54485
end	-9.54565
▁сделал	-9.54598
▁learning	-9.54603
▁expect	-9.54677
▁называем	-9.54677
▁created	-9.54685
ики	-9.54725
H	-9.54812
▁неё	-9.5485
ву	-9.55032
▁нами	-9.55038
ual	-9.55062
▁fish	-9.55195
бот	-9.55257
ug	-9.55281
▁Ка	-9.55306
red	-9.55349
▁тра	-9.55475
▁вами	-9.55492
▁женщины	-9.55514
und	-9.55553
▁моих	-9.55626
▁групп	-9.55744
ника	-9.55793
дет	-9.55846
▁Л	-9.55924
▁Some	-9.5604
▁ей	-9.56102
▁At	-9.56125
▁thousands	-9.56164
▁благодаря	-9.5623
uc	-9.56306
енных	-9.56306
▁Сегодня	-9.56328
▁along	-9.56426
▁early	-9.56426
▁становится	-9.56524
▁менее	-9.56524
▁ошиб	-9.56531
ские	-9.56535
ga	-9.56671
▁rest	-9.56699
▁machine	-9.56825
▁му	-9.56842
▁fl	-9.5686
дут	-9.5689
ities	-9.56908
ание	-9.5691
ала	-9.56916
▁rather	-9.56927
ical	-9.5695
▁всей	-9.57009
▁Ре	-9.57011
▁Internet	-9.57015
▁энергии	-9.57015
▁exist	-9.57083
▁объект	-9.57114
А	-9.57185
▁animals	-9.57196
▁universe	-9.57213
▁риск	-9.57248
▁тер	-9.57262
▁ocean	-9.5741
▁одну	-9.57411
▁behavior	-9.57509
▁least	-9.57509
▁entire	-9.57578
лек	-9.57686
▁наша	-9.5769
▁решение	-9.57819
▁карт	-9.57996
▁метод	-9.58106
▁local	-9.58106
▁network	-9.58106
▁стр	-9.58198
ана	-9.58213
енные	-9.58265
▁ra	-9.58295
▁Google	-9.58305
▁pick	-9.58348
▁Люди	-9.58405
▁другом	-9.58414
ена	-9.58635
П	-9.5872
ake	-9.5882
W	-9.58838
▁Ко	-9.58871
▁outside	-9.589
▁Например	-9.58906
▁minutes	-9.58918
▁fear	-9.58947
▁American	-9.58979
ab	-9.591
▁говорю	-9.59107
▁изменения	-9.59107
▁полностью	-9.59121
▁Le	-9.59285
▁turns	-9.59348
▁short	-9.59411
▁grow	-9.59566
дин	-9.59602
▁большинство	-9.59713
▁последние	-9.59713
ow	-9.5975
стру	-9.59838
▁feeling	-9.59924
F	-9.59937
▁готов	-9.60014
▁color	-9.60018
cent	-9.60023
ась	-9.60023
▁города	-9.60052
▁стало	-9.60079
▁множество	-9.60119
▁картин	-9.60119
▁met	-9.60135
line	-9.60206
▁poor	-9.60214
▁никто	-9.60222
▁Ba	-9.6023
▁находится	-9.60343
▁волн	-9.60417
▁поз	-9.60502
▁которого	-9.60526
▁Может	-9.60528
▁die	-9.6053
▁представить	-9.60542
овой	-9.60569
▁должна	-9.60731
ались	-9.60734
os	-9.60771
▁боль	-9.60895
▁мере	-9.61054
▁friend	-9.61074
Н	-9.61172
▁бед	-9.61242
▁political	-9.61243
ред	-9.61254
ика	-9.61275
▁Then	-9.61347
ions	-9.61601
▁иногда	-9.61656
tion	-9.61683
▁подход	-9.61705
▁game	-9.61764
▁молод	-9.61809
▁buy	-9.61863
▁present	-9.61967
▁дела	-9.62078
пре	-9.6212
ble	-9.62196
▁won	-9.62196
▁центр	-9.62247
▁мной	-9.62263
▁full	-9.62272
▁взгляд	-9.62277
▁third	-9.62277
ски	-9.62342
▁своё	-9.62445
▁common	-9.62485
▁обо	-9.6257
▁H	-9.62581
▁structure	-9.62589
▁возможности	-9.6262
цен	-9.62659
▁kinds	-9.62675
▁равно	-9.62694
nu	-9.62702
щи	-9.62702
▁death	-9.62798
три	-9.62882
чь	-9.62894
▁field	-9.62902
▁сколько	-9.62902
▁спросил	-9.63035
▁scale	-9.63036
▁cost	-9.63069
рос	-9.63073
▁dream	-9.63112
▁причин	-9.63261
▁нашем	-9.63273
▁pl	-9.6328
дей	-9.63298
▁большой	-9.63321
▁gave	-9.63322
▁цвет	-9.6336
▁такого	-9.63389
▁felt	-9.63427
▁cities	-9.63568
▁changed	-9.63628
em	-9.63634
▁начать	-9.63762
▁particular	-9.63824
▁access	-9.63848
▁Конечно	-9.63848
ever	-9.63872
▁news	-9.64145
ex	-9.64162
▁companies	-9.64377
▁ними	-9.64412
она	-9.64429
▁reach	-9.64446
And	-9.6449
Д	-9.64526
▁others	-9.64552
ках	-9.64561
▁red	-9.64605
▁Те	-9.64644
▁middle	-9.64696
ющие	-9.64704
▁имею	-9.64726
▁стране	-9.64729
day	-9.6475
▁гораздо	-9.64802
▁ла	-9.64906
▁amount	-9.64909
▁CA	-9.64997
wa	-9.65004
▁стол	-9.65005
дает	-9.65071
▁taken	-9.65099
▁самый	-9.651
▁week	-9.65107
▁зрения	-9.65336
▁будем	-9.65447
▁иметь	-9.65567
▁бу	-9.65715
▁материал	-9.6579
▁cr	-9.65804
▁главн	-9.65813
енно	-9.65814
▁arm	-9.6582
▁оп	-9.65821
▁мало	-9.65836
lie	-9.65867
▁раньше	-9.65873
▁сможем	-9.65873
▁тебя	-9.65874
▁India	-9.6588
oo	-9.65953
▁современн	-9.65981
▁systems	-9.66027
▁высок	-9.66069
▁думать	-9.66089
▁друга	-9.66143
▁соверш	-9.66163
▁жить	-9.66164
ook	-9.66188
▁точки	-9.66269
gen	-9.6639
▁достиг	-9.6642
смотря	-9.66426
side	-9.66461
▁благо	-9.66512
▁принцип	-9.66522
теля	-9.66542
▁вес	-9.66544
during	-9.66561
▁страх	-9.66616
▁Mi	-9.66641
▁la	-9.6666
ному	-9.66698
▁du	-9.66727
bu	-9.66878
▁behind	-9.66956
ивает	-9.67018
▁четыре	-9.67065
▁win	-9.67105
ющих	-9.67168
▁90	-9.67179
▁powerful	-9.67204
▁yourself	-9.67283
▁seven	-9.67284
▁record	-9.67284
етесь	-9.67321
ирует	-9.67422
▁parents	-9.67467
▁easy	-9.67612
▁media	-9.67646
qui	-9.67679
гра	-9.67716
fa	-9.67805
нд	-9.67857
▁China	-9.67941
▁выглядит	-9.67941
▁reality	-9.6813
ship	-9.68283
ющий	-9.68346
▁одном	-9.68361
▁информацию	-9.68382
▁идеи	-9.68392
▁drive	-9.68464
ration	-9.68556
▁прост	-9.68561
▁Bo	-9.68726
нул	-9.68751
вар	-9.68757
▁needed	-9.68885
ron	-9.68952
тан	-9.68977
▁seeing	-9.68977
▁map	-9.6903
▁gets	-9.6909
О	-9.69127
▁Можно	-9.69158
▁туда	-9.69237
▁Или	-9.69237
▁вещей	-9.69273
▁given	-9.69292
▁развива	-9.69317
ability	-9.6935
уча	-9.69378
аться	-9.69459
▁On	-9.6947
▁своим	-9.69498
ывает	-9.69525
▁нужны	-9.69607
ious	-9.69623
year	-9.6967
▁paper	-9.69716
тал	-9.69777
▁realized	-9.69816
▁eyes	-9.69902
▁велик	-9.70071
▁фа	-9.7008
▁подумал	-9.70094
ization	-9.70159
▁began	-9.70165
▁product	-9.70267
▁physical	-9.70277
ible	-9.70285
ян	-9.70297
▁общественн	-9.70585
▁turned	-9.70605
йте	-9.70606
▁mis	-9.707
▁ну	-9.70706
▁sea	-9.70753
▁стала	-9.70768
чный	-9.70804
▁size	-9.7085
▁систему	-9.70881
аль	-9.71019
▁намного	-9.71044
▁стра	-9.71097
▁kid	-9.7113
▁center	-9.71185
▁guys	-9.71214
▁масштаб	-9.71241
овые	-9.71249
▁какие	-9.71309
ывать	-9.71339
▁дня	-9.71364
▁дел	-9.71385
брос	-9.714
овых	-9.71477
▁spend	-9.71503
▁слово	-9.71518
▁вообще	-9.71523
▁area	-9.71564
фер	-9.71592
ительно	-9.71641
by	-9.7167
▁cannot	-9.71753
rr	-9.71824
айте	-9.71857
▁Таким	-9.71863
▁куда	-9.71876
▁low	-9.71931
▁fall	-9.71983
ny	-9.72068
▁longer	-9.72068
▁simply	-9.72094
▁интернет	-9.72097
▁God	-9.72179
ировал	-9.72185
▁называется	-9.72209
▁century	-9.7229
▁father	-9.72326
▁нравится	-9.72328
нь	-9.72354
▁Po	-9.72411
▁happy	-9.72439
▁нашу	-9.72453
▁вопросы	-9.72469
▁ск	-9.72551
нные	-9.72555
▁ст	-9.72562
▁stay	-9.72649
▁каждого	-9.72784
▁solve	-9.72788
▁вместо	-9.729
▁beginning	-9.72907
ld	-9.72935
▁прос	-9.72937
Р	-9.73008
▁помощи	-9.73015
▁’	-9.73015
▁film	-9.73016
▁З	-9.73038
▁считаю	-9.73181
▁voice	-9.73363
mon	-9.73385
▁посмотреть	-9.73479
▁challenge	-9.73558
бор	-9.7357
▁certain	-9.73582
▁explain	-9.73595
▁нечто	-9.73611
cy	-9.73669
▁key	-9.73716
▁той	-9.73755
cl	-9.73758
▁хотят	-9.73801
▁measure	-9.73828
▁shape	-9.73831
кий	-9.73841
ишь	-9.73866
мент	-9.73884
▁photograph	-9.73946
ением	-9.73977
ируют	-9.73996
▁hands	-9.74034
меш	-9.7406
▁имеют	-9.74224
▁14	-9.74341
▁ответил	-9.74367
▁плохо	-9.74414
лён	-9.74418
▁17	-9.74443
▁normal	-9.74531
нной	-9.74551
▁пути	-9.7465
▁16	-9.74654
▁super	-9.74656
ign	-9.74729
▁смысл	-9.74741
▁protect	-9.74804
▁Ho	-9.74805
▁новый	-9.74839
▁ba	-9.74861
▁знать	-9.74886
▁являются	-9.74897
▁экономическ	-9.7493
ak	-9.74942
▁осозн	-9.74972
▁needs	-9.74982
▁машин	-9.75063
▁sign	-9.75089
ction	-9.7515
▁делаем	-9.75213
что	-9.75248
▁трудно	-9.75293
▁non	-9.75325
ile	-9.75425
▁climate	-9.75474
▁send	-9.75481
▁странах	-9.75535
тельно	-9.7555
▁plan	-9.75643
▁правда	-9.75825
▁взять	-9.75859
▁После	-9.75908
▁дать	-9.7591
▁Возможно	-9.76069
лез	-9.76099
▁finally	-9.76128
▁generation	-9.76313
▁follow	-9.76407
▁среди	-9.76442
▁eight	-9.76453
▁хотели	-9.76508
▁любой	-9.7652
▁месяцев	-9.76556
И	-9.7656
▁Li	-9.76607
▁орган	-9.76635
▁represent	-9.76667
art	-9.76693
▁class	-9.76705
act	-9.76723
▁Кто	-9.76726
▁movement	-9.76745
▁te	-9.76776
▁kill	-9.76791
▁женщина	-9.76813
рен	-9.76863
▁70	-9.76929
▁perhaps	-9.77028
▁университет	-9.77028
▁rate	-9.77072
▁говорили	-9.77126
вление	-9.77224
▁blood	-9.77269
смотр	-9.77271
▁запис	-9.77308
ler	-9.77335
ord	-9.77359
▁Ми	-9.77389
nce	-9.77457
зу	-9.77495
▁области	-9.77511
▁save	-9.77633
нер	-9.77636
▁impact	-9.77639
В	-9.77651
▁весь	-9.77691
▁врач	-9.77726
▁важны	-9.77729
ском	-9.77737
▁♪	-9.77755
стер	-9.77762
▁Our	-9.77827
▁принима	-9.7783
▁moving	-9.77893
▁сказали	-9.77903
▁treat	-9.77922
▁эффект	-9.77982
▁strong	-9.77996
▁terms	-9.7818
▁begin	-9.78234
▁takes	-9.78236
▁People	-9.78239
▁уровень	-9.78239
▁разум	-9.78271
▁pe	-9.78284
▁легко	-9.78314
▁мужчин	-9.78334
▁value	-9.78404
q	-9.7843
▁wonder	-9.78477
▁произошло	-9.78483
▁месте	-9.78533
▁расс	-9.7857
щей	-9.78612
▁Can	-9.78657
▁продукт	-9.7868
▁white	-9.78731
▁spent	-9.78777
use	-9.78819
▁lost	-9.78914
▁ваши	-9.78941
клон	-9.78967
▁хотите	-9.78973
▁спустя	-9.79096
▁период	-9.79096
▁долго	-9.79098
▁существ	-9.79177
цев	-9.79184
▁работ	-9.79276
▁пять	-9.79464
▁пару	-9.79514
ников	-9.79534
▁special	-9.79592
▁видели	-9.79623
▁шаг	-9.79637
ывают	-9.79695
her	-9.7973
▁потеря	-9.79733
▁sc	-9.79734
▁Te	-9.79813
ваем	-9.79848
▁stand	-9.79978
▁lots	-9.80037
▁ground	-9.80103
▁ability	-9.80116
▁invest	-9.80132
bra	-9.80155
▁крайне	-9.80155
▁...	-9.80257
▁глаза	-9.8053
стан	-9.80582
аются	-9.80582
▁Затем	-9.80582
ack	-9.807
▁населения	-9.80708
▁break	-9.80711
▁океан	-9.80715
мон	-9.80817
▁device	-9.80832
▁говоря	-9.80926
▁ваш	-9.80932
▁attention	-9.80957
▁conversation	-9.80957
▁Га	-9.80972
▁Хорошо	-9.81002
чить	-9.81033
▁уровне	-9.81093
▁модель	-9.81099
▁рассказ	-9.81269
ists	-9.81313
▁surface	-9.81333
▁tried	-9.81481
шка	-9.81514
ющая	-9.81684
▁wonderful	-9.81724
▁путь	-9.81772
ируем	-9.81825
ировали	-9.81833
цией	-9.81926
▁прод	-9.81949
сон	-9.81952
▁approach	-9.81964
▁robot	-9.82071
▁воздух	-9.82091
Т	-9.82133
▁тела	-9.82148
▁organ	-9.82226
мин	-9.82262
▁невероятно	-9.82304
▁travel	-9.82344
▁focus	-9.8236
▁13	-9.82381
вит	-9.82394
ute	-9.82411
▁определённ	-9.82476
▁quickly	-9.82526
дал	-9.82548
▁особ	-9.82582
нное	-9.82621
▁источник	-9.82726
▁денег	-9.82726
▁технология	-9.82726
▁produce	-9.82761
тра	-9.82773
▁whatever	-9.82802
▁стоя	-9.8284
▁office	-9.82849
▁blue	-9.82853
▁patients	-9.82866
ments	-9.82893
▁рыб	-9.82938
▁район	-9.82981
▁узнать	-9.82982
▁humans	-9.82986
▁либо	-9.82987
ide	-9.83035
▁вз	-9.8308
ise	-9.83129
▁био	-9.83131
▁реально	-9.83133
▁ради	-9.83158
▁Именно	-9.83238
▁кое	-9.83315
сел	-9.83347
▁parts	-9.8335
▁add	-9.83365
под	-9.83404
▁increase	-9.83494
Г	-9.83555
▁кол	-9.83625
▁ones	-9.83684
▁хорош	-9.83686
▁allow	-9.83702
ская	-9.83762
▁cut	-9.83802
▁лидер	-9.83806
ром	-9.83844
▁known	-9.83857
▁ДНК	-9.8388
щий	-9.83899
тар	-9.83923
▁Са	-9.8399
рь	-9.83994
▁программ	-9.83997
▁дальше	-9.84009
▁получил	-9.84093
▁wall	-9.84204
ger	-9.84206
▁Just	-9.84294
▁стен	-9.84339
▁самым	-9.84363
▁sun	-9.84375
гре	-9.844
▁girl	-9.84418
▁fire	-9.8443
▁em	-9.84432
▁игра	-9.84547
▁поиск	-9.84566
▁часов	-9.84619
▁fun	-9.84629
▁наблюда	-9.84639
▁Тогда	-9.84656
дя	-9.84668
▁individual	-9.84681
▁opportunity	-9.84786
ид	-9.84801
▁Lo	-9.84812
ee	-9.84905
▁situation	-9.84917
▁будущем	-9.84924
шел	-9.84929
граф	-9.84999
дж	-9.85006
▁лично	-9.85025
чные	-9.85028
▁Ты	-9.85034
▁будто	-9.85047
▁клетки	-9.85047
▁Ar	-9.85176
▁dark	-9.8518
▁работе	-9.85311
▁deep	-9.8539
▁могла	-9.85403
▁повтор	-9.85441
▁gone	-9.85456
▁interested	-9.8549
▁weeks	-9.85518
▁lead	-9.85576
▁oil	-9.85608
lock	-9.85655
▁Ti	-9.85663
▁born	-9.85692
▁hit	-9.85795
ита	-9.85807
▁Его	-9.85832
▁provide	-9.85833
▁Not	-9.85933
▁проч	-9.85989
▁hold	-9.86001
▁ужас	-9.86067
▁итоге	-9.86097
▁message	-9.86104
▁o	-9.86161
▁based	-9.86294
▁отношения	-9.8636
You	-9.86421
▁write	-9.86476
▁either	-9.86492
▁eat	-9.86615
инг	-9.86699
▁Sa	-9.86744
рез	-9.86759
▁животных	-9.86801
▁смогли	-9.86889
▁матери	-9.86917
нет	-9.86994
▁complex	-9.86997
▁DNA	-9.87023
▁тело	-9.87083
кие	-9.87099
вание	-9.87137
▁спасибо	-9.8729
light	-9.87408
▁доход	-9.87425
иц	-9.87527
▁вещь	-9.87557
▁штат	-9.87565
▁sitting	-9.8757
▁актив	-9.87589
istic	-9.876
▁growth	-9.87604
▁разные	-9.87623
▁инструмент	-9.87672
▁видел	-9.87686
▁safe	-9.87692
▁im	-9.87704
▁inter	-9.87788
▁potential	-9.87825
▁впервые	-9.87825
▁ход	-9.87947
▁виду	-9.87952
▁character	-9.87959
сер	-9.88002
▁sta	-9.88031
▁решили	-9.88078
ические	-9.88104
стей	-9.88285
▁политик	-9.88334
▁число	-9.88364
mate	-9.88373
▁которыми	-9.8839
▁fe	-9.88393
ear	-9.88412
жение	-9.88437
ome	-9.88478
▁smart	-9.88498
▁Ca	-9.88526
▁причина	-9.88527
nder	-9.88551
sa	-9.88606
▁clear	-9.88639
чески	-9.88649
рой	-9.88677
▁Right	-9.88784
▁trust	-9.88904
фор	-9.88914
▁организм	-9.89052
ice	-9.89114
▁одним	-9.89124
▁realize	-9.89129
уют	-9.89145
▁Pa	-9.89151
ставить	-9.89168
▁average	-9.89176
▁будущее	-9.89183
▁решил	-9.89345
▁fast	-9.89489
▁scientists	-9.89524
▁result	-9.89556
▁связан	-9.89695
гад	-9.89719
▁truth	-9.89857
▁медицинск	-9.89857
▁возник	-9.89871
ической	-9.89905
▁новых	-9.8993
▁sex	-9.89964
▁основан	-9.90014
cc	-9.90047
рабатыва	-9.90063
ians	-9.9017
▁рост	-9.90184
▁Z	-9.90215
▁фото	-9.90264
▁подобн	-9.90264
▁обращ	-9.90289
еди	-9.90343
▁р	-9.90344
полне	-9.90369
▁другим	-9.90387
▁500	-9.90421
form	-9.90495
▁вся	-9.90543
▁economy	-9.90544
▁наконец	-9.90545
▁j	-9.90651
▁общества	-9.9082
пит	-9.90837
▁action	-9.90847
люб	-9.90863
альные	-9.90877
ходят	-9.90889
▁рода	-9.90892
ических	-9.90895
iv	-9.90904
▁stage	-9.90911
сов	-9.90925
▁chance	-9.90959
▁Один	-9.90993
▁Ли	-9.91091
▁богат	-9.91106
izing	-9.91115
ev	-9.91124
▁руки	-9.91133
▁Ge	-9.91137
твор	-9.91163
▁человеческ	-9.91164
rac	-9.91194
▁состав	-9.91198
ню	-9.91213
олог	-9.91243
ants	-9.91351
▁post	-9.91476
мат	-9.91486
ало	-9.91487
▁thank	-9.91494
ям	-9.91539
pri	-9.91622
▁частью	-9.91635
▁morning	-9.91653
▁wouldn	-9.9175
▁literally	-9.91793
▁теле	-9.91797
▁Mar	-9.91858
▁знают	-9.91936
▁material	-9.91944
▁работают	-9.91994
▁Си	-9.92103
▁understanding	-9.9215
▁growing	-9.92151
▁такая	-9.92165
ием	-9.92165
▁alone	-9.92215
▁объясн	-9.92231
▁Р	-9.92254
▁path	-9.92342
lin	-9.92352
▁medical	-9.92355
▁сделан	-9.92365
чная	-9.92371
▁цифр	-9.9239
▁camera	-9.92472
▁некоторых	-9.92493
▁коллег	-9.92494
▁создан	-9.92542
давать	-9.92546
▁Okay	-9.92567
▁развития	-9.92774
▁connect	-9.92783
▁object	-9.928
▁прошлом	-9.92874
▁cover	-9.9288
ern	-9.92943
▁seem	-9.92953
▁leg	-9.92986
▁создания	-9.93005
ган	-9.9302
▁давайте	-9.9306
ned	-9.93133
▁Ж	-9.93169
▁рядом	-9.9318
▁элемент	-9.93198
ват	-9.93262
▁рад	-9.93267
ило	-9.93288
ирую	-9.93315
▁main	-9.9332
ray	-9.93325
▁абсолютно	-9.93332
▁Every	-9.9334
▁связи	-9.93352
▁форм	-9.93354
▁issue	-9.93382
▁21	-9.93384
▁используют	-9.93396
What	-9.93463
▁shows	-9.93474
вания	-9.93523
▁hundreds	-9.9353
▁другими	-9.9353
▁box	-9.93673
вно	-9.93696
▁pull	-9.93768
▁images	-9.93818
щу	-9.93881
альной	-9.93911
чер	-9.93983
▁пришлось	-9.94055
▁идёт	-9.94067
▁continue	-9.9415
▁brought	-9.94194
тек	-9.94235
вить	-9.9424
▁Da	-9.94251
▁incredible	-9.94337
rate	-9.94356
▁круг	-9.94382
▁Y	-9.94399
▁качестве	-9.9448
▁similar	-9.94624
▁большое	-9.94624
▁разговор	-9.94624
▁дизайн	-9.94631
▁numbers	-9.94716
▁nice	-9.94788
▁bar	-9.94853
▁Ра	-9.94922
hy	-9.9496
клад	-9.94962
▁k	-9.94996
▁cool	-9.9501
▁lab	-9.9504
▁каким	-9.95056
▁правильно	-9.95069
силь	-9.95147
▁американск	-9.95244
▁watch	-9.95281
▁лес	-9.95295
чет	-9.9532
ог	-9.95325
▁дней	-9.95405
▁чист	-9.95426
▁movie	-9.95489
▁African	-9.95554
▁мед	-9.95595
▁ф	-9.95619
▁changes	-9.95627
▁тебе	-9.95705
▁фи	-9.95713
▁girls	-9.95756
▁знали	-9.95762
▁areas	-9.95846
▁Wa	-9.95901
▁душ	-9.95911
▁решить	-9.95935
ries	-9.95944
шен	-9.95959
ген	-9.95975
▁чувство	-9.96015
дела	-9.96192
▁ок	-9.96223
▁известно	-9.96228
▁seems	-9.96232
шки	-9.96233
ток	-9.96345
▁hospital	-9.96362
▁раздел	-9.96368
▁tools	-9.96414
вала	-9.96425
▁pass	-9.96472
▁обе	-9.96524
▁development	-9.96548
▁telling	-9.96579
▁Con	-9.96647
аг	-9.96719
тон	-9.9674
кси	-9.96765
▁хотела	-9.96782
▁World	-9.96801
▁knowledge	-9.96801
▁структур	-9.96809
▁занят	-9.96822
▁Ra	-9.96852
▁опер	-9.96861
▁любим	-9.96892
▁wrote	-9.96948
▁рек	-9.96951
▁law	-9.96958
▁самые	-9.97071
▁green	-9.97095
вен	-9.97126
няя	-9.97135
нди	-9.9716
нный	-9.97166
гер	-9.97205
▁Интернет	-9.97389
▁giving	-9.9739
▁сразу	-9.97394
▁Каждый	-9.97414
ough	-9.97451
ped	-9.97505
тре	-9.97648
▁audience	-9.97685
▁невозможно	-9.97685
▁micro	-9.97685
ding	-9.97693
ического	-9.97738
▁движ	-9.97749
▁goal	-9.97782
▁скорее	-9.97833
▁знает	-9.97934
▁Ст	-9.97965
▁Представьте	-9.97982
▁text	-9.97982
▁artist	-9.97983
if	-9.98
▁написал	-9.98044
Б	-9.98138
▁Su	-9.98218
▁встреча	-9.98239
ван	-9.98356
▁function	-9.98435
▁право	-9.98439
ивают	-9.98442
ический	-9.9846
ера	-9.98504
▁report	-9.98525
▁тест	-9.98568
тки	-9.98569
▁bottom	-9.98577
val	-9.98579
▁смысле	-9.98608
бег	-9.98631
▁Di	-9.98673
стью	-9.98687
▁студент	-9.98689
der	-9.98691
▁пользу	-9.98727
▁likely	-9.9874
▁выше	-9.98756
▁Wi	-9.98776
▁похоже	-9.98787
da	-9.98811
▁general	-9.98882
▁Bu	-9.98888
▁feet	-9.98908
▁tend	-9.9891
▁мысли	-9.9893
ётся	-9.98931
ging	-9.98986
▁hot	-9.98996
▁Па	-9.99065
▁dead	-9.99098
вести	-9.99135
▁Африке	-9.99177
▁soon	-9.99195
▁developed	-9.99253
▁производ	-9.99274
▁road	-9.99327
▁running	-9.99343
Well	-9.99399
▁ограничен	-9.99493
▁South	-9.99501
▁рис	-9.99523
ологи	-9.99537
▁наиболее	-9.99628
▁результате	-9.99641
▁Ц	-9.9966
▁тво	-9.99714
▁starting	-9.99737
▁meet	-9.99751
▁надежд	-9.9978
▁тысячи	-9.99814
▁уме	-9.99814
▁сети	-9.99835
▁Некоторые	-9.99931
▁семьи	-9.99932
▁books	-9.99935
▁discovered	-9.99966
▁forward	-10.0001
▁создавать	-10.0009
▁ha	-10.0018
▁спас	-10.0019
▁millions	-10.0023
▁visual	-10.0023
▁push	-10.0023
▁речь	-10.0028
▁anyone	-10.0029
▁обратно	-10.0029
▁муж	-10.0031
▁этими	-10.0035
ехал	-10.0038
▁industry	-10.0039
▁используем	-10.0039
▁понял	-10.005
▁предмет	-10.006
▁модели	-10.0061
▁require	-10.0069
▁увидел	-10.007
▁микро	-10.0071
▁Ле	-10.0074
вые	-10.0077
▁photo	-10.0084
▁pain	-10.0084
▁fundamental	-10.0084
▁affect	-10.0084
▁практически	-10.0088
▁позволяет	-10.0092
щая	-10.0094
▁миллиардов	-10.0095
▁bio	-10.0096
пор	-10.0099
▁Facebook	-10.01
▁Si	-10.0102
▁станет	-10.0102
ral	-10.0107
▁Se	-10.0112
ition	-10.0123
▁вирус	-10.013
▁улучш	-10.0133
▁уча	-10.0136
▁машины	-10.0138
▁teach	-10.014
▁gene	-10.0141
▁Ch	-10.0142
ланд	-10.0143
ирования	-10.0144
▁направлен	-10.0145
▁увелич	-10.0145
▁especially	-10.0146
▁improve	-10.0146
▁spread	-10.0146
▁fi	-10.0148
▁animal	-10.0148
вис	-10.0155
▁guess	-10.0161
▁Меня	-10.0161
▁видов	-10.0164
▁Там	-10.0167
bs	-10.0176
▁вариант	-10.0176
our	-10.0178
▁тр	-10.018
▁смог	-10.0187
▁моё	-10.019
▁creating	-10.0192
▁asking	-10.0196
▁банк	-10.0197
дра	-10.0201
▁нём	-10.0207
▁живот	-10.0217
nk	-10.0218
▁Под	-10.022
▁equal	-10.0223
▁innovation	-10.0223
езд	-10.0227
▁цель	-10.0241
med	-10.0247
▁listen	-10.0263
▁worth	-10.0265
▁mu	-10.0266
▁touch	-10.027
▁type	-10.0274
▁создали	-10.0275
out	-10.0286
ze	-10.0294
▁digital	-10.0301
▁мол	-10.0304
▁разреш	-10.0318
▁role	-10.0332
▁eye	-10.0338
имся	-10.0343
чать	-10.0347
▁recognize	-10.0347
▁состоит	-10.0348
кам	-10.0348
▁зале	-10.035
pro	-10.0352
▁цели	-10.0352
▁един	-10.0356
▁исчез	-10.0363
жил	-10.0365
▁сторон	-10.0374
▁Me	-10.0375
for	-10.0378
▁engage	-10.0379
▁miles	-10.0381
▁фотографии	-10.0381
▁With	-10.0383
▁mar	-10.0385
▁исп	-10.0386
▁показал	-10.0389
▁нельзя	-10.0395
▁следует	-10.0395
▁online	-10.0395
▁Моя	-10.0399
▁иск	-10.0403
▁develop	-10.0404
▁мою	-10.0407
▁Ба	-10.0407
▁процентов	-10.0409
▁кем	-10.0413
▁домой	-10.0417
ление	-10.0419
▁протяжении	-10.0426
▁Индии	-10.0426
▁Go	-10.0439
▁tiny	-10.0442
▁cars	-10.0454
▁choice	-10.0464
кладыва	-10.0466
▁проблему	-10.0473
▁Многие	-10.0474
▁сигнал	-10.0474
ирование	-10.0474
▁late	-10.0493
воз	-10.0497
▁relationship	-10.0498
▁даёт	-10.0503
▁образование	-10.0504
▁communities	-10.0506
ион	-10.0506
▁An	-10.051
▁designed	-10.0511
▁ми	-10.0515
▁выход	-10.0515
▁улиц	-10.053
▁Jo	-10.0531
▁solution	-10.0531
▁взаимо	-10.0538
▁планеты	-10.0538
▁Их	-10.0552
чную	-10.0553
▁technologies	-10.0554
▁join	-10.0554
▁screen	-10.0554
▁анализ	-10.0554
ваться	-10.0556
▁КА	-10.0559
▁самой	-10.0562
▁спор	-10.0571
▁школу	-10.0576
▁ice	-10.0579
щего	-10.0581
▁час	-10.0582
▁Europe	-10.0583
▁группы	-10.0584
▁однажды	-10.0586
ular	-10.0589
▁genetic	-10.0589
▁движение	-10.0591
▁recently	-10.0593
▁Наш	-10.0606
нести	-10.0609
▁разруш	-10.0611
▁site	-10.0618
▁source	-10.0618
чё	-10.0618
▁Ха	-10.0627
▁issues	-10.063
▁baby	-10.0635
▁24	-10.0637
ул	-10.0639
▁задач	-10.065
▁общество	-10.065
▁Мой	-10.0651
ft	-10.0653
▁br	-10.0654
▁кар	-10.0655
▁sit	-10.0657
▁плат	-10.0665
▁окружающ	-10.0667
▁заключается	-10.0668
▁знал	-10.0668
▁perfect	-10.067
нно	-10.068
▁suggest	-10.0699
▁factor	-10.0701
▁door	-10.0703
▁роль	-10.0705
▁offer	-10.0706
ology	-10.0713
▁revolution	-10.0715
▁говорим	-10.0715
gue	-10.0719
жать	-10.0721
ствует	-10.0722
▁Yeah	-10.0726
▁forest	-10.0734
▁проб	-10.0736
▁уж	-10.0743
▁carbon	-10.0748
▁поскольку	-10.0748
ier	-10.0748
▁вечер	-10.0748
▁окруж	-10.0749
дите	-10.0751
▁plant	-10.0751
lon	-10.0755
чной	-10.0762
▁success	-10.0763
▁войны	-10.0765
▁North	-10.0767
▁высоко	-10.0772
▁sleep	-10.078
▁компания	-10.0781
▁showed	-10.0792
▁basic	-10.0796
▁уровня	-10.0797
▁движения	-10.0817
▁вниз	-10.0821
▁patient	-10.0844
▁mine	-10.0847
▁секс	-10.0857
▁agree	-10.0863
▁забот	-10.0867
связ	-10.0876
ьте	-10.0877
rap	-10.0878
▁Ни	-10.0882
▁absolutely	-10.0883
▁вероятно	-10.0886
ющее	-10.0891
▁300	-10.0893
▁talked	-10.0898
aw	-10.0904
▁national	-10.0908
▁table	-10.0908
▁gas	-10.0917
▁используя	-10.0923
▁changing	-10.0923
▁математик	-10.0929
▁чему	-10.093
▁облада	-10.0936
ase	-10.0936
ско	-10.094
уди	-10.0949
ским	-10.0954
ключи	-10.0957
▁among	-10.0962
ющим	-10.0967
первых	-10.0971
▁отдельн	-10.0973
ума	-10.0979
▁block	-10.0981
▁Бог	-10.0993
▁evidence	-10.0995
ге	-10.1003
▁mass	-10.1004
lan	-10.1008
▁трёх	-10.1011
▁rich	-10.1013
▁буквально	-10.1013
▁yes	-10.1013
ично	-10.1014
▁команд	-10.1016
пр	-10.1022
▁Раз	-10.1023
▁benefit	-10.1029
▁Оно	-10.1034
▁действия	-10.1035
▁поста	-10.1035
▁journey	-10.1046
▁недо	-10.1053
▁обнаружили	-10.1055
▁concept	-10.1063
ey	-10.1063
▁towards	-10.1066
▁размер	-10.1069
ib	-10.107
▁пост	-10.1074
альная	-10.1075
▁Of	-10.1076
▁вне	-10.1079
▁beyond	-10.108
▁period	-10.108
▁взросл	-10.108
▁удивительно	-10.108
au	-10.1081
дение	-10.1082
телем	-10.1093
▁sell	-10.1094
▁книг	-10.1094
▁прежде	-10.1096
▁fly	-10.1098
▁ро	-10.11
▁incredibly	-10.1113
▁группа	-10.1115
▁дух	-10.1115
▁расп	-10.1119
▁Даже	-10.1122
▁fight	-10.1124
chi	-10.1128
▁инженер	-10.113
▁вод	-10.1132
▁покажу	-10.1134
▁сын	-10.1138
▁major	-10.1145
▁deliver	-10.1147
▁технологий	-10.1147
▁пал	-10.1157
▁playing	-10.116
фа	-10.1162
ically	-10.1164
щим	-10.1166
рик	-10.1172
бит	-10.1172
▁code	-10.1174
▁star	-10.1181
▁response	-10.1181
▁случилось	-10.1181
▁clean	-10.1181
▁search	-10.1182
▁большая	-10.1182
▁света	-10.1191
▁practice	-10.1198
▁progress	-10.1198
ify	-10.1208
▁контр	-10.1209
▁права	-10.121
▁groups	-10.1215
▁Ещё	-10.1215
▁flu	-10.1219
щее	-10.122
▁collect	-10.1221
▁enter	-10.1221
есь	-10.1222
ших	-10.1223
▁By	-10.1228
▁region	-10.1233
▁capital	-10.1234
▁interest	-10.1237
▁resources	-10.124
сад	-10.124
▁типа	-10.1241
▁X	-10.1249
▁modern	-10.125
▁моим	-10.1252
ёте	-10.1257
▁робот	-10.1262
time	-10.1266
▁violence	-10.1267
▁связь	-10.1267
▁воду	-10.1273
▁думаете	-10.1285
▁ран	-10.1286
▁page	-10.1294
▁действ	-10.1296
▁First	-10.1301
важ	-10.1306
▁выступ	-10.1308
▁sal	-10.1308
▁изменил	-10.1312
▁theory	-10.1314
▁village	-10.1319
▁сосед	-10.132
▁начинает	-10.1327
▁названием	-10.1329
▁виде	-10.1337
▁da	-10.1341
fin	-10.1345
▁track	-10.1353
порт	-10.1354
▁результаты	-10.1362
▁effective	-10.1363
вол	-10.1366
ош	-10.1368
▁attack	-10.1371
▁Бо	-10.1376
▁vision	-10.1376
▁жил	-10.138
▁электро	-10.1381
аны	-10.1384
rew	-10.1384
нц	-10.1387
▁далеко	-10.1388
▁scar	-10.1392
▁планете	-10.1395
енным	-10.1396
▁lived	-10.14
▁мечта	-10.1402
▁нужна	-10.1406
▁treatment	-10.1419
▁street	-10.1419
▁годы	-10.1421
▁вашей	-10.1427
▁card	-10.1431
▁слов	-10.1438
▁Maybe	-10.144
ose	-10.1442
▁сути	-10.1443
ff	-10.1445
▁перемен	-10.1447
▁sounds	-10.1447
▁print	-10.1454
иб	-10.1455
▁Хо	-10.1457
▁English	-10.1458
▁игр	-10.1461
▁fund	-10.1466
▁надеюсь	-10.1476
зер	-10.1477
▁bus	-10.1485
▁drug	-10.1485
▁поговорить	-10.1493
▁Бу	-10.1499
▁школе	-10.1506
▁идею	-10.1511
▁столько	-10.1512
нную	-10.1513
▁возвраща	-10.1514
▁народ	-10.1519
rop	-10.152
▁Больш	-10.1521
▁predict	-10.1521
ney	-10.1523
▁переста	-10.1524
▁subject	-10.1528
▁шанс	-10.1528
▁самого	-10.153
▁больниц	-10.1537
▁живут	-10.1546
▁прекрасно	-10.1546
нять	-10.1546
▁торгов	-10.1546
▁Ga	-10.1546
▁провод	-10.1555
▁reasons	-10.1563
илось	-10.1566
ообраз	-10.1578
шая	-10.1582
вил	-10.1583
▁своими	-10.1585
вших	-10.1595
▁исследование	-10.1599
▁solar	-10.1599
▁favorite	-10.1599
▁engineer	-10.1599
▁bigger	-10.1602
▁сил	-10.1602
▁consider	-10.1611
▁фе	-10.1613
стях	-10.1614
▁доктор	-10.1618
▁сюда	-10.1618
▁концов	-10.1618
эт	-10.162
▁Вам	-10.1625
▁hundred	-10.1629
ходить	-10.1632
▁чёрн	-10.1635
▁son	-10.1638
ниц	-10.164
▁думал	-10.1643
▁гос	-10.1644
▁developing	-10.1646
▁several	-10.1653
▁achieve	-10.1653
▁безопасности	-10.1654
др	-10.1659
▁gives	-10.166
▁доста	-10.166
ane	-10.1669
енный	-10.1669
▁увидите	-10.1671
цу	-10.1671
грамм	-10.1675
▁ряд	-10.1678
▁пер	-10.1688
▁available	-10.1688
▁нескольких	-10.1688
▁иначе	-10.1689
▁транс	-10.169
▁nation	-10.1696
50	-10.1697
▁школ	-10.1701
▁книги	-10.1702
▁исследований	-10.1706
cho	-10.1707
▁Джон	-10.1716
ющего	-10.1717
чных	-10.1718
Л	-10.172
▁sent	-10.1739
▁распространен	-10.1742
▁Та	-10.1748
ющей	-10.1749
▁случай	-10.1754
итесь	-10.1755
▁hum	-10.1759
▁interact	-10.176
▁посмотрим	-10.176
▁successful	-10.1762
▁другого	-10.1763
▁lose	-10.1764
▁Крис	-10.1767
защит	-10.1769
щем	-10.1776
▁appear	-10.178
▁различны	-10.1785
gi	-10.1785
▁хочет	-10.1788
▁основа	-10.1788
▁month	-10.1793
▁su	-10.1802
лан	-10.1803
▁Друг	-10.1805
▁putting	-10.1808
▁wait	-10.181
нная	-10.1813
▁смотреть	-10.1815
▁удалось	-10.1815
vis	-10.1818
аешь	-10.1819
▁para	-10.1821
▁partner	-10.1821
▁visit	-10.1833
▁computers	-10.1834
▁способность	-10.1843
▁account	-10.1851
▁Ведь	-10.1851
▁died	-10.1858
▁transform	-10.1859
low	-10.1866
▁научил	-10.1868
▁families	-10.1869
вший	-10.1872
▁jobs	-10.1872
▁нейрон	-10.1873
▁connection	-10.1874
▁effect	-10.1883
ably	-10.1891
ps	-10.1893
▁store	-10.1894
▁самая	-10.19
▁местах	-10.19
▁организации	-10.1907
дов	-10.1911
вдохнов	-10.1919
late	-10.1919
иков	-10.1919
ац	-10.1924
ins	-10.1924
▁гу	-10.1933
▁Му	-10.1938
▁college	-10.1943
▁fix	-10.1946
ёл	-10.1949
аж	-10.1961
▁систем	-10.1972
▁slow	-10.1973
изма	-10.1973
щик	-10.1977
▁haven	-10.1979
▁черт	-10.1984
▁способны	-10.1988
▁двига	-10.1996
▁Кар	-10.1998
▁века	-10.1998
▁сотни	-10.1998
▁весьма	-10.2001
ium	-10.2002
▁отец	-10.2008
писать	-10.201
▁магазин	-10.2017
▁делали	-10.2028
▁финансов	-10.2035
▁breath	-10.2035
▁скажу	-10.2035
▁вижу	-10.2036
▁moral	-10.2037
▁Гр	-10.204
овали	-10.2051
▁degree	-10.2054
▁урок	-10.2061
дом	-10.2064
ическая	-10.2067
игра	-10.207
▁смерти	-10.2072
▁готовы	-10.2073
▁becomes	-10.208
▁list	-10.2081
кции	-10.2084
ified	-10.2084
▁aren	-10.2086
скую	-10.2088
▁prison	-10.2091
▁After	-10.2091
▁threat	-10.2091
▁новое	-10.2092
▁flow	-10.2101
▁помощь	-10.2101
▁meaning	-10.2109
▁check	-10.211
▁находятся	-10.211
▁wish	-10.2113
▁rules	-10.2114
sis	-10.2115
лок	-10.2132
тора	-10.2132
▁near	-10.2134
mit	-10.2138
▁другое	-10.2144
▁choose	-10.2147
▁значение	-10.2147
пут	-10.2152
ade	-10.2153
▁multi	-10.2159
слов	-10.2161
▁мальчик	-10.2166
fu	-10.217
▁involved	-10.2175
▁игры	-10.2178
▁ключ	-10.2179
▁силы	-10.2179
▁ча	-10.2182
verse	-10.2182
grad	-10.2182
▁foot	-10.2184
▁adult	-10.2185
▁pictures	-10.2188
▁feed	-10.2199
▁сайт	-10.2201
▁medicine	-10.2204
▁физик	-10.2204
▁хотелось	-10.2206
▁Mars	-10.2208
▁Просто	-10.2209
вый	-10.2215
▁bank	-10.2222
▁scientific	-10.2223
▁secret	-10.2223
▁birth	-10.2223
▁внутренн	-10.2223
▁speed	-10.2223
ацию	-10.2226
▁вырос	-10.2227
▁Кор	-10.2228
▁пара	-10.2233
▁Ла	-10.2233
▁поведение	-10.2242
▁эффективно	-10.2243
▁побед	-10.2247
▁отдел	-10.2254
зор	-10.2255
дения	-10.2257
▁fo	-10.2258
▁работал	-10.2268
▁War	-10.2269
▁Na	-10.2269
▁drugs	-10.227
▁полу	-10.2277
▁Chinese	-10.228
▁bird	-10.228
▁беспоко	-10.228
ляет	-10.2284
▁существо	-10.2284
▁похожи	-10.2285
ающих	-10.2289
▁месяц	-10.2291
▁accept	-10.2299
▁further	-10.2299
▁мобильн	-10.2299
▁нужда	-10.2299
▁nine	-10.2299
▁wi	-10.2309
▁миллиона	-10.2309
▁Yes	-10.2313
чик	-10.2317
▁writing	-10.2318
▁higher	-10.232
ностью	-10.2321
ционально	-10.2325
ался	-10.2327
▁depend	-10.2334
▁пространство	-10.2337
▁основном	-10.2337
▁знания	-10.2337
▁park	-10.2337
▁птиц	-10.2337
остью	-10.2344
▁здоров	-10.2346
▁skin	-10.2346
ou	-10.2355
▁perspective	-10.2356
▁глубоко	-10.2356
▁creative	-10.2356
▁люблю	-10.2356
my	-10.2357
▁известны	-10.2359
ере	-10.2371
енной	-10.2375
▁член	-10.2375
▁далее	-10.2376
▁успех	-10.2379
▁правила	-10.2384
▁живу	-10.2393
▁ног	-10.2394
▁кризис	-10.2394
▁biggest	-10.2394
▁fit	-10.2397
▁мел	-10.2413
▁remain	-10.2414
▁покупа	-10.2414
▁discover	-10.2418
▁wind	-10.2419
▁различных	-10.243
кол	-10.2431
▁нашим	-10.2434
▁принят	-10.2434
▁граждан	-10.2449
▁правительство	-10.2452
▁return	-10.2452
▁расскажу	-10.2452
▁ребёнка	-10.2452
▁сталкива	-10.2453
▁начинают	-10.2456
▁верну	-10.2457
▁мужчины	-10.2459
сматрива	-10.247
▁police	-10.2472
▁decision	-10.248
груз	-10.249
стор	-10.2498
▁walking	-10.2506
▁сверх	-10.2511
▁рез	-10.2514
▁начале	-10.2518
▁finding	-10.252
log	-10.2525
настоящему	-10.253
зон	-10.2537
▁пле	-10.2543
▁кос	-10.2555
▁коп	-10.2556
▁словами	-10.2558
очку	-10.2559
▁moved	-10.2564
▁grew	-10.2573
▁position	-10.2576
▁своём	-10.2577
▁ob	-10.2588
▁быстрее	-10.2589
▁веществ	-10.2589
▁любовь	-10.2589
альный	-10.2589
▁недавно	-10.2596
▁приз	-10.2603
load	-10.2604
▁software	-10.2608
▁второй	-10.2609
▁particularly	-10.2613
pre	-10.2627
▁ситуации	-10.2628
▁попросил	-10.2628
▁большие	-10.2628
▁семей	-10.2629
основ	-10.2631
▁тип	-10.2633
▁leaders	-10.2634
▁делал	-10.2635
ового	-10.2639
▁чувств	-10.2646
▁Америке	-10.2648
▁supposed	-10.2653
▁poverty	-10.2668
▁конкретн	-10.2668
▁boy	-10.2671
▁никак	-10.2672
▁образования	-10.2672
Йорк	-10.2677
ающие	-10.2681
чки	-10.2682
▁certainly	-10.269
▁слышали	-10.2695
вари	-10.2703
▁Одна	-10.2704
▁daughter	-10.2707
▁positive	-10.2707
▁quality	-10.2707
▁Even	-10.2707
▁hole	-10.271
▁водо	-10.2721
▁dog	-10.2729
▁count	-10.273
▁счёт	-10.273
лли	-10.2744
▁форму	-10.2745
▁price	-10.2747
▁throw	-10.2749
▁results	-10.2751
▁showing	-10.2753
▁ready	-10.276
▁draw	-10.2761
rk	-10.2766
́	-10.2767
▁Думаю	-10.2767
▁каждой	-10.2767
▁cross	-10.2767
▁краси	-10.2775
▁умер	-10.2776
now	-10.2784
шей	-10.2785
▁East	-10.2787
▁узнал	-10.2788
▁qua	-10.2789
▁Потом	-10.279
▁такую	-10.2794
▁mental	-10.2795
▁Ne	-10.28
бол	-10.2801
▁капитал	-10.2801
▁shift	-10.2807
We	-10.2816
яет	-10.2822
▁мета	-10.2822
▁всём	-10.2826
▁security	-10.2827
▁здания	-10.2827
▁trans	-10.2827
▁меди	-10.2828
▁заметил	-10.283
эр	-10.2831
казать	-10.2835
No	-10.2836
▁курс	-10.2837
ros	-10.284
▁US	-10.284
▁шесть	-10.2847
альных	-10.2858
▁десят	-10.2865
▁вдруг	-10.2867
▁график	-10.2868
▁Who	-10.2873
▁миров	-10.2873
▁totally	-10.2878
▁страниц	-10.2878
▁человеком	-10.2881
▁watching	-10.2883
▁organization	-10.2884
▁eventually	-10.2888
▁ran	-10.2888
▁показывает	-10.2889
определ	-10.29
▁anybody	-10.2908
▁crazy	-10.2908
▁virus	-10.2908
▁атмосфер	-10.2908
▁fr	-10.2908
логи	-10.2909
кая	-10.2913
▁Sp	-10.2914
▁секунд	-10.2915
▁наруш	-10.2917
рит	-10.2917
ologist	-10.2919
▁Ю	-10.2925
▁context	-10.2928
▁становятся	-10.2928
▁Только	-10.2928
▁Chris	-10.2928
▁tri	-10.2932
▁train	-10.294
▁вывод	-10.2941
▁connected	-10.2942
▁Ta	-10.2942
▁conflict	-10.2948
▁including	-10.2948
▁fuel	-10.2948
▁Pe	-10.2956
▁пациент	-10.2958
▁student	-10.2965
ования	-10.2967
▁evolution	-10.2968
▁возможны	-10.2969
▁транспорт	-10.2969
вест	-10.2976
▁поддержива	-10.298
▁meeting	-10.2984
еры	-10.2985
▁doctor	-10.2986
▁Очень	-10.2989
▁прекрасны	-10.2989
▁следующий	-10.2989
▁notice	-10.2991
рг	-10.2992
top	-10.2993
▁имел	-10.2993
▁stick	-10.2994
▁neuro	-10.3007
▁exciting	-10.301
▁female	-10.301
▁schools	-10.301
▁семья	-10.3015
▁нашли	-10.3024
▁степени	-10.303
▁worse	-10.303
▁wave	-10.3031
▁биолог	-10.3032
Х	-10.3033
▁named	-10.3033
держать	-10.3034
▁получили	-10.3036
▁hour	-10.3039
▁ситуация	-10.3051
▁стара	-10.3051
▁товар	-10.3052
▁приходится	-10.3058
han	-10.3062
▁верю	-10.3063
▁Ri	-10.3066
▁сеть	-10.3069
▁огромное	-10.3071
▁жертв	-10.3071
▁detect	-10.3072
грязн	-10.3072
▁пяти	-10.3073
▁совет	-10.3079
▁largest	-10.3082
▁понимать	-10.3083
▁сможет	-10.3084
▁Н	-10.3084
▁allowed	-10.3089
леп	-10.3089
▁Знаете	-10.3093
▁drop	-10.3093
▁остан	-10.3094
▁игру	-10.3099
▁скоро	-10.31
▁фактор	-10.3101
▁Пол	-10.3102
▁anti	-10.311
▁onto	-10.3115
▁счастлив	-10.3119
▁male	-10.3121
▁individuals	-10.3129
дор	-10.3131
▁taught	-10.3133
▁воспринима	-10.3133
ование	-10.3135
▁detail	-10.3136
▁программы	-10.3138
▁чувствую	-10.3145
▁школы	-10.3146
▁Мар	-10.3147
▁Ju	-10.3149
▁career	-10.3151
дол	-10.3152
▁farm	-10.3153
▁большим	-10.3155
▁журнал	-10.3155
▁warm	-10.3163
▁проекта	-10.3164
▁зас	-10.3168
▁уничтож	-10.3175
▁standard	-10.3176
▁Также	-10.3176
следователь	-10.3193
▁author	-10.3196
▁intelligence	-10.3196
▁президент	-10.3196
▁влияние	-10.3196
▁бор	-10.3199
▁метров	-10.3207
▁сторону	-10.3208
▁газ	-10.3209
▁часа	-10.3209
▁Рас	-10.3215
▁сердце	-10.3216
▁акт	-10.3217
▁климата	-10.3218
▁bed	-10.3219
▁процент	-10.3219
▁led	-10.3223
▁direction	-10.3225
▁shown	-10.3226
▁compassion	-10.3237
▁поверхности	-10.3237
▁подумать	-10.3237
▁промышленн	-10.324
V	-10.324
▁кому	-10.3244
▁невероятн	-10.3244
▁everywhere	-10.3258
▁nobody	-10.3258
ka	-10.3259
бин	-10.3262
▁training	-10.3264
▁любит	-10.3268
▁Dr	-10.3269
▁поняли	-10.3279
▁peace	-10.3279
▁Позвольте	-10.3279
▁конфликт	-10.3279
▁stress	-10.3279
ham	-10.328
▁реальность	-10.3281
эн	-10.3282
ivity	-10.3283
изации	-10.3288
▁художник	-10.33
▁видно	-10.3301
▁examples	-10.3301
▁waste	-10.3308
ины	-10.331
▁системе	-10.3315
▁bacteria	-10.3322
▁minds	-10.3327
▁морск	-10.3334
▁ball	-10.3336
▁meant	-10.3338
▁address	-10.3343
round	-10.3343
▁standing	-10.3345
▁Бр	-10.335
▁Сан	-10.336
▁Most	-10.3361
ическое	-10.3363
▁chemical	-10.3364
▁болезни	-10.3364
▁Земле	-10.3364
▁memory	-10.3364
▁значительно	-10.3364
▁смотрел	-10.3365
work	-10.3369
U	-10.3369
▁общем	-10.337
▁na	-10.337
вшись	-10.3372
▁форма	-10.3372
▁вашего	-10.3373
▁силу	-10.3376
▁полно	-10.3378
▁дизайнер	-10.338
▁prevent	-10.3385
▁посмотрите	-10.3385
▁пришли	-10.3387
▁robots	-10.3388
▁den	-10.3389
чным	-10.3397
▁назвал	-10.3402
другому	-10.3405
▁лаборатории	-10.3406
▁состоянии	-10.3406
▁развитие	-10.3406
▁loved	-10.3407
▁magic	-10.3407
▁нужен	-10.3409
▁касается	-10.3409
▁лицо	-10.3415
▁serve	-10.3415
▁Кон	-10.3416
▁400	-10.3422
▁letter	-10.3425
▁прошло	-10.3426
▁mountain	-10.3428
▁expert	-10.3428
▁взял	-10.3429
▁ju	-10.3433
лем	-10.3433
▁plants	-10.3434
▁mom	-10.3439
▁рассказал	-10.344
▁Where	-10.344
▁ваше	-10.3443
▁signal	-10.3444
▁John	-10.3449
stream	-10.3451
▁древ	-10.3451
pped	-10.3455
ющихся	-10.3456
▁долг	-10.3457
▁изменя	-10.346
▁traditional	-10.3463
▁собственно	-10.3466
▁рака	-10.3467
▁сад	-10.347
▁интеллект	-10.347
▁Марс	-10.3474
cial	-10.3476
▁угол	-10.3479
шим	-10.3482
▁задача	-10.3485
▁подс	-10.3491
▁excited	-10.3492
▁principle	-10.3492
▁встретил	-10.3492
▁одновременно	-10.3492
▁температур	-10.3492
▁bodies	-10.3492
ину	-10.3492
▁основе	-10.3492
▁штук	-10.3494
▁код	-10.3495
чение	-10.3496
▁wa	-10.3499
▁пыта	-10.3499
▁похож	-10.3501
▁руку	-10.3507
▁принять	-10.3509
over	-10.3511
▁угодно	-10.3513
▁мысль	-10.3514
▁dance	-10.352
▁pen	-10.3521
▁race	-10.3524
торы	-10.3525
▁друзья	-10.3527
Oh	-10.3531
▁wide	-10.3535
▁laugh	-10.3535
▁democracy	-10.3535
▁extraordinary	-10.3535
▁испытыва	-10.3535
▁угроз	-10.3535
▁cat	-10.3536
▁Pro	-10.3537
▁Today	-10.3537
▁изображение	-10.3539
▁teachers	-10.3543
▁добро	-10.3547
nic	-10.3556
▁task	-10.3557
▁механизм	-10.3557
▁прогресс	-10.3557
▁version	-10.3557
▁кроме	-10.3558
▁собираюсь	-10.356
▁считал	-10.3567
ющиеся	-10.357
▁построить	-10.357
ница	-10.3575
▁клеток	-10.3578
▁Ри	-10.3584
работать	-10.3585
▁Ja	-10.3587
▁обнаружил	-10.359
ивается	-10.3594
исты	-10.36
▁international	-10.36
▁осуществ	-10.36
▁коротк	-10.3601
▁всеми	-10.3604
▁lower	-10.3604
▁tool	-10.3607
▁bi	-10.3611
▁остальн	-10.3611
▁commit	-10.3622
▁Ka	-10.3623
▁шар	-10.3623
▁указ	-10.3627
▁extremely	-10.363
▁materials	-10.3642
▁survive	-10.3643
▁регион	-10.3643
▁среды	-10.3644
▁sky	-10.3649
pen	-10.365
▁мин	-10.3663
▁родители	-10.3665
▁starts	-10.3665
▁опять	-10.3667
▁работаю	-10.3671
▁San	-10.368
мира	-10.3681
▁знаком	-10.3686
▁unique	-10.3687
▁молекул	-10.3687
▁aware	-10.3688
▁помогает	-10.3692
ший	-10.3694
▁вернуться	-10.3696
▁crisis	-10.3709
▁molecule	-10.3709
▁открыл	-10.3709
▁Ар	-10.3721
▁столкн	-10.3721
tan	-10.3726
пустить	-10.3726
ept	-10.3735
▁carry	-10.374
▁pattern	-10.3741
▁mini	-10.3746
пом	-10.3751
▁machines	-10.3751
▁называют	-10.376
▁начало	-10.3761
▁serious	-10.3762
гул	-10.3775
▁explore	-10.3775
▁religion	-10.3775
▁друзей	-10.3775
▁reduce	-10.3776
▁остров	-10.3776
▁link	-10.3776
▁имени	-10.3779
пон	-10.3786
▁поле	-10.3786
▁глаз	-10.3786
▁products	-10.3791
▁мама	-10.3796
▁маленькие	-10.3797
▁Those	-10.3798
▁Oh	-10.3807
▁conditions	-10.3809
▁Ди	-10.3812
▁algorithm	-10.3819
▁respond	-10.3819
▁земле	-10.382
▁35	-10.3824
▁essentially	-10.3825
▁чуть	-10.3827
мимо	-10.3828
aging	-10.3831
du	-10.3832
сен	-10.3834
▁условиях	-10.3834
дем	-10.3837
▁думают	-10.3839
влечь	-10.3842
▁wife	-10.3843
▁shot	-10.3845
▁экс	-10.3847
▁такими	-10.3852
▁West	-10.3853
▁term	-10.3855
вшие	-10.3863
тивно	-10.3864
▁построен	-10.3865
▁сила	-10.3868
car	-10.3871
▁создал	-10.3871
▁trees	-10.3872
ky	-10.3878
ющую	-10.3879
эй	-10.3886
▁launch	-10.3886
▁truly	-10.3886
▁напомина	-10.3886
▁страна	-10.3891
▁автор	-10.3894
сил	-10.3897
йтесь	-10.39
▁считают	-10.3902
▁Ин	-10.3903
▁reading	-10.3905
▁somewhere	-10.3909
▁думаем	-10.3909
▁element	-10.3909
▁decisions	-10.3922
▁алгоритм	-10.3931
▁препод	-10.3933
▁средства	-10.3935
▁Th	-10.3937
оди	-10.3951
▁верх	-10.3953
▁allows	-10.3953
▁характер	-10.3954
▁институт	-10.3954
▁release	-10.3954
▁природы	-10.3954
▁применя	-10.3957
▁fine	-10.3962
▁Ex	-10.3971
▁центре	-10.3973
▁critical	-10.3974
▁сама	-10.3974
▁пят	-10.3976
▁nuclear	-10.3976
▁секрет	-10.3976
▁Земли	-10.3976
▁север	-10.3979
▁идеальн	-10.3988
▁набор	-10.3988
▁непо	-10.3989
▁cap	-10.399
cor	-10.3996
▁очевидно	-10.3999
▁чаще	-10.4001
▁таком	-10.4005
▁obviously	-10.4009
of	-10.401
▁будете	-10.4013
▁лица	-10.4016
▁objects	-10.4017
вре	-10.4021
▁famous	-10.4021
▁Африки	-10.4021
▁Иногда	-10.4021
▁поделиться	-10.4021
like	-10.4021
▁perform	-10.4022
▁получает	-10.4023
▁смогут	-10.4033
▁brains	-10.4035
вании	-10.4035
ёз	-10.4036
▁tree	-10.4037
▁150	-10.4042
▁безопасн	-10.4042
атур	-10.4051
▁комп	-10.4052
▁manage	-10.4053
▁thousand	-10.4059
▁faster	-10.406
▁любо	-10.4061
▁killed	-10.4066
▁floor	-10.4067
▁идей	-10.4068
▁models	-10.4071
ствовать	-10.4075
пустил	-10.408
▁поезд	-10.4084
очки	-10.4086
▁older	-10.4089
▁remind	-10.409
вых	-10.4103
▁согласи	-10.4113
▁необходимы	-10.4117
▁чувствовал	-10.4126
ское	-10.413
▁healthy	-10.4132
▁отлича	-10.4133
▁projects	-10.4135
▁Китай	-10.4135
▁голову	-10.4135
ложить	-10.4139
▁мил	-10.4139
olu	-10.414
▁Би	-10.4147
▁bunch	-10.4158
▁сначала	-10.4158
▁above	-10.4158
▁kept	-10.4159
▁institutions	-10.4159
▁Большое	-10.4164
▁черн	-10.4171
▁объяснить	-10.4175
▁Ча	-10.4176
▁rock	-10.4178
▁respect	-10.4181
▁новую	-10.4182
▁lesson	-10.419
ulate	-10.419
▁закончил	-10.42
▁policy	-10.4204
▁недостаточно	-10.4204
▁сожалению	-10.4204
!"	-10.4206
▁rise	-10.4207
▁считает	-10.4208
▁переход	-10.421
ённых	-10.4221
ложения	-10.4224
▁вред	-10.4226
▁Don	-10.4227
▁financial	-10.4227
▁blind	-10.4227
▁usually	-10.4227
▁suddenly	-10.4235
ностей	-10.4236
▁слаб	-10.4236
▁здорово	-10.4238
▁пациентов	-10.4249
stitution	-10.4249
▁раза	-10.425
▁complicated	-10.425
▁plastic	-10.425
▁Пер	-10.4251
▁лиш	-10.4252
▁делаю	-10.4253
троп	-10.4253
▁городе	-10.4259
▁заниматься	-10.4262
tail	-10.427
▁создание	-10.427
▁офис	-10.4275
▁2000	-10.4277
ющими	-10.4278
▁помещ	-10.4279
▁условия	-10.4281
▁complete	-10.4284
▁cases	-10.4293
▁Ку	-10.4294
▁extra	-10.4295
▁недель	-10.4297
gram	-10.4301
▁представление	-10.4308
альным	-10.4325
▁встреч	-10.4326
▁целом	-10.4328
▁board	-10.4328
▁teacher	-10.4331
▁larger	-10.4335
▁minute	-10.4341
▁advance	-10.4343
▁продолжать	-10.4343
▁afford	-10.4344
▁достичь	-10.4344
▁вверх	-10.4345
▁vote	-10.4349
▁какое	-10.435
▁cold	-10.4361
▁удар	-10.4363
▁опас	-10.4367
▁impossible	-10.4367
▁purpose	-10.4367
▁здравоохранения	-10.4367
мор	-10.4368
▁genes	-10.4368
▁че	-10.437
▁camp	-10.4372
▁hair	-10.4372
фон	-10.4384
▁использовали	-10.439
▁неделю	-10.4391
вели	-10.4392
альную	-10.4394
▁другая	-10.4406
▁др	-10.441
▁создаёт	-10.4413
▁последний	-10.4414
▁content	-10.4414
▁здоровье	-10.4414
▁власти	-10.4415
ory	-10.4421
▁английск	-10.4433
вез	-10.4434
▁typical	-10.4437
▁глубин	-10.4437
▁обсужда	-10.4437
▁brother	-10.4438
▁последствия	-10.4438
▁любом	-10.4439
▁massive	-10.4442
▁фермер	-10.4458
▁private	-10.4461
▁dangerous	-10.4462
▁tap	-10.4472
▁использование	-10.4479
▁sat	-10.448
▁urban	-10.4485
▁ВИЧ	-10.4485
▁стандарт	-10.4485
▁придётся	-10.4485
▁zero	-10.4485
▁самолёт	-10.4485
▁burn	-10.4485
▁indeed	-10.4486
▁doctors	-10.4489
▁кажды	-10.4491
ическую	-10.4498
▁аппарат	-10.4509
▁limit	-10.4509
▁trade	-10.451
▁плав	-10.4511
▁виды	-10.4519
▁skills	-10.452
▁свое	-10.4525
20	-10.453
ó	-10.4532
▁freedom	-10.4532
▁humanity	-10.4533
▁wealth	-10.4533
▁работали	-10.4533
▁пережив	-10.4533
ехать	-10.4534
▁specific	-10.4535
arch	-10.4536
▁посту	-10.454
▁веду	-10.4541
▁предостав	-10.4549
▁важна	-10.4554
▁anymore	-10.4556
▁wild	-10.4557
▁новой	-10.4563
▁включа	-10.4565
▁получается	-10.4569
▁живёт	-10.4571
▁song	-10.4573
van	-10.4579
▁somehow	-10.458
▁звезд	-10.458
▁владе	-10.4581
▁ended	-10.4584
▁ясно	-10.4584
▁текст	-10.4584
▁pack	-10.4584
▁emotional	-10.4592
▁думали	-10.4597
▁наверное	-10.4604
▁service	-10.4606
▁процессе	-10.4606
▁Like	-10.4606
▁games	-10.4607
▁возможностей	-10.4608
▁фотография	-10.4609
▁wire	-10.4609
▁выда	-10.4615
▁trial	-10.4615
▁навык	-10.4617
▁обучения	-10.4628
▁играть	-10.4631
▁amp	-10.4641
▁range	-10.4641
шку	-10.4647
▁первым	-10.4653
▁sexual	-10.4654
▁средств	-10.4662
▁сможете	-10.4662
▁Hu	-10.4665
▁справ	-10.4671
▁buildings	-10.4672
▁машина	-10.4673
▁effort	-10.4676
▁significant	-10.4676
▁болезнь	-10.4676
▁внимания	-10.4677
▁вопросом	-10.4677
▁формы	-10.4677
ua	-10.4682
ency	-10.4699
▁target	-10.4701
▁please	-10.4701
▁window	-10.4702
▁finger	-10.4702
▁представляет	-10.4702
мея	-10.4703
▁живём	-10.4705
глав	-10.4708
▁prop	-10.4714
▁рабоч	-10.4716
▁диск	-10.4718
▁45	-10.4719
▁явля	-10.4721
▁правильн	-10.4723
▁military	-10.4725
▁колледж	-10.4725
▁reflect	-10.4725
▁любви	-10.4725
▁стимул	-10.4725
meter	-10.4725
▁желание	-10.4726
▁вода	-10.4726
▁больших	-10.4726
▁income	-10.4726
▁первой	-10.4726
ki	-10.4728
▁workers	-10.4731
▁Man	-10.4734
▁включая	-10.474
▁целью	-10.4741
▁дав	-10.4744
▁relative	-10.4749
▁детям	-10.4749
▁символ	-10.4749
▁посмотрел	-10.475
▁alive	-10.4752
дель	-10.4753
▁поток	-10.4763
▁patterns	-10.4763
стями	-10.4766
▁ship	-10.4767
▁studies	-10.4774
▁временем	-10.4774
▁jump	-10.4776
▁decades	-10.4778
▁уникальн	-10.4778
▁solutions	-10.4784
▁waiting	-10.4784
▁current	-10.4785
men	-10.4789
▁конца	-10.4798
▁communication	-10.4798
▁website	-10.4798
▁Вместо	-10.4798
▁участник	-10.4798
▁хран	-10.4799
af	-10.4799
▁decide	-10.4801
▁оказыва	-10.4801
сво	-10.4802
▁демократ	-10.4806
план	-10.4811
Э	-10.4813
▁Ni	-10.4813
▁использует	-10.4814
az	-10.4816
▁объём	-10.4823
▁activity	-10.4824
▁TV	-10.4824
▁приводит	-10.4827
▁научно	-10.4829
тельный	-10.4831
▁частн	-10.4831
тверж	-10.4842
ature	-10.4846
▁HIV	-10.4847
▁email	-10.4847
▁существуют	-10.4848
▁чувства	-10.485
▁Car	-10.4854
▁lines	-10.4855
▁challenges	-10.4855
▁проблемой	-10.4861
▁правительства	-10.4862
▁частиц	-10.4868
▁worry	-10.4872
▁architecture	-10.4873
телями	-10.4875
▁Лу	-10.4877
▁заставить	-10.4883
▁strange	-10.4886
▁момента	-10.4886
▁shared	-10.4889
▁original	-10.4896
▁becoming	-10.4897
▁neighborhood	-10.4897
▁bomb	-10.4897
▁spot	-10.49
▁town	-10.4905
ari	-10.4913
▁использован	-10.4922
▁pressure	-10.4922
▁миллиарда	-10.4923
ja	-10.4926
▁имя	-10.4931
▁геном	-10.4935
▁Европе	-10.4946
▁ранее	-10.4948
▁scan	-10.4959
▁physics	-10.4971
▁Нужно	-10.4996
▁fail	-10.4996
▁изменение	-10.4997
▁большую	-10.4997
▁Are	-10.5006
▁вида	-10.5008
▁cloud	-10.5021
▁statistic	-10.5021
▁written	-10.5021
▁ребёнок	-10.5021
▁electricity	-10.5022
▁performance	-10.5023
▁graph	-10.5031
▁pieces	-10.5031
нием	-10.5033
▁Запад	-10.5037
▁брать	-10.5039
▁demand	-10.5046
▁slide	-10.5046
▁понимаю	-10.5047
▁сельск	-10.505
▁книгу	-10.5058
▁upon	-10.5066
bl	-10.5067
▁glass	-10.5071
▁biology	-10.5072
▁weren	-10.5078
ah	-10.5093
▁document	-10.5096
▁include	-10.5096
▁времена	-10.5096
▁Прав	-10.5097
▁колон	-10.5099
▁принял	-10.51
▁фактически	-10.5111
▁мужчина	-10.5119
▁enjoy	-10.5122
▁happiness	-10.5122
▁okay	-10.5122
▁Большинство	-10.5122
▁информация	-10.5122
▁лечения	-10.5122
▁мод	-10.5122
▁define	-10.5124
▁Пред	-10.5128
▁цеп	-10.513
чка	-10.5132
▁politics	-10.5147
▁помню	-10.5147
▁погиб	-10.5147
▁определить	-10.5147
▁парень	-10.515
пар	-10.515
▁auto	-10.5157
▁listening	-10.5164
▁окружающе	-10.517
▁получают	-10.517
▁океана	-10.5171
▁earlier	-10.5172
▁Посмотрите	-10.5172
▁СМИ	-10.5172
▁преимуществ	-10.5172
▁будущего	-10.5174
лучи	-10.5194
▁вперёд	-10.5198
▁государственн	-10.5198
▁замечательно	-10.5198
▁series	-10.5199
▁устройство	-10.5206
▁actual	-10.5212
щую	-10.522
▁square	-10.5223
▁доказательств	-10.5223
▁river	-10.5223
▁другую	-10.5231
▁открыв	-10.5235
американ	-10.5241
So	-10.5242
▁примеру	-10.5245
▁Look	-10.5251
нными	-10.5252
▁пря	-10.5266
za	-10.5266
▁stars	-10.5267
▁верно	-10.5269
▁опасно	-10.5272
▁citizens	-10.5273
истов	-10.5274
▁expensive	-10.5274
▁супер	-10.5275
▁каждом	-10.5275
▁raise	-10.528
▁press	-10.5284
▁Вер	-10.5292
▁greatest	-10.5292
▁недели	-10.5294
▁75	-10.5294
▁helped	-10.5295
▁prove	-10.5295
▁нрав	-10.5298
▁первую	-10.53
▁здоровья	-10.5301
▁пытаемся	-10.5302
yn	-10.5302
▁позже	-10.5305
▁миллиард	-10.5306
▁обществе	-10.5307
org	-10.5311
У	-10.5319
den	-10.5322
▁маленький	-10.5326
▁оказалось	-10.5326
▁общин	-10.5328
▁painting	-10.5329
▁paint	-10.533
▁рос	-10.5343
▁Americans	-10.5344
▁City	-10.535
▁enormous	-10.5352
▁популярн	-10.5352
▁здание	-10.5352
▁участие	-10.5352
▁первые	-10.5352
ляют	-10.5355
▁науки	-10.5355
fer	-10.5359
▁cook	-10.5361
▁физическ	-10.5361
▁rain	-10.5376
water	-10.5377
▁anywhere	-10.5378
▁изобретен	-10.5378
▁зависит	-10.5378
▁значим	-10.5378
▁cheap	-10.5378
▁Пока	-10.5378
▁particle	-10.5378
▁услуг	-10.5378
dependent	-10.5382
▁убив	-10.5384
▁His	-10.5391
▁bone	-10.5394
▁Fi	-10.5396
били	-10.5397
▁argument	-10.5404
▁состояние	-10.5404
▁экран	-10.5407
▁работаем	-10.5407
▁final	-10.5417
▁начинается	-10.5417
▁values	-10.542
▁services	-10.5428
air	-10.5428
▁Imagine	-10.543
▁temperature	-10.543
▁преодоле	-10.543
▁понимание	-10.543
▁земли	-10.543
▁границ	-10.5435
▁плот	-10.5437
▁лиц	-10.5442
нюю	-10.5446
▁школьн	-10.5448
▁номер	-10.5455
▁представите	-10.5456
▁option	-10.5456
▁poll	-10.5457
▁лев	-10.5465
▁кап	-10.5469
▁smaller	-10.5483
овую	-10.5485
▁continu	-10.549
▁поняла	-10.5491
ker	-10.5492
щение	-10.5498
енного	-10.5498
▁professional	-10.55
▁Hi	-10.5501
▁neighbor	-10.5508
▁Second	-10.5508
▁галактик	-10.5508
▁убедить	-10.5508
▁contain	-10.5508
▁forget	-10.5509
▁позволя	-10.5521
▁walked	-10.5522
▁levels	-10.5525
▁environmental	-10.5529
▁cry	-10.553
страда	-10.5532
▁увидели	-10.5534
▁babies	-10.5534
▁honest	-10.5534
▁collective	-10.5539
▁исход	-10.554
▁студентов	-10.5541
▁вашем	-10.5555
rin	-10.5558
таки	-10.5559
▁virtual	-10.5561
▁энергию	-10.5561
▁Vi	-10.5561
▁sad	-10.5561
▁собрать	-10.5562
смех	-10.557
▁Ру	-10.5577
▁авто	-10.5579
▁apply	-10.558
board	-10.5586
conscious	-10.5587
▁driving	-10.5587
▁separate	-10.5587
▁match	-10.5587
цвет	-10.5588
▁Ти	-10.559
ываем	-10.5602
▁trip	-10.5603
▁парк	-10.5605
▁превраща	-10.5609
▁clearly	-10.5613
▁governments	-10.5614
▁creature	-10.5614
▁instance	-10.5614
▁sister	-10.5614
▁спутник	-10.5615
▁trick	-10.5616
▁отлично	-10.5616
right	-10.5618
▁mix	-10.5621
▁миллионы	-10.5625
▁провести	-10.5629
▁сообщества	-10.5631
▁возраста	-10.5635
ческом	-10.5638
▁cultural	-10.564
▁Первый	-10.5641
▁экономики	-10.5641
▁останови	-10.5644
кур	-10.5645
▁показан	-10.5649
▁потрясающ	-10.5653
енная	-10.5653
▁colleagues	-10.5655
▁base	-10.5655
ляем	-10.5662
▁учит	-10.5667
▁beauty	-10.5667
▁consequence	-10.5667
▁космос	-10.5667
▁откуда	-10.5667
▁harm	-10.5669
0,000	-10.5675
▁месяца	-10.5675
овая	-10.5688
анд	-10.569
▁казалось	-10.5694
▁drink	-10.5694
▁rule	-10.5694
▁относительно	-10.5696
лёг	-10.5696
▁ваша	-10.5698
▁использования	-10.57
▁laws	-10.5703
цов	-10.5707
▁многое	-10.5715
▁возрасте	-10.5715
bling	-10.5715
▁количества	-10.5721
▁первое	-10.5721
▁roll	-10.5721
▁cur	-10.5728
ходили	-10.5729
app	-10.5735
▁пациента	-10.5737
▁искусства	-10.5742
▁ответствен	-10.5747
▁biological	-10.5748
▁звон	-10.5748
▁идти	-10.575
▁immediately	-10.5751
очка	-10.5754
▁собак	-10.5756
чал	-10.5762
▁Ваш	-10.5763
▁diseases	-10.5773
▁перевод	-10.5774
▁civil	-10.5774
▁University	-10.5774
▁эмоциональн	-10.5775
▁расположен	-10.5775
▁mission	-10.5775
▁какая	-10.5775
▁искусство	-10.5778
▁изображения	-10.5781
▁кур	-10.5783
▁relationships	-10.5787
▁sing	-10.5789
▁Many	-10.579
▁другу	-10.579
▁физически	-10.5793
ставляют	-10.5793
▁decade	-10.5797
▁расход	-10.5799
▁influence	-10.5802
▁mobile	-10.5802
▁выглядел	-10.5802
▁очередь	-10.5802
▁mistake	-10.5802
▁charge	-10.5802
▁эксперт	-10.5802
▁добиться	-10.5802
▁поколение	-10.5802
▁купить	-10.5805
▁газет	-10.5807
▁радио	-10.5811
▁Пар	-10.5813
▁холод	-10.5822
▁этап	-10.5845
▁failure	-10.5857
term	-10.5862
▁социально	-10.5866
▁math	-10.587
▁shop	-10.5873
Ф	-10.5879
▁struggle	-10.5883
▁давно	-10.5887
▁жили	-10.5887
▁аспект	-10.5887
▁приходит	-10.5892
▁hate	-10.5903
▁данным	-10.5904
способ	-10.5905
▁понимаете	-10.5908
▁himself	-10.591
▁документ	-10.591
▁corner	-10.591
▁method	-10.591
▁поколения	-10.591
▁использовал	-10.5911
▁пойти	-10.5912
bal	-10.5914
▁блок	-10.5917
З	-10.5934
rge	-10.5936
▁accident	-10.5938
▁независимо	-10.5938
▁человечества	-10.5938
▁решений	-10.5938
▁interview	-10.5938
place	-10.5941
▁greater	-10.5942
▁throughout	-10.5943
▁бума	-10.5946
▁ужасно	-10.5946
▁обмен	-10.5961
▁radio	-10.5962
▁costs	-10.5963
▁лекарства	-10.5965
▁роли	-10.5965
▁refugee	-10.5965
▁необходим	-10.5966
▁жизне	-10.5981
▁heat	-10.5986
данный	-10.5986
J	-10.5989
▁Instead	-10.5993
▁infrastructure	-10.5993
▁Благодар	-10.5993
▁искусственн	-10.5995
▁пересе	-10.5996
▁суть	-10.5998
▁возраст	-10.6004
▁express	-10.6006
министр	-10.6012
uit	-10.6012
▁простой	-10.6014
▁серьёзно	-10.602
▁пространстве	-10.602
▁unit	-10.6021
▁считать	-10.6022
▁которому	-10.6023
ai	-10.6026
▁двумя	-10.6026
▁лист	-10.6035
▁landscape	-10.6048
▁generate	-10.6049
▁голод	-10.6049
▁находя	-10.6052
ставили	-10.6053
▁называю	-10.6054
▁types	-10.6069
рис	-10.607
▁willing	-10.6072
▁architect	-10.6075
▁Two	-10.6076
▁era	-10.6092
kin	-10.6097
▁Бер	-10.6098
▁журналист	-10.6102
▁стреми	-10.6103
▁рынок	-10.6104
▁custom	-10.6104
▁позволил	-10.6104
▁новости	-10.6104
▁изучать	-10.6104
▁выбрал	-10.6105
▁производства	-10.6106
▁искать	-10.611
▁organizations	-10.6111
▁weight	-10.6119
Йорке	-10.6123
▁introduce	-10.6132
▁партнёр	-10.6132
▁машину	-10.6135
read	-10.6136
▁жал	-10.6146
стрел	-10.6151
▁успеха	-10.6154
▁convince	-10.616
▁terrible	-10.616
▁представьте	-10.616
▁сотрудник	-10.616
▁communicate	-10.616
▁детьми	-10.616
▁заболевания	-10.616
▁знала	-10.6164
▁Пу	-10.617
▁вклад	-10.6171
▁engineering	-10.6173
▁спрос	-10.6178
▁familiar	-10.6188
▁identity	-10.6188
▁хуже	-10.6188
▁роста	-10.6188
▁фон	-10.619
▁total	-10.619
▁километров	-10.6196
▁dad	-10.6204
▁Где	-10.6205
▁Чем	-10.6213
Я	-10.6214
▁чу	-10.6214
▁многим	-10.6216
▁небольшой	-10.6216
▁atmosphere	-10.6216
▁подверг	-10.6217
▁summer	-10.6217
▁Col	-10.6222
▁обеспеч	-10.6225
▁speech	-10.6244
цами	-10.6247
▁дизайна	-10.625
▁loss	-10.6255
▁важное	-10.6259
▁useful	-10.626
▁Ki	-10.6264
роз	-10.6267
ification	-10.6268
▁вести	-10.6269
▁National	-10.6273
▁adapt	-10.6273
▁пришёл	-10.6273
▁позволить	-10.6276
шек	-10.6277
▁сидел	-10.6278
▁22	-10.6288
▁legal	-10.6289
▁player	-10.6291
▁teaching	-10.6292
▁создают	-10.6296
▁Another	-10.6301
▁surround	-10.6301
▁велосипед	-10.6301
craft	-10.6302
▁фотограф	-10.6314
▁disc	-10.6315
▁speaking	-10.6321
бирать	-10.6326
практик	-10.6329
▁vehicle	-10.6329
▁специалист	-10.6329
▁мать	-10.633
▁голове	-10.633
▁новым	-10.6331
▁forth	-10.6335
▁гражданск	-10.6335
▁lack	-10.6336
▁Джо	-10.6336
▁production	-10.6339
▁active	-10.634
▁сделала	-10.6342
▁except	-10.6343
▁earth	-10.6358
▁твор	-10.6359
▁neurons	-10.6359
▁Gra	-10.6365
▁obvious	-10.6374
▁ваших	-10.6375
зывает	-10.6384
▁инфраструктур	-10.6387
▁ситуацию	-10.6387
▁углерод	-10.6387
▁компаний	-10.6387
▁election	-10.6387
▁пусты	-10.6396
▁ahead	-10.6402
▁choices	-10.6405
script	-10.6411
▁каждую	-10.6415
▁tax	-10.6415
▁слайд	-10.6416
▁select	-10.6421
▁rat	-10.6421
▁catch	-10.6422
▁принимать	-10.6422
▁hero	-10.6424
▁леса	-10.6425
▁пита	-10.643
▁осознал	-10.6431
жат	-10.6442
▁брат	-10.6442
▁Ph	-10.6443
▁Which	-10.6444
▁Северно	-10.6444
▁смертн	-10.6445
▁feature	-10.6445
▁учителя	-10.6446
▁семье	-10.6447
хожу	-10.6448
▁spin	-10.6449
▁мнение	-10.6451
▁gun	-10.6459
aries	-10.6463
ean	-10.6467
▁London	-10.6473
▁afraid	-10.6473
▁Америки	-10.6473
▁protein	-10.6473
Video	-10.6473
▁emerge	-10.6473
дели	-10.6474
▁stopped	-10.6475
▁появляется	-10.6475
▁following	-10.6478
▁Мак	-10.6478
▁broken	-10.6478
▁none	-10.6479
▁подобные	-10.6484
▁потенциал	-10.6499
▁fantastic	-10.6502
▁trouble	-10.6502
▁сердца	-10.6502
▁убежден	-10.6502
▁straight	-10.6502
▁дороги	-10.6504
▁describe	-10.6509
▁пластик	-10.6511
▁реальности	-10.6513
▁boys	-10.6515
▁сохран	-10.6527
крупн	-10.653
▁Think	-10.6531
▁weapon	-10.6531
hand	-10.6534
▁правило	-10.6535
▁coral	-10.6536
▁labor	-10.654
щими	-10.6541
▁отказа	-10.6549
вшим	-10.6553
▁реальны	-10.6555
цел	-10.6555
▁Mu	-10.6555
илл	-10.6559
работки	-10.656
▁therefore	-10.656
▁worst	-10.656
▁стресс	-10.656
ическим	-10.6568
point	-10.657
▁одни	-10.6572
ame	-10.6573
▁Tu	-10.6589
▁expand	-10.659
▁random	-10.659
▁пространства	-10.659
▁социальных	-10.659
▁genome	-10.659
▁double	-10.659
▁distance	-10.659
▁Второй	-10.659
▁streets	-10.6595
▁хорошие	-10.6601
▁Было	-10.6603
▁bear	-10.6604
▁устойчиво	-10.6605
▁слышал	-10.6608
▁layer	-10.6611
ством	-10.6612
▁sensor	-10.6619
▁имеем	-10.662
▁recent	-10.6622
▁нарко	-10.6622
▁команда	-10.6623
▁писать	-10.6624
▁изучен	-10.6624
ённые	-10.663
▁главное	-10.6631
▁счастливы	-10.6639
▁tissue	-10.6648
▁understood	-10.6648
▁философ	-10.6648
▁spoke	-10.6648
▁capture	-10.6648
ana	-10.6651
▁увеличив	-10.6652
▁большей	-10.6655
▁странно	-10.6658
▁человеческого	-10.6661
▁Тем	-10.6662
чного	-10.6666
▁крут	-10.667
▁программу	-10.6676
▁Twitter	-10.6678
▁circle	-10.6678
▁звёзд	-10.6678
▁коралл	-10.6678
▁двигаться	-10.6683
▁представлен	-10.6687
▁широко	-10.6687
бить	-10.6702
▁сбор	-10.6702
off	-10.6706
▁president	-10.6707
▁теории	-10.6707
▁взрыв	-10.6708
▁organize	-10.6712
▁ученик	-10.6713
▁собран	-10.6715
▁семь	-10.6717
▁rid	-10.6725
▁mostly	-10.6725
▁apart	-10.6725
▁sick	-10.6727
анных	-10.6732
▁учёные	-10.6737
▁клиент	-10.6737
▁неудач	-10.6737
▁учиться	-10.6737
X	-10.6738
▁понятия	-10.6741
▁треть	-10.6744
▁fat	-10.6744
ьер	-10.6748
чке	-10.6754
uff	-10.6756
▁2010	-10.6767
▁ощущение	-10.6767
▁saving	-10.6767
▁поводу	-10.6767
▁нового	-10.6768
▁норм	-10.6768
▁канал	-10.677
▁replace	-10.6773
▁миллион	-10.6778
▁первых	-10.6783
arian	-10.6786
▁разве	-10.6787
▁Кажд	-10.6792
▁выпуск	-10.6793
▁campaign	-10.6797
▁crime	-10.6797
▁paid	-10.6797
▁popular	-10.6797
▁первая	-10.6798
▁effects	-10.68
unk	-10.6808
▁scientist	-10.681
▁устройства	-10.6811
▁способности	-10.6812
ните	-10.6819
▁societies	-10.6827
▁yeah	-10.6827
▁прогноз	-10.6827
▁родителей	-10.6827
▁interaction	-10.6828
▁наука	-10.683
▁эконом	-10.684
▁пан	-10.6841
▁quick	-10.6844
▁justice	-10.6851
ходим	-10.6856
▁выращива	-10.6857
▁belief	-10.6857
▁Кроме	-10.6857
▁справа	-10.6859
How	-10.686
▁99	-10.6861
▁north	-10.6864
▁gain	-10.6869
ворот	-10.6873
dollar	-10.6878
▁ten	-10.6885
▁gender	-10.6887
▁единственно	-10.6887
▁влияет	-10.6887
▁Мэ	-10.6899
▁condition	-10.6901
▁власть	-10.6903
▁дал	-10.6904
▁примеров	-10.6906
▁тяжёл	-10.6917
▁Через	-10.6917
▁освещ	-10.6917
▁vast	-10.6917
▁фу	-10.6921
▁получаем	-10.6923
▁rare	-10.6925
▁дыр	-10.6932
▁форме	-10.6933
ард	-10.6934
▁вкус	-10.6935
▁пуст	-10.6937
▁highly	-10.6944
▁YouTube	-10.6947
▁avoid	-10.6947
▁автомобиль	-10.6947
▁качества	-10.6947
▁хозяйств	-10.6947
▁читать	-10.6947
ставлять	-10.6948
▁научиться	-10.6952
urge	-10.6953
▁2008	-10.6953
ванию	-10.6955
▁самих	-10.6959
▁обман	-10.6961
▁wh	-10.6965
шение	-10.6973
ницы	-10.6974
▁technique	-10.6978
▁destroy	-10.6978
▁заключен	-10.6978
▁electro	-10.6978
▁Western	-10.6978
▁психолог	-10.6988
▁подобных	-10.699
▁pat	-10.6998
▁жизнью	-10.6999
▁остановить	-10.6999
▁цвета	-10.7003
▁смотрите	-10.7004
кция	-10.7004
▁Your	-10.7007
▁determine	-10.7008
▁arrive	-10.7008
▁объединя	-10.7008
▁природе	-10.7008
▁Китае	-10.7009
▁распозн	-10.701
ствуют	-10.7012
▁конец	-10.7014
▁провели	-10.7019
▁городов	-10.7021
▁emotions	-10.7026
ерн	-10.7028
▁closer	-10.7031
▁измени	-10.7032
▁Muslim	-10.7039
▁responsibility	-10.7039
▁Проблема	-10.7039
▁повсюду	-10.7039
▁отношение	-10.7039
▁числе	-10.7039
▁argue	-10.7039
▁поразительн	-10.7042
▁Никто	-10.705
▁случайно	-10.705
▁seat	-10.7051
▁дни	-10.7051
▁новая	-10.7063
▁изображен	-10.7068
▁сосредоточ	-10.7069
▁случаев	-10.707
▁noticed	-10.7073
▁век	-10.7082
▁полезны	-10.7082
ительные	-10.7087
▁investment	-10.7091
▁invented	-10.7091
▁tens	-10.7098
▁traffic	-10.71
▁From	-10.71
▁мотив	-10.7101
▁выступления	-10.7102
▁sold	-10.7103
▁принес	-10.7116
▁flying	-10.7117
▁Пи	-10.712
▁California	-10.7131
▁easier	-10.7131
▁supply	-10.7131
▁switch	-10.7131
▁various	-10.7131
▁перспектив	-10.7131
▁организация	-10.7132
▁addition	-10.7132
▁волос	-10.7133
▁вопросов	-10.7134
▁23	-10.7141
ek	-10.7143
▁справедлив	-10.7143
▁helping	-10.7144
▁mark	-10.7146
▁members	-10.7149
▁nearly	-10.7152
▁although	-10.7162
▁satellite	-10.7162
▁damage	-10.7162
▁insect	-10.7162
▁Хотя	-10.7162
▁естественно	-10.7168
▁выбрать	-10.717
▁сидя	-10.7171
зировать	-10.7184
▁фонд	-10.7186
▁моём	-10.7192
▁скажет	-10.7192
▁diversity	-10.7193
▁surprising	-10.7193
▁поможет	-10.7193
▁следующем	-10.7193
▁события	-10.7193
▁gather	-10.7193
▁profound	-10.7194
▁Ник	-10.7204
▁directly	-10.7205
▁gap	-10.7205
▁вызов	-10.7205
▁существующ	-10.7206
▁наблюдать	-10.7212
rry	-10.7216
▁активно	-10.7218
▁party	-10.7221
▁дис	-10.7222
▁бро	-10.7223
▁remarkable	-10.7224
▁Наши	-10.7226
▁заверш	-10.723
▁seemed	-10.7233
▁взяли	-10.7235
pping	-10.724
▁mid	-10.7242
▁fair	-10.7244
▁Мои	-10.7245
▁shock	-10.7256
▁обучение	-10.7256
▁missing	-10.7257
▁режим	-10.7257
▁Arab	-10.7257
▁труб	-10.7257
▁протест	-10.7257
▁шум	-10.7258
вторых	-10.7261
▁выгод	-10.7264
▁anyway	-10.7265
▁планета	-10.7267
▁конечном	-10.7267
▁differently	-10.7269
▁утра	-10.7278
чей	-10.7284
▁below	-10.7287
▁climb	-10.7287
▁husband	-10.7287
▁единственный	-10.7287
▁изобрета	-10.7287
▁обязательно	-10.7287
▁служб	-10.7287
▁вселенной	-10.7287
▁культуры	-10.7291
знание	-10.7308
▁поля	-10.7309
▁television	-10.7318
▁каждая	-10.7318
▁сектор	-10.7319
▁edge	-10.7319
▁sentence	-10.732
▁предпринима	-10.7321
▁понимал	-10.7325
▁крыш	-10.7326
▁подобное	-10.7328
▁Gu	-10.733
▁CO	-10.733
▁published	-10.7333
▁управлять	-10.7335
▁открыты	-10.7338
state	-10.7345
▁easily	-10.735
▁possibly	-10.735
▁следующее	-10.735
▁border	-10.735
Видео	-10.735
▁dying	-10.735
▁инструменты	-10.7354
▁противо	-10.7356
▁ill	-10.7359
▁mess	-10.7369
▁смел	-10.7377
▁строит	-10.7377
▁Indian	-10.738
▁continent	-10.7381
▁sample	-10.7381
▁remove	-10.7381
▁Более	-10.7381
▁голуб	-10.7382
▁привык	-10.7382
▁предлага	-10.7383
▁получится	-10.7387
▁анти	-10.739
▁кино	-10.739
▁улице	-10.7392
▁приехал	-10.7401
▁привести	-10.7401
▁показали	-10.7402
▁программа	-10.7403
▁думала	-10.7408
▁луч	-10.7408
▁creativity	-10.7413
▁sector	-10.7413
зываю	-10.7417
▁чрезвычайно	-10.7419
▁расти	-10.7422
▁животные	-10.7424
ируется	-10.7427
▁человеку	-10.7437
▁моему	-10.7443
▁disappear	-10.7445
▁graduate	-10.7445
▁Однажды	-10.7445
▁появилась	-10.7445
▁называл	-10.745
▁выглядеть	-10.7452
▁driver	-10.7453
▁проще	-10.7455
▁enable	-10.7455
▁дорого	-10.7456
▁могло	-10.7476
▁ancient	-10.7477
▁Лондон	-10.7477
▁зависимости	-10.7477
▁shoot	-10.7477
▁мусор	-10.7477
▁везде	-10.7478
atic	-10.748
▁море	-10.7491
иваются	-10.7494
▁удивит	-10.7498
iff	-10.7499
▁dynamic	-10.7509
▁instrument	-10.7509
▁central	-10.7509
▁можешь	-10.7509
▁онлайн	-10.7509
▁кстати	-10.7509
▁хоть	-10.7509
▁лучших	-10.7509
▁attract	-10.751
изация	-10.7512
▁держа	-10.7512
▁react	-10.7513
▁Cha	-10.7517
▁гол	-10.752
▁Am	-10.7521
▁узнали	-10.7525
▁passion	-10.7527
▁водой	-10.7531
▁capacity	-10.7541
▁despite	-10.7541
▁slightly	-10.7541
▁отвечаю	-10.7541
▁promise	-10.7541
▁растения	-10.7541
▁обратить	-10.7541
▁слева	-10.7542
▁classroom	-10.7542
▁вашу	-10.7543
▁Ло	-10.7544
▁Over	-10.7549
ником	-10.755
▁inspired	-10.7553
▁относи	-10.7553
▁намерен	-10.7554
▁попал	-10.7557
ju	-10.7559
▁Sun	-10.7569
▁cycle	-10.7573
▁platform	-10.7573
▁порядке	-10.7573
▁gotten	-10.7574
▁печат	-10.7575
▁ноги	-10.7583
▁бомб	-10.7585
▁хороший	-10.7585
▁зло	-10.7602
наружи	-10.7603
▁occur	-10.7605
▁employ	-10.7606
▁числа	-10.7606
▁background	-10.7606
▁поверхность	-10.7606
▁desire	-10.7606
▁sustainable	-10.7608
hop	-10.7612
▁Тут	-10.7615
▁copy	-10.7616
▁пришла	-10.7618
▁ресурсов	-10.7619
▁sand	-10.7628
тельной	-10.7628
▁линии	-10.7634
казал	-10.7638
▁понимаем	-10.7638
▁выступление	-10.7639
▁произведен	-10.7642
▁Ke	-10.7651
▁reaction	-10.7653
▁pal	-10.7655
▁boat	-10.7668
▁заканчива	-10.7671
▁продолжает	-10.7671
▁Brazil	-10.7671
▁iPhone	-10.7671
▁маленьких	-10.7671
▁первого	-10.7671
▁счастью	-10.7671
▁giant	-10.7671
▁улыб	-10.7672
▁честно	-10.7672
▁придумал	-10.7672
▁fully	-10.7673
▁термин	-10.7674
▁никаких	-10.7677
▁образован	-10.7678
▁pan	-10.7682
▁Кан	-10.7686
▁электрон	-10.7697
▁aspect	-10.7704
▁conference	-10.7704
▁divide	-10.7704
▁лучший	-10.7704
▁radical	-10.7704
▁bridge	-10.7705
▁fan	-10.7707
▁beat	-10.7707
▁еду	-10.772
print	-10.7724
▁station	-10.7725
▁языке	-10.7733
▁hearing	-10.7735
▁surgery	-10.7736
▁claim	-10.7736
▁эффективны	-10.7737
▁outcome	-10.7737
▁brand	-10.7738
▁master	-10.7742
▁plane	-10.7743
▁выражен	-10.7744
▁Мир	-10.7746
▁played	-10.7747
▁тепл	-10.7748
▁способы	-10.7755
остр	-10.7756
носят	-10.7759
▁sum	-10.7761
▁букв	-10.7769
▁alternative	-10.7769
▁sequence	-10.7769
▁encourage	-10.7769
▁великолепн	-10.7769
▁серьёзны	-10.7769
▁горд	-10.7772
▁gold	-10.7773
▁клетка	-10.7775
▁Q	-10.7781
правил	-10.7783
▁природн	-10.7784
▁bat	-10.7785
▁host	-10.779
▁лож	-10.779
▁эмоции	-10.7794
▁микроб	-10.7799
▁писал	-10.7799
▁связаны	-10.7799
▁решила	-10.7801
▁muscle	-10.7802
▁выяснил	-10.7802
▁управления	-10.7802
▁удовлетвор	-10.7802
▁sharing	-10.7802
▁глуп	-10.7803
▁кофе	-10.7804
▁weird	-10.7805
ратор	-10.7815
▁core	-10.782
▁вероятность	-10.7821
▁подумали	-10.7825
▁held	-10.7828
matic	-10.7831
▁commercial	-10.7835
▁oxygen	-10.7835
▁сквозь	-10.7835
▁smell	-10.7835
▁article	-10.7835
традиционн	-10.7837
▁studying	-10.7839
phone	-10.7843
▁предложил	-10.7848
пят	-10.7849
▁extreme	-10.7856
писал	-10.7857
▁подключ	-10.786
▁ночь	-10.7863
▁invent	-10.7866
▁component	-10.7869
▁correct	-10.7869
▁strength	-10.7869
▁кислород	-10.7869
▁коллектив	-10.7869
▁bought	-10.7869
▁путём	-10.7869
▁En	-10.7869
▁получилось	-10.7873
▁чувствовать	-10.7874
▁suffer	-10.7876
▁среде	-10.7876
▁низ	-10.7877
вшего	-10.7879
▁ресурсы	-10.7889
▁passed	-10.7889
▁руках	-10.7889
▁целый	-10.7892
▁Оказывается	-10.7902
▁континент	-10.7902
▁контекст	-10.7902
▁считаем	-10.7902
▁symbol	-10.7902
▁качество	-10.7903
▁население	-10.7903
▁net	-10.7906
Why	-10.7912
▁прошлого	-10.7915
▁среду	-10.7924
носить	-10.7928
▁fill	-10.7928
▁мировой	-10.793
▁Дело	-10.7931
▁dramatic	-10.7935
▁opportunities	-10.7935
▁religious	-10.7935
▁крошечн	-10.7935
▁появились	-10.7935
▁четырёх	-10.7935
▁эволюции	-10.7935
▁столь	-10.7936
▁ответственность	-10.7937
▁tough	-10.7942
▁consumer	-10.7953
▁карту	-10.7956
▁дали	-10.7957
▁produced	-10.796
▁suffering	-10.7961
▁focused	-10.7965
▁кадр	-10.7966
▁Афганистан	-10.7969
▁продолжал	-10.7969
▁настоящий	-10.7969
▁стоимость	-10.7969
▁усилия	-10.7969
▁шести	-10.7989
▁услышал	-10.8003
▁контроль	-10.8003
▁увидим	-10.8003
▁opposite	-10.8003
▁However	-10.8007
▁лов	-10.8009
▁hang	-10.801
ption	-10.8011
mark	-10.8016
▁размера	-10.8022
платить	-10.803
▁coffee	-10.8036
▁государства	-10.8036
▁изменений	-10.8036
▁настоящее	-10.8036
▁список	-10.8036
▁последнее	-10.8036
▁leadership	-10.8037
▁способом	-10.8039
▁роботов	-10.8039
▁направлении	-10.8045
▁правительств	-10.8048
▁полов	-10.8049
▁noise	-10.805
▁улучшить	-10.8064
▁engine	-10.8069
▁definition	-10.807
▁negative	-10.807
▁превратил	-10.807
▁разработал	-10.807
▁хирург	-10.807
▁balance	-10.807
▁chain	-10.807
▁берег	-10.807
▁funny	-10.8072
▁цикл	-10.8075
▁обеспечить	-10.8076
▁тонн	-10.8077
▁entirely	-10.8081
▁строить	-10.8088
▁мисс	-10.8089
▁Само	-10.8096
▁entrepreneur	-10.8098
é	-10.8104
▁альтернатив	-10.8104
▁девочка	-10.8104
▁спрашиваю	-10.8104
▁успешно	-10.8104
▁contact	-10.8104
▁basis	-10.8105
▁600	-10.8109
▁смогу	-10.811
▁показывают	-10.8113
zo	-10.8114
▁каса	-10.8121
▁доме	-10.8135
▁Asia	-10.8136
▁competition	-10.8138
▁звучит	-10.8138
▁recover	-10.8138
▁joy	-10.8138
▁importantly	-10.8139
▁остаётся	-10.8141
▁European	-10.8144
Music	-10.8157
▁утром	-10.8159
▁неправильно	-10.816
▁книга	-10.8171
▁imagination	-10.8173
▁victim	-10.8173
▁задуматься	-10.8173
▁Люб	-10.8173
▁лечение	-10.8174
ung	-10.8184
▁игрок	-10.8184
▁moon	-10.8185
▁efficient	-10.819
▁будь	-10.8206
▁последних	-10.8207
▁электрическ	-10.8207
▁обязан	-10.8207
hood	-10.8207
▁evolved	-10.822
▁словно	-10.8224
char	-10.8235
▁акул	-10.8235
▁regular	-10.8241
▁Нескольк	-10.8241
▁музыку	-10.8241
▁мусульман	-10.8241
▁Вселенной	-10.8241
▁tumor	-10.8242
▁Russia	-10.8242
▁меняется	-10.825
▁западн	-10.8259
▁разрабатыва	-10.8259
▁direct	-10.8262
▁миром	-10.8273
полнит	-10.8274
сходя	-10.8275
▁директор	-10.8276
▁пользоваться	-10.8276
▁произойдёт	-10.8276
▁путешествие	-10.8276
▁скажем	-10.8276
▁социальные	-10.8276
▁scene	-10.8276
▁область	-10.8277
▁близки	-10.8281
▁lucky	-10.8282
▁разница	-10.8287
▁нормально	-10.83
▁depression	-10.8311
▁industrial	-10.8311
▁tremendous	-10.8311
▁twice	-10.8311
▁Видите	-10.8311
▁нервн	-10.8313
▁охот	-10.8314
▁зуб	-10.832
▁городах	-10.8321
▁отдал	-10.8324
пред	-10.8342
▁способов	-10.8344
▁Afghanistan	-10.8346
▁Great	-10.8346
▁насилия	-10.8346
▁сфере	-10.8346
ведения	-10.8347
▁court	-10.8347
▁возникает	-10.8351
▁оказывается	-10.8351
▁motor	-10.8354
▁Nor	-10.8355
je	-10.8361
▁Без	-10.8364
▁продаж	-10.8364
▁ходить	-10.8369
ступить	-10.8372
▁веке	-10.8377
▁sustain	-10.8378
▁Australia	-10.8381
▁chose	-10.8381
▁доступны	-10.8381
quarter	-10.8382
head	-10.8385
▁Wal	-10.8399
▁эколог	-10.84
▁страну	-10.8406
▁насчёт	-10.8409
„	-10.8416
▁квадрат	-10.8416
▁shark	-10.8416
▁Sometimes	-10.8416
▁специально	-10.8416
▁belong	-10.8416
▁вершин	-10.8417
▁blow	-10.8419
▁спасти	-10.8431
▁suit	-10.8442
▁raised	-10.8446
▁ребята	-10.8447
▁меч	-10.845
индустри	-10.8451
▁MIT	-10.8451
▁взглянуть	-10.8451
▁пункт	-10.8451
▁mouth	-10.8451
▁вакцин	-10.8451
▁chair	-10.8451
▁wood	-10.8451
▁operation	-10.8451
▁Первая	-10.8453
▁страшно	-10.8453
▁приём	-10.8455
▁границы	-10.8455
вращени	-10.8455
▁составляет	-10.8457
▁остальные	-10.846
▁производит	-10.8462
▁признать	-10.8466
▁читал	-10.8475
▁старше	-10.8476
▁pop	-10.8481
▁ответить	-10.8482
ешься	-10.8485
▁интер	-10.8485
▁жителей	-10.8486
▁обознач	-10.8487
▁учебн	-10.8487
▁шут	-10.8487
▁ban	-10.849
▁случаях	-10.8493
▁Одно	-10.8499
▁Пере	-10.8516
▁faith	-10.8522
▁деревья	-10.8522
▁профессор	-10.8522
▁комнате	-10.8522
▁prefer	-10.8523
▁газа	-10.8526
▁добр	-10.8529
▁доверя	-10.8531
щихся	-10.8533
▁parent	-10.8533
gon	-10.8551
▁strategy	-10.8557
▁stuck	-10.8557
▁золот	-10.8557
▁crowd	-10.8557
▁положение	-10.8557
▁жидк	-10.8557
▁тайн	-10.8558
водят	-10.8562
▁farmers	-10.8563
▁proud	-10.8564
▁Tra	-10.8565
▁bias	-10.8565
▁мастер	-10.8565
▁политики	-10.8565
▁секунду	-10.8566
atter	-10.8569
▁Стив	-10.8577
▁гал	-10.8578
He	-10.8579
▁прибор	-10.8591
▁necessarily	-10.8593
▁начинаем	-10.8593
▁сделаем	-10.8593
ological	-10.8602
based	-10.8603
▁27	-10.8603
▁spending	-10.8603
▁Take	-10.8604
▁drawing	-10.8604
▁исправ	-10.8608
▁10,000	-10.8614
▁лекарств	-10.8616
никами	-10.8621
▁блог	-10.8628
▁identify	-10.8629
▁Сначала	-10.8629
▁контролировать	-10.8629
▁Islam	-10.8629
▁нефти	-10.8629
▁крови	-10.863
▁рождения	-10.8632
▁сделано	-10.8639
▁See	-10.864
▁dig	-10.8645
▁tro	-10.8652
▁отличны	-10.8655
▁творчески	-10.8662
▁consciousness	-10.8665
▁Кстати	-10.8665
▁Iraq	-10.8665
▁empower	-10.8665
крыть	-10.8667
▁выяснить	-10.8672
эл	-10.8672
▁знак	-10.8677
уля	-10.868
▁проходит	-10.8682
▁знакомы	-10.8683
▁близко	-10.8689
▁задать	-10.8693
▁deeply	-10.8701
▁вынужден	-10.8701
▁ресторан	-10.8701
▁завтра	-10.8701
▁hurt	-10.8701
▁пройти	-10.8701
▁реализ	-10.8703
▁Life	-10.8703
▁скоростью	-10.871
▁проводил	-10.8719
ируя	-10.8723
плыв	-10.8723
▁application	-10.8737
▁аудитории	-10.8737
▁контакт	-10.8737
▁математическ	-10.8737
▁попробовать	-10.8737
▁проявля	-10.8737
▁зовут	-10.8737
▁dimension	-10.874
▁2009	-10.8744
▁взят	-10.8745
▁мораль	-10.8749
“	-10.8774
▁estimate	-10.8774
▁responsible	-10.8774
▁телевизор	-10.8774
▁препарат	-10.8774
▁солнечны	-10.8774
▁zone	-10.8774
▁сократи	-10.8774
▁платформ	-10.8775
▁Any	-10.8777
▁помогают	-10.8783
▁повыше	-10.8783
▁действий	-10.8783
▁никакого	-10.8784
▁доллар	-10.8788
This	-10.8788
считыва	-10.8796
▁ниже	-10.8799
▁красиво	-10.8799
▁date	-10.88
ящий	-10.8804
ography	-10.8805
▁третье	-10.8807
▁Har	-10.8808
▁появился	-10.881
▁Первое	-10.881
▁root	-10.881
▁debate	-10.881
▁решать	-10.881
▁civilization	-10.8811
▁выйти	-10.8813
▁majority	-10.8816
▁1,000	-10.8818
нец	-10.8819
▁робота	-10.8819
▁tradition	-10.8824
▁причины	-10.8837
▁открыть	-10.8842
чными	-10.8845
▁bottle	-10.8847
▁quote	-10.8847
▁выглядят	-10.8847
▁тяжело	-10.8847
▁футбол	-10.8847
▁уменьши	-10.8847
▁ближе	-10.8847
▁дорож	-10.8849
▁пытались	-10.8851
▁ultimately	-10.8854
▁потрясающе	-10.8855
▁скрыт	-10.8857
▁Lu	-10.8878
▁начальн	-10.888
▁дают	-10.8882
▁criminal	-10.8883
▁mechanism	-10.8883
▁людях	-10.8883
▁наверняка	-10.8883
ulation	-10.8887
▁своему	-10.8888
▁complexity	-10.8891
▁hack	-10.8892
▁работала	-10.8894
room	-10.8899
▁изменит	-10.891
вался	-10.8915
▁размером	-10.8917
▁лег	-10.892
&	-10.892
▁огромные	-10.892
▁согласно	-10.892
▁trend	-10.892
▁prepare	-10.892
▁пытаясь	-10.8922
▁motion	-10.8925
▁фраз	-10.8925
▁cop	-10.8926
▁turning	-10.8927
▁eating	-10.8931
▁брак	-10.8935
▁хорошая	-10.8939
▁Пре	-10.8948
▁Her	-10.8952
▁структуры	-10.8955
▁prior	-10.8957
▁данном	-10.8958
▁grand	-10.8958
▁назвать	-10.8958
▁начинал	-10.8958
▁понимают	-10.8958
▁затрат	-10.8959
▁bright	-10.8962
▁surprise	-10.8972
▁назван	-10.8976
▁молодых	-10.8977
▁lit	-10.8982
средством	-10.8986
▁отца	-10.8989
▁важным	-10.8991
▁Actually	-10.8995
▁advantage	-10.8995
▁компонент	-10.8995
▁уязвим	-10.8995
▁эволюцион	-10.8995
▁невидим	-10.8995
спор	-10.8996
▁stranger	-10.9011
▁figured	-10.9011
▁хочется	-10.9013
▁хол	-10.9016
▁однако	-10.9018
▁пик	-10.9021
▁artificial	-10.9032
▁attempt	-10.9032
▁технологию	-10.9032
▁сильнее	-10.9032
▁remote	-10.9032
▁обратил	-10.9033
ставим	-10.9043
▁картину	-10.905
▁общего	-10.9051
▁pig	-10.9056
60	-10.906
▁вызывает	-10.906
▁достижения	-10.9069
▁рынка	-10.9069
▁Again	-10.9069
▁location	-10.9069
▁восстановлен	-10.9071
▁чувствует	-10.9071
▁мудр	-10.9071
▁редко	-10.9072
▁спросить	-10.9076
▁forever	-10.9078
▁веб	-10.9081
▁попыта	-10.9083
нуться	-10.9086
▁meters	-10.9087
▁распространя	-10.9088
▁бедных	-10.9088
▁log	-10.9092
▁команды	-10.9096
40	-10.9096
▁Middle	-10.9107
▁fashion	-10.9107
▁категори	-10.9107
▁обезьян	-10.9107
▁gift	-10.9107
Музыка	-10.9109
▁bound	-10.9111
▁проводить	-10.9114
▁Лос	-10.9116
▁связано	-10.9119
▁Южной	-10.912
оваться	-10.9122
▁броса	-10.9133
▁bag	-10.9136
▁spec	-10.9138
▁став	-10.9138
▁holding	-10.9144
▁Washington	-10.9145
▁энергия	-10.9145
▁оружие	-10.9145
▁trillion	-10.9145
▁Вопрос	-10.9145
▁занял	-10.9145
▁Такие	-10.9146
▁blog	-10.9148
▁толк	-10.9157
камер	-10.9165
▁reward	-10.9167
▁использую	-10.9168
▁grade	-10.9168
▁требует	-10.9173
▁possibility	-10.9183
▁каждое	-10.9183
▁экосистем	-10.9183
▁преступн	-10.9183
▁любят	-10.9183
▁сообща	-10.9183
▁repeat	-10.9184
▁пытаюсь	-10.9184
▁стороне	-10.9187
▁flight	-10.919
▁2007	-10.919
ko	-10.9198
▁compared	-10.9201
▁видят	-10.9206
▁поведения	-10.9212
▁govern	-10.9218
▁journalist	-10.922
▁ecosystem	-10.9221
▁Существует	-10.9221
▁письмо	-10.9221
▁территории	-10.9221
▁отличие	-10.9221
▁солдат	-10.9221
▁roof	-10.9221
▁technical	-10.9221
гранич	-10.9222
▁earn	-10.9223
низи	-10.9227
ождение	-10.9229
▁сцена	-10.9231
культ	-10.9233
▁finish	-10.9235
▁заставляет	-10.9236
▁совместно	-10.9243
▁экране	-10.9255
▁due	-10.9255
▁Apple	-10.9259
▁exercise	-10.9259
▁universal	-10.9259
▁сложные	-10.9259
▁Следующ	-10.9259
ступает	-10.926
йдём	-10.9261
▁травм	-10.9262
▁запас	-10.9267
▁важный	-10.9275
▁человеческой	-10.9295
▁opinion	-10.9297
▁восприятие	-10.9297
▁гигантск	-10.9297
▁David	-10.9297
▁серьезн	-10.9297
▁вперед	-10.93
▁представления	-10.9304
▁получать	-10.9307
▁нашими	-10.9314
▁признак	-10.9314
▁изучал	-10.9321
▁произв	-10.9329
▁Южн	-10.933
стрем	-10.9334
▁интервью	-10.9335
▁огромный	-10.9335
▁заметить	-10.9336
▁туалет	-10.9336
▁coast	-10.9336
▁250	-10.9337
▁вещам	-10.9337
▁cave	-10.9339
▁еды	-10.9339
▁среднем	-10.9339
▁сознание	-10.9344
▁остальных	-10.9345
▁получал	-10.9346
▁Sha	-10.9357
▁срок	-10.9367
▁бог	-10.9367
▁breast	-10.9374
▁university	-10.9374
▁теория	-10.9374
▁disorder	-10.9374
▁незнаком	-10.9374
▁пытается	-10.9381
▁продуктов	-10.9386
▁любого	-10.9388
вшей	-10.9389
▁fighting	-10.9395
▁сделаю	-10.94
▁nor	-10.9405
▁magazine	-10.9413
▁previous	-10.9413
▁yellow	-10.9413
▁самостоятельно	-10.9413
▁сравнению	-10.9413
▁архитектор	-10.9413
▁лучшие	-10.9413
▁Nigeria	-10.9413
▁foreign	-10.9413
▁защиты	-10.9413
▁1980	-10.9415
▁score	-10.9416
▁pair	-10.9416
▁ламп	-10.9416
▁опрос	-10.9418
▁Paul	-10.9421
▁используется	-10.9427
▁сохраня	-10.9431
▁открытия	-10.9435
▁British	-10.9452
▁multiple	-10.9452
▁extend	-10.9452
▁рецепт	-10.9452
▁знаний	-10.9452
▁Велик	-10.9456
▁ночью	-10.9462
▁суб	-10.9463
▁заставил	-10.9464
▁мощно	-10.9476
▁предоставля	-10.9479
▁failed	-10.9489
▁leading	-10.949
▁сообщество	-10.949
▁marriage	-10.9491
▁perception	-10.9491
▁studied	-10.9491
▁удовольствие	-10.9491
▁Земля	-10.9491
▁внутрь	-10.9491
▁купил	-10.9493
▁спектр	-10.9494
▁everyday	-10.9503
правлять	-10.9504
▁биологически	-10.9508
▁Ru	-10.9511
▁watched	-10.9516
▁корол	-10.9521
▁музыка	-10.9524
▁фундаментальн	-10.9528
▁GPS	-10.953
▁заинтересован	-10.953
▁собственные	-10.953
▁продолжительн	-10.953
▁пределами	-10.953
▁dress	-10.953
▁важнее	-10.953
▁reveal	-10.953
▁childhood	-10.9531
▁бывает	-10.9537
▁пытался	-10.955
▁приходят	-10.9557
▁1990	-10.9569
▁metaphor	-10.9569
▁dinner	-10.9569
▁Kenya	-10.9569
▁garden	-10.9569
▁бороться	-10.9569
▁полагаю	-10.957
▁stem	-10.9577
▁друзьями	-10.9584
▁Dan	-10.9586
▁clinic	-10.959
j	-10.9596
▁естественны	-10.9598
▁присоедини	-10.9599
▁магнит	-10.9609
▁museum	-10.9609
▁professor	-10.9609
▁truck	-10.9609
▁Вашингтон	-10.9609
▁динозавр	-10.9609
▁знаменит	-10.9609
▁мгновен	-10.9609
▁broad	-10.9609
▁смерть	-10.9609
▁dozen	-10.9609
▁действовать	-10.9611
▁пытаются	-10.9614
▁мост	-10.9615
▁trained	-10.9616
▁Перед	-10.9617
▁эмоци	-10.9619
▁пожар	-10.9619
▁страдаю	-10.9626
▁бесед	-10.9627
энд	-10.9633
▁сохранить	-10.9635
▁точка	-10.9636
▁скорость	-10.9645
▁Egypt	-10.9649
▁Великобритании	-10.9649
▁заболеваний	-10.9649
▁восемь	-10.9649
▁crash	-10.9649
▁контроля	-10.9649
▁соединя	-10.9649
▁сексуально	-10.9649
▁шоу	-10.9649
ированы	-10.9653
▁позволяют	-10.9654
▁обед	-10.966
▁Once	-10.9662
path	-10.9665
▁низко	-10.9666
▁материалы	-10.9674
▁полёт	-10.9675
▁sudden	-10.9675
▁задачи	-10.9683
▁куп	-10.9688
▁succeed	-10.9688
▁ООН	-10.9688
▁отношении	-10.9688
▁рамках	-10.9688
▁limited	-10.9688
▁Korea	-10.9689
▁assume	-10.9689
▁рассказывал	-10.969
кажите	-10.9696
▁обеспечив	-10.9699
▁ценности	-10.9701
▁головн	-10.9703
▁expression	-10.9709
бирает	-10.9712
▁жар	-10.9723
▁объед	-10.9727
▁airplane	-10.9728
▁определяет	-10.9728
▁понимания	-10.9728
▁учёных	-10.9728
▁profit	-10.9728
▁захотел	-10.973
▁пожалуйста	-10.973
▁забав	-10.9733
▁новость	-10.9737
▁рыбы	-10.9738
▁наблюдаем	-10.975
That	-10.975
▁Amazon	-10.9769
▁Japan	-10.9769
▁narrative	-10.9769
▁наоборот	-10.9769
▁honor	-10.9769
▁друж	-10.9771
▁науке	-10.9771
▁конференции	-10.9771
▁ветер	-10.9773
▁рабочих	-10.9775
▁concern	-10.9785
▁медленно	-10.9791
▁социальной	-10.9794
▁65	-10.9796
▁мнению	-10.9796
▁собственной	-10.9801
dimensional	-10.9806
ернёмся	-10.9809
▁1970	-10.9809
▁malaria	-10.9809
▁survey	-10.9809
▁террорист	-10.9809
▁диагност	-10.9809
▁daily	-10.9809
▁настроен	-10.9809
▁горяч	-10.981
▁происходило	-10.9812
▁wearing	-10.9812
▁вернулся	-10.9812
▁fairly	-10.9826
▁хватает	-10.9828
ющийся	-10.983
▁harder	-10.9847
▁brilliant	-10.9849
▁катастроф	-10.9849
▁leaving	-10.9849
▁Сколько	-10.9849
▁американцев	-10.9849
▁телескоп	-10.9849
▁married	-10.9849
▁соединен	-10.985
▁талант	-10.985
▁осталось	-10.9856
▁constantly	-10.9858
▁поддерживать	-10.9868
▁received	-10.987
▁Был	-10.987
▁поднять	-10.9877
▁имели	-10.9883
elect	-10.9885
▁French	-10.989
▁necessary	-10.989
▁vaccine	-10.989
▁сложнее	-10.989
▁click	-10.989
▁ислам	-10.989
держим	-10.9891
▁враща	-10.9893
▁Ирак	-10.9908
▁Стра	-10.9912
ographic	-10.9919
▁construct	-10.9925
▁нормальн	-10.9929
▁представляют	-10.993
▁происходят	-10.9931
▁растёт	-10.9931
▁ski	-10.9931
▁whale	-10.9932
▁translate	-10.9932
▁вовсе	-10.9932
▁comfortable	-10.9933
▁музыкальн	-10.9935
▁началось	-10.9938
▁bill	-10.9938
▁curve	-10.9948
▁забыв	-10.9949
▁highest	-10.995
Е	-10.9954
▁leader	-10.9957
инф	-10.9963
▁operate	-10.9971
▁Африка	-10.9972
▁девочек	-10.9972
▁микроскоп	-10.9972
▁battle	-10.9972
▁novel	-10.9972
▁тур	-10.9987
▁demo	-10.999
▁researchers	-10.9992
▁особенности	-10.9998
▁flower	-10.9998
▁Did	-11.0007
▁производство	-11.0009
▁подходящ	-11.0012
▁managed	-11.0012
▁борьбе	-11.0013
▁fresh	-11.0013
ёшь	-11.0013
▁лежит	-11.0013
▁odd	-11.0013
▁углу	-11.0013
▁concentrat	-11.0014
▁привело	-11.0014
▁comment	-11.0014
▁curious	-11.0014
▁защитить	-11.0014
▁unfortunately	-11.0016
▁ценность	-11.0016
▁генетически	-11.0016
▁смотрит	-11.002
▁давление	-11.0022
▁discovery	-11.0037
▁grown	-11.005
▁caught	-11.0054
▁обнаружен	-11.0054
▁солнечно	-11.0054
▁desert	-11.0054
▁помните	-11.0054
▁справиться	-11.0057
▁safety	-11.0059
▁индивидуальн	-11.0068
▁играет	-11.0073
▁химически	-11.0077
▁действие	-11.0077
▁surprised	-11.0079
▁transformation	-11.0079
вшая	-11.0079
делить	-11.008
чество	-11.0082
▁поднял	-11.0083
▁задал	-11.0094
▁fossil	-11.0096
▁worried	-11.0096
▁impress	-11.0096
▁половиной	-11.0096
▁историй	-11.0096
▁пещер	-11.0097
▁связыва	-11.0102
▁насилие	-11.0103
▁foundation	-11.0104
▁fold	-11.0106
ancy	-11.011
▁семи	-11.0124
▁businesses	-11.0133
▁restaurant	-11.0137
▁volunteer	-11.0137
▁полицейск	-11.0137
▁большинства	-11.0138
▁революции	-11.0138
▁триллион	-11.0138
▁провёл	-11.0138
▁creation	-11.0138
▁начиная	-11.0138
▁electronic	-11.0138
▁оказался	-11.0139
▁Park	-11.014
▁patent	-11.0142
▁unlike	-11.0142
▁adopt	-11.0144
▁considered	-11.0152
maker	-11.0165
▁гон	-11.0167
▁monitor	-11.0179
▁newspaper	-11.0179
▁деятельности	-11.0179
▁международны	-11.0179
▁conduct	-11.0179
▁iron	-11.018
▁ведёт	-11.0183
▁понятно	-11.0189
▁причиной	-11.019
▁привлек	-11.0192
▁fell	-11.0203
▁юг	-11.0204
▁предложение	-11.021
▁rot	-11.0211
▁cure	-11.0216
▁упомяну	-11.0221
▁hidden	-11.0221
▁различия	-11.0221
▁разобраться	-11.0221
▁успешны	-11.0221
▁землю	-11.0221
▁повезло	-11.0221
▁вновь	-11.0222
▁лучшим	-11.0222
▁мечты	-11.0224
▁подробн	-11.0226
▁writer	-11.0227
бель	-11.0227
▁удивлен	-11.0232
ступать	-11.0233
▁tech	-11.0236
▁Три	-11.0244
▁просмотр	-11.0251
▁described	-11.0253
▁counter	-11.0254
▁заключа	-11.026
life	-11.0263
▁библиотек	-11.0264
▁исследовать	-11.0264
▁invisible	-11.0264
▁автобус	-11.0264
▁экстр	-11.0269
▁refer	-11.0273
▁десятки	-11.0279
graph	-11.0282
▁sorry	-11.0282
▁mentioned	-11.0283
▁pin	-11.0292
оступ	-11.0297
▁верить	-11.03
▁guide	-11.0306
▁воспроизв	-11.0306
▁превосход	-11.0306
▁grab	-11.0306
▁abuse	-11.0308
▁театр	-11.0309
▁insight	-11.0312
▁любил	-11.0312
▁демократии	-11.0312
▁lay	-11.0319
▁подходит	-11.0321
▁лекарство	-11.0322
▁утро	-11.0325
▁плод	-11.0325
But	-11.0347
▁каждому	-11.0347
▁безопасность	-11.0348
▁атак	-11.0348
▁bubble	-11.0348
▁disaster	-11.0348
▁fascinating	-11.0348
▁folks	-11.0348
▁nurse	-11.0348
▁событий	-11.0348
▁задумыва	-11.0349
▁smile	-11.0349
▁гео	-11.0349
▁illness	-11.0351
▁ideal	-11.0353
▁1950	-11.0354
▁требуется	-11.0359
▁экологически	-11.036
▁парня	-11.0363
▁ферм	-11.0368
atory	-11.0381
▁позволит	-11.0387
▁dinosaur	-11.0391
▁персонаж	-11.0391
▁счастье	-11.0391
▁contract	-11.0391
▁quiet	-11.0391
▁дольше	-11.0391
▁кредит	-11.0392
▁admit	-11.0392
▁прийти	-11.0392
▁искусств	-11.0392
▁сделает	-11.0393
▁1960	-11.0394
строить	-11.0396
▁capable	-11.0396
▁война	-11.0398
▁заслуж	-11.04
▁oh	-11.0404
Hey	-11.0411
▁clinical	-11.0412
dding	-11.0416
▁concerned	-11.0417
▁El	-11.0433
▁NASA	-11.0434
▁monkey	-11.0434
▁phenomenon	-11.0434
▁внезапно	-11.0434
▁Вообще	-11.0434
▁общения	-11.0434
▁related	-11.0434
▁попасть	-11.0434
▁gay	-11.0435
▁приходилось	-11.0435
▁frame	-11.0435
▁половина	-11.0435
▁зачем	-11.0435
▁потенциальн	-11.0439
▁Bill	-11.0443
▁32	-11.0452
▁чт	-11.0453
▁receive	-11.0455
▁currently	-11.0457
▁finished	-11.0461
▁посыл	-11.0461
▁slowly	-11.0464
▁глазами	-11.0475
▁spirit	-11.0476
▁беженцев	-11.0477
▁бюджет	-11.0477
▁взаимодействия	-11.0477
▁маленькой	-11.0477
▁памяти	-11.0477
▁pounds	-11.0477
▁сцене	-11.0478
▁бумаги	-11.048
▁bull	-11.0482
▁применить	-11.0485
▁Зна	-11.0487
▁полезно	-11.0491
▁название	-11.0502
▁tie	-11.0505
▁filled	-11.0508
▁дочь	-11.0517
▁расстройств	-11.0521
▁contribute	-11.0521
▁magnet	-11.0521
▁Подумайте	-11.0521
▁ожидал	-11.0521
▁малыш	-11.0521
▁lu	-11.0525
▁закрыт	-11.0528
▁discussion	-11.0535
▁сообществ	-11.0537
вшихся	-11.0543
▁dive	-11.0543
Q	-11.0549
▁AIDS	-11.0564
▁kilometers	-11.0564
▁puzzle	-11.0564
▁разработан	-11.0564
▁lunch	-11.0564
▁память	-11.0564
▁мышления	-11.0564
▁Идея	-11.0565
▁losing	-11.0566
▁зеркал	-11.057
▁Билл	-11.057
▁wake	-11.057
▁2005	-11.0574
position	-11.0576
▁чуж	-11.0585
▁epi	-11.0591
▁topic	-11.0601
▁exchange	-11.0608
▁operating	-11.0609
▁развивающихся	-11.0609
▁жестоко	-11.0609
ставлял	-11.0611
▁смотрю	-11.0611
▁95	-11.0614
▁band	-11.0616
▁Germany	-11.0616
▁lifetime	-11.0618
▁nano	-11.0618
▁etc	-11.0623
вольно	-11.0635
▁построили	-11.0649
прежнему	-11.0652
▁grandmother	-11.0652
▁interface	-11.0652
▁mirror	-11.0652
▁Поскольку	-11.0652
▁автомобиле	-11.0652
▁слушать	-11.0652
▁otherwise	-11.0652
▁знаешь	-11.0652
▁одинаково	-11.0652
бежал	-11.066
вшиеся	-11.0663
vision	-11.0665
▁вернуть	-11.0669
▁понятие	-11.0676
▁направля	-11.0678
друг	-11.0683
▁рассказываю	-11.0683
▁budget	-11.0696
▁cartoon	-11.0696
▁информацией	-11.0696
▁ignore	-11.0696
▁hunt	-11.0696
▁crack	-11.0698
▁станут	-11.0702
▁отличается	-11.0703
▁хорошим	-11.0714
▁unless	-11.0715
▁предложен	-11.0715
▁генетическ	-11.0739
▁Джордж	-11.074
▁учрежд	-11.074
▁Обычно	-11.074
▁horse	-11.074
▁груди	-11.0742
▁existence	-11.0744
▁26	-11.0747
▁идеей	-11.0757
▁находит	-11.0761
▁compare	-11.0762
▁transport	-11.0783
▁СПИД	-11.0784
▁углекисл	-11.0784
▁Israel	-11.0784
▁некоторым	-11.0784
▁исполни	-11.0785
metric	-11.0786
▁встретит	-11.0786
▁пищи	-11.0789
▁metal	-11.0789
▁прожив	-11.0793
▁полос	-11.0799
▁остава	-11.0803
ительным	-11.0807
power	-11.0815
▁deeper	-11.0817
▁кожи	-11.0828
▁mathematics	-11.0829
▁маленьким	-11.0829
▁почувствовал	-11.0829
▁услышать	-11.0829
▁2011	-11.0829
▁компанию	-11.0829
▁observe	-11.0829
▁массово	-11.083
▁оценива	-11.0832
▁легче	-11.0832
▁Ответ	-11.0834
▁закончить	-11.0834
▁Mr	-11.0836
▁типичн	-11.0839
▁mode	-11.0859
▁President	-11.0874
▁channel	-11.0874
▁intelligent	-11.0874
▁Калифорнии	-11.0874
▁распределен	-11.0874
▁2015	-11.0874
▁вещах	-11.0874
▁judge	-11.0874
▁обнаружить	-11.0874
▁ткани	-11.0874
▁Good	-11.0874
▁диалог	-11.0874
▁фигур	-11.0874
▁моря	-11.0875
▁появляются	-11.0876
▁биологии	-11.0882
▁ride	-11.0892
технолог	-11.0894
▁руч	-11.0897
▁открытие	-11.0902
▁собрал	-11.0904
▁perfectly	-11.091
▁предпоч	-11.0917
▁зарплат	-11.0919
▁mosquito	-11.0919
▁telescope	-11.0919
▁бактерии	-11.0919
▁свидетель	-11.0919
▁stood	-11.0919
▁руководит	-11.0919
▁проверить	-11.0919
▁дверь	-11.0924
ющейся	-11.0924
▁выделя	-11.093
▁Ему	-11.0934
▁видит	-11.0939
▁выходит	-11.0947
▁силой	-11.0954
▁широк	-11.0954
▁associated	-11.0964
▁nervous	-11.0964
▁survival	-11.0964
▁бесплатно	-11.0964
▁информационн	-11.0964
▁середине	-11.0964
▁симптом	-11.0964
▁добавля	-11.0964
▁Street	-11.0964
▁install	-11.0964
▁находимся	-11.0964
▁Green	-11.0964
▁lift	-11.0964
▁нефть	-11.0965
▁попытаться	-11.0968
▁кровь	-11.0971
центр	-11.0978
▁детски	-11.0984
▁embrace	-11.101
▁rural	-11.101
▁fellow	-11.101
▁taste	-11.101
▁flag	-11.1011
▁фотографию	-11.1013
▁mouse	-11.1014
▁создаём	-11.1019
▁передать	-11.1022
▁member	-11.1028
▁существенн	-11.1034
▁logic	-11.1043
▁exact	-11.1047
burg	-11.1048
▁маленькая	-11.1055
▁постепенно	-11.1055
▁attach	-11.1056
▁покрыт	-11.1056
▁solid	-11.1056
▁Восток	-11.1057
▁риф	-11.1057
▁Буду	-11.1059
▁чудо	-11.1062
▁собираемся	-11.1063
▁разрыв	-11.1069
▁invited	-11.107
▁захват	-11.1076
▁hall	-11.1079
▁детали	-11.108
▁пласт	-11.1089
▁исключительно	-11.1089
▁ресурс	-11.11
▁преобразова	-11.1101
▁precise	-11.1101
▁шимпанзе	-11.1101
▁добавить	-11.1101
▁избежать	-11.1101
▁прозрачн	-11.1101
▁благотворительн	-11.1101
▁большого	-11.1101
▁перемеща	-11.1101
▁третий	-11.1101
▁евро	-11.1101
рган	-11.1108
▁theater	-11.111
▁собрали	-11.1111
▁shut	-11.1114
▁seriously	-11.1128
flu	-11.114
▁accurate	-11.1147
▁vulnerable	-11.1147
▁значения	-11.1147
▁позвольте	-11.1147
▁wheel	-11.1147
▁инвалид	-11.1147
▁одинаковы	-11.1147
▁заново	-11.1148
▁lung	-11.1149
▁смотрят	-11.1151
▁изменилось	-11.1151
▁setting	-11.1158
▁поисках	-11.1168
▁ранне	-11.117
▁flat	-11.1177
▁комар	-11.119
▁exhibit	-11.1193
▁деятельность	-11.1193
▁зачастую	-11.1193
▁ощущения	-11.1193
▁versus	-11.1193
▁error	-11.1193
▁растений	-11.1193
▁Steve	-11.1194
▁технически	-11.1195
▁bread	-11.1196
▁Other	-11.1199
▁сочета	-11.12
▁скорости	-11.1204
▁клиник	-11.1206
▁dry	-11.1207
▁проводим	-11.1207
▁климат	-11.1213
▁заказ	-11.123
▁увеличить	-11.1231
▁emotion	-11.1236
ibility	-11.124
▁brief	-11.124
▁отношению	-11.124
▁религии	-11.124
▁спрашивал	-11.124
▁credit	-11.124
▁talent	-11.124
▁аутизм	-11.124
▁lawyer	-11.124
▁рассказывать	-11.1242
▁chip	-11.1243
▁пошли	-11.1244
одно	-11.1244
▁понят	-11.1248
▁играют	-11.1259
стоящая	-11.126
▁George	-11.1287
▁cognitive	-11.1287
▁distribution	-11.1287
▁epidemic	-11.1287
▁Соединённы	-11.1287
▁Университет	-11.1287
▁долгосрочн	-11.1287
▁ежедневно	-11.1287
▁сообщение	-11.1287
▁сообщения	-11.1287
▁official	-11.1287
▁autism	-11.1287
▁drag	-11.1288
▁концу	-11.129
▁запах	-11.1291
▁снижа	-11.1291
▁личности	-11.1304
▁invention	-11.1304
ложили	-11.1315
▁недавн	-11.132
▁неожиданно	-11.1321
▁идее	-11.1324
Yes	-11.1329
▁courage	-11.1334
▁extinct	-11.1334
▁facing	-11.1334
▁status	-11.1334
▁Very	-11.1334
▁protest	-11.1334
▁origin	-11.1334
▁display	-11.1334
▁фирм	-11.1335
▁planning	-11.1337
▁операции	-11.1337
▁poem	-11.1341
▁изучения	-11.1342
▁занимаются	-11.1352
▁Big	-11.1357
▁тонк	-11.1357
▁миф	-11.1359
▁детско	-11.1368
▁изучаю	-11.1369
town	-11.137
80	-11.1375
▁analysis	-11.1381
▁collapse	-11.1381
▁equivalent	-11.1381
▁wisdom	-11.1381
▁десятилетия	-11.1381
▁поврежден	-11.1381
▁сенсор	-11.1381
▁переговор	-11.1381
▁Three	-11.1381
▁убийств	-11.1381
▁продолжаю	-11.1381
▁дерево	-11.1381
▁едва	-11.1381
▁округ	-11.1381
▁Human	-11.1383
▁установи	-11.1391
▁неделе	-11.1395
▁Исследова	-11.1395
падают	-11.1397
▁collection	-11.1406
▁involve	-11.1406
▁electric	-11.1414
▁Che	-11.1421
▁Человек	-11.1428
▁повседневн	-11.1428
▁случится	-11.1428
▁пчёл	-11.1428
▁удобн	-11.1429
▁природа	-11.1429
▁fiction	-11.143
▁двор	-11.1433
▁мяч	-11.1436
▁hire	-11.1446
▁reform	-11.1447
▁discuss	-11.146
friend	-11.1465
▁фокус	-11.147
▁intellectual	-11.1476
▁manufacturing	-11.1476
▁болезней	-11.1476
▁ребёнком	-11.1476
▁степень	-11.1476
▁рожда	-11.1476
▁гибк	-11.1476
▁loud	-11.1481
▁слон	-11.1481
▁terrorist	-11.1484
ставляет	-11.1494
▁Last	-11.1499
▁сидит	-11.1504
▁руб	-11.1516
scale	-11.1518
▁heavy	-11.1524
▁practical	-11.1524
▁борьбы	-11.1524
▁hopefully	-11.1524
▁maintain	-11.1524
▁солнце	-11.1524
▁сегодняшний	-11.1524
▁показывал	-11.1524
▁increasingly	-11.1536
долго	-11.1536
▁честь	-11.154
▁skill	-11.1558
даём	-11.1565
▁Бел	-11.1571
Анджелес	-11.1572
▁Microsoft	-11.1572
▁encounter	-11.1572
▁гарант	-11.1572
▁silence	-11.1572
▁grass	-11.1572
▁оптимиз	-11.1572
▁Индия	-11.1572
▁думает	-11.1572
▁точку	-11.1576
▁родился	-11.1577
▁habit	-11.158
▁миг	-11.1583
itude	-11.1591
▁tip	-11.1593
▁красно	-11.1596
кажет	-11.1605
▁28	-11.1609
▁oppos	-11.162
▁Mexico	-11.162
▁circuit	-11.162
▁doubt	-11.162
▁importance	-11.162
▁participate	-11.162
▁tomorrow	-11.162
▁величайш	-11.162
▁воспользова	-11.162
▁избавиться	-11.162
▁музыки	-11.162
▁детстве	-11.162
▁череп	-11.162
▁критик	-11.162
▁кусочк	-11.1621
▁агент	-11.1621
▁orbit	-11.1622
▁роман	-11.1623
▁простые	-11.1643
▁geo	-11.1651
▁organic	-11.1655
▁essential	-11.1656
марк	-11.1664
конечн	-11.1666
▁church	-11.1669
▁combination	-11.1669
▁equation	-11.1669
▁pleasure	-11.1669
▁разнообразие	-11.1669
▁собственный	-11.1669
▁pocket	-11.1669
▁минимум	-11.1669
▁феномен	-11.1669
▁реакция	-11.1669
▁ethic	-11.1671
▁chart	-11.1672
▁единиц	-11.1672
▁семью	-11.1683
▁скучн	-11.1684
▁crop	-11.1686
▁любимых	-11.1687
▁resource	-11.1702
которое	-11.1708
▁человеч	-11.1712
ставляем	-11.1716
▁emissions	-11.1717
▁отношений	-11.1717
▁распространи	-11.1717
▁содержит	-11.1717
▁2012	-11.1717
▁комплекс	-11.1717
▁пригласил	-11.1717
зависимы	-11.1718
▁реагиру	-11.1718
▁оказаться	-11.172
пустим	-11.1724
▁племен	-11.1724
▁устройств	-11.1727
▁стыд	-11.1746
▁искал	-11.1748
▁south	-11.1763
▁Значит	-11.1766
▁establish	-11.1766
▁stupid	-11.1766
▁государство	-11.1766
▁stock	-11.1766
▁четверт	-11.1766
▁первом	-11.1767
▁transition	-11.1767
▁отчая	-11.1768
следствие	-11.1772
▁длинны	-11.1773
▁construction	-11.1774
дневн	-11.1776
▁prediction	-11.1786
▁простым	-11.1807
▁шир	-11.1809
▁according	-11.1816
▁Would	-11.1816
▁mathematical	-11.1816
▁ordinary	-11.1816
▁property	-11.1816
▁огромная	-11.1816
▁превратить	-11.1816
▁прекрати	-11.1816
▁худш	-11.1816
▁microbes	-11.1816
▁Китая	-11.1816
▁изучить	-11.1816
▁привлекательн	-11.1817
▁представлял	-11.1818
▁hide	-11.1821
▁занимаюсь	-11.1823
▁собственного	-11.1835
нимать	-11.1845
▁danger	-11.1864
▁слома	-11.1864
▁sweet	-11.1865
▁большинстве	-11.1865
▁инновации	-11.1865
▁начнём	-11.1865
▁организаций	-11.1865
▁помнить	-11.1865
▁regard	-11.1865
▁initial	-11.1865
▁сказан	-11.1866
▁season	-11.1869
▁Другим	-11.1891
▁мышц	-11.1896
▁отправить	-11.1913
▁economist	-11.1915
▁Пожалуй	-11.1915
▁священн	-11.1915
▁empty	-11.1915
▁общаться	-11.1915
▁хлеб	-11.1915
▁бесконечно	-11.1915
▁равны	-11.1916
▁экономика	-11.1916
▁поступил	-11.1917
▁коммун	-11.1925
▁electrical	-11.1927
▁человеческих	-11.1928
▁близ	-11.194
▁publish	-11.1941
▁director	-11.1946
▁Хорош	-11.1947
▁commun	-11.1962
▁academic	-11.1965
▁elephant	-11.1965
▁feedback	-11.1965
▁ближайши	-11.1965
▁вспомина	-11.1965
▁удастся	-11.1965
▁escape	-11.1965
▁witness	-11.1965
▁потратил	-11.1965
▁instant	-11.1965
▁основыва	-11.1965
▁относится	-11.1966
▁оказались	-11.1967
крывает	-11.1974
▁2006	-11.1974
▁измеря	-11.1974
▁неприятн	-11.198
▁выполнен	-11.1988
▁поверну	-11.199
▁broke	-11.2007
▁десять	-11.2012
▁Harvard	-11.2015
▁galaxy	-11.2015
▁kitchen	-11.2015
▁ВВП	-11.2015
▁отсутствие	-11.2015
▁educate	-11.2015
▁jail	-11.2015
▁измерения	-11.2015
▁Зачем	-11.2015
▁Talk	-11.2015
▁питания	-11.2018
▁tall	-11.2026
▁2,000	-11.2026
▁передвига	-11.2028
▁tag	-11.2035
▁создании	-11.2036
▁электронн	-11.2045
▁teenager	-11.2066
▁variety	-11.2066
▁демонстриру	-11.2066
▁неизбежн	-11.2066
▁отвечает	-11.2066
▁рынке	-11.2066
▁прототип	-11.2066
▁родственник	-11.2066
▁твёрд	-11.2066
▁weather	-11.2066
▁вчера	-11.2069
прерыв	-11.2071
льшую	-11.2073
▁фотографий	-11.2074
▁истинн	-11.208
▁сыр	-11.2097
▁Canada	-11.2116
▁agriculture	-11.2116
▁inequality	-11.2116
▁perceive	-11.2116
▁установлен	-11.2116
▁баланс	-11.2116
▁комфорт	-11.2116
▁стадии	-11.2116
▁Вторая	-11.2117
▁флаг	-11.2117
▁посеща	-11.2117
▁добраться	-11.2117
▁бедности	-11.2126
▁местности	-11.2133
▁pure	-11.2136
▁tear	-11.2149
▁уверенность	-11.216
Ч	-11.216
▁appreciate	-11.2167
▁Дэвид	-11.2167
▁кандидат	-11.2167
▁обстоятельств	-11.2167
▁оружия	-11.2167
▁расширя	-11.2167
▁тюрьме	-11.2167
▁soldiers	-11.2167
▁Всемирн	-11.2167
▁противоречи	-11.2168
▁grid	-11.2168
▁reject	-11.2168
▁родителям	-11.2169
▁примени	-11.2188
▁приступ	-11.2199
▁protection	-11.2202
Y	-11.221
▁privilege	-11.2219
▁Наконец	-11.2219
▁горизонт	-11.2219
▁дополнительны	-11.2219
▁приближа	-11.2219
▁среднего	-11.2219
▁client	-11.2219
▁healthcare	-11.2219
▁экономике	-11.2219
▁joke	-11.2219
▁снимок	-11.2219
▁preserv	-11.222
▁desk	-11.222
▁масса	-11.222
▁внешни	-11.222
▁берем	-11.2221
▁обнаружив	-11.2221
▁meaningful	-11.2222
▁хорошее	-11.2223
▁flip	-11.2233
▁100,000	-11.2238
▁exception	-11.2246
▁mention	-11.2253
▁Everybody	-11.227
▁School	-11.227
▁liquid	-11.227
▁valuable	-11.227
▁следующие	-11.227
▁Everything	-11.227
▁Health	-11.227
▁патент	-11.2271
▁kick	-11.2273
▁креп	-11.2273
▁Гер	-11.2277
▁rapidly	-11.2278
▁творческ	-11.2294
▁ката	-11.2302
▁tea	-11.2302
▁герои	-11.2307
▁120	-11.2309
ностям	-11.2313
▁пришло	-11.2321
▁England	-11.2322
▁GDP	-11.2322
▁celebrate	-11.2322
▁diagnose	-11.2322
▁equipment	-11.2322
▁galaxies	-11.2322
▁technological	-11.2322
▁дешёв	-11.2322
▁distinct	-11.2322
▁Главн	-11.2322
▁равен	-11.2322
▁Since	-11.2324
▁clip	-11.2324
▁specifically	-11.2325
▁exam	-11.2339
бирают	-11.2345
ллер	-11.2362
▁violent	-11.2374
▁преуспе	-11.2374
▁скульптур	-11.2374
▁chemistry	-11.2374
▁deserve	-11.2374
▁Очевидно	-11.2374
▁грипп	-11.2374
▁присутствующ	-11.2374
▁придумать	-11.2374
▁учителей	-11.2374
▁reef	-11.2374
▁вскоре	-11.2374
▁toilet	-11.2377
▁карман	-11.2378
▁идеал	-11.2379
▁ничто	-11.2386
▁пищев	-11.2388
▁plate	-11.2404
▁increasing	-11.2414
изацию	-11.2419
▁враг	-11.2421
▁радость	-11.2422
Франциско	-11.2427
▁assumption	-11.2427
▁quantum	-11.2427
▁vessel	-11.2427
▁счастья	-11.2427
▁синтез	-11.2427
▁firm	-11.2427
▁смотрим	-11.2427
▁internal	-11.2427
▁title	-11.2427
▁historical	-11.2427
▁повыша	-11.2427
▁volume	-11.2428
▁Bank	-11.2429
▁запрет	-11.2429
▁снижени	-11.2433
▁свойства	-11.2441
айн	-11.246
▁800	-11.246
down	-11.2466
▁учили	-11.2474
▁abstract	-11.2479
▁command	-11.2479
▁definitely	-11.2479
▁Единственн	-11.2479
▁поместить	-11.2479
▁Could	-11.2479
▁Center	-11.2479
▁disrupt	-11.2479
▁cutting	-11.2486
▁берёт	-11.2488
▁рабочие	-11.249
▁постоянн	-11.249
▁бур	-11.2494
▁прошли	-11.2497
▁производить	-11.2504
хватил	-11.2512
▁установить	-11.2521
▁создавал	-11.2526
▁empathy	-11.2532
▁inspiration	-11.2532
▁laptop	-11.2532
▁импульс	-11.2532
▁огромным	-11.2532
▁carefully	-11.2532
▁прибыль	-11.2532
▁восстановить	-11.2532
▁Азии	-11.2532
▁зоны	-11.2533
▁сахар	-11.2533
▁хорошего	-11.2535
▁учитель	-11.2535
▁settle	-11.2536
▁bike	-11.2551
▁Америка	-11.2572
American	-11.258
▁Ya	-11.2582
▁comfort	-11.2583
▁clothes	-11.2585
▁Конгресс	-11.2585
▁Ричард	-11.2585
▁революция	-11.2585
▁filter	-11.2585
▁поверить	-11.2586
▁convert	-11.2586
▁сосуд	-11.2588
▁благ	-11.2594
▁label	-11.2596
▁swim	-11.2639
▁Congress	-11.2639
▁Francisco	-11.2639
▁explanation	-11.2639
▁Штатах	-11.2639
▁крупнейши	-11.2639
▁оборудование	-11.2639
▁комнату	-11.2639
▁interpret	-11.2639
▁Среди	-11.2641
▁citizen	-11.2641
▁приятно	-11.2648
▁2004	-11.2648
класс	-11.2651
▁жир	-11.2651
▁разбира	-11.2659
▁consume	-11.2664
▁забыл	-11.2667
▁Разве	-11.2671
▁circumstance	-11.2692
▁костюм	-11.2692
▁хочешь	-11.2692
▁электричество	-11.2692
▁Ладно	-11.2693
▁экономику	-11.2693
▁основных	-11.2693
▁transfer	-11.2693
▁700	-11.2694
▁rational	-11.2695
▁pray	-11.2701
▁compete	-11.2733
▁illegal	-11.2747
▁possibilities	-11.2747
▁privacy	-11.2747
▁ноутбук	-11.2747
▁Ничего	-11.2747
▁девочки	-11.2747
▁характеристик	-11.2747
▁оценить	-11.2747
▁sugar	-11.2747
▁ледник	-11.2748
▁severe	-11.2748
▁peak	-11.2749
▁passionate	-11.2751
▁танце	-11.2751
▁понимает	-11.2753
▁extract	-11.2765
▁apartment	-11.2769
▁classic	-11.277
jo	-11.2788
▁85	-11.2797
▁Britain	-11.2801
▁advice	-11.2801
▁announce	-11.2801
▁demonstrate	-11.2801
▁primary	-11.2801
▁worldwide	-11.2801
▁подростков	-11.2801
▁Недавно	-11.2801
▁replica	-11.2802
▁fruit	-11.2802
▁космически	-11.2802
▁оказалась	-11.2803
▁review	-11.2806
▁Дэн	-11.2806
▁Island	-11.2808
▁опасны	-11.282
view	-11.2846
▁крупно	-11.2846
▁underneath	-11.2856
▁Прежде	-11.2856
▁поддержки	-11.2856
▁захватывающ	-11.2856
▁событие	-11.2856
▁квантов	-11.2856
▁limb	-11.2856
▁awful	-11.2856
▁вдоль	-11.2856
▁уйти	-11.2857
▁описан	-11.288
▁цифровы	-11.2893
uthern	-11.2906
▁Твиттер	-11.291
▁Darwin	-11.291
▁Richard	-11.291
▁activist	-11.291
▁chicken	-11.291
▁mammal	-11.291
▁prototype	-11.291
▁Фактически	-11.291
▁топлива	-11.291
▁employees	-11.291
▁relation	-11.2911
▁диплом	-11.2911
▁работников	-11.2913
▁shame	-11.2913
▁Боже	-11.2917
▁rocket	-11.2917
▁fake	-11.2919
▁еде	-11.292
▁Вас	-11.2921
▁деталь	-11.2944
▁узнав	-11.2958
▁предлагаю	-11.2963
á	-11.2966
▁Number	-11.2966
▁consumption	-11.2966
▁spectrum	-11.2966
▁деревьев	-11.2966
▁опубликовал	-11.2966
▁управляю	-11.2966
▁Надеюсь	-11.2966
▁письма	-11.2966
▁implement	-11.2966
▁evil	-11.2966
▁орбит	-11.2966
▁corruption	-11.2967
▁скач	-11.2968
▁частности	-11.2971
▁предложить	-11.2971
▁spring	-11.2974
▁Yet	-11.2977
лежащ	-11.298
▁спец	-11.301
▁научить	-11.3013
▁activities	-11.3021
▁gravity	-11.3021
▁observation	-11.3021
▁Помните	-11.3021
▁infection	-11.3021
▁быстры	-11.3021
нёс	-11.3022
▁природу	-11.3022
▁частей	-11.3023
▁addict	-11.3025
▁alien	-11.3027
▁безумн	-11.3035
▁интересует	-11.3045
растущ	-11.3056
восточн	-11.3058
▁совпад	-11.307
▁producing	-11.3077
▁properties	-11.3077
▁Интересно	-11.3077
▁единственная	-11.3077
▁показатели	-11.3077
▁потребля	-11.3077
▁слегка	-11.3077
▁accomplish	-11.3077
▁датчик	-11.3077
▁найдёт	-11.3077
▁Christian	-11.3077
▁перейти	-11.3077
▁внешне	-11.3078
▁предпочита	-11.308
▁случается	-11.3085
▁заключён	-11.3133
▁Гарвард	-11.3133
▁диагноз	-11.3133
▁насекомых	-11.3133
▁Japanese	-11.3133
▁попытка	-11.3133
▁мульти	-11.3133
▁неплохо	-11.3133
▁объединить	-11.3133
▁tribe	-11.3137
▁management	-11.314
source	-11.3183
▁Women	-11.319
▁awesome	-11.319
▁phrase	-11.319
▁physicist	-11.319
▁наблюдения	-11.319
▁предотвратить	-11.319
▁религиозны	-11.319
▁управление	-11.319
▁France	-11.319
▁мышление	-11.319
▁buck	-11.319
▁пыль	-11.319
▁rub	-11.319
▁нравятся	-11.3191
мигрант	-11.3195
▁Последни	-11.3196
▁melt	-11.3204
▁центральн	-11.3207
▁залив	-11.321
▁ждал	-11.3211
▁экономист	-11.3214
▁автомат	-11.3218
▁снят	-11.3222
ridge	-11.3235
▁German	-11.3236
break	-11.3245
▁length	-11.3247
▁медицины	-11.3247
▁сущности	-11.3247
▁количестве	-11.3247
▁decline	-11.3247
▁головы	-11.3247
▁route	-11.3247
▁ужин	-11.325
▁пищу	-11.3251
▁активист	-11.3251
▁тёмно	-11.3251
▁plot	-11.3252
▁wrap	-11.3256
▁балл	-11.3263
▁жизненно	-11.3273
▁Chicago	-11.3304
▁innovative	-11.3304
▁policies	-11.3304
▁surgeon	-11.3304
▁автомобиля	-11.3304
▁исследовании	-11.3304
▁поговорим	-11.3304
▁предназначен	-11.3304
▁сидеть	-11.3304
▁сложных	-11.3304
▁фабрик	-11.3304
▁trauma	-11.3304
▁влияют	-11.3304
▁любую	-11.3304
▁камеры	-11.3304
▁статус	-11.3304
▁manipulat	-11.3304
▁слух	-11.3311
▁задавал	-11.3323
▁показываю	-11.3349
▁While	-11.3361
▁horizon	-11.3361
▁occasion	-11.3361
▁непосредственно	-11.3361
▁отсюда	-11.3361
▁поощр	-11.3361
▁рассмотреть	-11.3361
▁состояния	-11.3361
▁уменьша	-11.3361
▁приобрет	-11.3361
▁цитат	-11.3361
▁основной	-11.3361
▁incentive	-11.3361
▁storm	-11.3362
▁вырасти	-11.3362
обслуж	-11.3363
ступают	-11.3364
▁lens	-11.3368
▁оставаться	-11.3369
▁конференц	-11.3415
▁располага	-11.3419
▁balloon	-11.3419
▁challenging	-11.3419
▁conclusion	-11.3419
▁emerging	-11.3419
▁pollution	-11.3419
▁rescue	-11.3419
▁yesterday	-11.3419
▁девушка	-11.3419
▁договор	-11.3419
▁интерфейс	-11.3419
▁Землю	-11.3419
▁repair	-11.3419
▁psycho	-11.3419
▁staff	-11.3421
▁брал	-11.3421
▁lady	-11.3423
▁клуб	-11.3424
▁panel	-11.3424
▁сложи	-11.3434
▁стул	-11.3455
▁появля	-11.347
▁$1	-11.3477
▁microscope	-11.3477
▁psychological	-11.3477
▁бактерий	-11.3477
▁ландшафт	-11.3477
▁подразумева	-11.3477
▁умирают	-11.3477
▁hyper	-11.3477
▁динамик	-11.3477
▁attitude	-11.3477
▁определение	-11.3478
▁квартал	-11.3478
▁сокращен	-11.3478
▁зрительн	-11.3479
▁Хочу	-11.348
▁приносит	-11.3492
ованным	-11.3503
▁оказа	-11.3516
▁habitat	-11.3525
▁традиционно	-11.3533
▁исключен	-11.3535
wood	-11.3536
▁molecular	-11.3536
▁radiation	-11.3536
▁грузовик	-11.3536
▁изначально	-11.3536
▁плохие	-11.3536
▁поддержку	-11.3536
▁слышать	-11.3536
▁intention	-11.3536
▁жители	-11.3536
▁angry	-11.3536
▁передачи	-11.3536
▁большом	-11.3536
Восточн	-11.3537
▁propose	-11.3538
▁transportation	-11.354
▁склонны	-11.354
▁обеспечение	-11.355
▁двигатель	-11.3563
▁Einstein	-11.3594
▁Science	-11.3594
▁murder	-11.3594
▁zoom	-11.3594
▁Англии	-11.3594
▁Бразилии	-11.3594
▁ребенка	-11.3594
▁волшебн	-11.3595
▁следующих	-11.3595
▁Black	-11.3595
▁начнёт	-11.3595
▁добавил	-11.3595
▁studio	-11.3595
▁порядка	-11.3595
▁kilo	-11.3595
▁вечно	-11.3595
▁выжить	-11.3596
▁Also	-11.3598
▁section	-11.3598
▁арест	-11.36
▁делиться	-11.3602
▁голова	-11.3602
▁камера	-11.3617
▁confront	-11.3654
▁conservative	-11.3654
▁integrate	-11.3654
▁pregnant	-11.3654
▁астроном	-11.3654
▁сентября	-11.3654
▁собственным	-11.3654
▁Frank	-11.3654
▁secure	-11.3654
▁сознания	-11.3654
▁tube	-11.3654
▁определяю	-11.3654
▁заняться	-11.3654
▁polar	-11.3654
▁barrier	-11.3654
▁камеру	-11.3654
▁никому	-11.3654
▁ограничива	-11.3655
▁бега	-11.366
▁комик	-11.3699
Й	-11.371
Audience	-11.3713
▁Эйнштейн	-11.3713
▁аргумент	-11.3713
▁маленькую	-11.3713
▁мёртв	-11.3713
▁появилось	-11.3713
▁адрес	-11.3713
рождённ	-11.3713
▁оценки	-11.3713
▁плюс	-11.3713
работка	-11.3714
▁critic	-11.3718
▁аналог	-11.3724
▁облака	-11.3727
лететь	-11.3736
▁совместн	-11.3738
aunt	-11.3744
▁absolute	-11.376
▁luck	-11.3765
▁меж	-11.3773
энергетическ	-11.3773
▁Institute	-11.3773
▁collaboration	-11.3773
▁democratic	-11.3773
▁grandfather	-11.3773
▁Согласн	-11.3773
▁историей	-11.3773
▁повлиял	-11.3773
▁visible	-11.3773
▁внимательно	-11.3773
▁очевидны	-11.3773
▁Syria	-11.3773
▁исследовательск	-11.3773
▁applied	-11.3773
▁стволовы	-11.3773
▁прошлы	-11.3773
▁knee	-11.3773
▁icon	-11.3774
▁найден	-11.3774
▁размещ	-11.3775
▁развиты	-11.3781
▁арабск	-11.3782
устойчив	-11.3791
Wow	-11.3792
▁evolve	-11.3811
новатор	-11.3825
ложите	-11.3833
▁analyze	-11.3833
▁liberal	-11.3833
▁physician	-11.3833
▁struck	-11.3833
▁unknown	-11.3833
▁Андерсон	-11.3833
▁небольшие	-11.3833
▁политических	-11.3833
▁почувствовать	-11.3833
▁появится	-11.3833
▁сложная	-11.3833
▁следующей	-11.3833
▁слышу	-11.3833
▁Японии	-11.3833
▁основные	-11.3833
▁растут	-11.3833
▁Работа	-11.3834
▁научных	-11.3834
▁journal	-11.3834
▁участвовать	-11.3835
▁головой	-11.3835
эффект	-11.3835
▁чип	-11.387
▁отрыв	-11.3871
▁computation	-11.3894
▁confidence	-11.3894
▁Space	-11.3894
▁девять	-11.3894
▁milk	-11.3894
▁праздн	-11.3894
▁жёлт	-11.3894
▁человечество	-11.3894
▁pilot	-11.3894
▁критическ	-11.3897
▁evolutionary	-11.3897
▁вызвал	-11.3908
▁содержание	-11.3955
▁relevant	-11.3955
▁ежегодно	-11.3955
▁teeth	-11.3955
▁зданий	-11.3955
▁finance	-11.3955
▁поздно	-11.3955
▁pitch	-11.3955
▁желания	-11.3955
▁steel	-11.3955
▁индустрии	-11.3955
▁доверие	-11.3955
▁снимки	-11.3955
▁Paris	-11.3956
▁transmit	-11.3956
product	-11.3957
▁протез	-11.396
▁запрос	-11.3967
▁представил	-11.397
▁наград	-11.3972
▁opera	-11.3977
▁металл	-11.3993
▁психологическ	-11.3996
▁Global	-11.4016
▁providing	-11.4016
▁sophisticated	-11.4016
▁взаимодействие	-11.4016
▁воспоминания	-11.4016
▁ожидания	-11.4016
▁следующего	-11.4016
▁clever	-11.4016
▁усилий	-11.4016
▁Второе	-11.4016
▁grain	-11.4016
▁рассматривать	-11.4016
▁pump	-11.4016
▁therapy	-11.4017
▁зрение	-11.4017
▁высказыва	-11.4018
▁приведу	-11.4019
▁помогал	-11.4028
▁чьи	-11.4035
▁климатическ	-11.4046
▁профессионал	-11.4076
▁department	-11.4078
▁dolphin	-11.4078
▁motivate	-11.4078
▁написано	-11.4078
▁процедур	-11.4078
▁соответстви	-11.4078
▁терроризм	-11.4078
▁2014	-11.4078
▁battery	-11.4078
▁антибиотик	-11.4078
▁воздушн	-11.4078
▁branch	-11.4078
▁Boston	-11.4078
▁коллекци	-11.4078
▁показатель	-11.4078
▁заболевание	-11.4078
▁пошла	-11.408
▁пляж	-11.408
▁выразить	-11.4081
▁поднимает	-11.4083
▁strip	-11.4092
▁метро	-11.4106
▁каково	-11.4123
▁centuries	-11.414
▁chimpanzee	-11.414
▁fabric	-11.414
▁оптимист	-11.414
▁приоритет	-11.414
▁француз	-11.414
▁memories	-11.414
▁flash	-11.414
▁behave	-11.414
▁портрет	-11.414
▁sculpture	-11.4141
▁toxic	-11.4141
▁acid	-11.4142
anthrop	-11.4142
▁печаль	-11.4144
half	-11.4144
▁ритм	-11.4146
▁inspire	-11.4181
▁immune	-11.4203
▁mechanical	-11.4203
▁stretch	-11.4203
▁Африку	-11.4203
▁Германии	-11.4203
▁Джеймс	-11.4203
▁депрессии	-11.4203
▁наслажда	-11.4203
▁опухоль	-11.4203
▁противоположно	-11.4203
▁Дарвин	-11.4203
▁обитания	-11.4203
▁точнее	-11.4203
▁housing	-11.4203
▁medium	-11.4203
▁James	-11.4203
▁афро	-11.4203
▁надеемся	-11.4203
▁framework	-11.4203
▁специальны	-11.4203
▁метра	-11.4203
▁Важно	-11.4204
▁поражен	-11.4205
▁пригод	-11.4207
▁Medic	-11.4215
▁приходил	-11.4261
▁permanent	-11.4265
▁Valley	-11.4265
▁harvest	-11.4265
▁trigger	-11.4265
▁некотором	-11.4265
▁выполнять	-11.4265
▁flood	-11.4265
▁попадает	-11.4266
▁млн	-11.4266
▁резерв	-11.4266
▁nerve	-11.4266
▁reference	-11.4267
▁prime	-11.4267
▁цифровой	-11.4269
моему	-11.4271
▁важен	-11.4271
▁авиа	-11.4293
born	-11.4293
▁верил	-11.4307
▁отказыва	-11.4313
сексуал	-11.4325
▁deploy	-11.4329
▁exploration	-11.4329
▁gentlemen	-11.4329
▁shadow	-11.4329
▁Австралии	-11.4329
▁Нигерии	-11.4329
▁воображение	-11.4329
▁рейтинг	-11.4329
▁четвёрт	-11.4329
▁guard	-11.4329
▁poetry	-11.4329
▁выбрасыва	-11.4329
▁false	-11.4329
▁хлоп	-11.4329
▁отвечал	-11.4329
▁оттуда	-11.4329
▁terrorism	-11.433
▁dropped	-11.433
▁музыкант	-11.4332
▁восстан	-11.4359
▁domestic	-11.4392
▁ingredient	-11.4392
▁восприятия	-11.4392
▁площадь	-11.4392
▁произойти	-11.4392
▁подумайте	-11.4392
▁величин	-11.4392
▁хвост	-11.4393
▁состоял	-11.4393
▁steal	-11.4393
▁Latin	-11.4393
▁сцену	-11.4393
▁задействова	-11.4394
▁House	-11.4396
foot	-11.4398
▁назначен	-11.4403
▁constant	-11.4444
▁intense	-11.4457
▁scenario	-11.4457
▁variation	-11.4457
▁Оказалось	-11.4457
▁собственных	-11.4457
▁afternoon	-11.4457
▁Кажется	-11.4457
▁химик	-11.4457
▁drone	-11.4457
▁восторг	-11.4457
▁Anderson	-11.4457
▁никого	-11.4457
▁полиции	-11.4457
▁восьми	-11.4457
▁нежели	-11.4458
▁alter	-11.4459
▁существования	-11.446
▁Созда	-11.446
▁крыс	-11.4462
▁shall	-11.447
▁высше	-11.4472
▁wound	-11.4521
▁Pakistan	-11.4521
▁Perhaps	-11.4521
▁Project	-11.4521
▁narrow	-11.4521
▁unusual	-11.4521
▁воздействие	-11.4521
▁впечатление	-11.4521
▁дельфин	-11.4521
▁младш	-11.4521
▁нескольким	-11.4521
▁политические	-11.4521
▁globe	-11.4521
▁uncertain	-11.4521
▁китайско	-11.4521
▁swimming	-11.4521
▁sphere	-11.4521
▁solving	-11.4521
▁сложным	-11.4521
▁mystery	-11.4521
▁hydrogen	-11.4522
▁технологически	-11.4523
▁analog	-11.4523
▁куб	-11.4525
▁favor	-11.4585
▁лун	-11.4585
▁fortunate	-11.4586
▁navigat	-11.4586
▁времён	-11.4586
▁навсегда	-11.4586
▁complain	-11.4586
▁phase	-11.4586
▁welcome	-11.4586
▁находиться	-11.4586
▁следующим	-11.4586
▁retire	-11.4587
▁сезон	-11.4587
▁тобой	-11.4587
▁учёным	-11.4589
▁прорыв	-11.4593
▁сравнив	-11.4651
▁calculate	-11.4651
▁candidate	-11.4651
▁constrain	-11.4651
▁инноваций	-11.4651
▁организован	-11.4651
▁политической	-11.4651
▁путешествия	-11.4651
▁фрагмент	-11.4651
▁функции	-11.4651
▁illusion	-11.4651
▁Причина	-11.4651
▁наличие	-11.4651
▁важную	-11.4652
▁вышла	-11.4653
▁weigh	-11.4664
▁colleague	-11.4682
вшую	-11.4701
▁ultimate	-11.4704
▁CEO	-11.4717
▁International	-11.4717
▁cortex	-11.4717
▁intervention	-11.4717
▁Европы	-11.4717
▁градусов	-11.4717
▁стабильно	-11.4717
▁порядок	-11.4717
▁defend	-11.4717
▁prize	-11.4717
▁Около	-11.4717
▁провела	-11.4717
▁style	-11.4718
▁исключением	-11.4718
▁существование	-11.4721
пускаем	-11.4748
▁бросил	-11.4755
▁изображ	-11.4757
дикт	-11.4763
▁concrete	-11.4783
▁engaging	-11.4783
▁гипотез	-11.4783
▁настоящим	-11.4783
▁пользователей	-11.4783
▁появления	-11.4783
▁тщательно	-11.4783
▁фильтр	-11.4783
▁ожидать	-11.4783
▁применения	-11.4783
китайски	-11.4784
▁biologist	-11.4784
летнего	-11.4786
▁сестра	-11.4786
▁замуж	-11.4786
▁представляю	-11.479
▁потряс	-11.4804
изацией	-11.4815
▁край	-11.4816
▁Спуст	-11.4838
▁destruction	-11.485
▁manufacture	-11.485
▁punish	-11.485
▁recommend	-11.485
▁Понимаете	-11.485
▁потребовал	-11.485
▁детства	-11.485
▁split	-11.485
▁refuse	-11.485
▁leap	-11.485
▁attend	-11.4851
ированные	-11.4851
▁debt	-11.4851
▁организацию	-11.4851
▁Мартин	-11.4852
▁рожден	-11.4854
▁пишет	-11.4854
▁отражает	-11.4855
▁изучил	-11.4864
▁слепо	-11.4888
мышленн	-11.491
▁Alzheimer	-11.4917
фантастическ	-11.4917
▁Obama	-11.4917
▁bicycle	-11.4917
▁conservation	-11.4917
▁economies	-11.4917
▁horrible	-11.4917
▁instruction	-11.4917
▁lecture	-11.4917
▁motivation	-11.4917
▁Чикаго	-11.4917
▁воссозда	-11.4917
▁повлиять	-11.4917
▁утверждаю	-11.4917
▁cyber	-11.4917
▁silent	-11.4917
▁обычных	-11.4917
▁silk	-11.4917
▁spider	-11.4917
▁профессиональны	-11.4918
▁Anyway	-11.4919
▁nut	-11.4921
,500	-11.4921
▁проходил	-11.4977
▁desperate	-11.4985
▁Before	-11.4985
▁Michael	-11.4985
▁dioxide	-11.4985
▁efficiency	-11.4985
▁library	-11.4985
▁license	-11.4985
▁literature	-11.4985
▁psychologist	-11.4985
▁psychology	-11.4985
▁somewhat	-11.4985
▁единственным	-11.4985
▁защищать	-11.4985
▁удивительные	-11.4985
▁infinite	-11.4985
▁Майкл	-11.4985
механическ	-11.4985
▁Почти	-11.4985
▁измерить	-11.4985
▁rush	-11.4985
▁rising	-11.4985
▁tank	-11.4985
▁домашни	-11.4987
worm	-11.5005
▁демократическ	-11.5021
digit	-11.5025
▁invite	-11.5031
▁Раньше	-11.5053
▁глобального	-11.5053
▁компанией	-11.5053
▁сложный	-11.5053
▁собственную	-11.5053
▁Charles	-11.5053
▁contrast	-11.5053
▁участок	-11.5053
▁хакер	-11.5053
▁областях	-11.5053
▁computing	-11.5053
▁smoke	-11.5053
▁образовательн	-11.5053
▁участвовал	-11.5053
▁поместил	-11.5053
▁отметить	-11.5053
▁заявил	-11.5053
▁основу	-11.5053
▁Бостон	-11.5053
▁predator	-11.5053
▁overcome	-11.5054
▁occurred	-11.5054
▁вторая	-11.5054
▁следовал	-11.5066
▁шест	-11.5067
▁грани	-11.5091
▁позволяющи	-11.5114
▁персонал	-11.5118
▁crucial	-11.5121
▁greenhouse	-11.5121
▁medication	-11.5121
▁unexpected	-11.5121
▁килограмм	-11.5121
▁учитывая	-11.5121
▁кусок	-11.5121
▁слушал	-11.5121
▁снизить	-11.5122
▁inject	-11.5127
▁Martin	-11.5127
▁Abou	-11.5127
▁объясняет	-11.513
▁устойчивы	-11.5134
▁продвига	-11.516
▁Unfortunately	-11.519
▁mortality	-11.519
▁scholar	-11.519
▁surveillance	-11.519
▁астероид	-11.519
▁глубже	-11.519
▁заинтересовал	-11.519
▁стратегии	-11.519
▁Солнечн	-11.519
▁гуманитарн	-11.519
▁неизвестно	-11.519
▁осторожн	-11.519
▁scream	-11.519
▁сострадание	-11.519
▁вовлечен	-11.519
▁causing	-11.519
▁internet	-11.519
▁ладно	-11.519
▁всеобщ	-11.5192
▁пакет	-11.5192
▁гнев	-11.5193
▁трёхмерн	-11.5194
▁отпуск	-11.5197
▁продвинут	-11.5198
крывать	-11.52
▁стиле	-11.5217
▁двум	-11.5246
▁Angeles	-11.526
▁Nobody	-11.526
▁cluster	-11.526
▁confident	-11.526
▁paradigm	-11.526
▁sensitive	-11.526
▁влияния	-11.526
▁деревне	-11.526
▁огромной	-11.526
▁повсеместн	-11.526
▁потребления	-11.526
▁социальным	-11.526
▁днём	-11.526
▁иностранн	-11.526
▁laboratory	-11.526
▁east	-11.526
▁половины	-11.526
▁spiritual	-11.5261
▁исторически	-11.5264
▁трюк	-11.5264
▁laser	-11.5265
▁ребят	-11.5268
фокусирова	-11.5269
▁смертельн	-11.5269
▁узк	-11.5278
▁неправильн	-11.5286
▁формирова	-11.5296
тянуть	-11.531
пускать	-11.5325
▁Wikipedia	-11.533
▁exploit	-11.533
▁frankly	-11.533
▁ritual	-11.533
▁Солнце	-11.533
▁небольшое	-11.533
▁руководство	-11.533
▁стереотип	-11.533
▁топливо	-11.533
▁устанавлива	-11.533
▁эпоху	-11.533
▁2013	-11.533
▁предстоит	-11.533
▁страдания	-11.533
▁Next	-11.533
▁Something	-11.533
▁плакат	-11.533
▁extent	-11.533
▁непросто	-11.533
▁тревож	-11.533
▁повыси	-11.533
▁minor	-11.533
▁творчество	-11.533
▁tonight	-11.533
▁Париж	-11.5332
▁выиграл	-11.5348
ированных	-11.5369
▁признан	-11.5378
▁призыв	-11.5397
▁corporate	-11.54
▁hormone	-11.54
▁penguin	-11.54
▁Впервые	-11.54
▁Примерно	-11.54
▁необычно	-11.54
▁вдвое	-11.54
▁убедил	-11.54
▁vital	-11.54
▁понадобится	-11.5401
ilicon	-11.5404
▁ярко	-11.5436
▁Центр	-11.5438
▁жизненны	-11.5469
▁CRISPR	-11.5471
▁Christmas	-11.5471
▁Research	-11.5471
▁Rwanda	-11.5471
▁chapter	-11.5471
▁curiosity	-11.5471
▁genius	-11.5471
▁password	-11.5471
▁transplant	-11.5471
▁Вместе	-11.5471
▁карьеру	-11.5471
▁настоящие	-11.5471
▁потребление	-11.5471
▁борьба	-11.5471
▁облегч	-11.5471
▁удивля	-11.5471
▁pretend	-11.5471
▁presence	-11.5471
▁дочери	-11.5471
▁требуют	-11.5472
▁оборот	-11.5473
▁потери	-11.5473
достовер	-11.5476
▁asteroid	-11.5542
▁philosophy	-11.5542
▁suspect	-11.5542
▁лабораторию	-11.5542
▁христиан	-11.5542
▁прочитать	-11.5542
▁elite	-11.5543
▁длительн	-11.5547
научные	-11.557
▁километр	-11.5594
▁anxiety	-11.5614
▁club	-11.5614
▁испытания	-11.5614
▁согласны	-11.5614
▁аэропорт	-11.5614
▁придержива	-11.5614
▁публика	-11.5614
▁развитию	-11.5614
▁дерева	-11.5614
▁drove	-11.5614
▁nowhere	-11.5615
▁подтвержда	-11.5615
▁яблок	-11.5615
▁последующи	-11.5616
▁известна	-11.5623
▁сожале	-11.5632
▁пожалуй	-11.5684
слушайте	-11.5687
▁Remember	-11.5687
▁emergency	-11.5687
▁НАСА	-11.5687
▁безусловно	-11.5687
▁небольшая	-11.5687
▁огромную	-11.5687
▁пингвин	-11.5687
▁разговаривал	-11.5687
▁управляет	-11.5687
▁2016	-11.5687
▁рамки	-11.5687
▁High	-11.5687
▁индийск	-11.5687
▁вызван	-11.5687
▁blame	-11.5687
▁hill	-11.5688
▁приблизительно	-11.5688
▁angle	-11.5696
▁ритуал	-11.5718
▁автоматически	-11.5725
▁September	-11.576
▁authentic	-11.576
▁recognition	-11.576
▁британск	-11.576
▁медицине	-11.576
▁напрямую	-11.576
▁опухоли	-11.576
▁расстоянии	-11.576
▁цивилизации	-11.576
▁электричества	-11.576
▁parallel	-11.576
▁brown	-11.576
▁развитии	-11.576
▁vertical	-11.576
▁концентраци	-11.576
▁позади	-11.576
▁Томас	-11.576
▁ought	-11.5761
▁решает	-11.5764
▁Красн	-11.5784
месячн	-11.5785
ография	-11.5788
желуд	-11.5822
▁понадоби	-11.5832
▁household	-11.5833
▁tunnel	-11.5833
▁блестящ	-11.5833
▁вмешательств	-11.5833
▁конкурент	-11.5833
▁площади	-11.5833
▁психически	-11.5833
▁ребенок	-11.5833
▁сравнить	-11.5833
▁regulation	-11.5833
▁приезжа	-11.5833
▁Finally	-11.5833
▁drill	-11.5833
▁реакции	-11.5833
▁основная	-11.5833
▁позиции	-11.5833
▁обычные	-11.5833
▁ткань	-11.5833
▁carried	-11.5834
▁заменить	-11.5834
▁юмор	-11.5834
▁учился	-11.5834
▁защиту	-11.5834
▁половину	-11.5834
▁практике	-11.5834
будьте	-11.5835
▁regime	-11.5839
▁database	-11.5844
Ж	-11.5849
▁неожиданн	-11.5853
▁юн	-11.5855
ушке	-11.5863
▁снял	-11.5893
▁dancing	-11.5907
▁guilt	-11.5907
▁regret	-11.5907
▁revenue	-11.5907
▁Возьмём	-11.5907
▁восстанавлива	-11.5907
▁маршрут	-11.5907
▁приведёт	-11.5907
▁разочарован	-11.5907
▁реакцию	-11.5907
▁смартфон	-11.5907
▁субъект	-11.5907
▁Greek	-11.5907
assemble	-11.5907
▁приложение	-11.5907
▁Одним	-11.5907
▁земля	-11.5907
▁ensure	-11.5908
▁далёк	-11.5908
▁chest	-11.5908
Sahara	-11.5909
▁определенны	-11.5912
▁японск	-11.5921
очень	-11.5924
бираем	-11.5933
▁Pacific	-11.5982
▁judgment	-11.5982
▁obstacle	-11.5982
▁Пакистан	-11.5982
▁absorb	-11.5982
▁жёстк	-11.5982
▁семьёй	-11.5982
▁запомина	-11.5982
▁барьер	-11.5982
▁depth	-11.5982
▁обычный	-11.5982
▁прибыли	-11.5982
▁sweat	-11.5983
▁отходов	-11.5983
▁кучу	-11.5983
▁nest	-11.5984
▁желаю	-11.5998
Ш	-11.5998
▁ориентир	-11.6001
▁stereo	-11.6015
становка	-11.6018
▁спуска	-11.6023
▁White	-11.6057
▁automatically	-11.6057
▁discipline	-11.6057
▁instinct	-11.6057
▁romantic	-11.6057
▁suicide	-11.6057
▁telephone	-11.6057
▁Действительно	-11.6057
▁освободи	-11.6057
▁insurance	-11.6057
▁reconstruct	-11.6057
▁теорию	-11.6057
▁американцы	-11.6057
▁устроен	-11.6057
▁Откуда	-11.6057
▁написанн	-11.6057
▁участия	-11.6057
▁напечата	-11.6057
▁pace	-11.6057
▁sail	-11.6058
▁бренд	-11.6058
▁применение	-11.6058
▁определенно	-11.6059
▁Будь	-11.6061
строили	-11.6092
изатор	-11.6094
▁приблизи	-11.6132
очувствие	-11.6133
▁diagram	-11.6133
▁distributed	-11.6133
▁identical	-11.6133
▁knock	-11.6133
▁obsessed	-11.6133
▁вспомнить	-11.6133
▁принадлежит	-11.6133
▁Ближне	-11.6133
▁попытки	-11.6133
▁невролог	-11.6133
▁новостей	-11.6133
▁встроен	-11.6133
▁доверия	-11.6133
▁тремя	-11.6133
▁boom	-11.6134
▁побочны	-11.6144
class	-11.6151
▁прояви	-11.6173
▁обратн	-11.6183
▁Central	-11.6209
▁conclude	-11.6209
▁guarantee	-11.6209
▁lifestyle	-11.6209
▁procedure	-11.6209
▁Смотрите	-11.6209
▁деревни	-11.6209
▁карьеры	-11.6209
▁преступления	-11.6209
▁dignity	-11.6209
▁вычислительн	-11.6209
▁пешеход	-11.6209
▁flew	-11.6209
▁случиться	-11.6209
▁agenda	-11.6209
▁shelter	-11.6209
▁определения	-11.6209
▁гипер	-11.6209
▁Доктор	-11.621
▁мега	-11.621
▁тратить	-11.621
▁оценка	-11.6212
▁состоят	-11.6219
▁corporation	-11.6286
▁grateful	-11.6286
▁herself	-11.6286
▁mathematician	-11.6286
▁neither	-11.6286
▁transparency	-11.6286
▁Америку	-11.6286
▁Жизнь	-11.6286
▁Соединенны	-11.6286
▁адвокат	-11.6286
▁множества	-11.6286
▁ticket	-11.6286
▁похорон	-11.6286
▁ladies	-11.6286
▁distant	-11.6286
▁изнутри	-11.6286
▁съед	-11.6286
▁Голос	-11.6287
запад	-11.63
▁тесно	-11.6302
▁cheat	-11.6304
сайт	-11.6311
земны	-11.6314
▁смешно	-11.6314
▁Foundation	-11.6364
▁ridiculous	-11.6364
▁Говоря	-11.6364
▁Насколько	-11.6364
▁Никогда	-11.6364
▁Существую	-11.6364
▁разнообразны	-11.6364
функциональн	-11.6364
▁reserve	-11.6364
▁senior	-11.6364
▁рентген	-11.6364
▁стоимости	-11.6364
▁поменять	-11.6364
▁isolated	-11.6364
▁ждёт	-11.6364
▁appeal	-11.6364
▁вызвать	-11.6364
ведении	-11.6366
▁плач	-11.6372
правда	-11.6383
▁поразил	-11.6384
level	-11.6405
▁скрыва	-11.6432
▁Blue	-11.6442
▁Revolution	-11.6442
▁Thomas	-11.6442
▁compound	-11.6442
▁correspond	-11.6442
▁exploring	-11.6442
▁optimistic	-11.6442
▁simulation	-11.6442
▁вертикальн	-11.6442
▁диабет	-11.6442
▁здравоохранение	-11.6442
▁психиатр	-11.6442
▁miracle	-11.6442
▁выполнить	-11.6442
▁одобр	-11.6442
▁слышим	-11.6442
▁участки	-11.6442
▁сюжет	-11.6442
▁естественн	-11.6449
▁начинаю	-11.6451
▁хвата	-11.6483
▁медленн	-11.6491
▁suppose	-11.6499
▁донор	-11.6502
генетик	-11.6509
▁abandon	-11.6521
▁column	-11.6521
▁external	-11.6521
▁philosopher	-11.6521
▁лаборатория	-11.6521
▁синдром	-11.6521
▁тюрьмы	-11.6521
▁phenomena	-11.6521
▁глядя	-11.6521
▁когнитивн	-11.6521
▁несчастн	-11.6521
▁сопережива	-11.6521
▁строительство	-11.6521
заимодействовать	-11.6521
▁borrow	-11.6521
▁federal	-11.6521
▁кратко	-11.6521
▁последней	-11.6521
▁сервис	-11.6521
▁сомнева	-11.6521
▁Далее	-11.6521
▁bump	-11.6521
▁ugly	-11.6521
▁прочитал	-11.6523
▁trace	-11.6524
▁обычным	-11.6527
▁круж	-11.6529
▁вдохновил	-11.6544
полняют	-11.6569
▁закрыва	-11.6586
ированный	-11.6596
финансирован	-11.66
▁struggling	-11.66
▁uncomfortable	-11.66
▁бабушка	-11.66
▁потребности	-11.66
▁попросить	-11.66
▁шоколад	-11.66
▁визуально	-11.66
▁properly	-11.66
▁крупных	-11.66
▁снизу	-11.66
▁любая	-11.66
▁trait	-11.66
▁выйдет	-11.6601
▁уважение	-11.6601
▁груб	-11.6607
летних	-11.6616
free	-11.6623
▁illustrate	-11.668
▁recruit	-11.668
▁survivor	-11.668
▁Колумб	-11.668
▁виртуально	-11.668
▁инициатив	-11.668
▁обсуждения	-11.668
▁отрицательн	-11.668
▁расширить	-11.668
▁blank	-11.668
▁enemy	-11.668
▁организовать	-11.668
▁consult	-11.668
▁proportion	-11.668
▁захочет	-11.668
▁Позже	-11.668
▁явления	-11.668
▁orange	-11.6682
▁умственн	-11.6682
▁перешл	-11.6701
▁наполнен	-11.672
писание	-11.6726
▁Museum	-11.6761
▁antibiotics	-11.6761
▁Альцгеймера	-11.6761
▁автомобили	-11.6761
▁дешевле	-11.6761
▁предположить	-11.6761
▁расстояния	-11.6761
▁strike	-11.6761
▁margin	-11.6761
▁plenty	-11.6761
▁двадцат	-11.6761
▁уменьшени	-11.6761
▁условий	-11.6761
▁юрист	-11.6761
▁разницу	-11.6761
▁вселенная	-11.6761
▁заранее	-11.6761
ставку	-11.6761
▁устраива	-11.6772
worth	-11.6783
мысленно	-11.6816
▁ядерны	-11.6821
спект	-11.6823
▁embedded	-11.6842
▁neural	-11.6842
▁rhythm	-11.6842
▁благосостояни	-11.6842
▁поглоща	-11.6842
▁церкви	-11.6842
▁юридическ	-11.6842
▁беспроводн	-11.6842
▁пассажир	-11.6842
▁hardware	-11.6842
▁raising	-11.6842
▁Design	-11.6842
▁implant	-11.6842
▁высоте	-11.6842
▁посетил	-11.6842
▁любые	-11.6842
▁гидро	-11.6842
▁требовал	-11.6842
▁leak	-11.6842
▁временно	-11.6842
▁массив	-11.6842
▁distract	-11.6843
▁домашне	-11.6843
ставляя	-11.6845
▁иммунн	-11.6848
«	-11.6865
▁жук	-11.6869
писывать	-11.6895
▁вооруж	-11.6917
▁bathroom	-11.6924
▁exponential	-11.6924
▁fulfill	-11.6924
▁hunger	-11.6924
▁rebuild	-11.6924
▁Получается	-11.6924
▁интерактивн	-11.6924
▁настоящего	-11.6924
▁поколений	-11.6924
▁сантиметр	-11.6924
▁champion	-11.6924
▁песню	-11.6924
▁facial	-11.6924
▁наибольш	-11.6924
▁увлечен	-11.6924
▁подвержен	-11.6924
▁чувствуем	-11.6924
▁Robert	-11.6924
▁cousin	-11.6924
▁радикально	-11.6924
▁задания	-11.6924
▁subtle	-11.6926
▁activate	-11.6939
▁tune	-11.694
play	-11.695
▁особенн	-11.6966
▁adventure	-11.7007
▁experiencing	-11.7007
▁hungry	-11.7007
▁renewable	-11.7007
▁strategies	-11.7007
▁universities	-11.7007
▁Женщины	-11.7007
▁инстинкт	-11.7007
▁неравенство	-11.7007
▁означало	-11.7007
▁потребность	-11.7007
▁религия	-11.7007
▁хищник	-11.7007
▁alarm	-11.7007
▁slum	-11.7007
▁организовал	-11.7007
▁клетку	-11.7007
▁animation	-11.7007
▁персональн	-11.7011
▁Haiti	-11.7015
century	-11.7031
▁определил	-11.7038
▁овощ	-11.7042
▁двойн	-11.7042
мирового	-11.7052
▁случая	-11.7074
osphere	-11.709
▁January	-11.709
▁Olympic	-11.709
▁adjust	-11.709
▁football	-11.709
▁permission	-11.709
▁Международн	-11.709
▁Чарльз	-11.709
▁аспирант	-11.709
▁коммерчески	-11.709
▁ожидаем	-11.709
▁понимании	-11.709
▁посреди	-11.709
▁соответствует	-11.709
▁трущоб	-11.709
▁stroke	-11.709
▁важнейш	-11.709
▁положении	-11.709
▁dirty	-11.709
▁песни	-11.709
▁Можем	-11.709
▁умереть	-11.709
▁версия	-11.709
▁параметр	-11.709
▁спортивн	-11.7091
▁пальца	-11.7092
▁скромн	-11.7093
хождения	-11.7094
▁решит	-11.7094
пускают	-11.714
▁disagree	-11.7174
▁агрессивн	-11.7174
▁acknowledge	-11.7174
▁chromosome	-11.7174
▁decrease	-11.7174
▁defense	-11.7174
▁passenger	-11.7174
▁scratch	-11.7174
▁ближайше	-11.7174
▁впечатляющ	-11.7174
▁огромного	-11.7174
▁посвяти	-11.7174
▁случаи	-11.7174
▁ущерб	-11.7174
▁хромосом	-11.7174
▁господа	-11.7174
▁достижение	-11.7174
▁Basically	-11.7174
▁indicate	-11.7174
▁держит	-11.7174
▁печень	-11.7174
▁utter	-11.7174
▁neck	-11.7174
▁скелет	-11.7174
▁рекорд	-11.7175
третьих	-11.7178
▁письме	-11.7179
▁убрать	-11.7182
Звук	-11.7187
Yeah	-11.72
▁струн	-11.7208
▁превращ	-11.7225
▁rapid	-11.7246
+	-11.7259
▁chocolate	-11.7259
▁earthquake	-11.7259
▁eliminate	-11.7259
▁measuring	-11.7259
▁Нельзя	-11.7259
▁возьмём	-11.7259
▁заглянуть	-11.7259
▁затрагива	-11.7259
▁наглядн	-11.7259
▁сомнения	-11.7259
▁сотрудничества	-11.7259
▁сотрудничество	-11.7259
▁чернокожих	-11.7259
▁инвестор	-11.7259
▁пойдёт	-11.7259
▁сущность	-11.7259
▁thumb	-11.7259
▁погружен	-11.7259
▁окажется	-11.7259
▁учёный	-11.7259
▁крупные	-11.7259
▁разумеется	-11.7259
тянул	-11.7261
▁красным	-11.7262
▁пилот	-11.7263
▁NGO	-11.7344
▁dialogue	-11.7344
▁district	-11.7344
▁fascinated	-11.7344
▁Прямо	-11.7344
▁восхища	-11.7344
▁замечательные	-11.7344
▁потребуется	-11.7344
▁ребёнку	-11.7344
▁солнца	-11.7344
▁традиции	-11.7344
▁тюрьму	-11.7344
▁1998	-11.7344
▁legacy	-11.7344
▁Похоже	-11.7344
▁предсказать	-11.7344
▁рассмотрим	-11.7344
▁Вселенная	-11.7344
▁моделей	-11.7344
▁музей	-11.7344
▁piano	-11.7344
▁ранних	-11.7344
работку	-11.7344
▁связей	-11.7344
▁неопределённ	-11.7345
▁запустили	-11.7345
▁объединил	-11.7347
▁парниковы	-11.7347
▁придумыва	-11.7349
демонстрировать	-11.7376
▁интересовал	-11.7409
▁Jeff	-11.743
▁autonomous	-11.743
▁обеспокоен	-11.743
▁1999	-11.743
▁depressed	-11.743
▁ethnic	-11.743
▁pursue	-11.743
▁recipe	-11.743
▁skull	-11.743
▁Результат	-11.743
▁замечательный	-11.743
▁карикатур	-11.743
▁пониманию	-11.743
▁последнего	-11.743
▁расстояние	-11.743
▁Вскоре	-11.743
▁profile	-11.743
▁grave	-11.743
▁кафе	-11.7432
тлив	-11.7435
▁упрощ	-11.7436
▁любым	-11.7436
▁содержат	-11.7513
▁incident	-11.7517
▁Hollywood	-11.7517
▁Manhattan	-11.7517
▁Stanford	-11.7517
▁clue	-11.7517
▁forgotten	-11.7517
▁portrait	-11.7517
▁Вероятно	-11.7517
▁Солнца	-11.7517
▁нефтян	-11.7517
▁пирамид	-11.7517
▁сообщений	-11.7517
▁технологией	-11.7517
▁шаблон	-11.7517
▁энергией	-11.7517
▁arrange	-11.7517
▁sacred	-11.7517
▁продолжил	-11.7517
▁очередн	-11.7517
▁рыночн	-11.7517
▁налогов	-11.7517
▁agency	-11.7517
▁Австр	-11.7518
▁южно	-11.7518
▁приспособлен	-11.7519
▁академи	-11.754
ставлю	-11.7552
▁снимал	-11.7567
▁поднимаю	-11.7576
▁Ethiopia	-11.7605
▁agricultural	-11.7605
▁cooperation	-11.7605
▁dedicated	-11.7605
▁elsewhere	-11.7605
▁enhance	-11.7605
▁inevitable	-11.7605
▁reduction	-11.7605
▁skeptic	-11.7605
▁underground	-11.7605
▁vegetable	-11.7605
▁Необходимо	-11.7605
▁одежды	-11.7605
▁статистику	-11.7605
▁творчества	-11.7605
▁чудесны	-11.7605
▁Texas	-11.7605
▁решению	-11.7605
▁берём	-11.7605
▁density	-11.7605
▁Гаити	-11.7605
▁тратим	-11.7605
▁Роберт	-11.7606
▁тратят	-11.7607
▁полноценн	-11.7607
▁Йо	-11.7685
▁ceiling	-11.7693
▁disgust	-11.7693
▁routine	-11.7693
▁tragedy	-11.7693
▁вычисления	-11.7693
▁колоссальн	-11.7693
▁маркетинг	-11.7693
▁переключа	-11.7693
▁пользователя	-11.7693
▁последствий	-11.7693
▁увлекательн	-11.7693
▁эволюция	-11.7693
▁substance	-11.7693
▁стремление	-11.7693
▁Джефф	-11.7693
▁request	-11.7694
▁session	-11.7694
▁красный	-11.7694
▁обширн	-11.7694
▁сильные	-11.7694
▁умирает	-11.7694
▁mutation	-11.7694
▁spell	-11.7694
▁подавлен	-11.7699
changing	-11.7724
▁formula	-11.7776
▁меньши	-11.7783
▁Ghana	-11.7783
▁contribution	-11.7783
▁spectacular	-11.7783
▁synthetic	-11.7783
▁виртуальны	-11.7783
▁кампании	-11.7783
▁объявил	-11.7783
▁стратегия	-11.7783
▁гармон	-11.7783
▁корабль	-11.7783
▁нейробиолог	-11.7783
▁упоминал	-11.7783
▁исследовал	-11.7783
▁заговор	-11.7783
▁станции	-11.7783
▁едят	-11.7783
▁дистанци	-11.7783
▁restrict	-11.7784
▁поменял	-11.7784
убийц	-11.7788
хватить	-11.7804
Американск	-11.7805
▁Republican	-11.7873
▁diploma	-11.7873
▁heaven	-11.7873
▁iPod	-11.7873
▁pyramid	-11.7873
▁yield	-11.7873
▁обсудить	-11.7873
▁параллель	-11.7873
▁пейзаж	-11.7873
▁публично	-11.7873
▁Gulf	-11.7873
▁poison	-11.7873
▁сердечны	-11.7873
▁песня	-11.7873
▁просыпа	-11.7873
▁отклик	-11.7873
▁рекламн	-11.7873
▁имплант	-11.7873
▁Turn	-11.7874
▁изолирован	-11.7876
▁блюд	-11.7877
▁обобщ	-11.7881
▁выделен	-11.7886
стоящих	-11.796
▁обязательств	-11.7964
▁confirm	-11.7964
▁explode	-11.7964
▁initiative	-11.7964
▁intuition	-11.7964
▁transparent	-11.7964
▁Институт	-11.7964
▁позитивны	-11.7964
▁произойдет	-11.7964
▁разговаривать	-11.7964
▁превыша	-11.7964
▁соединить	-11.7964
▁столкнулись	-11.7964
▁изготовлен	-11.7964
▁tackle	-11.7964
▁версию	-11.7964
▁Техас	-11.7964
▁грустн	-11.7964
▁возьми	-11.7965
▁sharp	-11.7965
▁sink	-11.7967
▁мертв	-11.7969
▁обожаю	-11.7975
▁добива	-11.7991
▁сериал	-11.7992
▁участвую	-11.8003
▁Центральн	-11.8007
национальной	-11.8018
▁William	-11.8055
▁confused	-11.8056
▁resilience	-11.8056
▁Взгляните	-11.8056
▁девушек	-11.8056
▁десятилетий	-11.8056
▁кусочек	-11.8056
▁надеяться	-11.8056
▁посередине	-11.8056
▁социальный	-11.8056
▁obesity	-11.8056
▁essence	-11.8056
▁поставлен	-11.8056
▁tragic	-11.8056
▁конкурс	-11.8056
▁sensation	-11.8056
▁удивил	-11.8056
▁сформировал	-11.8057
▁профессионально	-11.8057
▁аренд	-11.8062
▁profession	-11.8083
ориентирова	-11.8124
служить	-11.8138
▁explosion	-11.8148
▁сопровожда	-11.8148
▁Sweden	-11.8148
▁Through	-11.8148
▁combat	-11.8148
▁frozen	-11.8148
▁Звучит	-11.8148
▁архитектура	-11.8148
▁небольшим	-11.8148
▁несомненно	-11.8148
▁парадокс	-11.8148
▁понравилось	-11.8148
▁продолжить	-11.8148
▁разработке	-11.8148
▁Arctic	-11.8148
▁description	-11.8148
▁gesture	-11.8148
▁армии	-11.8148
resistant	-11.8148
▁последняя	-11.8148
▁Наверное	-11.8148
▁freak	-11.8148
▁объем	-11.8148
▁немецк	-11.8148
▁фанат	-11.8152
крытие	-11.8159
▁длинно	-11.8161
▁immediate	-11.8229
▁Atlantic	-11.8242
▁chaos	-11.8242
▁comparison	-11.8242
▁diabetes	-11.8242
▁intuitive	-11.8242
▁smooth	-11.8242
▁лёгких	-11.8242
▁напротив	-11.8242
▁самоубийств	-11.8242
▁терапии	-11.8242
▁demographic	-11.8242
▁orchestra	-11.8242
▁потратить	-11.8242
▁colony	-11.8242
▁архив	-11.8242
▁подавля	-11.8242
▁pause	-11.8242
▁влиятельн	-11.8242
▁уличн	-11.8243
▁тревог	-11.8243
▁фундамент	-11.8246
▁sync	-11.8254
глядеть	-11.8314
▁Таймс	-11.8336
▁деревня	-11.8336
▁дисциплин	-11.8336
▁advocate	-11.8336
▁agencies	-11.8336
▁figuring	-11.8336
▁industries	-11.8336
▁Мужчина	-11.8336
▁Особенно	-11.8336
▁всевозможны	-11.8336
▁вспомнил	-11.8336
▁депрессия	-11.8336
▁лёд	-11.8336
▁регулярно	-11.8336
▁шрифт	-11.8336
▁волонтёр	-11.8336
▁музее	-11.8336
▁fought	-11.8336
▁injury	-11.8336
▁charity	-11.8336
▁Ocean	-11.8336
▁относятся	-11.8336
▁денежн	-11.8336
▁слушаю	-11.8336
▁slice	-11.8336
▁исполнен	-11.8336
▁сужден	-11.8336
▁golf	-11.8337
▁перемещен	-11.8338
▁основным	-11.8341
▁служит	-11.8347
влекает	-11.8361
справедливость	-11.8404
Антаркти	-11.8431
sufficient	-11.8431
режиссёр	-11.8431
▁Virgin	-11.8431
▁accelerate	-11.8431
▁fraction	-11.8431
▁identified	-11.8431
▁огромных	-11.8431
▁спрашивать	-11.8431
▁включен	-11.8431
▁диаметр	-11.8431
▁испытал	-11.8431
▁начинать	-11.8431
▁героя	-11.8431
▁Проект	-11.8432
▁паразит	-11.8432
Z	-11.8468
▁построил	-11.8472
▁происходи	-11.8481
▁capita	-11.8521
▁Children	-11.8527
▁diagnosis	-11.8527
▁garbage	-11.8527
▁reputation	-11.8527
▁строительства	-11.8527
▁acquire	-11.8527
▁архитектурн	-11.8527
▁дефицит	-11.8527
▁компромисс	-11.8527
▁нелегко	-11.8527
▁sneak	-11.8527
▁дважды	-11.8527
▁недооцен	-11.8527
▁Учёные	-11.8527
▁сердечно	-11.8527
▁Higgs	-11.8527
▁выживания	-11.8527
▁финансирование	-11.8527
▁храм	-11.8528
скольз	-11.8528
▁танцу	-11.8528
▁чемпион	-11.8528
▁интеллектуальны	-11.8529
▁низким	-11.8529
▁оригинальн	-11.8529
ставят	-11.8529
▁приглашен	-11.853
▁удалённ	-11.853
▁Банк	-11.8539
▁присоед	-11.8553
▁химическ	-11.8573
▁настоящем	-11.8623
▁Uganda	-11.8624
▁happier	-11.8624
▁interconnect	-11.8624
▁rainforest	-11.8624
▁Между	-11.8624
▁кампанию	-11.8624
▁проигрыва	-11.8624
▁энтузиазм	-11.8624
▁tweet	-11.8624
▁искренне	-11.8624
▁сообщил	-11.8624
▁naked	-11.8624
▁движений	-11.8624
▁сыграл	-11.8625
▁ослаб	-11.8627
▁произнес	-11.8629
▁продуктивно	-11.8631
▁питательны	-11.8655
ступит	-11.8673
▁отвлека	-11.8708
▁hydro	-11.8722
▁Department	-11.8722
▁Jewish	-11.8722
▁breakthrough	-11.8722
▁competitive	-11.8722
▁feminist	-11.8722
▁furniture	-11.8722
▁manifest	-11.8722
▁overwhelming	-11.8722
▁skeleton	-11.8722
▁красоту	-11.8722
▁потепление	-11.8722
▁произошедш	-11.8722
▁сложную	-11.8722
▁эквивалент	-11.8722
▁эпидемии	-11.8722
▁1994	-11.8722
▁Ebola	-11.8722
▁Амазон	-11.8722
▁совокупн	-11.8722
▁убежда	-11.8722
▁fusion	-11.8722
▁burst	-11.8722
▁twist	-11.8723
▁реактор	-11.8723
▁предсказыва	-11.8723
правительственн	-11.8727
▁пребыва	-11.8736
▁программировани	-11.8743
▁исполня	-11.8762
концентрирова	-11.8764
▁разрушительн	-11.877
плакал	-11.878
▁инновация	-11.8821
▁buried	-11.8821
▁chief	-11.8821
▁demonstration	-11.8821
▁fragment	-11.8821
▁immense	-11.8821
▁intersection	-11.8821
▁paradox	-11.8821
▁sketch	-11.8821
▁бактерия	-11.8821
▁бейсбол	-11.8821
▁воображения	-11.8821
▁восхитительн	-11.8821
▁кошмар	-11.8821
▁лестнице	-11.8821
▁маленьком	-11.8821
▁операций	-11.8821
▁первоначальн	-11.8821
▁смертей	-11.8821
▁экзамен	-11.8821
▁affair	-11.8821
▁excuse	-11.8821
▁Штатов	-11.8821
▁объявлен	-11.8821
инфицирован	-11.8821
▁dominant	-11.8821
▁orphan	-11.8821
▁Олимп	-11.8821
▁spill	-11.8822
▁Фонд	-11.8824
льскохозяйственн	-11.8921
▁Scott	-11.8921
▁fifth	-11.8921
▁frustrated	-11.8921
▁nutrition	-11.8921
▁Время	-11.8921
▁Женщина	-11.8921
▁взглянем	-11.8921
▁менеджер	-11.8921
▁потребителей	-11.8921
▁произошла	-11.8921
▁происходящее	-11.8921
▁управляем	-11.8921
▁хрупк	-11.8921
▁дыхание	-11.8921
▁напряжен	-11.8921
▁punch	-11.8921
▁обществу	-11.8921
▁писатель	-11.8921
▁гольф	-11.8921
▁civic	-11.8922
▁frog	-11.8922
▁brutal	-11.8922
обрёл	-11.8922
▁tuna	-11.8923
▁раскрыв	-11.8941
▁видеоигр	-11.8949
секунд	-11.8964
Where	-11.8964
▁aesthetic	-11.9022
▁burden	-11.9022
▁choosing	-11.9022
▁flexible	-11.9022
▁primarily	-11.9022
▁resolve	-11.9022
▁robust	-11.9022
▁sacrifice	-11.9022
▁Хиггса	-11.9022
▁бассейн	-11.9022
▁бесплатны	-11.9022
▁рынки	-11.9022
▁списке	-11.9022
▁традиция	-11.9022
▁удовольствия	-11.9022
▁холодильник	-11.9022
▁chronic	-11.9022
▁mysterious	-11.9022
▁кислот	-11.9022
▁корпоративн	-11.9022
▁супруг	-11.9022
тягивает	-11.9022
▁Лучше	-11.9022
▁лягуш	-11.9022
▁отвечать	-11.9022
▁прыга	-11.9022
▁определять	-11.9022
▁течении	-11.9022
▁pioneer	-11.9023
▁привилеги	-11.9023
▁перечисл	-11.9023
▁технологическо	-11.9026
▁оправдан	-11.903
▁бездомн	-11.9034
public	-11.9066
human	-11.9068
▁Стэнфорд	-11.9124
▁August	-11.9124
▁Florida	-11.9124
▁advertising	-11.9124
▁attribute	-11.9124
▁leverage	-11.9124
▁mechanics	-11.9124
▁terrifying	-11.9124
▁выигрыва	-11.9124
▁исследователи	-11.9124
▁кнопку	-11.9124
▁погружа	-11.9124
▁полиомиелит	-11.9124
▁противостоять	-11.9124
▁сыграть	-11.9124
▁фрукт	-11.9124
▁probability	-11.9124
▁оркестр	-11.9124
▁премьер	-11.9124
▁приговор	-11.9124
▁позитивно	-11.9124
▁Основн	-11.9125
▁shrink	-11.9125
▁массовы	-11.9125
крываю	-11.913
▁DVD	-11.9228
▁October	-11.9228
▁baseball	-11.9228
▁fragile	-11.9228
▁humanitarian	-11.9228
▁simplicity	-11.9228
▁stomach	-11.9228
▁volcan	-11.9228
▁помощник	-11.9228
▁предполагает	-11.9228
▁продовольственн	-11.9228
▁спрашивает	-11.9228
▁статистика	-11.9228
▁чрезмерн	-11.9228
▁чудесно	-11.9228
▁1995	-11.9228
▁Посмотрим	-11.9228
▁воскрес	-11.9228
▁concert	-11.9228
▁звучал	-11.9228
▁Third	-11.9228
▁географическ	-11.9228
▁подтвержден	-11.9229
▁честны	-11.9233
▁terror	-11.9313
▁calculation	-11.9332
▁anonymous	-11.9332
▁compromise	-11.9332
▁evaluat	-11.9332
▁grandchildren	-11.9332
▁neutral	-11.9332
▁purchase	-11.9332
▁structural	-11.9332
▁бабушки	-11.9332
▁взаимоотношения	-11.9332
▁замечательная	-11.9332
▁заработал	-11.9332
▁коррупции	-11.9332
▁красоты	-11.9332
▁одежду	-11.9332
▁предположения	-11.9332
▁происхождения	-11.9332
▁профессии	-11.9332
▁публику	-11.9332
▁стратегию	-11.9332
▁церковь	-11.9332
▁1984	-11.9332
▁Скорее	-11.9332
▁охватыва	-11.9332
▁сострадания	-11.9332
▁broadcast	-11.9332
▁Трамп	-11.9332
atomic	-11.9336
found	-11.9377
▁сдвиг	-11.9425
▁Vietnam	-11.9437
▁Voice	-11.9437
▁aggressive	-11.9437
▁alcohol	-11.9437
▁participation	-11.9437
▁wheelchair	-11.9437
▁воздействия	-11.9437
▁геноцид	-11.9437
▁десятилетие	-11.9437
▁инвестировать	-11.9437
▁инвестиции	-11.9437
▁красота	-11.9437
▁наблюдение	-11.9437
▁окончательн	-11.9437
▁сравнении	-11.9437
▁disconnect	-11.9437
▁exhaust	-11.9437
▁rabbi	-11.9437
▁диапазон	-11.9437
▁предприятия	-11.9437
▁супермаркет	-11.9437
▁fortune	-11.9437
▁парламент	-11.9437
▁пистолет	-11.9437
▁предсказан	-11.9437
▁reducing	-11.9437
▁Girl	-11.9437
▁зелёно	-11.9437
▁автономн	-11.9442
▁жителям	-11.945
▁предотвращени	-11.9465
▁Philip	-11.9543
▁накаплива	-11.9543
▁посвящен	-11.9543
▁Democrat	-11.9543
▁MRI	-11.9543
▁Obviously	-11.9543
▁capabilities	-11.9543
▁drift	-11.9543
▁facility	-11.9543
▁frequency	-11.9543
▁helicopter	-11.9543
▁immigrant	-11.9543
▁improving	-11.9543
▁transaction	-11.9543
▁woke	-11.9543
▁игнориру	-11.9543
▁ингредиент	-11.9543
▁маленького	-11.9543
▁наркотиков	-11.9543
▁неравенства	-11.9543
▁пальцев	-11.9543
▁присутствует	-11.9543
▁психическо	-11.9543
▁фармацевт	-11.9543
▁корабля	-11.9543
▁очереди	-11.9543
▁ожидаю	-11.9544
▁воплощен	-11.9545
placing	-11.9545
▁классическ	-11.9578
двигается	-11.9628
▁automobile	-11.9651
▁genocide	-11.9651
▁sandwich	-11.9651
▁вознагражд	-11.9651
▁невозможны	-11.9651
▁indigenous	-11.9651
▁mobility	-11.9651
▁prosperity	-11.9651
▁reinvent	-11.9651
▁деревню	-11.9651
▁испытать	-11.9651
▁кажутся	-11.9651
▁немедленно	-11.9651
▁побережья	-11.9651
▁пожертвован	-11.9651
▁религиозно	-11.9651
▁становимся	-11.9651
▁борьбу	-11.9651
▁социальную	-11.9651
▁эпохи	-11.9651
▁translation	-11.9651
▁деталей	-11.9651
▁удивительным	-11.9651
▁кухне	-11.9651
▁лагеря	-11.9651
▁достойны	-11.9651
control	-11.9701
влекать	-11.9731
озвращаясь	-11.9738
▁поворачива	-11.976
▁Oxford	-11.976
▁Should	-11.976
▁abilities	-11.976
▁anticipate	-11.976
▁astonishing	-11.976
▁discrimination	-11.976
▁qualities	-11.976
▁register	-11.976
▁symmetry	-11.976
▁взволнован	-11.976
▁воплотить	-11.976
▁землёй	-11.976
▁коммуникации	-11.976
▁лагерь	-11.976
▁млекопитающих	-11.976
▁настоящей	-11.976
▁политическим	-11.976
▁сообщить	-11.976
▁сотрудничать	-11.976
▁сработает	-11.976
▁тенденция	-11.976
▁функция	-11.976
▁разработчик	-11.976
▁социальная	-11.976
▁соглаша	-11.976
▁фунтов	-11.976
▁этническ	-11.976
▁ускоря	-11.976
▁романтическ	-11.9762
▁рассматривал	-11.9769
▁заболев	-11.9769
вшееся	-11.9869
▁collaborative	-11.9869
▁Разумеется	-11.9869
▁девушки	-11.9869
▁попробуем	-11.9869
▁попытке	-11.9869
▁предположение	-11.9869
▁продолжаем	-11.9869
▁тюрем	-11.9869
крепить	-11.987
▁crush	-11.987
▁контролирует	-11.987
▁регистр	-11.987
▁удвои	-11.987
▁полагать	-11.987
▁внедрен	-11.9871
▁смешива	-11.9883
▁генерал	-11.9895
Okay	-11.9922
масштаб	-11.9922
изводительность	-11.9957
▁Spanish	-11.9981
▁astronaut	-11.9981
▁bizarre	-11.9981
▁drought	-11.9981
▁fault	-11.9981
▁receptor	-11.9981
▁unbelievable	-11.9981
▁vacuum	-11.9981
▁Компьютер	-11.9981
▁Неужели	-11.9981
▁оплачива	-11.9981
▁поведенческ	-11.9981
▁Trump	-11.9981
▁contradict	-11.9981
▁precious	-11.9981
▁Должн	-11.9981
▁меньшинств	-11.9981
▁контракт	-11.9982
▁сказав	-11.9994
яснить	-12.0071
▁ассоцииру	-12.0093
▁aspiration	-12.0093
▁Antarctica	-12.0093
▁SETI	-12.0093
▁Square	-12.0093
▁currency	-12.0093
▁dilemma	-12.0093
▁expansion	-12.0093
▁exposure	-12.0093
▁glacier	-12.0093
▁magnitude	-12.0093
▁mushroom	-12.0093
▁transmission	-12.0093
▁vulnerability	-12.0093
▁архитектуры	-12.0093
▁кишечник	-12.0093
▁международной	-12.0093
▁окончания	-12.0093
▁передвижения	-12.0093
▁удивительных	-12.0093
▁инвестиру	-12.0093
▁temple	-12.0093
▁содержащ	-12.0093
▁визуальны	-12.0093
▁целостн	-12.0093
▁Bangladesh	-12.0207
▁category	-12.0207
▁facilities	-12.0207
▁nutrients	-12.0207
▁simulate	-12.0207
=	-12.1292
_	-12.1292
í	-12.155
#	-12.2655
‐	-12.4233
Щ	-12.7428
ã	-12.8679
ç	-12.895
Ц	-12.9169
—	-12.9748
^	-12.9807
‒	-12.9807
è	-13.1079
ë	-13.1079
ö	-13.1423
ý	-13.2151
Ы	-13.4718
ü	-13.63
à	-13.818
‘	-13.818
­	-13.8894
Ю	-14.0438
ā	-14.1406
ù	-14.2406
ê	-14.3517
*	-14.3517
Ь	-14.3517
ä	-14.4767
Ё	-14.4767
ō	-14.6195
⁄	-14.6195
ò	-14.7862
ø	-14.7862
×	-14.7862
ì	-14.9862
ô	-14.9862
♪	-15.2303
â	-15.2362
ό	-15.2362
І	-15.2362
•	-15.2362
Á	-15.2362
ī	-15.2362
♫	-15.5637
ú	-15.5695
′	-15.5695
æ	-15.5695
–	-16.0637
̀	-16.0695
म	-16.0695
े	-16.0695
ẹ	-16.0695
ọ	-16.0695
ð	-16.0695
~	-16.0695
È	-16.0695
ć	-16.0695
̊	-16.0695
प	-16.0695
र	-16.0695
्	-16.0695
你	-16.0695
葱	-16.0695
送	-16.0695
É	-17.0676
Ç	-17.0677
¡	-17.0678
ʾ	-17.0679
Ö	-17.068
®	-17.0681
£	-17.0682
©	-17.0683
ï	-17.0684
ñ	-17.0685
@	-17.0686
―	-17.0687
°	-17.0688
$	-17.0689
”	-17.069
/	-17.0691
’	-17.0692
[	-17.0693
(	-17.0694
Č	-17.0695
Ō	-17.0695
	-17.0695
	-17.0695
	-17.0695
¢	-17.0695
¥	-17.0695
Å	-17.0695
Ă	-17.0695
ı	-17.0695
š	-17.0695
Ť	-17.0695
̢	-17.0695
Ӣ	-17.0695
՛	-17.0695
ْ	-17.0695
»	-17.0695
û	-17.0695
ě	-17.0695
ū	-17.0695
