<s>	0
<pad>	0
</s>	0
<unk>	0
,	-2.93269
.	-3.1742
s	-3.70438
▁the	-4.12528
▁in	-4.4851
▁to	-4.57077
'	-4.61486
▁of	-4.65705
▁a	-4.6604
▁die	-4.70679
en	-4.73281
▁and	-4.75159
▁und	-4.8367
e	-4.88125
t	-4.91782
▁that	-4.92745
▁I	-4.94462
n	-5.0641
▁der	-5.15867
▁is	-5.25982
▁ist	-5.27856
▁you	-5.30467
▁it	-5.32111
▁zu	-5.33899
▁we	-5.36132
▁das	-5.36509
▁ich	-5.51094
▁wir	-5.51225
▁was	-5.57702
-	-5.58569
▁	-5.60599
er	-5.61024
▁es	-5.61995
▁And	-5.67392
▁"	-5.69782
▁ein	-5.70163
▁this	-5.71231
▁Sie	-5.73107
?	-5.74447
▁an	-5.76013
▁sie	-5.77887
:	-5.82673
d	-5.82681
▁nicht	-5.82729
m	-5.83909
▁—	-5.84826
▁von	-5.86536
▁eine	-5.8909
▁so	-5.90206
▁dass	-5.91221
▁be	-5.92442
ing	-5.92799
re	-5.9398
r	-5.97425
▁den	-5.99206
▁for	-5.99847
▁mit	-6.04599
▁auf	-6.05368
▁Und	-6.08308
ed	-6.08659
▁are	-6.08853
▁have	-6.11362
▁on	-6.16089
▁they	-6.16703
▁So	-6.17441
▁with	-6.21272
▁Ich	-6.22851
▁wie	-6.25015
▁sich	-6.25556
▁can	-6.26641
▁sind	-6.30383
▁für	-6.34669
▁what	-6.3544
▁all	-6.35688
▁about	-6.36805
▁haben	-6.38284
▁war	-6.38835
▁man	-6.40145
▁um	-6.47912
▁not	-6.4866
y	-6.48799
▁do	-6.50668
▁at	-6.51159
▁als	-6.52141
)	-6.55617
▁Das	-6.56395
▁as	-6.58936
▁(	-6.5928
▁im	-6.59796
▁my	-6.59893
es	-6.61862
▁Es	-6.62246
▁er	-6.62621
▁people	-6.63158
▁diese	-6.63408
▁aus	-6.63782
▁like	-6.63938
▁there	-6.64134
▁one	-6.64589
▁dem	-6.65341
▁Wir	-6.6572
▁from	-6.6889
▁It	-6.70635
▁uns	-6.7225
ly	-6.74883
▁über	-6.75159
▁me	-6.75954
▁but	-6.76132
▁our	-6.76263
▁wenn	-6.7641
▁also	-6.77562
▁We	-6.78262
▁or	-6.78556
▁just	-6.82765
▁einen	-6.82876
ve	-6.83782
al	-6.8432
▁können	-6.85461
▁oder	-6.85562
▁out	-6.86701
▁werden	-6.86819
▁But	-6.87619
▁if	-6.90616
▁The	-6.90684
l	-6.90912
▁these	-6.90956
st	-6.91151
▁hat	-6.91656
▁des	-6.92376
▁know	-6.92573
▁up	-6.93007
▁he	-6.9352
in	-6.94942
te	-6.95274
▁very	-6.95449
▁by	-6.96423
▁aber	-6.96464
▁auch	-6.98118
▁when	-6.99284
▁Die	-6.99802
▁them	-7.00273
▁going	-7.01208
."	-7.01262
▁kann	-7.01592
▁einer	-7.01646
▁had	-7.01694
▁more	-7.02829
▁Aber	-7.03017
g	-7.03158
▁because	-7.03175
▁In	-7.03581
f	-7.04436
c	-7.04558
▁einem	-7.04675
▁see	-7.04818
▁nur	-7.05228
▁who	-7.06711
▁think	-7.07312
k	-7.07935
▁Menschen	-7.08161
b	-7.08669
"	-7.09655
▁their	-7.10304
ll	-7.10841
▁wird	-7.11267
▁were	-7.11425
▁mich	-7.12
▁sehr	-7.12033
▁your	-7.12378
▁will	-7.12796
▁would	-7.14729
▁which	-7.1485
▁us	-7.1504
▁how	-7.15094
ä	-7.15227
▁really	-7.1606
▁hier	-7.16333
▁get	-7.16455
▁sein	-7.19948
▁vor	-7.20326
▁gibt	-7.20505
▁time	-7.20988
▁ver	-7.21178
▁nach	-7.23373
▁has	-7.24939
▁dann	-7.25935
▁world	-7.26694
▁etwas	-7.28926
ten	-7.29621
▁–	-7.29801
▁here	-7.30077
p	-7.30435
▁noch	-7.31238
▁This	-7.322
o	-7.32462
▁ge	-7.33376
▁mir	-7.33388
an	-7.33397
ung	-7.33724
▁into	-7.33758
▁some	-7.34072
▁way	-7.34746
▁don	-7.34812
▁Welt	-7.35411
▁Er	-7.36224
▁habe	-7.36563
▁You	-7.36686
▁sehen	-7.36943
le	-7.37178
▁bei	-7.38873
▁actually	-7.3914
▁go	-7.39148
▁want	-7.39487
▁where	-7.39671
▁dieser	-7.39693
▁mehr	-7.40169
▁years	-7.41082
▁other	-7.41216
▁A	-7.41262
▁things	-7.4277
ge	-7.43647
▁now	-7.44227
h	-7.44697
▁could	-7.44861
▁Wenn	-7.45392
▁durch	-7.45823
z	-7.46223
;	-7.46587
▁Now	-7.47075
▁make	-7.47292
▁then	-7.4736
▁alle	-7.47682
▁s	-7.47797
▁S	-7.49891
u	-7.49942
▁They	-7.50235
▁been	-7.51663
w	-7.51916
▁am	-7.52367
▁wurde	-7.54159
ü	-7.54993
▁no	-7.55223
ur	-7.57027
▁said	-7.58089
▁right	-7.58312
il	-7.5868
a	-7.59536
▁meine	-7.60304
▁something	-7.60402
ro	-7.60659
▁over	-7.61051
▁re	-7.61094
▁Ihnen	-7.61511
▁than	-7.621
▁two	-7.63118
be	-7.63421
S	-7.63483
▁immer	-7.63732
▁Zeit	-7.63895
it	-7.64187
▁machen	-7.64794
▁zum	-7.65085
▁those	-7.65157
▁first	-7.65193
▁wirklich	-7.653
▁wo	-7.65408
de	-7.65441
▁unsere	-7.66101
▁much	-7.66615
▁E	-7.66985
▁B	-7.67004
or	-7.68261
▁weil	-7.68304
▁back	-7.68758
sch	-7.68815
▁He	-7.69033
▁viel	-7.69153
▁tun	-7.69447
▁thing	-7.69623
▁da	-7.69741
ig	-7.69865
▁Be	-7.69868
▁work	-7.70783
Laughter	-7.71127
▁little	-7.71676
▁look	-7.72208
▁her	-7.72282
▁hatte	-7.72409
▁got	-7.73879
ar	-7.74052
▁she	-7.7423
ch	-7.74769
▁say	-7.74992
▁keine	-7.75383
▁ihre	-7.76129
▁life	-7.76786
i	-7.77143
▁need	-7.77441
ic	-7.77497
▁Also	-7.77673
▁even	-7.77723
th	-7.78504
ation	-7.79121
ter	-7.79221
▁his	-7.79298
▁only	-7.79823
▁That	-7.80433
▁most	-7.80611
ie	-7.81342
▁viele	-7.81386
▁Ein	-7.8187
▁zwei	-7.81884
▁Leben	-7.8195
▁Leute	-7.83016
ul	-7.83038
▁müssen	-7.83633
▁einfach	-7.84164
▁take	-7.84256
ra	-7.84794
et	-7.85203
▁bin	-7.85361
A	-7.86008
den	-7.86123
▁un	-7.86133
▁many	-7.86196
▁kind	-7.86224
ieren	-7.86588
▁lot	-7.86626
us	-7.86912
el	-7.87493
▁du	-7.87538
▁new	-7.87675
▁wissen	-7.87853
▁andere	-7.88017
▁Was	-7.88215
▁Dinge	-7.88235
li	-7.88889
▁dieses	-7.88958
ern	-7.8927
▁sagte	-7.8983
▁diesem	-7.9058
▁waren	-7.90715
▁did	-7.91576
▁sagen	-7.91682
▁ab	-7.92236
▁Jahren	-7.92324
▁good	-7.92927
ö	-7.93136
▁around	-7.93161
ver	-7.93412
▁C	-7.93909
▁What	-7.94159
▁different	-7.9456
▁Art	-7.94734
ri	-7.94881
▁diesen	-7.95513
▁ihr	-7.9629
▁There	-7.96524
▁down	-7.96916
▁würde	-7.97934
▁anderen	-7.98056
▁-	-7.98532
▁T	-8.00271
▁being	-8.00286
▁jetzt	-8.00607
▁An	-8.00631
?"	-8.00942
▁through	-8.01108
▁selbst	-8.01212
▁Jahre	-8.01336
▁every	-8.02249
ion	-8.02443
▁come	-8.02593
me	-8.0275
▁Der	-8.03135
▁use	-8.03295
▁same	-8.03433
▁c	-8.03747
▁zur	-8.04299
▁K	-8.05308
I	-8.0549
▁de	-8.06078
▁bis	-8.0679
▁Man	-8.07685
▁damit	-8.0806
▁alles	-8.08215
▁day	-8.08654
on	-8.08661
▁ob	-8.10501
▁wieder	-8.10642
▁10	-8.10649
la	-8.10671
▁put	-8.10724
▁muss	-8.10734
▁geht	-8.1084
▁Da	-8.11085
ers	-8.11586
▁mein	-8.11593
at	-8.1186
▁Wie	-8.12429
▁gut	-8.13225
gen	-8.1379
▁doing	-8.13795
ol	-8.14093
▁three	-8.1424
der	-8.14419
▁k	-8.14697
ne	-8.14801
▁Sch	-8.14994
▁unter	-8.15656
▁20	-8.1622
ste	-8.16689
▁Ver	-8.17583
ist	-8.1763
▁eines	-8.17665
ut	-8.18053
zu	-8.18797
▁If	-8.18924
▁Well	-8.18987
▁zurück	-8.19137
▁seine	-8.19669
!	-8.19855
▁human	-8.20086
ive	-8.20283
▁Kinder	-8.20493
▁schon	-8.21178
▁called	-8.21363
▁Diese	-8.21375
▁pro	-8.21607
▁well	-8.21661
▁percent	-8.2223
▁any	-8.22249
to	-8.22649
▁find	-8.22872
ment	-8.23123
B	-8.23347
▁made	-8.2363
ma	-8.23631
ta	-8.2379
▁möchte	-8.23867
iert	-8.23985
ce	-8.24024
▁own	-8.24313
▁tell	-8.24354
sten	-8.25029
▁fact	-8.25053
▁ihnen	-8.25189
▁vielleicht	-8.25998
▁denn	-8.26468
▁P	-8.26784
as	-8.26984
is	-8.27323
ity	-8.27631
▁R	-8.28114
▁should	-8.28344
▁drei	-8.28483
im	-8.28659
▁why	-8.2895
▁change	-8.28985
▁year	-8.29014
ir	-8.29043
ant	-8.29288
▁weiter	-8.29426
um	-8.30345
▁M	-8.3035
▁idea	-8.30416
▁Vor	-8.30699
▁talk	-8.30734
em	-8.30848
able	-8.30911
▁♫	-8.31262
▁zusammen	-8.31675
▁let	-8.31749
▁didn	-8.32077
D	-8.32543
▁thought	-8.32584
▁Re	-8.32727
▁part	-8.3274
▁davon	-8.32964
▁hatten	-8.32998
▁einige	-8.33101
▁great	-8.33279
▁ganz	-8.3329
▁genau	-8.33479
▁real	-8.33689
v	-8.33833
M	-8.34169
▁heute	-8.34803
▁sch	-8.34868
▁after	-8.34877
▁Geschichte	-8.35061
▁today	-8.352
▁end	-8.35353
▁Jahr	-8.35745
▁started	-8.3582
▁start	-8.36071
mp	-8.36255
C	-8.36567
▁ihn	-8.36633
T	-8.36995
▁Ge	-8.37149
▁meiner	-8.37724
lich	-8.38005
▁last	-8.38267
Lachen	-8.38405
▁st	-8.38416
▁könnte	-8.38576
▁Problem	-8.38694
▁Hier	-8.38873
,"	-8.39674
▁give	-8.39973
▁still	-8.4004
P	-8.40122
▁St	-8.40426
▁never	-8.40459
▁might	-8.4053
▁before	-8.40565
▁gab	-8.40678
Gelächter	-8.40981
▁problem	-8.41017
ck	-8.4132
chen	-8.41434
▁wollen	-8.41936
▁went	-8.41997
▁dort	-8.42058
▁better	-8.42246
▁Ihre	-8.42277
▁sondern	-8.42434
▁weiß	-8.42453
he	-8.42543
▁big	-8.43081
▁Arbeit	-8.43509
▁important	-8.43594
▁able	-8.43613
▁Nun	-8.4375
▁Als	-8.43946
▁bit	-8.44269
ru	-8.44291
▁wurden	-8.44495
▁Aus	-8.44523
▁darüber	-8.44817
▁off	-8.44918
▁system	-8.44956
▁paar	-8.46134
▁course	-8.46199
▁unserer	-8.46238
▁gehen	-8.46283
▁place	-8.46448
tion	-8.46743
est	-8.46878
ungen	-8.46916
▁another	-8.46962
▁F	-8.4697
tra	-8.47043
▁nun	-8.47248
▁t	-8.4726
K	-8.47516
▁werde	-8.47564
▁brain	-8.47568
▁few	-8.47834
▁together	-8.48218
▁long	-8.48287
age	-8.4888
ach	-8.4888
▁show	-8.48936
▁came	-8.49018
und	-8.49168
▁Teil	-8.4935
▁L	-8.49398
▁neue	-8.49644
igen	-8.49878
▁story	-8.50241
▁wäre	-8.5026
▁Beispiel	-8.50314
ein	-8.50773
▁water	-8.50819
▁tatsächlich	-8.51031
▁him	-8.51255
▁19	-8.51283
▁hin	-8.51613
2	-8.51624
▁ago	-8.51653
▁Le	-8.51657
x	-8.52173
▁call	-8.52271
id	-8.52281
▁New	-8.52492
▁found	-8.52503
▁next	-8.52511
▁love	-8.52557
▁When	-8.5286
▁'	-8.52868
ate	-8.52912
▁each	-8.54119
mo	-8.54992
▁Mal	-8.55151
▁Wasser	-8.55471
ische	-8.55504
ze	-8.55707
▁sogar	-8.55744
▁kein	-8.5588
▁vom	-8.5589
▁does	-8.55892
▁feel	-8.55947
▁live	-8.56078
lt	-8.56099
▁point	-8.56331
▁U	-8.56371
▁Ab	-8.56393
▁Tag	-8.5651
▁mean	-8.56572
▁help	-8.56635
ab	-8.56687
am	-8.57013
▁again	-8.57058
▁denken	-8.57229
▁dazu	-8.57237
ad	-8.57255
ber	-8.57362
▁question	-8.57739
▁too	-8.57899
▁finden	-8.57938
▁kommen	-8.58035
▁Frauen	-8.5821
na	-8.58214
hr	-8.58265
▁leben	-8.59247
▁used	-8.59454
▁D	-8.59543
ine	-8.59588
ia	-8.59641
▁Land	-8.59906
her	-8.60032
▁between	-8.60254
▁denke	-8.60344
di	-8.60651
▁women	-8.61137
▁nie	-8.61222
▁Frage	-8.61325
▁macht	-8.61384
▁ohne	-8.61603
ner	-8.61621
▁Dies	-8.62103
▁zwischen	-8.62104
▁30	-8.623
ster	-8.6241
▁design	-8.62535
▁example	-8.62552
▁gerade	-8.62582
▁Auf	-8.62586
R	-8.6259
dem	-8.62681
▁einmal	-8.62907
▁Ha	-8.62956
▁technology	-8.63006
▁heraus	-8.63081
▁unser	-8.63506
▁Mo	-8.63707
ry	-8.6381
▁home	-8.63829
ien	-8.63977
▁mal	-8.64111
▁ent	-8.64144
▁erste	-8.64153
▁konnte	-8.64277
E	-8.64779
▁understand	-8.64951
▁For	-8.65135
▁50	-8.65433
ischen	-8.65563
▁geben	-8.65635
▁con	-8.65733
▁ja	-8.65899
ub	-8.66044
▁Gehirn	-8.66074
▁data	-8.661
▁p	-8.6618
ft	-8.66286
mi	-8.66542
▁looking	-8.66918
▁gemacht	-8.67093
▁Internet	-8.67259
ling	-8.67368
▁e	-8.67629
▁Sp	-8.67696
▁jeder	-8.67811
▁G	-8.67982
▁würden	-8.6834
mal	-8.68549
▁co	-8.6855
▁kommt	-8.68716
▁d	-8.68794
▁glaube	-8.68813
ag	-8.68819
men	-8.68822
kt	-8.68907
▁ihren	-8.69
▁wanted	-8.69031
▁W	-8.69289
▁zeigen	-8.69547
▁doesn	-8.69638
▁100	-8.6971
▁car	-8.69818
▁besser	-8.69932
▁dafür	-8.70014
▁light	-8.70059
▁person	-8.70064
▁Daten	-8.70141
▁believe	-8.70274
▁Eine	-8.70287
▁ersten	-8.70327
▁daran	-8.70499
▁create	-8.70581
ren	-8.70774
G	-8.70779
▁Grund	-8.70881
▁passiert	-8.71132
▁verstehen	-8.71248
▁school	-8.71341
▁denen	-8.71476
▁done	-8.71576
▁sort	-8.71643
▁space	-8.71754
▁meisten	-8.71772
ke	-8.71776
▁My	-8.71928
▁Because	-8.72121
ben	-8.72357
heit	-8.72944
▁may	-8.73035
▁always	-8.73099
▁Im	-8.73138
pf	-8.73237
isch	-8.73242
▁etwa	-8.73274
▁million	-8.73449
▁sieht	-8.7347
ness	-8.7362
▁während	-8.73624
▁children	-8.73688
▁ever	-8.7372
▁whole	-8.73786
iv	-8.73812
▁fast	-8.74276
▁working	-8.74578
ik	-8.74916
är	-8.75006
▁Geld	-8.75055
▁ganze	-8.75154
un	-8.75518
up	-8.75647
bi	-8.75653
▁Ma	-8.75674
▁trying	-8.75682
▁away	-8.76029
▁wichtig	-8.76074
▁Bild	-8.76197
▁sollte	-8.76264
▁Millionen	-8.76446
O	-8.7647
▁moment	-8.76481
▁Weg	-8.76512
L	-8.76623
▁four	-8.76753
ert	-8.76965
ho	-8.77262
▁country	-8.7727
lo	-8.77388
▁große	-8.77396
F	-8.77445
▁meinem	-8.77489
▁sollten	-8.7751
▁All	-8.77539
▁high	-8.77913
▁warum	-8.77973
bar	-8.78103
▁wollte	-8.78498
fe	-8.7879
▁natürlich	-8.78844
▁Prozent	-8.78971
▁Idee	-8.79072
va	-8.79151
▁Z	-8.79215
ies	-8.79288
▁best	-8.7934
▁How	-8.79461
▁try	-8.79793
ha	-8.79818
▁lassen	-8.79874
uch	-8.79958
os	-8.80336
▁Thank	-8.8055
▁power	-8.80585
▁meinen	-8.80625
▁welche	-8.80626
▁könnten	-8.80751
ige	-8.81328
ger	-8.81415
▁per	-8.81471
go	-8.81639
▁15	-8.81655
▁TED	-8.8167
0	-8.81746
▁form	-8.81798
zeit	-8.81911
Applause	-8.82294
▁letzten	-8.82323
▁old	-8.82496
▁ging	-8.8253
op	-8.82633
ci	-8.82854
▁g	-8.82855
▁Raum	-8.82892
1	-8.83059
zen	-8.83069
▁ihrer	-8.83288
N	-8.83345
▁O	-8.83347
au	-8.83609
per	-8.83819
ni	-8.83868
▁De	-8.84198
▁maybe	-8.84206
we	-8.84207
▁Un	-8.84571
▁Pro	-8.84595
▁As	-8.84599
▁using	-8.84711
▁kids	-8.84796
sh	-8.84871
▁3	-8.84873
▁small	-8.84902
▁information	-8.85032
▁Al	-8.85082
▁kam	-8.85166
▁Ja	-8.85218
▁Ka	-8.85416
▁five	-8.85554
▁La	-8.85567
man	-8.85576
3	-8.85632
▁sprechen	-8.85633
▁thinking	-8.85772
▁sense	-8.85802
▁dabei	-8.85883
ph	-8.85914
▁arbeiten	-8.86061
▁vier	-8.86065
▁took	-8.86082
▁money	-8.86101
▁Lebens	-8.8614
▁b	-8.86173
▁hard	-8.86276
land	-8.86337
▁means	-8.8635
▁Ende	-8.86525
▁everything	-8.86636
▁hand	-8.86641
▁become	-8.86842
▁number	-8.86961
▁second	-8.87112
▁One	-8.87132
5	-8.87175
▁bedeutet	-8.87189
ton	-8.87258
▁Co	-8.87352
▁such	-8.87362
8	-8.87402
ance	-8.87715
ken	-8.87778
wa	-8.87808
▁ziemlich	-8.88084
▁experience	-8.88095
▁future	-8.88266
▁bring	-8.8863
▁social	-8.88634
▁Körper	-8.88693
end	-8.8889
▁sagt	-8.88926
▁She	-8.88986
▁left	-8.89013
co	-8.89026
ng	-8.89089
▁No	-8.89413
▁To	-8.89887
▁half	-8.90147
7	-8.90325
▁sicher	-8.90888
▁weniger	-8.90931
▁bekommen	-8.9106
▁darauf	-8.91109
bo	-8.91115
▁play	-8.91165
Applaus	-8.91176
ot	-8.91216
▁China	-8.91236
stand	-8.91282
ian	-8.9141
▁enough	-8.91484
tor	-8.91487
ler	-8.91743
vi	-8.91962
▁Mit	-8.9201
▁Computer	-8.92062
▁unseren	-8.92135
▁Do	-8.92178
sp	-8.92331
▁getting	-8.9239
]	-8.92431
ty	-8.92611
the	-8.92628
▁ask	-8.92722
ga	-8.92726
ring	-8.92764
form	-8.92857
pe	-8.92977
▁Dann	-8.93013
▁These	-8.93171
▁[	-8.93324
▁dachte	-8.93356
▁food	-8.93405
liche	-8.93748
▁open	-8.93797
▁Ta	-8.93847
▁head	-8.94292
ff	-8.94301
ier	-8.94332
nd	-8.9442
▁Pa	-8.94431
▁care	-8.94442
▁N	-8.94484
4	-8.94622
▁eigentlich	-8.94678
▁less	-8.95096
▁answer	-8.95138
▁doch	-8.95374
▁Zu	-8.95378
▁ex	-8.95427
▁dis	-8.9553
▁Mann	-8.95633
ard	-8.9601
▁Du	-8.96316
▁Se	-8.96328
▁Um	-8.96349
ating	-8.96487
ka	-8.96623
▁quite	-8.9685
▁brauchen	-8.97118
▁nehmen	-8.97167
▁probably	-8.97242
▁Fall	-8.97406
▁kleine	-8.97548
%	-8.97776
▁interesting	-8.97797
cht	-8.97831
ko	-8.97831
▁global	-8.98116
▁energy	-8.98246
▁planet	-8.98264
ous	-8.98343
▁Denn	-8.98402
▁body	-8.98726
▁simple	-8.98785
▁happened	-8.98793
▁kleinen	-8.99126
▁talking	-8.99445
Ich	-8.99555
▁Technologie	-8.99668
no	-8.99791
▁room	-8.99861
▁Energie	-8.99978
▁making	-9.00087
▁without	-9.00164
▁told	-9.00261
▁z	-9.00263
▁lives	-9.00309
▁wenig	-9.00343
▁Ihr	-9.00345
▁po	-9.0038
▁Dollar	-9.00523
▁move	-9.00851
▁Let	-9.00949
ting	-9.01022
▁Person	-9.01141
▁side	-9.01171
nen	-9.01311
W	-9.0133
H	-9.01365
▁comes	-9.01414
▁process	-9.01725
▁Wo	-9.01833
▁face	-9.01868
▁jeden	-9.01922
▁gegen	-9.02067
▁Sache	-9.0209
▁m	-9.02157
▁jemand	-9.02304
less	-9.02417
▁York	-9.02455
lei	-9.02706
▁richtig	-9.0282
▁Am	-9.02841
pi	-9.02854
ell	-9.02891
▁men	-9.02925
▁stuff	-9.02933
tic	-9.02962
tri	-9.02972
▁Moment	-9.03041
zi	-9.03116
6	-9.03127
▁ihm	-9.03141
▁matter	-9.03142
▁build	-9.03158
▁young	-9.03185
▁building	-9.03225
▁bringen	-9.03456
▁gute	-9.03485
▁schnell	-9.03525
ör	-9.03634
▁Zukunft	-9.0378
▁sp	-9.03792
▁hätte	-9.03852
▁reason	-9.03975
▁pretty	-9.03992
▁Stadt	-9.03997
▁anything	-9.04349
▁Kind	-9.04386
▁across	-9.04635
▁Ro	-9.04822
pro	-9.04958
fi	-9.05022
pp	-9.05225
▁Sa	-9.05231
▁bad	-9.05341
▁gesehen	-9.05473
▁funktioniert	-9.05499
▁Ko	-9.0551
hi	-9.05566
▁H	-9.05581
▁möglich	-9.05632
▁Über	-9.05712
▁Frau	-9.05717
ure	-9.05906
ial	-9.06046
▁40	-9.06131
.000	-9.06133
che	-9.06209
▁großen	-9.06342
▁family	-9.06371
▁Bo	-9.06377
bel	-9.06392
▁coming	-9.06519
▁keep	-9.06749
▁happen	-9.06797
▁science	-9.0681
▁Menge	-9.06897
tz	-9.07
▁2	-9.07128
▁health	-9.0747
▁far	-9.07546
▁Weise	-9.07709
▁18	-9.08082
▁asked	-9.08111
▁Auto	-9.08194
▁Natur	-9.08219
▁Ort	-9.08406
▁times	-9.08463
▁mind	-9.08473
ug	-9.08565
▁pre	-9.08585
▁Here	-9.0863
▁später	-9.08811
▁its	-9.08825
▁set	-9.09054
sche	-9.09207
ca	-9.09317
▁je	-9.09363
▁countries	-9.0941
▁learn	-9.09442
ator	-9.09535
▁billion	-9.09573
▁Licht	-9.09591
▁ca	-9.09905
da	-9.09938
▁System	-9.0997
▁else	-9.10096
aus	-9.10152
▁Seite	-9.10383
▁saw	-9.10412
▁4	-9.10444
▁dollars	-9.10454
▁living	-9.10543
▁OK	-9.10722
▁land	-9.10914
▁later	-9.10921
pa	-9.10981
▁having	-9.11077
▁Hand	-9.11089
00	-9.11175
old	-9.11382
▁hope	-9.11512
▁seit	-9.11679
▁project	-9.11716
ary	-9.12046
▁ganzen	-9.12216
kommen	-9.1223
ex	-9.12383
▁remember	-9.12385
▁beim	-9.12475
ally	-9.12535
▁gesagt	-9.1254
9	-9.1261
▁Erde	-9.12611
▁J	-9.12622
all	-9.12657
▁ko	-9.12795
▁Ho	-9.128
▁Dr	-9.12999
▁glauben	-9.13063
▁keinen	-9.13097
▁stand	-9.13106
▁erst	-9.13198
▁Nach	-9.13256
los	-9.13569
äh	-9.13737
▁fünf	-9.13869
▁test	-9.13895
▁hoch	-9.13949
▁Me	-9.13966
que	-9.14077
▁eigenen	-9.14088
▁single	-9.1421
▁Africa	-9.14256
▁Or	-9.14304
▁sei	-9.14307
▁picture	-9.14353
▁konnten	-9.14366
▁Ra	-9.14426
son	-9.14518
lä	-9.14782
▁Okay	-9.14795
▁Warum	-9.14834
▁Li	-9.15093
The	-9.15116
▁Mutter	-9.15228
▁while	-9.15306
▁lang	-9.1548
io	-9.15502
▁lernen	-9.15695
nde	-9.15918
▁Probleme	-9.1595
ted	-9.1609
▁art	-9.16101
▁inside	-9.16107
".	-9.16286
ated	-9.16417
▁case	-9.16443
▁le	-9.16544
▁fest	-9.16554
▁Earth	-9.16579
▁goes	-9.16583
▁nutzen	-9.16822
ick	-9.1689
▁schwer	-9.16911
ite	-9.1698
▁read	-9.16986
▁versuchen	-9.16997
▁both	-9.17147
cken	-9.17166
ium	-9.17463
▁helfen	-9.17473
▁V	-9.17478
▁stellen	-9.17537
ative	-9.17645
dy	-9.17662
ism	-9.17664
▁computer	-9.1776
▁almost	-9.1788
▁public	-9.1788
▁lange	-9.18019
▁5	-9.18049
▁seen	-9.18145
▁nichts	-9.1823
▁happens	-9.18245
▁weit	-9.18359
nehmen	-9.1845
▁zeigt	-9.18472
▁„	-9.18493
▁la	-9.18727
lichen	-9.18784
eln	-9.1905
sa	-9.19221
▁name	-9.19228
▁sure	-9.1928
,000	-9.1949
▁imagine	-9.19531
▁under	-9.19694
▁schaffen	-9.19926
art	-9.20052
▁sah	-9.20059
▁Ba	-9.20066
▁six	-9.20215
▁days	-9.20287
▁USA	-9.20389
▁arm	-9.20565
▁run	-9.20581
cy	-9.20602
▁cancer	-9.20712
▁Dank	-9.21149
▁book	-9.21187
▁city	-9.21378
▁control	-9.21398
▁yet	-9.21481
teil	-9.21548
▁myself	-9.21549
ib	-9.21813
▁saying	-9.21928
▁someone	-9.22114
ah	-9.22206
▁12	-9.22393
hen	-9.22406
▁jedes	-9.22432
▁makes	-9.22542
▁once	-9.22633
▁community	-9.22661
so	-9.22701
▁vielen	-9.22703
▁heißt	-9.22749
▁wrong	-9.22831
▁wahrscheinlich	-9.22847
▁says	-9.2326
ba	-9.23283
ende	-9.23284
▁business	-9.2337
gt	-9.23417
▁1	-9.236
▁market	-9.23627
▁already	-9.23695
▁ange	-9.23868
▁language	-9.23869
gehen	-9.23882
▁f	-9.23927
ized	-9.23951
▁problems	-9.23975
▁se	-9.24026
mon	-9.24044
▁Why	-9.24049
▁possible	-9.2413
▁whether	-9.24392
▁klar	-9.24481
▁nothing	-9.2457
▁Y	-9.24586
▁ways	-9.24718
auf	-9.24745
▁cells	-9.24771
▁CA	-9.24843
ap	-9.24894
▁unserem	-9.24895
▁begann	-9.24922
▁Buch	-9.24973
▁looked	-9.25266
ür	-9.25361
▁ma	-9.2538
do	-9.25417
▁Jetzt	-9.25449
▁self	-9.25455
▁often	-9.25478
▁amazing	-9.25534
▁guy	-9.2554
ang	-9.25663
tu	-9.25669
▁genug	-9.25715
▁Spiel	-9.25727
ful	-9.2578
▁Wissen	-9.25874
▁Entwicklung	-9.26212
▁stop	-9.26227
▁Not	-9.26313
▁ra	-9.2632
du	-9.26379
▁Na	-9.26541
▁anders	-9.26671
▁Form	-9.26748
▁kennen	-9.26752
▁nächsten	-9.26832
ak	-9.26839
▁seiner	-9.27017
▁jede	-9.27076
▁di	-9.2708
▁DNA	-9.27227
▁age	-9.27313
ize	-9.27543
▁research	-9.27638
▁neuen	-9.27639
▁beautiful	-9.27678
▁order	-9.27775
▁Bei	-9.27991
▁erzählen	-9.27993
wand	-9.28066
ord	-9.28098
▁history	-9.2813
▁job	-9.28328
▁Projekt	-9.28412
▁Di	-9.28498
▁experiment	-9.28508
ud	-9.28551
▁tra	-9.28633
nder	-9.28659
▁heart	-9.28856
▁video	-9.2895
pt	-9.29236
▁couple	-9.29592
▁recht	-9.2969
▁true	-9.29777
ble	-9.29811
and	-9.29848
▁words	-9.3008
▁dich	-9.30139
▁bevor	-9.30194
▁night	-9.3024
▁entwickelt	-9.30299
▁gleich	-9.30394
▁basically	-9.30615
red	-9.30656
▁r	-9.30746
▁Mädchen	-9.30982
ide	-9.31144
▁child	-9.31241
log	-9.31456
▁music	-9.31635
▁within	-9.31703
▁gar	-9.31829
▁mother	-9.31833
▁Nicht	-9.31863
mit	-9.3191
▁herum	-9.31918
▁heard	-9.31947
▁top	-9.32079
▁air	-9.32096
▁group	-9.32122
▁months	-9.32125
▁Für	-9.32131
ence	-9.32249
▁Kon	-9.32419
iz	-9.32512
▁liegt	-9.32681
▁Meine	-9.32715
▁Musik	-9.32852
▁large	-9.32974
iger	-9.33231
▁weg	-9.33265
isten	-9.33291
▁bo	-9.33612
▁verändern	-9.33727
▁stories	-9.33822
▁bauen	-9.33823
chte	-9.33951
▁species	-9.3421
▁Design	-9.34254
▁Planeten	-9.34254
▁Ne	-9.34362
▁government	-9.34382
▁ideas	-9.34632
igkeit	-9.34748
▁line	-9.34927
▁Augen	-9.3499
▁gehört	-9.3502
▁learned	-9.35082
▁musste	-9.35179
▁turn	-9.35233
ain	-9.35266
▁until	-9.35275
▁Kunst	-9.35374
▁Video	-9.35385
ität	-9.35407
▁United	-9.35472
bu	-9.35585
ac	-9.35601
▁Punkt	-9.3561
▁Schule	-9.35619
legen	-9.35657
schaft	-9.35781
▁Geschichten	-9.35832
▁Familie	-9.35845
▁close	-9.35918
▁universe	-9.35957
▁Informationen	-9.36121
▁At	-9.36439
▁Angst	-9.3655
▁built	-9.36646
▁education	-9.36745
schen	-9.36785
▁Männer	-9.37098
▁letzte	-9.37305
▁knew	-9.3734
▁alt	-9.37427
recht	-9.37457
▁Afrika	-9.3753
▁ungefähr	-9.37544
▁braucht	-9.3757
▁environment	-9.37615
▁past	-9.37762
▁Ideen	-9.37824
▁front	-9.37908
▁Po	-9.3797
ale	-9.37994
lf	-9.38075
▁falsch	-9.3814
ging	-9.3815
▁America	-9.38168
▁piece	-9.38207
▁Fragen	-9.3824
▁must	-9.38263
▁Unternehmen	-9.38348
▁Kopf	-9.38362
sehen	-9.38367
▁word	-9.38453
▁fish	-9.38474
▁decided	-9.3854
▁free	-9.38563
▁Haus	-9.38573
▁woman	-9.38624
lin	-9.38627
▁stehen	-9.38692
▁mo	-9.38745
halten	-9.38815
schau	-9.38862
▁Ga	-9.39029
▁verändert	-9.39046
port	-9.39099
▁study	-9.39185
▁60	-9.39205
▁Antwort	-9.39248
▁model	-9.39269
tern	-9.39413
▁though	-9.39537
▁menschliche	-9.3974
▁sub	-9.39825
▁Selbst	-9.39858
▁normal	-9.3987
▁personal	-9.39882
one	-9.40006
▁Leuten	-9.40168
rate	-9.40254
▁25	-9.40288
way	-9.40304
▁verschiedene	-9.40345
▁schwierig	-9.40369
▁house	-9.40644
▁share	-9.40697
▁überall	-9.40724
▁ourselves	-9.4078
▁Krieg	-9.40883
▁Fa	-9.40958
▁wahr	-9.40999
ß	-9.40999
▁view	-9.41053
▁v	-9.41238
gang	-9.41419
▁nature	-9.41503
▁fragen	-9.41525
▁cr	-9.41686
▁friends	-9.41711
▁comp	-9.41765
uck	-9.41811
▁vi	-9.41897
geben	-9.42025
▁Bi	-9.42044
▁qu	-9.42115
vo	-9.42149
▁nennen	-9.42157
ismus	-9.42178
▁darum	-9.42273
▁ihrem	-9.42308
▁11	-9.42354
▁erkennen	-9.4244
▁exactly	-9.42462
▁became	-9.42545
▁Eltern	-9.42551
▁Mein	-9.42613
▁Gesellschaft	-9.42613
les	-9.42675
▁hear	-9.4297
▁looks	-9.42993
lang	-9.42993
▁Ent	-9.43138
▁cool	-9.43342
ile	-9.43369
▁completely	-9.43432
des	-9.43436
▁ti	-9.4356
wer	-9.43676
▁since	-9.43704
igung	-9.43727
▁sagten	-9.43835
▁figure	-9.43835
spiel	-9.43869
▁Wissenschaft	-9.43892
line	-9.43937
▁Milliarden	-9.43954
con	-9.43963
if	-9.44038
▁einzige	-9.4414
▁places	-9.44223
▁culture	-9.44366
hin	-9.4437
▁sound	-9.4438
▁everybody	-9.44449
▁bisschen	-9.44593
ue	-9.44651
▁leave	-9.44666
tung	-9.44814
▁company	-9.44984
▁huge	-9.4501
▁step	-9.45037
▁besonders	-9.45092
▁taking	-9.45104
▁neu	-9.45104
▁animals	-9.4517
▁80	-9.45179
▁Weil	-9.45311
▁Gefühl	-9.45336
kl	-9.45361
▁gr	-9.45364
▁bereits	-9.45374
▁against	-9.4559
▁Doch	-9.45605
▁Vielleicht	-9.4563
▁ocean	-9.4563
▁Regierung	-9.45646
▁seinen	-9.45697
▁6	-9.45729
keit	-9.45772
com	-9.4588
▁natural	-9.46172
▁halten	-9.46498
V	-9.46532
▁hours	-9.46621
ja	-9.46686
tel	-9.4671
▁economic	-9.46717
▁themselves	-9.46717
",	-9.46723
▁risk	-9.46829
▁team	-9.46851
▁allen	-9.46924
▁cell	-9.46981
▁Arm	-9.47114
▁reden	-9.47127
▁States	-9.47261
▁society	-9.47264
ron	-9.47319
▁sometimes	-9.47485
♪	-9.47594
▁itself	-9.47705
ierte	-9.47766
▁machte	-9.47826
▁weitere	-9.47884
▁disease	-9.48145
▁Mars	-9.48167
▁behavior	-9.48258
ich	-9.483
▁erreichen	-9.48304
▁happening	-9.48325
ow	-9.4846
▁7	-9.4878
▁phone	-9.48912
▁Krebs	-9.48926
▁200	-9.48937
▁Minuten	-9.48952
▁Lo	-9.48983
▁somebody	-9.49037
fin	-9.49125
▁India	-9.49142
▁sh	-9.49209
nden	-9.49215
elle	-9.49238
▁digital	-9.49262
▁Vielen	-9.49298
▁War	-9.49413
▁inter	-9.49485
▁Gebäude	-9.49485
▁namens	-9.49619
▁soll	-9.49674
▁send	-9.49714
ise	-9.49741
▁aller	-9.49745
▁level	-9.49806
▁hätten	-9.49931
▁Gruppe	-9.49998
▁Film	-9.50045
▁Chris	-9.5005
mmer	-9.5023
fen	-9.50247
▁Arten	-9.50267
▁exist	-9.50531
▁along	-9.50538
▁dir	-9.50551
▁questions	-9.50769
▁rest	-9.50838
▁minutes	-9.50967
▁nächste	-9.51003
▁difficult	-9.5107
▁kurz	-9.51158
▁created	-9.51272
oo	-9.51282
▁steht	-9.51299
xi	-9.5134
▁hören	-9.51378
▁Google	-9.51528
▁pa	-9.51567
▁anzu	-9.51635
▁instead	-9.51643
▁works	-9.51703
▁walk	-9.51725
▁darin	-9.5176
▁’	-9.51872
fall	-9.51896
▁unglaublich	-9.51982
▁black	-9.52
▁Some	-9.52086
▁rather	-9.52119
▁Gott	-9.52229
haft	-9.52256
ase	-9.52328
▁jedem	-9.52388
▁Oder	-9.52393
▁Macht	-9.52454
▁hinter	-9.52483
▁turns	-9.52722
▁image	-9.52825
nom	-9.5283
▁everyone	-9.52833
▁learning	-9.52856
▁versch	-9.52912
▁Vater	-9.52927
oc	-9.53001
▁worked	-9.53161
▁euch	-9.53186
▁mag	-9.53214
by	-9.53312
side	-9.53329
ther	-9.53427
▁ändern	-9.53497
▁students	-9.53556
▁sechs	-9.53731
▁Patienten	-9.53732
bild	-9.53793
▁spielen	-9.53822
▁Kultur	-9.53846
▁Bilder	-9.54001
▁Ziel	-9.54028
▁Dieses	-9.54053
ran	-9.54078
▁game	-9.5414
▁Wort	-9.54179
▁outside	-9.54192
gi	-9.54254
▁Universum	-9.54317
▁least	-9.54317
“	-9.54545
▁American	-9.54599
▁population	-9.54672
▁machine	-9.5472
▁solche	-9.54751
▁gerne	-9.54762
▁Glück	-9.54908
▁Hause	-9.54915
▁fa	-9.55044
▁structure	-9.55145
▁Stunden	-9.55379
▁manchmal	-9.55383
▁entire	-9.55385
▁early	-9.55417
▁state	-9.55535
kon	-9.55594
▁Stück	-9.55871
▁benutzen	-9.55939
▁couldn	-9.55965
▁Luft	-9.55992
▁thousands	-9.56033
▁third	-9.561
hm	-9.56147
▁fe	-9.56325
And	-9.56326
▁bekannt	-9.56463
▁Unter	-9.56509
▁wer	-9.56699
sse	-9.56729
▁friend	-9.56776
icht	-9.5682
▁color	-9.56824
▁gesamte	-9.56826
▁frei	-9.56987
▁pay	-9.57206
▁anderes	-9.57288
▁schön	-9.57311
ities	-9.57341
▁grow	-9.57355
▁Indien	-9.57432
len	-9.57467
▁Je	-9.57633
▁God	-9.57663
▁wohl	-9.57779
▁leicht	-9.57807
mat	-9.57877
bei	-9.57917
▁behind	-9.57919
▁gave	-9.57977
▁w	-9.58063
▁vorstellen	-9.581
▁sea	-9.5823
▁bereit	-9.58335
▁fl	-9.58352
▁poor	-9.58366
▁buy	-9.58407
▁particular	-9.58411
▁act	-9.58454
▁8	-9.58457
▁spend	-9.58519
▁Bewegung	-9.58529
▁short	-9.58538
▁ausge	-9.58561
sam	-9.58579
weg	-9.58624
ice	-9.58629
▁amount	-9.58652
▁gemeinsam	-9.58654
▁br	-9.58712
▁entwickeln	-9.58775
ight	-9.58784
▁hi	-9.58847
rie	-9.58915
▁won	-9.58962
▁Liebe	-9.59027
ek	-9.59126
▁full	-9.59157
▁erhalten	-9.59186
ierung	-9.59307
▁field	-9.59406
▁Ni	-9.59466
ical	-9.59522
▁na	-9.59602
▁death	-9.59766
▁Danke	-9.59781
▁begin	-9.59785
▁Oh	-9.59976
▁support	-9.60015
bra	-9.60038
ors	-9.60083
▁network	-9.60141
▁cost	-9.60182
▁fear	-9.60186
ding	-9.60269
▁führen	-9.60296
▁local	-9.60393
rin	-9.60429
▁wollten	-9.60459
▁Jo	-9.60459
▁dream	-9.60516
▁fand	-9.60539
stoff	-9.60637
halt	-9.60682
▁kinds	-9.6073
▁changed	-9.60732
▁beiden	-9.6074
▁Möglichkeit	-9.60897
▁groß	-9.60928
▁Fl	-9.60997
▁Roboter	-9.61019
▁began	-9.61069
▁9	-9.61121
▁90	-9.6114
▁common	-9.61145
use	-9.61155
▁deal	-9.61244
▁seven	-9.61272
▁Mar	-9.61309
▁Verhalten	-9.61403
▁feeling	-9.6165
We	-9.61723
▁middle	-9.61778
▁14	-9.61939
▁week	-9.62031
▁plan	-9.62057
▁happy	-9.62159
▁Sta	-9.62169
▁paper	-9.62175
ish	-9.62208
▁Sprache	-9.62239
▁Ex	-9.62257
▁verschiedenen	-9.6228
▁Vorstellung	-9.62299
▁oben	-9.62339
▁scale	-9.62378
▁Recht	-9.62413
▁ho	-9.62452
tag	-9.62509
▁Wa	-9.62646
▁felt	-9.62692
voll	-9.62796
▁Ju	-9.62806
▁besten	-9.62963
▁einigen	-9.63104
har	-9.63386
▁direkt	-9.63443
▁irgendwie	-9.63443
▁niemand	-9.63445
bt	-9.63571
▁record	-9.63572
▁difference	-9.6372
▁offen	-9.6377
▁yourself	-9.6383
▁Si	-9.64006
▁map	-9.64071
▁bewegen	-9.64094
▁Bu	-9.64125
▁wasn	-9.64165
▁Fi	-9.64252
ack	-9.64368
▁16	-9.64388
▁film	-9.64443
▁Kindern	-9.6449
reich	-9.64526
▁Rück	-9.64531
▁super	-9.64591
▁easy	-9.64611
dung	-9.64624
enden	-9.64919
▁sage	-9.64966
bau	-9.6539
▁Prozess	-9.65398
▁online	-9.65406
▁Herz	-9.65434
ual	-9.65447
ob	-9.65469
▁Then	-9.65506
▁realized	-9.65546
▁shape	-9.65663
▁non	-9.65676
▁Bereich	-9.65706
ization	-9.65734
▁international	-9.66058
▁vorher	-9.6614
war	-9.66143
▁wusste	-9.66217
▁given	-9.6626
▁taken	-9.66275
▁parents	-9.66418
hl	-9.66473
arbeit	-9.66481
▁reality	-9.66554
▁eigene	-9.66584
▁On	-9.66603
▁political	-9.66723
▁getan	-9.66729
king	-9.66751
U	-9.66896
for	-9.66944
▁guys	-9.66945
rs	-9.67173
treten	-9.67193
▁powerful	-9.67257
▁beginning	-9.67266
sprech	-9.67302
▁wegen	-9.67373
▁news	-9.67399
▁glücklich	-9.67437
ort	-9.67457
▁Wahl	-9.67534
▁Lass	-9.67549
▁fühlen	-9.67568
▁Wer	-9.67634
▁Herausforderung	-9.67662
▁Go	-9.67668
▁certain	-9.67678
▁Anfang	-9.67688
▁ba	-9.67696
▁Mensch	-9.67715
▁Erfahrung	-9.67728
▁weltweit	-9.67796
net	-9.67902
▁century	-9.6798
ome	-9.68099
▁eher	-9.68126
▁modern	-9.68146
▁area	-9.68216
year	-9.68252
▁o	-9.6826
▁kid	-9.683
eb	-9.68302
▁eyes	-9.68537
▁key	-9.68635
▁cut	-9.68761
▁los	-9.68845
▁nämlich	-9.68881
▁turned	-9.68928
▁needed	-9.6893
▁voice	-9.69018
▁unterschiedlich	-9.69018
act	-9.69033
▁auszu	-9.69122
▁Lehrer	-9.69146
▁Vi	-9.69174
▁reach	-9.69183
▁drive	-9.69223
▁program	-9.69351
▁systems	-9.69382
▁explain	-9.69428
▁em	-9.69501
rück	-9.69509
▁Freunde	-9.69526
▁perhaps	-9.69565
▁beginnen	-9.69588
▁Schritt	-9.69703
▁photograph	-9.69705
▁Stellen	-9.69773
▁red	-9.69804
▁size	-9.69984
▁treffen	-9.70009
▁fr	-9.70058
▁Sinn	-9.70059
▁companies	-9.70116
▁interessant	-9.70197
▁überhaupt	-9.70531
▁cities	-9.70568
▁abge	-9.70687
▁eight	-9.70691
▁Fr	-9.70723
punkt	-9.70778
▁simply	-9.70947
▁seeing	-9.70967
▁sc	-9.71061
▁Ki	-9.71145
▁low	-9.71176
▁moving	-9.71226
▁stay	-9.71246
hol	-9.71477
▁Mittel	-9.71483
ions	-9.71574
▁menschlichen	-9.71639
▁schauen	-9.71791
▁post	-9.71811
▁wonderful	-9.71836
▁finally	-9.71841
▁oil	-9.71872
▁rate	-9.71889
ckt	-9.71923
▁17	-9.71949
cke	-9.72002
▁cannot	-9.72003
cher	-9.72032
▁Gemeinschaft	-9.72067
▁media	-9.72224
ei	-9.72229
▁Gra	-9.72242
▁longer	-9.72341
▁Tiere	-9.72434
einander	-9.72464
▁hands	-9.72467
zahl	-9.72472
▁Team	-9.72515
▁führt	-9.7252
▁father	-9.7265
▁Lage	-9.72711
▁zwar	-9.72787
▁Wissenschaftler	-9.72899
▁San	-9.72995
▁others	-9.73008
▁value	-9.73177
▁verwenden	-9.73203
▁fun	-9.73318
▁positive	-9.73364
▁versucht	-9.73391
chten	-9.73442
▁People	-9.73484
uf	-9.73492
▁solve	-9.73496
app	-9.73509
wi	-9.7352
▁Wochen	-9.73544
lichkeit	-9.73599
par	-9.73668
ations	-9.73734
▁challenge	-9.73762
▁Technik	-9.7377
▁Umwelt	-9.73777
▁70	-9.73796
▁/	-9.73914
ration	-9.74051
▁gets	-9.74074
▁Qu	-9.74188
▁represent	-9.74201
▁measure	-9.74201
▁Zum	-9.74307
▁speak	-9.74409
werk	-9.74476
▁eat	-9.74482
▁völlig	-9.74489
▁innerhalb	-9.74489
▁Just	-9.74623
pri	-9.74681
▁gleichen	-9.74702
▁tut	-9.74764
▁fragte	-9.74809
ind	-9.74884
▁blood	-9.74922
ziehen	-9.74948
▁Sachen	-9.74987
hy	-9.75019
▁Hilfe	-9.75067
▁bekam	-9.75096
▁Essen	-9.75122
▁app	-9.75165
eh	-9.75251
▁break	-9.7529
▁Of	-9.75381
▁terms	-9.75511
▁class	-9.75517
▁HIV	-9.75649
▁Nacht	-9.75674
▁Kl	-9.75712
▁jene	-9.75833
▁special	-9.75945
▁Länder	-9.76041
▁allem	-9.76087
unt	-9.76104
▁South	-9.76242
rum	-9.76285
▁US	-9.76357
▁deine	-9.76469
▁jedoch	-9.76528
ank	-9.76563
mittel	-9.76637
Oh	-9.76644
▁Bildung	-9.76706
▁present	-9.76725
▁zweite	-9.7675
▁Viele	-9.76751
▁ri	-9.76779
▁kamen	-9.76802
▁surface	-9.76823
▁Tages	-9.76825
▁flow	-9.76865
▁Te	-9.76891
▁El	-9.76987
▁met	-9.7713
▁interested	-9.77139
leg	-9.7722
ible	-9.77228
▁sta	-9.77246
▁Tage	-9.77275
▁stark	-9.77275
ping	-9.77324
▁center	-9.7742
▁mussten	-9.77441
ward	-9.77494
▁Alter	-9.77524
änge	-9.77639
▁wall	-9.77654
▁hit	-9.77679
▁device	-9.77712
▁generation	-9.77772
▁blue	-9.77788
▁tried	-9.7783
▁Hu	-9.77893
▁Gedanken	-9.77904
▁Her	-9.77912
stellen	-9.78018
▁deep	-9.78129
▁Haupt	-9.78161
ake	-9.78169
▁ground	-9.7831
▁Blut	-9.7861
▁Denken	-9.78738
▁lots	-9.78778
▁13	-9.78785
▁protect	-9.78854
lock	-9.78955
▁quickly	-9.78962
▁result	-9.79033
ere	-9.79158
org	-9.79286
▁travel	-9.79368
▁dark	-9.79436
rank	-9.79636
▁whatever	-9.79656
▁benutzt	-9.79667
▁Sicherheit	-9.7967
▁ability	-9.79701
▁Eis	-9.79716
▁World	-9.79819
▁Generation	-9.79825
▁spent	-9.79833
Ge	-9.79847
▁needs	-9.80057
▁Pe	-9.80158
▁Gut	-9.80268
tlich	-9.80328
▁Möglichkeiten	-9.80424
▁national	-9.80425
▁write	-9.80517
▁win	-9.80526
top	-9.80595
▁genauso	-9.80643
▁takes	-9.80684
▁complex	-9.8071
▁movement	-9.8073
▁damals	-9.8074
▁individual	-9.80749
qui	-9.80825
▁lost	-9.80894
▁gone	-9.80894
▁allow	-9.80924
system	-9.8103
▁Information	-9.81094
▁Versuch	-9.81178
ship	-9.812
▁soziale	-9.81212
trieb	-9.81273
▁schrieb	-9.8145
cent	-9.81621
▁Ku	-9.81621
J	-9.81622
▁Ca	-9.81665
▁hoffe	-9.81669
▁Erfolg	-9.81693
▁Boden	-9.81752
▁lösen	-9.81769
▁Thema	-9.81832
sicht	-9.81893
▁brachte	-9.81964
▁Familien	-9.82149
▁girl	-9.82175
▁bleiben	-9.82179
You	-9.82264
▁situation	-9.82283
▁Bar	-9.82291
▁Our	-9.8242
▁nu	-9.82438
▁obwohl	-9.82446
▁Lösung	-9.82499
hand	-9.82562
▁Unterschied	-9.82623
si	-9.82703
▁strong	-9.82752
▁lead	-9.82755
▁21	-9.82783
ht	-9.82918
▁patients	-9.83006
▁approach	-9.83065
lte	-9.83239
tten	-9.83244
▁Jahrhundert	-9.83268
lan	-9.83328
▁lo	-9.83376
Das	-9.8338
▁message	-9.8339
▁produce	-9.83401
ning	-9.8348
lon	-9.83488
▁sitting	-9.83551
▁clear	-9.83578
▁Can	-9.8362
val	-9.83707
▁Zellen	-9.83775
▁schlecht	-9.83876
▁größte	-9.83884
▁Namen	-9.83892
▁gleiche	-9.83979
▁Woche	-9.84025
▁Tier	-9.8407
▁born	-9.84092
▁office	-9.84113
▁box	-9.84151
!"	-9.84166
▁increase	-9.84171
▁parts	-9.84219
▁National	-9.84269
▁worden	-9.84284
▁access	-9.84325
▁character	-9.8433
▁either	-9.8433
▁schreiben	-9.84365
▁realize	-9.84397
▁Gen	-9.84411
erung	-9.84415
ose	-9.84417
▁John	-9.84478
▁Grunde	-9.84479
▁opportunity	-9.84489
led	-9.845
▁weeks	-9.8454
▁Reise	-9.84556
▁focus	-9.84579
▁Situation	-9.84649
▁Labor	-9.84665
arch	-9.84688
▁Wirtschaft	-9.84704
▁Unsere	-9.84719
▁wären	-9.84726
ett	-9.84791
▁climate	-9.84809
▁Ozean	-9.84809
ris	-9.84863
▁white	-9.85041
ign	-9.85059
▁sign	-9.8525
bare	-9.85252
▁ha	-9.85262
▁Richtung	-9.8529
▁Monate	-9.85366
▁Meinung	-9.85376
▁pick	-9.85416
ability	-9.85425
▁Bau	-9.85612
ists	-9.85868
▁suchen	-9.85968
▁stage	-9.85974
▁West	-9.86005
▁rich	-9.86048
▁sollen	-9.86104
▁Dingen	-9.86107
▁Cha	-9.8614
▁growth	-9.86152
sel	-9.86222
row	-9.86228
▁morning	-9.86258
out	-9.86383
▁l	-9.86412
▁bar	-9.86452
▁bringt	-9.86489
during	-9.86506
▁based	-9.8658
▁entfernt	-9.86583
gestellt	-9.86619
▁Wert	-9.86627
▁hold	-9.86801
▁Wahrheit	-9.86909
führen	-9.86945
What	-9.87036
Well	-9.87047
▁Amerika	-9.87047
▁Schw	-9.87069
▁provide	-9.87077
▁Programm	-9.87129
raum	-9.87187
blick	-9.87301
qua	-9.87449
▁emotional	-9.87591
▁Rolle	-9.87612
▁impact	-9.87729
▁average	-9.8773
▁attention	-9.87894
▁green	-9.87909
▁Zwei	-9.87972
▁fall	-9.87998
▁Alle	-9.88013
▁link	-9.88018
wert	-9.88041
▁essen	-9.8805
setzen	-9.88091
ete	-9.88127
▁fire	-9.88138
▁Ke	-9.88145
▁Gesicht	-9.88156
▁Freund	-9.8821
▁betrachten	-9.88224
▁kleiner	-9.88338
▁komplett	-9.88389
tische	-9.88444
▁nahm	-9.88463
▁lässt	-9.8848
▁thank	-9.8852
iff	-9.88544
▁visual	-9.88555
▁animal	-9.88603
hal	-9.8866
ade	-9.88662
▁bewusst	-9.88689
nte	-9.88866
▁größten	-9.88896
setzt	-9.889
plan	-9.88994
ana	-9.89025
ika	-9.89044
▁economy	-9.89054
▁funktionieren	-9.89054
▁Chinese	-9.89054
day	-9.89125
ierten	-9.89165
▁photo	-9.89219
▁teilen	-9.8934
▁pe	-9.89343
▁Pi	-9.89407
In	-9.89427
▁seem	-9.89507
▁literally	-9.89556
▁besteht	-9.89561
▁Wi	-9.89615
▁path	-9.89617
▁feet	-9.89617
▁unten	-9.89618
▁region	-9.89624
▁scientists	-9.89671
fu	-9.89683
▁continue	-9.89703
▁Gebiet	-9.89725
unk	-9.89726
▁main	-9.89753
▁liebe	-9.89785
▁Ze	-9.89877
▁okay	-9.89892
▁nice	-9.89913
ari	-9.89942
▁pass	-9.90043
fang	-9.90053
▁train	-9.90111
▁fo	-9.90137
▁Markt	-9.90192
▁dessen	-9.90192
▁incredible	-9.90229
▁chance	-9.90229
▁alone	-9.9024
▁bitte	-9.90266
▁Nein	-9.90442
af	-9.90443
▁bottom	-9.90567
▁wrote	-9.90567
▁growing	-9.90597
▁bio	-9.90678
▁Heute	-9.90739
ries	-9.90786
▁bed	-9.90877
mut	-9.90941
▁Con	-9.90957
Was	-9.90997
▁tief	-9.91198
▁action	-9.91215
▁pl	-9.91235
▁connect	-9.91238
▁sprach	-9.91294
▁star	-9.91297
▁known	-9.91327
▁Fähigkeit	-9.91394
▁audience	-9.91417
▁brought	-9.91417
▁material	-9.91517
▁gelernt	-9.91588
▁Arbeits	-9.91607
▁sex	-9.91616
▁isn	-9.91695
▁Gene	-9.91726
▁London	-9.91759
▁Gesundheit	-9.91855
ki	-9.9192
▁Fisch	-9.91921
▁erinnern	-9.91931
▁entdeckt	-9.91932
isieren	-9.92076
▁Größe	-9.92103
▁giving	-9.92103
▁langsam	-9.92119
▁shows	-9.92137
▁Right	-9.92138
ock	-9.92148
▁physical	-9.92157
▁sterben	-9.92275
ons	-9.92341
▁rein	-9.92356
▁Fe	-9.92433
zeichnet	-9.92447
▁revolution	-9.92483
▁mass	-9.92495
▁humans	-9.92606
▁function	-9.9262
▁knowledge	-9.9262
atur	-9.9263
▁Ri	-9.92733
druck	-9.92773
▁camera	-9.92787
istic	-9.92875
griff	-9.92942
▁scheint	-9.92968
▁issue	-9.92978
▁Muster	-9.92986
▁voll	-9.93075
▁forward	-9.93081
hnen	-9.93167
▁books	-9.93205
▁zuvor	-9.93441
▁Modell	-9.93477
▁Durch	-9.93485
▁beide	-9.93603
satz	-9.93641
Und	-9.93648
▁verbunden	-9.93663
genommen	-9.93765
▁conversation	-9.93837
▁road	-9.93838
▁Realität	-9.9385
▁watch	-9.9387
▁Publikum	-9.93872
▁telling	-9.93876
fahren	-9.93947
▁North	-9.94013
▁potential	-9.94047
▁erschaffen	-9.9406
▁tat	-9.9413
▁Zahl	-9.94224
▁Staaten	-9.94324
▁Öl	-9.94364
lung	-9.94365
▁Krankheit	-9.94367
▁Netzwerk	-9.94393
▁sit	-9.94472
▁anderer	-9.94477
▁Su	-9.94532
▁relationship	-9.94565
▁seems	-9.94584
▁late	-9.94596
hor	-9.94598
▁stellt	-9.94601
▁meines	-9.94678
▁movie	-9.94717
▁erreicht	-9.94722
▁Ihren	-9.9479
▁understanding	-9.94802
▁Car	-9.94849
▁verwendet	-9.94894
▁el	-9.94965
▁bessere	-9.95
▁girls	-9.95016
▁areas	-9.95118
▁starting	-9.9514
▁Ländern	-9.95142
▁Gi	-9.95222
isiert	-9.95227
▁gefunden	-9.95247
▁smart	-9.95248
▁lesen	-9.95302
▁h	-9.95304
▁aufge	-9.95337
▁Tatsache	-9.95425
▁block	-9.95451
vor	-9.95563
▁Autos	-9.95573
So	-9.956
▁artist	-9.95613
▁fanden	-9.95637
▁Test	-9.95727
▁genannt	-9.95781
ged	-9.958
pass	-9.95816
grün	-9.95914
▁safe	-9.95957
▁erstaunlich	-9.96036
▁numbers	-9.96062
▁truth	-9.96138
lassen	-9.96172
press	-9.96196
heim	-9.96205
▁statt	-9.96284
▁schließlich	-9.96318
▁Umgebung	-9.96321
▁developed	-9.96336
▁Einige	-9.96369
▁24	-9.96427
ped	-9.96474
lic	-9.96573
▁type	-9.96581
tzt	-9.96593
▁Sehen	-9.96669
▁innovation	-9.96677
▁Kraft	-9.96684
sucht	-9.96749
Sch	-9.96784
▁draußen	-9.96857
▁Bio	-9.96935
▁hundreds	-9.96996
▁trust	-9.97038
▁text	-9.97038
▁choice	-9.97088
▁dead	-9.97163
▁Reihe	-9.97219
▁Pri	-9.9722
▁worth	-9.97221
▁running	-9.97234
▁City	-9.97414
▁CO	-9.97519
▁tools	-9.97571
▁op	-9.97577
▁500	-9.97583
▁Park	-9.97599
▁Tat	-9.97605
▁law	-9.97611
▁wouldn	-9.97614
▁junge	-9.97661
▁Tu	-9.97683
rei	-9.97687
▁anyone	-9.97811
▁lab	-9.97855
▁sleep	-9.97945
▁Jeder	-9.97959
▁development	-9.97978
zug	-9.97981
▁spielt	-9.97981
▁eye	-9.98058
lass	-9.98065
low	-9.98085
▁discovered	-9.98121
▁Bevölkerung	-9.98128
▁acht	-9.98149
▁tend	-9.98238
▁spread	-9.9831
▁sun	-9.9832
▁"(	-9.98332
▁images	-9.98337
▁fundamental	-9.98376
▁plötzlich	-9.98494
▁creating	-9.98494
▁Medien	-9.98494
▁kaufen	-9.98496
▁ten	-9.98534
▁Verbindung	-9.98541
roll	-9.98611
▁soon	-9.98616
▁forest	-9.98628
▁gewesen	-9.98711
▁hervor	-9.98724
own	-9.98742
▁See	-9.98773
▁sehe	-9.98811
▁mine	-9.98847
▁Studie	-9.98894
▁Super	-9.98911
tik	-9.98915
▁miles	-9.98921
▁teil	-9.9897
▁transform	-9.99158
▁Lei	-9.99223
▁Bedeutung	-9.9923
▁Gewalt	-9.9923
▁Europe	-9.99355
▁aufzu	-9.99416
▁multi	-9.99417
aff	-9.99491
▁teach	-9.99588
essen	-9.99589
▁Revolution	-9.996
▁source	-9.99603
▁African	-9.99614
▁Tra	-9.99687
ition	-9.99709
Die	-9.99731
▁erklären	-9.99785
▁länger	-9.99785
zt	-9.99801
▁anti	-9.99888
rat	-10
▁report	-10.0007
▁Preis	-10.0007
▁rot	-10.0018
▁zer	-10.0023
ments	-10.0024
meter	-10.0026
▁Natürlich	-10.0034
▁hospital	-10.0034
▁recognize	-10.0034
▁similar	-10.0034
▁passieren	-10.0039
gleich	-10.0045
▁miteinander	-10.0047
richten	-10.0049
▁Konzept	-10.0053
light	-10.0054
▁changes	-10.0056
zellen	-10.0057
izing	-10.006
▁trans	-10.0072
&	-10.0091
▁wild	-10.0091
▁ice	-10.0093
▁Foto	-10.0095
ious	-10.0096
vis	-10.0099
▁bat	-10.0101
▁Vo	-10.0102
▁Aufgabe	-10.0103
▁Deshalb	-10.0109
▁Neu	-10.0109
▁evolution	-10.0127
▁aussehen	-10.0134
▁meet	-10.0138
▁save	-10.014
▁moral	-10.0154
▁kill	-10.0155
time	-10.0159
are	-10.016
tes	-10.0164
▁add	-10.0164
▁fly	-10.017
▁theory	-10.018
▁suggest	-10.0185
▁Innovation	-10.0185
▁gegenüber	-10.0186
▁unbe	-10.0187
ov	-10.0189
ischer	-10.0189
ny	-10.0198
▁Bücher	-10.0204
▁Hoffnung	-10.0204
▁perfekt	-10.0204
▁guess	-10.0204
▁force	-10.0207
pol	-10.0207
▁mache	-10.0212
ok	-10.0213
▁einfache	-10.0216
mate	-10.0222
leben	-10.0227
▁Pol	-10.0234
▁goal	-10.0234
▁allein	-10.0238
▁Wind	-10.0238
▁Groß	-10.0241
▁Tod	-10.0245
▁hinaus	-10.0247
nce	-10.0247
▁Schul	-10.0248
▁recently	-10.0248
▁hinein	-10.0255
▁Lu	-10.0258
▁blind	-10.0261
▁Gu	-10.0266
▁follow	-10.0269
off	-10.0273
ku	-10.0273
▁jemals	-10.028
▁cars	-10.0286
pen	-10.0298
▁Während	-10.0299
▁erfolgreich	-10.0299
▁sieben	-10.0304
iti	-10.0306
▁verloren	-10.0317
▁require	-10.0319
▁technologies	-10.0319
▁000	-10.0319
▁beginnt	-10.0319
▁With	-10.0326
▁concept	-10.0338
ruf	-10.0339
▁gebaut	-10.0342
▁English	-10.0357
▁interessiert	-10.0357
rry	-10.0359
Video	-10.0359
▁Fehler	-10.036
▁Yeah	-10.0364
▁asking	-10.0366
▁Forschung	-10.0366
▁Wal	-10.0377
Wir	-10.0386
▁total	-10.0401
▁perfect	-10.0403
▁patient	-10.0408
▁solution	-10.041
▁Genau	-10.0418
▁Sam	-10.0419
▁plant	-10.0426
ühl	-10.0432
▁Har	-10.0433
▁medical	-10.0435
▁absolutely	-10.044
▁300	-10.044
▁showed	-10.0445
▁Meter	-10.0447
▁especially	-10.0454
▁sofort	-10.0454
▁Stimme	-10.0459
▁klein	-10.0461
▁stimmt	-10.047
▁gezeigt	-10.0473
▁Ph	-10.0478
▁ne	-10.0478
▁Gr	-10.0486
▁Europa	-10.0493
▁Platz	-10.0494
▁door	-10.0495
▁mental	-10.0498
▁expect	-10.0508
▁Afghanistan	-10.0512
▁industry	-10.0512
▁daraus	-10.0513
▁gewisse	-10.0515
ray	-10.053
▁zehn	-10.0532
▁incredibly	-10.0532
▁raus	-10.0534
▁Anzahl	-10.0537
▁table	-10.0546
pla	-10.055
put	-10.055
▁las	-10.0552
▁Tatsächlich	-10.0552
▁among	-10.0555
▁By	-10.0555
▁reich	-10.0563
▁Straßen	-10.0566
▁Städte	-10.0566
▁Japan	-10.0571
▁deshalb	-10.0571
▁push	-10.0573
gesetzt	-10.0574
▁site	-10.0581
▁tiny	-10.0592
▁neben	-10.0593
▁likely	-10.0594
▁page	-10.0599
▁Ist	-10.0601
▁nachdem	-10.0602
our	-10.061
▁carbon	-10.0612
schlag	-10.0627
▁Facebook	-10.0631
▁Hälfte	-10.0631
:"	-10.0631
mission	-10.0636
▁private	-10.0643
▁Berg	-10.0645
▁Ihrer	-10.0648
▁stellte	-10.0651
ktiv	-10.0652
▁touch	-10.0654
▁success	-10.0665
▁listen	-10.0669
▁period	-10.067
▁bewegt	-10.0672
▁solar	-10.0673
▁wonder	-10.0673
Z	-10.0674
za	-10.0675
▁sing	-10.0675
▁treat	-10.0683
lauf	-10.0685
▁wind	-10.0688
▁geworden	-10.069
▁millions	-10.0699
▁Hund	-10.0706
▁Entscheidungen	-10.0708
▁progress	-10.071
▁Mi	-10.0711
▁hart	-10.0723
▁traf	-10.0726
▁changing	-10.073
▁search	-10.0732
bringen	-10.0742
▁designed	-10.0747
▁gas	-10.0748
▁evidence	-10.075
▁Oberfläche	-10.075
wo	-10.0753
sum	-10.0759
▁Beziehung	-10.0763
▁Pu	-10.0767
fallen	-10.077
▁egal	-10.0771
▁höher	-10.0771
ular	-10.0781
▁einge	-10.0783
▁major	-10.0788
▁Alles	-10.0788
▁clean	-10.0791
▁glaubt	-10.0791
▁Chance	-10.0791
▁interessante	-10.0796
▁Min	-10.0802
▁nimmt	-10.081
▁join	-10.0811
▁interest	-10.0811
spect	-10.0813
▁fix	-10.0813
▁danach	-10.0814
▁genetic	-10.0816
▁wichtige	-10.0818
▁anfangen	-10.0831
Be	-10.0848
stück	-10.0848
▁ähnlich	-10.0848
▁riesige	-10.0848
▁Studenten	-10.0864
usch	-10.0878
▁resources	-10.0884
▁größer	-10.0889
▁sell	-10.0893
▁issues	-10.0894
▁track	-10.0901
No	-10.0906
▁möchten	-10.0911
▁enter	-10.0912
lk	-10.0921
greifen	-10.0921
▁product	-10.0927
fassen	-10.0933
▁invest	-10.0936
▁playing	-10.0937
ellen	-10.0937
▁treatment	-10.0939
▁ließ	-10.0945
▁pack	-10.0952
▁basic	-10.0952
▁subject	-10.0953
▁Ä	-10.0956
▁offer	-10.0966
▁vision	-10.097
▁bekommt	-10.0973
▁Wörter	-10.0973
▁attack	-10.0974
cc	-10.0974
▁mis	-10.0982
▁unseres	-10.0985
▁Experiment	-10.0987
del	-10.0992
▁gu	-10.0995
▁math	-10.0997
▁ständig	-10.1003
▁Süd	-10.1012
▁available	-10.1015
▁East	-10.1016
ssen	-10.1021
▁robot	-10.1033
▁hole	-10.1038
eten	-10.1043
▁Meer	-10.1044
ären	-10.1055
▁Künstler	-10.1056
▁beyond	-10.1056
▁Universität	-10.1058
▁gesch	-10.1065
▁Mitte	-10.1067
▁collect	-10.1067
▁X	-10.1068
▁Ar	-10.1072
▁screen	-10.1077
▁role	-10.1077
▁Rest	-10.108
▁Atom	-10.1085
▁interact	-10.1085
▁beste	-10.1088
▁ones	-10.1095
▁Kamera	-10.1097
▁hundred	-10.1102
▁Technologien	-10.1105
▁develop	-10.1107
▁hast	-10.1113
platz	-10.1114
üge	-10.1118
▁baby	-10.1119
nten	-10.113
▁Material	-10.1137
fach	-10.1138
▁niemals	-10.1139
▁object	-10.1142
▁nachdenken	-10.1146
lam	-10.1148
▁ve	-10.1151
licht	-10.1155
▁geboren	-10.1159
▁practice	-10.116
▁favorite	-10.116
▁Nahrung	-10.116
ay	-10.1161
sagen	-10.1162
machen	-10.1162
▁richtige	-10.1177
▁appear	-10.1181
▁Interesse	-10.1182
▁extra	-10.1184
ever	-10.1185
▁effect	-10.1185
▁Nachrichten	-10.1185
▁jemanden	-10.1191
▁laufen	-10.1192
▁einzu	-10.1194
▁yes	-10.1196
je	-10.1197
▁einzelne	-10.1201
pel	-10.1202
rang	-10.1204
▁developing	-10.1207
▁aktiv	-10.1215
▁extrem	-10.1216
▁village	-10.1223
▁verrückt	-10.1223
▁towards	-10.1226
▁welches	-10.1226
kel	-10.1239
laden	-10.1243
▁First	-10.1244
▁findet	-10.1249
▁list	-10.1251
bot	-10.1257
▁falls	-10.1261
▁Veränderung	-10.1262
▁Every	-10.1264
▁writing	-10.1265
▁fing	-10.127
▁Don	-10.1274
▁nahe	-10.1282
stein	-10.1286
▁Plan	-10.1289
▁card	-10.1295
enz	-10.1303
▁Mu	-10.1305
▁Vortrag	-10.1308
▁schneller	-10.132
uit	-10.133
ically	-10.1336
han	-10.1343
geht	-10.1346
▁daher	-10.1349
▁fliegen	-10.135
▁sounds	-10.1353
▁street	-10.137
ey	-10.137
▁drug	-10.1383
▁Organ	-10.1393
▁Rat	-10.1397
stelle	-10.1398
gebracht	-10.1399
▁schlechte	-10.1401
▁involved	-10.1404
▁lived	-10.1406
▁sent	-10.1409
▁wa	-10.1421
▁event	-10.1429
deck	-10.1431
▁Ad	-10.1434
och	-10.1435
▁Nation	-10.1438
erweise	-10.1456
▁several	-10.1457
▁lieben	-10.1464
▁großartige	-10.1465
kraft	-10.1466
▁auto	-10.1468
▁talked	-10.1471
▁Behandlung	-10.1478
▁Demokratie	-10.1478
▁scientific	-10.1479
▁agree	-10.148
denken	-10.1482
▁reasons	-10.1483
▁manche	-10.1488
▁putting	-10.149
innen	-10.1493
▁slow	-10.1496
wei	-10.1497
▁Maybe	-10.1498
▁absolut	-10.15
▁predict	-10.1505
▁bigger	-10.1508
▁sonst	-10.1514
▁engineer	-10.1514
weisen	-10.1524
▁Straße	-10.1528
▁kleines	-10.1528
▁Per	-10.1532
▁großartig	-10.1535
▁Von	-10.1538
▁fit	-10.1543
▁gingen	-10.155
▁Maschine	-10.1563
▁park	-10.1564
▁nine	-10.1569
lit	-10.1569
▁Teile	-10.157
▁store	-10.1572
lose	-10.158
▁Bank	-10.1581
▁journey	-10.1587
▁Firma	-10.1587
▁massive	-10.1591
▁gives	-10.1602
▁Medizin	-10.1609
▁month	-10.1627
▁Struktur	-10.163
▁intelligent	-10.163
▁mögen	-10.163
▁rules	-10.1632
▁wish	-10.1641
▁groups	-10.1649
rich	-10.165
teilen	-10.165
▁micro	-10.1652
▁response	-10.1652
ook	-10.1655
▁abzu	-10.1657
▁connection	-10.1668
stehen	-10.1672
▁Sex	-10.1675
ology	-10.1688
▁Produkt	-10.1694
▁feed	-10.1696
▁perspective	-10.1696
▁wait	-10.1697
ham	-10.1707
▁dog	-10.1709
▁near	-10.1712
ney	-10.1716
▁consider	-10.1718
▁Jahrzehnt	-10.1719
▁David	-10.172
▁stick	-10.1725
chan	-10.1735
▁Nur	-10.1736
▁fight	-10.1738
▁miss	-10.1752
die	-10.1754
▁ran	-10.1755
▁bist	-10.1758
▁compassion	-10.1763
▁offensichtlich	-10.1763
▁Strom	-10.1763
▁pull	-10.1768
▁liegen	-10.177
wasser	-10.1772
▁ziehen	-10.1775
▁Zusammen	-10.1784
▁deliver	-10.1785
▁Armut	-10.1791
ani	-10.1793
mark	-10.1795
▁alten	-10.18
ina	-10.1803
▁Inter	-10.1805
▁Fortschritt	-10.1807
▁erlaubt	-10.1807
▁check	-10.1807
sis	-10.1809
▁meaning	-10.1823
▁Zahlen	-10.183
▁account	-10.183
▁poverty	-10.183
▁Blick	-10.183
▁Will	-10.1842
hu	-10.1852
▁Papier	-10.1852
▁speed	-10.1853
▁zeige	-10.1855
▁walking	-10.1859
▁fi	-10.1867
▁früher	-10.1868
▁Wachstum	-10.1874
▁visit	-10.1875
▁becomes	-10.1888
▁violence	-10.1897
▁achieve	-10.1897
▁setzt	-10.1905
▁machten	-10.1914
▁secret	-10.1919
▁standard	-10.1923
Ja	-10.1926
▁Job	-10.1929
▁nation	-10.1932
▁benefit	-10.1942
▁element	-10.1942
▁fahren	-10.1944
▁Entscheidung	-10.1945
▁sozialen	-10.1949
tisch	-10.1953
▁Hi	-10.1954
▁fund	-10.1956
ify	-10.1963
reif	-10.1965
▁Mark	-10.1969
arten	-10.1979
▁Gruppen	-10.198
▁particularly	-10.1986
▁gegeben	-10.1987
well	-10.199
lig	-10.199
▁erzählt	-10.1993
▁moved	-10.1993
▁Daher	-10.2002
▁wichtiger	-10.2002
ford	-10.2002
test	-10.2005
▁Sonne	-10.2006
▁draw	-10.2006
▁position	-10.2011
▁Auch	-10.2013
▁successful	-10.2016
▁verb	-10.2016
▁lose	-10.2018
▁hielt	-10.2024
▁näher	-10.2033
▁Even	-10.2034
hören	-10.2036
▁Web	-10.204
▁ga	-10.2063
ession	-10.2068
ssystem	-10.2074
▁computers	-10.2075
▁creative	-10.2079
▁Typ	-10.2083
atom	-10.2083
▁Kosten	-10.2088
▁general	-10.209
▁depend	-10.2092
dimensional	-10.2101
▁Mathematik	-10.2101
▁biggest	-10.2101
▁Theorie	-10.2102
of	-10.211
▁farm	-10.2112
▁guten	-10.2112
▁mehrere	-10.2113
▁print	-10.2116
▁mu	-10.2119
▁herauszufinden	-10.2124
▁After	-10.2125
▁Ergebnis	-10.2127
▁wider	-10.213
wir	-10.213
änder	-10.2135
ough	-10.2138
▁Schauen	-10.2138
▁schw	-10.2144
fälle	-10.2148
richtung	-10.2155
▁Staat	-10.2168
▁urban	-10.2171
▁nennt	-10.2171
▁genommen	-10.2172
upp	-10.2178
j	-10.2178
▁organ	-10.2181
▁partner	-10.2186
▁Studien	-10.2189
▁pictures	-10.219
▁throw	-10.2194
seite	-10.2195
▁finding	-10.2201
▁drugs	-10.2204
ica	-10.2207
▁Schüler	-10.2217
▁Zugang	-10.222
kam	-10.222
iß	-10.2229
▁student	-10.2234
▁Karte	-10.2235
▁University	-10.224
▁anybody	-10.224
ump	-10.2244
▁links	-10.2247
▁Wand	-10.2247
▁setzen	-10.225
▁Who	-10.2251
▁Pan	-10.2256
▁price	-10.2264
▁detail	-10.2265
▁Orte	-10.2269
ziel	-10.2272
▁anstatt	-10.2278
ffer	-10.2281
▁Evolution	-10.2287
▁breath	-10.2287
▁Druck	-10.2289
ified	-10.2293
▁blau	-10.23
▁tragen	-10.2302
▁ta	-10.2304
▁nuclear	-10.231
▁verbessern	-10.231
stellt	-10.2323
▁bank	-10.2326
▁außer	-10.2332
▁AIDS	-10.2334
▁Sc	-10.2335
▁Reaktion	-10.2335
brechen	-10.2336
berg	-10.2336
▁Menschheit	-10.2337
▁skin	-10.2346
▁Gesundheits	-10.2347
▁software	-10.2357
▁Uhr	-10.2367
raten	-10.2368
ulation	-10.2369
selben	-10.2369
▁Pla	-10.2369
dom	-10.2372
▁gesund	-10.2379
▁Religion	-10.2381
▁medicine	-10.2381
▁älter	-10.2381
üsse	-10.2384
▁supposed	-10.2389
bald	-10.2398
▁cover	-10.2401
▁further	-10.2404
▁peace	-10.2404
▁Fähigkeiten	-10.2408
▁dachten	-10.2411
▁bi	-10.2414
▁Bill	-10.2415
▁discover	-10.2419
haus	-10.242
▁ready	-10.2424
▁enorm	-10.2427
▁college	-10.2428
▁gleichzeitig	-10.2428
▁communities	-10.2428
part	-10.2431
▁Worte	-10.2434
▁showing	-10.2438
▁hot	-10.244
flu	-10.2447
weit	-10.245
▁accept	-10.2452
▁Ärzte	-10.2452
▁Mitgefühl	-10.2452
▁heiß	-10.2461
▁mark	-10.2472
akt	-10.2474
▁Bürger	-10.2475
▁choose	-10.2476
▁memory	-10.2476
▁Flugzeug	-10.2476
▁largest	-10.2481
▁Herr	-10.2482
Re	-10.2489
▁kreativ	-10.25
▁Ebene	-10.2506
▁neues	-10.2509
▁Muslim	-10.2524
▁context	-10.2524
▁remain	-10.2524
▁neuro	-10.2531
▁Yes	-10.2538
▁certainly	-10.2544
▁exciting	-10.2548
▁vergessen	-10.2548
aw	-10.2558
▁sahen	-10.2559
work	-10.256
▁gla	-10.256
▁ball	-10.2567
▁doctor	-10.2568
ologie	-10.2568
▁Partner	-10.2572
▁quality	-10.2572
▁Telefon	-10.2572
▁onto	-10.2576
▁Geh	-10.2579
▁bestimmte	-10.2583
▁bla	-10.2586
▁vorbei	-10.2587
▁code	-10.2589
schi	-10.259
▁amp	-10.2595
▁gross	-10.2596
uß	-10.2596
▁notice	-10.2597
▁Islam	-10.2598
wachsen	-10.2605
▁ju	-10.2607
gabe	-10.2617
▁hundert	-10.2621
▁gene	-10.2624
▁hour	-10.2627
▁boy	-10.263
alen	-10.2635
▁pattern	-10.2642
▁Politik	-10.2643
oh	-10.2644
▁Vereinigte	-10.2644
▁democracy	-10.2644
▁roll	-10.2644
▁begannen	-10.2647
wende	-10.2651
▁Traum	-10.2653
▁Tür	-10.2654
▁bald	-10.2657
uh	-10.2663
drücken	-10.2663
▁sitzen	-10.2671
▁zuerst	-10.2677
▁meeting	-10.2679
▁named	-10.2682
▁rep	-10.2683
▁totally	-10.2685
▁Büro	-10.2693
▁grew	-10.2693
▁Zeug	-10.2694
▁count	-10.2698
▁geschieht	-10.2717
▁sodass	-10.2717
▁baut	-10.2725
▁Ding	-10.273
▁higher	-10.2733
▁lag	-10.2737
▁ermöglicht	-10.2742
▁Abend	-10.2743
▁connected	-10.275
▁spa	-10.2753
über	-10.2753
▁Twitter	-10.2766
▁chemical	-10.2766
▁Nigeria	-10.2766
▁cross	-10.2766
board	-10.2784
▁cause	-10.2789
▁Bewusstsein	-10.2791
▁argument	-10.2791
▁crazy	-10.2791
▁prop	-10.2792
▁Hy	-10.2793
▁Netz	-10.2794
▁tap	-10.2794
▁Geschäfts	-10.2797
▁Mikro	-10.2813
▁religion	-10.2815
▁alte	-10.2828
car	-10.283
sicher	-10.2831
▁engage	-10.2839
▁Aufmerksamkeit	-10.284
▁worse	-10.284
lip	-10.2841
tät	-10.2842
▁fuel	-10.2844
▁Most	-10.2844
▁schools	-10.2848
▁Monaten	-10.2851
schließen	-10.2853
laufen	-10.2857
▁everywhere	-10.2865
▁nobody	-10.2865
▁families	-10.2865
▁affect	-10.2866
▁Che	-10.287
isierung	-10.2872
▁Where	-10.2872
▁Kern	-10.2877
▁großer	-10.2877
▁hörte	-10.2878
▁Pflanzen	-10.288
▁früh	-10.2883
▁lie	-10.2883
▁bestimmt	-10.2888
▁conflict	-10.2889
▁lokal	-10.289
▁dance	-10.2903
▁fertig	-10.2905
▁signal	-10.2906
▁folgende	-10.2907
lau	-10.291
räume	-10.2911
▁Ergebnisse	-10.2912
▁police	-10.2914
▁leaders	-10.2918
Wie	-10.292
▁threat	-10.2921
bahn	-10.2922
▁verlassen	-10.2925
▁watching	-10.2927
gab	-10.2933
▁Gespräch	-10.2939
▁bacteria	-10.2939
▁security	-10.2939
▁Para	-10.2943
▁pain	-10.2943
zieh	-10.2944
▁direction	-10.2945
▁Gold	-10.2946
▁TV	-10.2947
arm	-10.2951
▁ignor	-10.2952
▁echte	-10.2954
▁hol	-10.2954
▁scan	-10.2955
stellung	-10.2959
▁cap	-10.2965
▁Baby	-10.2965
▁Monat	-10.2966
▁voller	-10.2967
▁Fahr	-10.2968
▁Sicht	-10.2973
▁wussten	-10.2984
▁detect	-10.2989
▁results	-10.2994
▁fühlte	-10.2998
▁versuchte	-10.2999
▁Bra	-10.3004
▁eventually	-10.3014
▁drop	-10.3016
▁decision	-10.3022
rot	-10.3026
▁finde	-10.3031
ständig	-10.3031
▁led	-10.3035
▁song	-10.3039
é	-10.304
▁Klima	-10.304
▁Amerikaner	-10.3043
▁Grenzen	-10.3045
cle	-10.3049
▁Are	-10.3057
▁Iran	-10.3057
▁wi	-10.3059
▁Seiten	-10.3063
ory	-10.3065
zugehen	-10.3068
▁führte	-10.3079
▁improve	-10.3082
stitution	-10.3083
kehr	-10.3084
▁including	-10.309
▁geschrieben	-10.3097
▁dein	-10.3097
▁extremely	-10.31
▁arbeitete	-10.3101
▁zweiten	-10.3111
▁Krankheiten	-10.3115
▁entscheiden	-10.3115
▁medizinische	-10.3116
▁laugh	-10.3116
▁sat	-10.3118
ably	-10.3124
▁organization	-10.3126
programm	-10.3128
gue	-10.3129
let	-10.313
▁minds	-10.313
▁betrachtet	-10.3141
▁return	-10.3141
▁shift	-10.3141
▁kaum	-10.3141
▁Schulen	-10.3144
wirtschaft	-10.3144
▁trees	-10.3146
glich	-10.3146
▁Meeres	-10.3156
▁version	-10.3158
▁bleibt	-10.3167
▁bodies	-10.3167
▁ändert	-10.3169
▁te	-10.3171
▁ship	-10.3182
▁inner	-10.3185
▁Washington	-10.3192
▁Nummer	-10.3193
▁Region	-10.3194
▁rede	-10.3194
schnitt	-10.3197
▁passierte	-10.3198
ama	-10.3205
▁para	-10.3212
▁individuals	-10.3216
▁beobachten	-10.3218
▁Objekt	-10.3221
▁hu	-10.3234
erin	-10.3239
▁bemerkt	-10.3243
▁mountain	-10.3243
▁shot	-10.3247
▁Th	-10.3247
▁obviously	-10.3252
▁carry	-10.3254
▁allowed	-10.3256
▁nein	-10.3258
▁Str	-10.3259
grund	-10.3267
üb	-10.3269
organism	-10.3273
▁magic	-10.3277
▁wirtschaftliche	-10.3279
▁bomb	-10.328
▁lernte	-10.3288
lern	-10.3289
▁Handy	-10.3294
▁plastic	-10.3295
▁survive	-10.3295
▁wachsen	-10.3301
▁thousand	-10.331
folge	-10.3316
▁gesprochen	-10.3321
▁schafft	-10.3321
▁taught	-10.3321
tischen	-10.3323
▁folgen	-10.3329
▁materials	-10.3329
tritt	-10.3338
▁wave	-10.3344
▁equal	-10.3346
schrift	-10.3347
▁killed	-10.3352
▁cat	-10.3358
▁letter	-10.3358
Le	-10.3371
▁y	-10.3371
▁Vergangenheit	-10.3373
▁address	-10.3373
geschlossen	-10.3399
▁suddenly	-10.3405
▁Gerät	-10.3413
▁critical	-10.3414
▁Kontrolle	-10.3415
oid	-10.3424
▁zumindest	-10.3425
▁Himmel	-10.3426
▁komplexe	-10.3426
▁rock	-10.3438
▁pur	-10.3448
▁Funktion	-10.3452
▁task	-10.3452
▁interview	-10.3452
▁bilden	-10.3453
▁base	-10.3456
ley	-10.3462
netz	-10.3467
▁Los	-10.3471
▁conditions	-10.3473
▁loved	-10.3475
▁400	-10.3477
▁Kr	-10.3477
ille	-10.3478
▁prevent	-10.3478
▁Geist	-10.3483
ktor	-10.35
▁fantastisch	-10.3504
feld	-10.3506
mmel	-10.3508
▁ansehen	-10.3509
zeichnen	-10.3531
▁excited	-10.3531
▁somewhere	-10.3531
▁gearbeitet	-10.3531
▁extraordinary	-10.3533
buch	-10.3534
▁career	-10.3535
▁essentially	-10.3536
nach	-10.3539
▁Kollegen	-10.3541
Er	-10.3542
▁Kreis	-10.3543
like	-10.3543
▁shown	-10.3544
▁meant	-10.3545
▁Personen	-10.3548
▁Geschäft	-10.3551
▁1.	-10.3554
▁fine	-10.3555
▁beschloss	-10.3557
▁Firmen	-10.3557
▁verlieren	-10.3557
right	-10.3558
▁Tro	-10.3558
▁Freiheit	-10.3558
▁bunch	-10.3559
▁Sohn	-10.356
▁Gründe	-10.3566
▁Haut	-10.3573
band	-10.3576
▁waste	-10.3576
▁Stelle	-10.3579
▁tree	-10.3581
kle	-10.3583
▁daughter	-10.3584
▁kompliziert	-10.3584
▁explore	-10.3584
▁schöne	-10.3593
mann	-10.3598
▁games	-10.3604
▁Erinnerung	-10.361
▁truly	-10.361
▁handelt	-10.3612
win	-10.3612
▁Einfluss	-10.3613
▁komme	-10.3623
med	-10.3629
▁eng	-10.3631
▁Können	-10.3637
▁täglich	-10.3637
▁stress	-10.3637
▁Regeln	-10.3638
▁Today	-10.364
liebt	-10.3654
▁Präsident	-10.3664
▁faster	-10.3666
▁original	-10.3669
▁toll	-10.3676
lli	-10.3676
▁board	-10.368
welt	-10.3681
path	-10.3682
▁zeigte	-10.3685
rennen	-10.3689
prä	-10.3691
▁Konflikt	-10.3691
▁happiness	-10.3691
▁bestimmten	-10.3696
▁perform	-10.3696
▁minute	-10.3696
▁150	-10.3703
kommt	-10.3707
▁Hände	-10.3709
▁projects	-10.3709
▁teacher	-10.3714
▁prison	-10.3718
▁Kampf	-10.3718
▁Morgen	-10.3718
▁häufig	-10.3718
cker	-10.3724
▁floor	-10.3725
▁male	-10.3726
▁traditional	-10.373
rand	-10.3732
▁erzählte	-10.3738
▁Spezies	-10.3745
▁morgen	-10.3745
▁sky	-10.3745
▁above	-10.3745
gruppe	-10.3748
▁term	-10.3752
▁trial	-10.3755
▁older	-10.3755
▁2000	-10.3759
▁examples	-10.3762
jährige	-10.3763
▁plants	-10.3766
ane	-10.3772
▁Those	-10.3773
▁gern	-10.3775
rap	-10.3778
▁standing	-10.3783
▁45	-10.3789
tum	-10.3794
▁Kommunikation	-10.3799
▁nachzudenken	-10.3799
▁Israel	-10.3799
▁remind	-10.3799
▁slide	-10.3799
frei	-10.3804
zeug	-10.3805
▁teachers	-10.3807
ographic	-10.3813
gegeben	-10.3814
▁range	-10.3814
▁Paul	-10.3818
rad	-10.3823
▁Physik	-10.3826
▁Risiko	-10.3826
▁usually	-10.3826
▁Beginn	-10.3826
▁profit	-10.3827
▁wann	-10.3828
kreis	-10.3839
▁Stein	-10.3845
tragen	-10.385
aking	-10.3853
▁speziell	-10.3854
▁Dorf	-10.3854
▁Leistung	-10.3854
▁High	-10.3854
▁window	-10.3855
▁burn	-10.3862
▁su	-10.3863
▁oh	-10.3866
▁Wald	-10.3873
▁jobs	-10.3877
▁mom	-10.3879
▁legal	-10.3886
▁manage	-10.3897
▁foot	-10.3898
Ver	-10.3899
cious	-10.3899
▁Nu	-10.3903
pped	-10.3906
chi	-10.3907
▁Software	-10.3909
▁principle	-10.3909
▁respond	-10.3909
▁unique	-10.3909
▁expert	-10.3909
▁alive	-10.3911
▁Ti	-10.3913
▁Klasse	-10.3913
hop	-10.3921
Ma	-10.3933
▁Arzt	-10.3937
▁indeed	-10.394
zustellen	-10.3941
▁limit	-10.3941
▁Industrie	-10.3941
▁cold	-10.3948
▁training	-10.3952
▁etc	-10.3954
▁negative	-10.3955
▁dritte	-10.3955
He	-10.3956
▁erfahren	-10.3957
▁gefährlich	-10.3964
▁afford	-10.3964
▁Wirklichkeit	-10.3964
▁Steve	-10.3965
▁trotzdem	-10.3965
▁somehow	-10.3967
▁Beispiele	-10.3972
▁brains	-10.3972
▁retten	-10.3973
▁ended	-10.3975
▁Erd	-10.398
▁complete	-10.398
▁objects	-10.3984
▁rund	-10.3987
▁Gefängnis	-10.3991
▁schrecklich	-10.3991
▁website	-10.3991
▁activity	-10.3992
wie	-10.4014
▁kept	-10.4019
▁winzig	-10.4019
▁fu	-10.4022
▁Mond	-10.4023
▁Tri	-10.4035
▁Sinne	-10.4046
▁George	-10.4047
▁erzeugen	-10.4047
▁crisis	-10.4047
lief	-10.4047
▁Spaß	-10.4048
kal	-10.4048
▁anschauen	-10.4048
▁freedom	-10.4048
▁Mil	-10.4052
▁reading	-10.4054
▁unge	-10.4057
▁factor	-10.4061
▁nenne	-10.4067
▁Nachricht	-10.4071
▁complicated	-10.4075
▁seltsam	-10.4075
▁female	-10.4075
▁hohe	-10.4077
▁Tagen	-10.4086
▁tool	-10.4088
▁»	-10.4103
▁wife	-10.4105
▁unmöglich	-10.4106
▁Früh	-10.4106
ätze	-10.4117
▁serious	-10.4119
Ha	-10.4128
lly	-10.413
▁Bakterien	-10.4131
▁email	-10.4131
▁please	-10.4131
▁ehrlich	-10.4131
▁Sha	-10.4131
▁Text	-10.4132
▁Finger	-10.4133
▁Ur	-10.4134
▁Ob	-10.4139
▁Neuro	-10.414
▁town	-10.4146
▁Look	-10.4147
plo	-10.4148
▁Wesen	-10.4157
▁impossible	-10.4159
▁famous	-10.4159
▁reduce	-10.4159
▁Arab	-10.4163
▁models	-10.4163
▁current	-10.4176
▁strange	-10.4176
▁Gesetz	-10.418
ette	-10.4183
▁humanity	-10.4183
▁policy	-10.4188
▁pen	-10.419
▁respect	-10.4195
tür	-10.4198
mic	-10.4204
▁lower	-10.4212
▁aussieht	-10.4216
▁«	-10.4216
▁square	-10.4216
▁gewinnen	-10.4216
▁architecture	-10.4217
▁einzelnen	-10.4217
▁jump	-10.4219
typ	-10.4231
▁Hoch	-10.4232
rüber	-10.4232
▁arbeite	-10.4235
sprach	-10.4237
Do	-10.4239
▁lebt	-10.4241
Q	-10.4244
▁nannte	-10.4245
▁content	-10.4245
▁nutzt	-10.4245
▁laut	-10.4246
▁Orten	-10.4256
bal	-10.4256
▁rise	-10.426
▁existiert	-10.427
ata	-10.4271
aging	-10.4272
▁studies	-10.4273
▁hört	-10.4286
last	-10.4289
▁larger	-10.4291
▁Fo	-10.4294
▁Schmerz	-10.4301
▁erklärt	-10.4301
▁symbol	-10.4301
▁Schlaf	-10.4302
▁unglaubliche	-10.4302
▁denkt	-10.4303
▁Beziehungen	-10.4312
▁products	-10.4329
▁painting	-10.4329
▁England	-10.433
▁verbinden	-10.433
▁press	-10.4331
▁Indian	-10.4332
wal	-10.4338
▁race	-10.434
▁Liste	-10.4342
▁Ball	-10.4344
▁effort	-10.4359
▁saß	-10.4359
▁anymore	-10.4359
industrie	-10.4359
▁biology	-10.4359
▁finger	-10.4361
▁Gegen	-10.4362
▁starts	-10.4363
▁doctors	-10.4364
▁pieces	-10.4368
wort	-10.437
▁paint	-10.4371
▁service	-10.4373
▁hum	-10.4379
▁arbeitet	-10.4385
zunehmen	-10.4385
▁healthy	-10.4388
▁dar	-10.4388
▁bus	-10.4388
▁electricity	-10.4389
▁cook	-10.4395
▁specific	-10.4395
▁Damit	-10.4397
▁tolle	-10.4399
wohn	-10.4399
▁serve	-10.4406
▁Nord	-10.4415
▁performance	-10.4418
sinn	-10.4418
wechsel	-10.4419
▁möglichen	-10.4419
▁Medikamente	-10.4424
▁ni	-10.4435
▁jungen	-10.4436
▁communication	-10.4445
▁irgendeine	-10.4446
▁eben	-10.4456
weise	-10.4457
▁Landes	-10.4458
▁allows	-10.4472
▁written	-10.4475
▁entdecken	-10.4475
▁His	-10.4484
▁befinden	-10.4493
▁rain	-10.4494
▁gebracht	-10.4495
tausend	-10.4495
▁enjoy	-10.4504
▁Red	-10.4506
▁Like	-10.451
▁solchen	-10.4512
▁großes	-10.4524
▁hell	-10.4528
▁Führung	-10.4533
▁Museum	-10.4533
▁Ressourcen	-10.4533
▁mobile	-10.4537
▁camp	-10.4542
▁upon	-10.4544
▁harm	-10.4545
▁lit	-10.4551
▁Mr	-10.4561
▁Elektro	-10.4562
▁Finanz	-10.4562
▁brother	-10.4562
▁heutzutage	-10.4562
▁reflect	-10.4562
▁gefragt	-10.4565
▁patterns	-10.4565
▁gering	-10.4566
gebaut	-10.4567
bed	-10.4572
▁flu	-10.4572
ologen	-10.4572
▁Komm	-10.4581
sitz	-10.4588
uk	-10.4589
▁Sterne	-10.4589
▁Wahrscheinlich	-10.4592
▁Harvard	-10.4592
▁Wieder	-10.4594
▁35	-10.4601
▁Glauben	-10.4603
▁sad	-10.4605
▁radio	-10.4606
▁gehe	-10.4615
▁fair	-10.4617
▁starb	-10.4617
▁aufgrund	-10.4619
▁veröffentlicht	-10.4621
▁document	-10.4621
▁cheap	-10.4621
▁decide	-10.4621
▁Organisation	-10.4622
▁leisten	-10.4624
▁fat	-10.4627
0,000	-10.4631
▁genetisch	-10.4637
▁fühlt	-10.4641
▁purpose	-10.4651
▁wenige	-10.4657
▁lines	-10.4658
▁poll	-10.4661
▁politische	-10.4663
▁genes	-10.4666
ark	-10.4667
tausch	-10.4679
▁Bäume	-10.468
▁alternative	-10.468
▁hilft	-10.468
▁gen	-10.4683
jo	-10.4684
La	-10.4693
▁gekommen	-10.4696
▁neun	-10.4705
▁keiner	-10.4708
▁tri	-10.4709
▁rat	-10.4709
▁intelligence	-10.471
▁produzieren	-10.471
▁Bühne	-10.471
hält	-10.4719
▁glass	-10.4724
▁Kar	-10.4725
▁dreht	-10.4727
▁spring	-10.4734
▁niedrig	-10.474
▁separate	-10.474
▁becoming	-10.474
▁Frieden	-10.474
▁verbreitet	-10.474
▁dangerous	-10.4741
▁versuche	-10.4741
▁series	-10.4742
▁“	-10.4742
▁dadurch	-10.4742
▁schwarze	-10.4745
▁haven	-10.4745
▁entstand	-10.4748
▁final	-10.4758
▁lesson	-10.4759
▁Fotos	-10.4762
▁mar	-10.4764
▁Prinzip	-10.4768
▁earlier	-10.477
▁significant	-10.477
▁dauert	-10.4772
▁spin	-10.4786
▁läuft	-10.479
ram	-10.4793
▁anywhere	-10.48
▁coral	-10.48
▁Eines	-10.4801
▁öffentlichen	-10.4801
▁Trans	-10.4803
▁Ton	-10.4804
▁Vergleich	-10.4805
▁Beruf	-10.4807
▁hero	-10.4809
▁buildings	-10.4816
▁greatest	-10.4819
pose	-10.4821
▁Gelegenheit	-10.483
▁September	-10.483
▁military	-10.483
▁Second	-10.483
▁Artikel	-10.483
▁Million	-10.4838
▁eure	-10.4856
▁erinnert	-10.486
▁Botschaft	-10.486
▁School	-10.486
▁verkauft	-10.4861
▁schützen	-10.4861
▁rule	-10.4863
▁wert	-10.4868
▁listening	-10.4871
▁capital	-10.4879
ball	-10.4883
▁drink	-10.4886
▁Manchmal	-10.4891
▁unterstützen	-10.4891
▁untersuchen	-10.4891
▁trade	-10.4891
▁gold	-10.4902
baren	-10.4908
▁solutions	-10.4909
▁target	-10.4921
▁charge	-10.4921
▁Architektur	-10.4925
liegen	-10.4936
▁gestellt	-10.4936
▁flo	-10.4939
▁decisions	-10.4943
▁Ok	-10.4947
▁effective	-10.4949
▁fossil	-10.4952
▁Tom	-10.4952
▁define	-10.4954
▁son	-10.4963
▁spot	-10.4964
▁Sekunden	-10.4965
▁einander	-10.497
▁actual	-10.4972
zo	-10.4975
▁mistake	-10.4982
▁besondere	-10.4982
▁Element	-10.4982
gezogen	-10.4983
▁Flug	-10.4986
▁hält	-10.4989
▁Aspekt	-10.5013
▁Schlüssel	-10.5013
▁benötigt	-10.5013
▁gift	-10.5013
▁Hirn	-10.5013
▁Drei	-10.5013
▁Spitze	-10.5013
gie	-10.5026
Hey	-10.5027
▁trick	-10.5031
Sie	-10.5032
▁familiar	-10.5044
▁erwartet	-10.5044
▁Fluss	-10.5044
▁Stand	-10.5046
▁Fuß	-10.5047
▁Manche	-10.5049
bit	-10.5055
▁kannst	-10.5056
▁Times	-10.5056
kur	-10.5058
▁zero	-10.5061
▁clearly	-10.5067
▁Sand	-10.5067
▁außerhalb	-10.5074
▁irgendwo	-10.5075
▁enormous	-10.5076
▁raise	-10.5079
▁worry	-10.5082
minister	-10.5084
ya	-10.5096
▁Jede	-10.5103
▁hinzu	-10.5104
▁himself	-10.5105
▁Aktivität	-10.5105
▁institutions	-10.5109
▁Mut	-10.5119
▁decades	-10.512
pping	-10.5125
Es	-10.5135
▁Klimawandel	-10.5136
▁Auswirkungen	-10.5136
▁Krankenhaus	-10.5137
▁neurons	-10.5138
▁Erstens	-10.5141
▁waiting	-10.5143
▁Zeitpunkt	-10.5147
wing	-10.5151
▁demand	-10.5152
▁Unser	-10.5159
fähig	-10.5162
problem	-10.5162
▁globalen	-10.5166
▁temperature	-10.5168
▁verstanden	-10.5168
▁Forscher	-10.5168
▁Feld	-10.5169
▁throughout	-10.5174
▁sowohl	-10.518
▁Ingenieur	-10.5199
▁expensive	-10.5199
▁virtual	-10.5199
▁MIT	-10.5199
▁Feuer	-10.5199
▁Vertrauen	-10.52
▁fan	-10.52
▁Regierungen	-10.5202
▁smaller	-10.5205
karte	-10.5208
ches	-10.5208
pot	-10.5214
▁Designer	-10.5215
ino	-10.5217
▁machines	-10.5219
▁Geb	-10.5221
▁passen	-10.5229
▁öffentliche	-10.5229
▁Journal	-10.523
▁höchst	-10.523
lies	-10.5235
▁cases	-10.5238
ju	-10.5244
▁Genom	-10.5245
reiben	-10.5256
Wo	-10.5257
▁financial	-10.5262
▁physics	-10.5262
▁babies	-10.5262
▁contain	-10.5262
▁Wunder	-10.5262
▁Schwester	-10.5262
▁instance	-10.5262
▁Fri	-10.5265
maschine	-10.5265
▁entschieden	-10.5266
erei	-10.5275
ush	-10.5281
gung	-10.5281
▁bisher	-10.5283
▁Americans	-10.5288
▁Darwin	-10.5293
▁Imagine	-10.5293
▁skills	-10.53
▁environmental	-10.5301
▁Vorteil	-10.5301
▁bestehen	-10.5302
▁trip	-10.5303
▁Maschinen	-10.5305
träge	-10.5306
lage	-10.5307
▁Name	-10.5308
▁Werte	-10.531
krat	-10.5316
▁Linie	-10.5322
▁Systeme	-10.5324
▁expand	-10.5325
▁Englisch	-10.5325
▁Polizei	-10.5325
▁mix	-10.5326
▁normalerweise	-10.5326
staat	-10.5326
viel	-10.5327
over	-10.5331
▁Klein	-10.5334
▁Baum	-10.5338
▁wunderbare	-10.5341
▁Mc	-10.5341
▁bear	-10.5344
▁bone	-10.5345
▁Tisch	-10.5348
▁leg	-10.5354
▁protein	-10.5357
▁pressure	-10.5358
handel	-10.5362
▁Gefahr	-10.5364
▁sammeln	-10.5367
▁75	-10.5373
energie	-10.5373
▁Lösungen	-10.5376
▁fail	-10.5378
▁erleben	-10.5379
▁Pen	-10.538
▁schlimm	-10.538
▁globale	-10.5387
▁Which	-10.5388
▁herausfinden	-10.539
unter	-10.5394
▁hair	-10.5394
▁Gleich	-10.5401
▁Erfahrungen	-10.5404
gh	-10.5405
▁runter	-10.5406
▁Lernen	-10.5408
▁Beste	-10.5413
▁hab	-10.5416
▁prove	-10.5417
▁weight	-10.5418
▁transport	-10.5418
▁Verständnis	-10.542
▁diejenigen	-10.542
▁geschehen	-10.542
▁sensor	-10.5421
▁forget	-10.5425
▁zufällig	-10.5426
▁Regel	-10.5426
▁Bis	-10.5431
▁messen	-10.5432
▁corner	-10.5438
▁web	-10.5442
▁except	-10.5442
▁honest	-10.5452
▁Solar	-10.5454
▁unit	-10.5457
spann	-10.5462
term	-10.5463
▁sexual	-10.5465
▁forms	-10.5467
▁Ei	-10.547
▁warten	-10.5472
▁Mach	-10.548
▁größere	-10.548
▁einzigen	-10.5484
▁verursacht	-10.5485
▁sister	-10.5485
▁Auge	-10.5489
▁Farbe	-10.549
schicht	-10.5499
▁persönliche	-10.5509
▁robots	-10.5512
▁shared	-10.5512
▁Port	-10.5512
▁extreme	-10.5515
▁illegal	-10.5517
▁adapt	-10.5517
schutz	-10.5517
▁Kurz	-10.5517
▁Wege	-10.552
heben	-10.5524
▁Projekte	-10.5527
▁Lang	-10.5538
▁Herzen	-10.5541
nische	-10.5546
wissenschaft	-10.5547
kor	-10.5549
▁Freude	-10.5549
▁Richard	-10.5549
▁accident	-10.5549
▁erinnere	-10.5549
▁fantastic	-10.5549
▁bloß	-10.555
gebiet	-10.5552
▁tells	-10.5557
▁Bezug	-10.5557
▁Grad	-10.5559
graph	-10.556
▁taten	-10.5561
mine	-10.5563
▁heat	-10.5568
▁points	-10.5577
werte	-10.558
▁atmosphere	-10.5582
▁match	-10.5583
▁Stunde	-10.5583
▁Bett	-10.5584
stadt	-10.5586
▁persönlich	-10.5589
▁river	-10.559
▁Hin	-10.5595
arian	-10.56
▁stars	-10.5603
▁echt	-10.5604
▁walked	-10.5614
▁include	-10.5614
▁erlebt	-10.5614
▁erwarten	-10.5614
▁selten	-10.5614
▁Methode	-10.5616
▁immediately	-10.5618
▁Einstein	-10.5621
▁schaut	-10.5622
air	-10.5627
▁decade	-10.5631
▁ban	-10.5636
prüf	-10.5647
▁cultural	-10.5647
▁Francisco	-10.5647
▁geschah	-10.5649
person	-10.565
▁Den	-10.565
▁income	-10.5651
▁sorts	-10.5652
▁Formen	-10.5654
▁Post	-10.5664
▁fallen	-10.5665
▁Punkte	-10.5665
führung	-10.5674
alität	-10.5675
licher	-10.5678
▁driving	-10.568
▁vehicle	-10.568
▁wunderschön	-10.568
▁Another	-10.568
▁wählen	-10.568
▁erzeugt	-10.568
▁Uni	-10.5686
▁vote	-10.5686
▁pop	-10.569
barkeit	-10.5696
artige	-10.5701
▁Sport	-10.5702
asse	-10.5705
▁Op	-10.5709
▁Ordnung	-10.5713
▁landscape	-10.5713
▁politics	-10.5713
▁challenges	-10.5715
▁helped	-10.5718
isierte	-10.572
▁Western	-10.5722
gesellschaft	-10.5726
▁services	-10.5729
▁scar	-10.5739
far	-10.574
▁trouble	-10.5746
▁Entdeckung	-10.5746
prozess	-10.5746
▁neighborhood	-10.5746
▁biological	-10.5746
▁Detail	-10.5747
▁ahead	-10.5751
▁Bro	-10.5752
zogen	-10.576
▁ernst	-10.5761
steuer	-10.5766
▁catch	-10.5774
▁Sun	-10.5776
tat	-10.5778
zubringen	-10.5778
▁beeinflusst	-10.5779
▁circle	-10.5779
▁praktisch	-10.5779
▁beauty	-10.5779
▁collective	-10.5783
▁motor	-10.5783
list	-10.579
skraft	-10.5799
arbeiten	-10.58
▁müsste	-10.5807
▁beach	-10.5807
▁bur	-10.581
▁Geräusch	-10.5812
▁behaupte	-10.5812
▁speech	-10.5812
▁statistic	-10.5812
▁option	-10.5816
▁geschaffen	-10.5816
▁greater	-10.5824
▁teaching	-10.5826
nung	-10.5836
▁optim	-10.584
▁Geburt	-10.5845
▁dasselbe	-10.5845
▁broken	-10.5848
▁player	-10.5853
reichen	-10.586
gelegt	-10.5864
▁Many	-10.5864
cut	-10.5867
▁Handel	-10.5867
▁herunter	-10.5876
▁Verantwortung	-10.5879
▁berühmt	-10.5879
▁beschäftigt	-10.5879
▁cloud	-10.5879
▁production	-10.5885
▁mess	-10.5891
▁cur	-10.5893
▁fällt	-10.5894
▁heutigen	-10.5904
neu	-10.5909
▁willing	-10.5909
▁König	-10.5912
▁terrible	-10.5912
▁Tochter	-10.5912
▁gedacht	-10.5912
▁therefore	-10.5912
▁genome	-10.5913
▁failure	-10.5914
▁professional	-10.5914
▁ebenso	-10.5914
▁Fu	-10.5918
▁ideal	-10.5924
kind	-10.5928
place	-10.593
▁sand	-10.5937
▁Sommer	-10.5939
star	-10.5942
▁active	-10.5944
▁entweder	-10.5946
▁Signal	-10.5946
▁sowie	-10.5947
▁spoke	-10.5947
▁Veränderungen	-10.5951
▁brand	-10.5952
▁Two	-10.5952
▁Westen	-10.5961
▁apply	-10.5974
▁whose	-10.5975
▁Mir	-10.5979
▁NASA	-10.598
▁Amazon	-10.598
▁distance	-10.598
▁Jungen	-10.5985
▁Fische	-10.5989
▁rechts	-10.5996
▁north	-10.6008
▁Lieblings	-10.6014
▁befindet	-10.6014
▁communicate	-10.6014
▁influence	-10.6014
▁behandelt	-10.6014
▁generate	-10.6017
▁summer	-10.6018
▁Junge	-10.6019
▁Frank	-10.6019
▁Werk	-10.6021
illa	-10.6022
▁Lehr	-10.6031
▁Glas	-10.6039
▁Kor	-10.604
▁birth	-10.6047
▁Think	-10.6048
▁Betracht	-10.6048
▁Verb	-10.6048
▁selben	-10.6048
▁emerge	-10.6049
▁values	-10.6053
geschichte	-10.6065
vier	-10.6066
▁22	-10.6068
modell	-10.6075
▁relationships	-10.6077
▁afraid	-10.6082
▁method	-10.6082
▁produziert	-10.6082
▁straight	-10.6082
füll	-10.6082
▁Kilometer	-10.6082
▁voraus	-10.6083
Mail	-10.6085
▁mini	-10.6093
▁useful	-10.6095
ziert	-10.6102
▁levels	-10.6105
llo	-10.6114
mäßig	-10.6116
▁Drogen	-10.6116
▁Schutz	-10.6116
▁Gl	-10.6116
▁Sozial	-10.6116
▁double	-10.6117
▁übrigens	-10.6117
▁Nähe	-10.6118
▁Überleben	-10.6118
craft	-10.6121
▁lief	-10.6125
▁Gang	-10.6129
▁sum	-10.6129
cor	-10.6136
▁interaction	-10.6138
▁colleagues	-10.6144
▁Last	-10.6145
▁algorithm	-10.615
▁dunkle	-10.615
▁random	-10.6151
▁Opfer	-10.6154
strahl	-10.6155
qual	-10.6157
▁legs	-10.6158
▁Motor	-10.616
▁passion	-10.6162
▁Frei	-10.6171
▁types	-10.6171
▁boat	-10.6171
▁obvious	-10.6173
▁brauchte	-10.6174
▁amerikanischen	-10.6176
▁author	-10.6182
▁Ehe	-10.6183
▁architect	-10.6184
▁California	-10.6185
▁Leidenschaft	-10.6185
▁genutzt	-10.6185
▁getroffen	-10.6185
▁behandeln	-10.6185
▁popular	-10.6185
▁vollständig	-10.6185
pack	-10.6186
▁edge	-10.6187
▁station	-10.6189
▁lu	-10.6192
▁forth	-10.6193
vid	-10.6193
▁Rand	-10.6199
▁mächtig	-10.62
▁laws	-10.6201
▁überleben	-10.6206
egel	-10.621
▁Suche	-10.6211
▁Autor	-10.6212
ification	-10.6214
struktur	-10.6219
▁various	-10.6219
▁Nehmen	-10.6219
▁Quelle	-10.6221
leistung	-10.6221
▁engineering	-10.6227
ou	-10.6228
▁Seit	-10.6233
nahme	-10.6233
bank	-10.6243
▁Noch	-10.6246
▁possibly	-10.6254
▁yeah	-10.6254
▁Instead	-10.6254
▁effektiv	-10.6254
▁schicken	-10.6255
▁wealth	-10.6255
▁select	-10.6257
▁mission	-10.6259
▁describe	-10.6259
▁verbringen	-10.6267
▁costs	-10.6272
uten	-10.6274
▁legen	-10.6276
▁choices	-10.6279
▁km	-10.6281
▁recent	-10.6289
▁Antworten	-10.6289
▁Nerven	-10.6289
▁Charakter	-10.6289
▁konzentrieren	-10.6289
▁understood	-10.6289
plica	-10.6291
▁flying	-10.6303
wesen	-10.6307
▁quick	-10.6316
▁Gefühle	-10.6316
▁danke	-10.6317
▁neighbor	-10.6324
▁capture	-10.6324
▁television	-10.6324
▁Schwarz	-10.6324
▁install	-10.6325
▁Zelle	-10.6325
▁Version	-10.6325
▁stopped	-10.6326
▁Gesetze	-10.6328
▁Gemeinde	-10.633
50	-10.633
▁invented	-10.6344
krieg	-10.6346
▁citizens	-10.6359
▁climb	-10.6359
▁disappear	-10.6359
▁spricht	-10.6359
▁außergewöhnlich	-10.6359
▁Asia	-10.6363
▁saving	-10.6364
▁Life	-10.6367
▁aren	-10.6368
suche	-10.6377
pre	-10.6386
▁rid	-10.6386
ily	-10.639
▁Höhe	-10.6394
▁consequence	-10.6394
▁verkaufen	-10.6394
nahmen	-10.6395
▁Jedes	-10.6396
uff	-10.6407
▁none	-10.6408
aktion	-10.6408
schaftliche	-10.6427
▁Schiff	-10.6428
▁societies	-10.643
zeichen	-10.643
▁Street	-10.643
▁Volk	-10.643
▁Erkenntnis	-10.6431
How	-10.6433
▁anyway	-10.6439
design	-10.6442
position	-10.6443
▁jemandem	-10.6443
▁closer	-10.645
▁Produkte	-10.645
▁organizations	-10.6451
▁layer	-10.6453
▁express	-10.6458
▁alter	-10.6459
Ein	-10.6461
▁tag	-10.6465
▁Atmosphäre	-10.6465
▁Identität	-10.6465
▁Charles	-10.6465
▁insect	-10.6465
▁Fenster	-10.6465
▁Tumor	-10.6465
▁apart	-10.6469
▁Professor	-10.647
▁herstellen	-10.6476
▁welcher	-10.6481
kauf	-10.6481
cal	-10.6489
▁speaking	-10.6495
▁College	-10.6501
▁Schönheit	-10.6501
▁creativity	-10.6501
▁sequence	-10.6501
▁struggle	-10.6501
▁surround	-10.6501
▁Plastik	-10.6501
forschung	-10.6501
▁aufregend	-10.6501
▁Gewinn	-10.6501
▁Biologie	-10.6502
▁net	-10.6521
▁mostly	-10.6525
▁seemed	-10.6528
source	-10.6531
▁2010	-10.6536
▁Etwa	-10.6537
▁worst	-10.6537
▁patent	-10.6538
▁Bienen	-10.654
öl	-10.6546
▁nahmen	-10.6549
verse	-10.655
▁Männern	-10.6552
tete	-10.6558
▁seat	-10.6562
▁endlich	-10.6565
▁remarkable	-10.6572
▁allgemein	-10.6572
▁deutlich	-10.6572
▁vast	-10.6573
▁sold	-10.6575
▁untersucht	-10.6578
Music	-10.6579
▁condition	-10.6579
▁nor	-10.6581
child	-10.6583
▁lack	-10.6584
▁following	-10.6586
▁gain	-10.6593
▁sick	-10.6601
nisse	-10.6601
▁drin	-10.6605
▁civil	-10.6608
▁custom	-10.6608
ix	-10.6608
▁diseases	-10.6609
It	-10.661
▁held	-10.6611
▁Gehirns	-10.6614
taucht	-10.6615
▁Städten	-10.6618
▁directly	-10.6618
▁disc	-10.6639
▁Eigenschaften	-10.664
fro	-10.6642
istische	-10.6642
▁Perspektive	-10.6644
▁sample	-10.6644
▁Kontakt	-10.6644
▁Geschlecht	-10.6645
dauer	-10.6646
▁erhielt	-10.6652
fisch	-10.6653
▁below	-10.6662
▁Einkommen	-10.6663
▁Cor	-10.6664
▁fehl	-10.6667
▁normale	-10.6671
markt	-10.6678
▁although	-10.668
▁infrastructure	-10.668
▁Depression	-10.6681
▁steckt	-10.6681
einhalb	-10.6681
▁iron	-10.6681
▁verw	-10.6682
▁Einer	-10.6687
▁Regen	-10.6688
▁copy	-10.6693
▁wide	-10.6697
▁driver	-10.6699
▁virus	-10.6702
▁Jahrhunderts	-10.6707
ological	-10.671
▁wichtigsten	-10.6715
▁Va	-10.6715
▁beobachtet	-10.6717
▁folgt	-10.6717
▁spät	-10.6717
mobil	-10.6718
bruch	-10.6725
▁Schl	-10.6727
▁pu	-10.6736
ließ	-10.6736
alter	-10.6737
▁shop	-10.6739
▁Gas	-10.6745
▁Chicago	-10.6753
▁Karriere	-10.6753
▁geo	-10.6754
▁shark	-10.6754
▁paid	-10.6759
▁scientist	-10.6765
▁existieren	-10.6766
zusetzen	-10.6768
▁engine	-10.677
▁noise	-10.6771
▁Band	-10.6772
▁Ganze	-10.6772
▁ihres	-10.6775
▁Freunden	-10.6788
▁belief	-10.6788
▁Anti	-10.6789
▁central	-10.679
▁erfunden	-10.679
▁supply	-10.679
▁wesentlich	-10.679
▁kämpfen	-10.679
▁loss	-10.6792
▁2008	-10.6795
▁dieselbe	-10.6797
▁Inhalt	-10.6802
Mo	-10.6812
▁effects	-10.6815
▁labor	-10.6822
▁capacity	-10.6827
▁switch	-10.6827
▁shoot	-10.6827
▁argue	-10.6827
▁traditionelle	-10.6827
▁kostet	-10.6828
▁gather	-10.6828
▁23	-10.6834
▁politischen	-10.6835
▁noticed	-10.6836
▁amerikanische	-10.6837
▁Haben	-10.684
▁published	-10.6841
▁wunderbar	-10.6845
möglich	-10.686
▁Chi	-10.6862
▁destroy	-10.6864
▁imagination	-10.6864
▁Ahnung	-10.6864
▁99	-10.6867
▁Worten	-10.6868
Wenn	-10.6868
▁boys	-10.6869
issen	-10.6869
▁Werkzeuge	-10.687
▁mid	-10.6875
anischen	-10.6887
▁lautet	-10.6888
izieren	-10.6895
▁Tim	-10.69
verständlich	-10.6901
▁Kreativität	-10.6901
▁profound	-10.6901
▁Standard	-10.6902
bauen	-10.6915
▁birds	-10.6918
lager	-10.6931
ua	-10.6932
▁spreche	-10.6933
▁Gar	-10.6936
▁technique	-10.6938
▁tissue	-10.6938
▁giant	-10.6938
▁From	-10.6938
▁damage	-10.6938
▁bra	-10.6939
▁fuhr	-10.694
▁rare	-10.6947
▁Begriff	-10.6948
▁seconds	-10.6952
lop	-10.6954
▁lies	-10.696
komm	-10.6967
führ	-10.6968
▁Knochen	-10.6975
▁instrument	-10.6975
▁feature	-10.6975
▁rational	-10.6976
hängen	-10.6979
▁replace	-10.6981
▁Spa	-10.6982
▁emotions	-10.6994
▁wood	-10.7001
▁Alzheimer	-10.7013
▁ebenfalls	-10.7013
▁slightly	-10.7013
▁interpret	-10.7013
▁Kohle	-10.7013
▁Welche	-10.7016
fahrt	-10.7021
▁natürliche	-10.7023
▁guter	-10.7025
Nein	-10.7027
hilfe	-10.7041
▁trotz	-10.7048
▁Instrument	-10.705
▁easier	-10.705
▁industrial	-10.705
▁Position	-10.705
▁traffic	-10.7051
run	-10.7053
gerät	-10.7054
▁master	-10.7059
▁Over	-10.7073
▁react	-10.7078
▁causes	-10.7086
▁Keine	-10.7088
▁nachhaltig	-10.7088
▁combine	-10.7088
▁dying	-10.7089
▁funny	-10.7089
▁aware	-10.709
hung	-10.709
▁Dort	-10.7094
▁Zustand	-10.7096
▁frühen	-10.7108
▁billig	-10.712
▁Big	-10.7125
▁occur	-10.7125
▁$	-10.7125
▁sau	-10.7126
setzung	-10.7126
▁Brazil	-10.7126
▁Strategie	-10.7126
▁conference	-10.7126
▁einzigartig	-10.7126
▁identity	-10.7126
▁nötig	-10.7126
▁satellite	-10.7126
▁husband	-10.7126
▁trifft	-10.7126
▁Great	-10.7126
▁tumor	-10.7126
▁dad	-10.7127
▁James	-10.7127
▁unabhängig	-10.7127
▁sentence	-10.7128
▁south	-10.7128
▁desire	-10.7133
▁Pre	-10.7142
schrei	-10.7148
▁Air	-10.7155
▁Unterschiede	-10.7157
▁brilliant	-10.7164
▁surprising	-10.7164
▁Tausende	-10.7164
▁gebe	-10.7165
Warum	-10.7166
▁entstehen	-10.7167
Why	-10.7169
▁governments	-10.7174
▁Island	-10.7175
▁Osten	-10.7177
liebe	-10.7181
▁nearly	-10.7184
grat	-10.7195
▁Werkzeug	-10.7196
▁oxygen	-10.7202
▁Geheimnis	-10.7202
▁Wohn	-10.7203
▁Protein	-10.7203
▁Titel	-10.7204
▁Paris	-10.7206
▁halb	-10.721
▁einfacher	-10.7211
▁Einsatz	-10.7211
▁Schlag	-10.7215
▁stabil	-10.7238
▁Pakistan	-10.724
▁öffnen	-10.724
▁ermöglichen	-10.724
▁gilt	-10.7241
▁Teilen	-10.7241
▁gap	-10.7241
▁hack	-10.7244
▁highly	-10.7246
▁nett	-10.7246
▁Wandel	-10.7247
Beifall	-10.7249
▁pig	-10.7255
▁pan	-10.7256
▁weren	-10.7273
▁differently	-10.7276
▁Todes	-10.7278
▁Michael	-10.7279
▁commercial	-10.7279
▁iPhone	-10.7279
▁refugee	-10.7279
▁sogenannte	-10.7279
▁ursprünglich	-10.7279
▁Steuer	-10.7279
▁ancient	-10.7279
▁promise	-10.7279
nimmt	-10.7281
▁beat	-10.7283
▁fühle	-10.7288
▁kurze	-10.7288
▁weiterhin	-10.7288
▁Your	-10.7293
▁Tieren	-10.73
▁halbe	-10.731
▁starke	-10.7312
▁helping	-10.7316
▁Intelligenz	-10.7317
▁Sauerstoff	-10.7317
▁determine	-10.7317
▁surgery	-10.7317
▁überrascht	-10.7317
▁Operation	-10.7317
▁geb	-10.7318
▁attract	-10.732
▁Link	-10.732
tech	-10.7331
▁Ganz	-10.7337
▁played	-10.7343
▁Geschwindigkeit	-10.7356
▁balance	-10.7356
▁graduate	-10.7356
▁Müll	-10.7356
▁sharing	-10.7356
▁gotten	-10.7364
▁Ansicht	-10.7365
▁blog	-10.7367
▁unver	-10.7369
▁tradition	-10.7377
▁Lauf	-10.7382
▁grab	-10.739
▁tremendous	-10.7395
▁Korallen	-10.7395
▁Jobs	-10.7396
▁shock	-10.7397
sätze	-10.7398
▁Träume	-10.74
▁ähnliche	-10.7416
▁plane	-10.7423
▁YouTube	-10.7434
▁component	-10.7434
▁Anwendung	-10.7434
▁recover	-10.7434
▁avoid	-10.7434
▁classroom	-10.7435
▁überzeugen	-10.7435
▁Bildschirm	-10.7435
▁weird	-10.7438
▁Bur	-10.7441
bereit	-10.7443
▁Boot	-10.7455
Da	-10.7457
▁Mess	-10.7462
▁sport	-10.7463
▁fill	-10.7467
▁campaign	-10.7473
▁dynamic	-10.7473
▁kontrollieren	-10.7473
▁vermutlich	-10.7473
▁bought	-10.7473
▁addition	-10.7474
▁Insel	-10.7474
▁earth	-10.7477
▁riesigen	-10.7479
▁stellten	-10.7481
▁eigenes	-10.7486
▁evolved	-10.7488
▁0	-10.7498
Ko	-10.7498
▁Laufe	-10.75
▁programs	-10.7504
▁gegangen	-10.7505
▁tausende	-10.751
körper	-10.7512
▁zusätzlich	-10.7513
▁Gewicht	-10.7513
▁continent	-10.7513
▁easily	-10.7513
▁faszinierend	-10.7513
▁relevant	-10.7513
▁religious	-10.7513
▁Zeichen	-10.7513
breite	-10.7513
▁sustainable	-10.7515
▁Farben	-10.7515
▁fangen	-10.7517
▁log	-10.7521
▁seien	-10.7522
etter	-10.7534
bildung	-10.755
▁diversity	-10.7552
▁responsibility	-10.7552
▁sector	-10.7552
▁reagieren	-10.7552
▁Kunden	-10.7555
▁basis	-10.7555
▁afrikanische	-10.7558
not	-10.7561
oli	-10.7562
▁kenne	-10.7565
ave	-10.7568
fassung	-10.7572
▁Waffen	-10.7578
▁zog	-10.7578
▁Objekte	-10.7587
▁Gro	-10.759
fährt	-10.759
▁entirely	-10.7592
▁Großbritannien	-10.7592
▁opposite	-10.7592
▁Again	-10.7592
▁border	-10.7592
▁bridge	-10.7593
Un	-10.7596
▁enable	-10.7596
▁Lied	-10.7597
▁Ausdruck	-10.7597
▁tax	-10.7605
▁Aufnahme	-10.7607
▁Norm	-10.7607
artig	-10.7607
▁core	-10.7612
lagen	-10.7613
ura	-10.762
▁produced	-10.7627
▁fully	-10.7629
▁Infrastruktur	-10.7632
▁Science	-10.7632
▁Temperatur	-10.7632
▁Vielfalt	-10.7632
▁begeistert	-10.7632
▁definition	-10.7632
▁twice	-10.7632
▁remove	-10.7632
▁Tief	-10.7634
gramm	-10.7636
▁grand	-10.7638
▁farmers	-10.7639
▁Russia	-10.7639
▁Ansatz	-10.7639
länder	-10.764
▁Wirtschafts	-10.7642
▁states	-10.7655
▁Einzel	-10.7658
▁Gegend	-10.7659
ong	-10.7661
▁Brot	-10.7664
▁Center	-10.7666
▁Australia	-10.7672
▁beeinflussen	-10.7672
▁chair	-10.7672
▁Häuser	-10.7672
▁Brief	-10.7672
▁überzeugt	-10.7672
▁Ausbildung	-10.7674
▁Materialien	-10.7675
material	-10.7676
▁Lebensmittel	-10.7676
▁Verkehr	-10.7676
▁Angeles	-10.7677
▁members	-10.7679
▁missing	-10.7681
▁invent	-10.7684
▁ill	-10.7693
holen	-10.7693
▁Rede	-10.7694
▁langen	-10.7697
Du	-10.7701
▁King	-10.7704
ugg	-10.771
▁moralische	-10.7712
▁Phänomen	-10.7712
▁betrifft	-10.7712
▁muscle	-10.7712
spiegel	-10.7712
▁blieb	-10.7718
▁Landschaft	-10.772
▁hang	-10.7721
▁Kann	-10.7723
▁Hä	-10.7729
▁Radio	-10.773
▁App	-10.7746
▁metaphor	-10.7752
▁angefangen	-10.7752
▁despite	-10.7752
▁Schluss	-10.7752
▁Zweitens	-10.7753
▁divide	-10.7753
▁jung	-10.7757
▁schien	-10.7758
▁scene	-10.7758
▁herzustellen	-10.7759
nor	-10.776
▁entrepreneur	-10.7762
▁10,000	-10.7768
▁Mehr	-10.7769
▁focused	-10.777
▁Rob	-10.7771
▁hearing	-10.7774
▁studying	-10.7777
technologie	-10.7784
▁differences	-10.7787
▁Erst	-10.7787
▁schaute	-10.7787
dach	-10.7792
▁Mütter	-10.7793
▁begonnen	-10.7793
▁article	-10.7793
▁roof	-10.7793
▁joy	-10.7793
▁strength	-10.7794
wirken	-10.7795
▁host	-10.7796
ßt	-10.7796
▁aufgenommen	-10.7807
▁Arch	-10.7813
▁Durchschnitt	-10.7818
losen	-10.7819
ehren	-10.7832
▁Unterstützung	-10.7833
▁Verfügung	-10.7833
▁depression	-10.7833
▁verdienen	-10.7833
▁lustig	-10.7834
▁Vision	-10.7834
▁Obama	-10.7834
▁forces	-10.7839
▁entlang	-10.784
▁Holz	-10.7841
▁legt	-10.7855
▁600	-10.7855
▁Code	-10.7858
▁aid	-10.7869
▁lock	-10.7872
▁application	-10.7874
▁Statistik	-10.7874
▁bottle	-10.7874
▁cycle	-10.7874
▁Gedicht	-10.7874
▁Würde	-10.7874
▁Boston	-10.7874
▁Richtig	-10.7875
▁Green	-10.7878
▁dagegen	-10.7878
▁flight	-10.7879
ali	-10.7881
▁kalt	-10.7884
▁Dan	-10.7889
▁consumer	-10.7899
fällig	-10.7908
▁voran	-10.791
An	-10.7913
▁electro	-10.7914
▁nützlich	-10.7915
▁erwähnt	-10.7915
▁Iraq	-10.7915
▁kulturelle	-10.7915
▁civilization	-10.7916
▁Online	-10.7918
▁streets	-10.7918
▁alleine	-10.7921
▁tough	-10.7923
▁handeln	-10.7923
▁27	-10.7923
▁era	-10.7924
▁Ecke	-10.7925
▁fiel	-10.7934
gericht	-10.7937
bereich	-10.7938
▁suffering	-10.794
▁erstellt	-10.7942
▁suit	-10.7951
▁entschied	-10.7951
▁BG	-10.7952
▁erkannte	-10.7953
▁erstellen	-10.7955
▁background	-10.7956
▁benötigen	-10.7956
▁buchstäblich	-10.7956
▁encourage	-10.7956
▁heran	-10.7956
▁Mont	-10.7957
▁outcome	-10.7958
▁sorgen	-10.7958
▁Filme	-10.7958
zimmer	-10.7961
▁davor	-10.7967
teile	-10.7968
▁dig	-10.7976
▁Produktion	-10.7979
▁ear	-10.7983
phone	-10.7985
▁Take	-10.7989
▁steigen	-10.7991
▁Fernseh	-10.7993
▁victim	-10.7998
▁election	-10.7998
▁smell	-10.7998
▁chose	-10.7998
▁Erzähl	-10.8
▁molecules	-10.8004
▁Effekt	-10.8005
▁grundlegende	-10.8007
▁reaction	-10.801
▁fragten	-10.8011
▁Forschungs	-10.8019
▁Verbindungen	-10.803
▁geh	-10.8039
▁whale	-10.8039
▁klingt	-10.8039
▁workers	-10.8043
▁Massen	-10.8044
▁Andere	-10.8046
▁drawing	-10.8046
▁dorthin	-10.8048
▁party	-10.805
▁investment	-10.8052
▁inspired	-10.8054
point	-10.8059
▁blow	-10.8061
▁quote	-10.8062
park	-10.8066
▁absolute	-10.8069
gar	-10.807
▁Haar	-10.8074
▁mach	-10.8077
▁Zusammenhang	-10.8081
▁claim	-10.8081
▁crowd	-10.8081
▁Unternehmer	-10.8081
▁Anderson	-10.8082
▁technische	-10.8082
jahr	-10.8084
▁bag	-10.8084
ppel	-10.8085
▁Korea	-10.809
▁efficient	-10.8091
▁dritten	-10.8094
▁grade	-10.8098
▁beschreiben	-10.8099
▁nehme	-10.8099
▁Tradition	-10.8123
▁chinesische	-10.8123
▁opportunities	-10.8123
▁entscheidend	-10.8123
▁typisch	-10.8123
bewegung	-10.8124
▁Neuronen	-10.8125
▁eating	-10.8128
▁durchgeführt	-10.8128
schein	-10.8131
freund	-10.8131
▁moon	-10.8144
wunder	-10.8147
▁bitten	-10.8155
geführt	-10.8156
▁correct	-10.8165
▁Middle	-10.8165
▁Wahrnehmung	-10.8165
▁regular	-10.8165
▁prior	-10.8165
▁immun	-10.8165
▁European	-10.8179
▁passed	-10.8181
▁Mai	-10.8186
▁Akt	-10.8188
macht	-10.8193
▁Folge	-10.8193
▁Ed	-10.8195
Co	-10.8203
grad	-10.8206
▁Drittel	-10.8207
▁Wikipedia	-10.8207
▁entsteht	-10.8207
▁professor	-10.8207
▁chain	-10.8207
▁Virus	-10.8207
▁Babys	-10.8209
▁Großteil	-10.8209
dienst	-10.8209
▁degrees	-10.821
▁Basis	-10.8212
▁forever	-10.8221
▁Gesellschaften	-10.8222
aktiv	-10.8229
▁Hinter	-10.8232
station	-10.8233
▁Such	-10.8241
▁designers	-10.8242
▁gender	-10.8244
schluss	-10.8247
▁Diskussion	-10.8249
▁Militär	-10.8249
▁elektrische	-10.8249
▁president	-10.8249
▁More	-10.8249
▁estimate	-10.8249
▁Zusammenarbeit	-10.8251
cop	-10.8256
▁spending	-10.8256
burg	-10.8256
▁UN	-10.8263
▁notion	-10.8265
maß	-10.8267
▁wohin	-10.8269
gehend	-10.8277
finden	-10.8278
▁Sonnen	-10.8282
bon	-10.8283
▁Organisationen	-10.8291
▁Untersuchung	-10.8292
▁Zentrum	-10.8292
▁erforschen	-10.8292
▁stolz	-10.8292
▁ski	-10.8293
▁Adam	-10.8296
tiere	-10.8299
▁lucky	-10.83
▁Dem	-10.8303
▁größeren	-10.8304
▁darf	-10.8305
▁Loch	-10.8321
tun	-10.8326
▁Bedingungen	-10.8335
▁universal	-10.8335
▁unbedingt	-10.8335
▁root	-10.8335
▁gestalten	-10.8335
▁Qualität	-10.8335
▁consciousness	-10.8336
▁Verlust	-10.8337
▁radical	-10.8337
Musik	-10.8341
▁Grün	-10.8342
▁Satz	-10.8342
▁investieren	-10.8343
▁Rad	-10.8345
▁Bauern	-10.8345
▁parent	-10.8347
▁Schuld	-10.835
▁biologische	-10.835
zelle	-10.8361
▁End	-10.8367
▁Niemand	-10.8377
▁coffee	-10.8377
▁Pflege	-10.8377
▁contact	-10.8378
▁wuchs	-10.8378
▁stecken	-10.8378
▁British	-10.8378
▁importantly	-10.8378
stimme	-10.8381
▁crime	-10.8381
▁Beine	-10.8384
This	-10.8385
▁complexity	-10.8385
▁Folgen	-10.839
schlagen	-10.8392
▁reward	-10.8392
ulate	-10.8392
▁entwickelten	-10.8394
fern	-10.8402
kunft	-10.8419
▁Actually	-10.8421
▁identify	-10.8421
▁inspiriert	-10.8421
▁kommunizieren	-10.8421
schlüsse	-10.8421
▁leadership	-10.8421
▁Faktor	-10.8422
▁Maß	-10.8428
▁conc	-10.8429
gelassen	-10.8431
▁Miss	-10.8434
▁nochmal	-10.8437
▁Weiß	-10.8442
▁meist	-10.8451
atic	-10.8452
state	-10.8461
▁GPS	-10.8464
▁Sometimes	-10.8464
▁Kenya	-10.8464
▁Patient	-10.8473
omi	-10.8475
hood	-10.8476
▁surprise	-10.8478
▁suffer	-10.8481
▁basiert	-10.8482
stände	-10.8483
▁Geräte	-10.8483
▁Viel	-10.8494
▁deeply	-10.8498
▁spirit	-10.8507
▁Komplexität	-10.8507
▁competition	-10.8507
▁magazine	-10.8507
▁possibility	-10.8507
▁verfügbar	-10.8507
▁Thomas	-10.8507
▁faith	-10.8507
▁Institutionen	-10.8507
▁remote	-10.8507
▁adopt	-10.8508
▁Fach	-10.8508
funktion	-10.8509
▁Politiker	-10.8509
▁score	-10.851
▁bezahlt	-10.851
zwischen	-10.8515
▁direct	-10.8516
wagen	-10.8522
▁psycho	-10.8522
stab	-10.8524
▁Bas	-10.8532
vision	-10.8532
▁Sin	-10.8537
head	-10.8538
▁employ	-10.8551
▁kümmern	-10.8551
▁Institute	-10.8551
▁However	-10.8555
▁Human	-10.8555
▁2007	-10.8556
▁Stoff	-10.8556
fluss	-10.8559
▁dahin	-10.8569
▁relativ	-10.8576
▁Sekunde	-10.8576
▁krank	-10.8578
steigen	-10.8582
▁turning	-10.8582
▁Medikament	-10.8584
▁nah	-10.8584
▁figured	-10.8585
regel	-10.8589
▁raised	-10.8593
günstig	-10.8595
▁clever	-10.8595
▁bemerkenswert	-10.8595
▁1980	-10.8597
▁Zucker	-10.8597
▁wander	-10.8601
tauchen	-10.8601
▁pal	-10.8603
▁Aufgaben	-10.8612
matic	-10.8613
▁Ziele	-10.8615
▁umgehen	-10.8618
▁breit	-10.8618
▁island	-10.8624
▁gun	-10.8637
▁breast	-10.8639
▁erlauben	-10.8639
▁fashion	-10.8639
▁truck	-10.8639
▁Zuerst	-10.8639
▁Wild	-10.864
▁Gegenteil	-10.864
wärts	-10.8641
phy	-10.8646
Mi	-10.8646
treffen	-10.8647
quelle	-10.8659
Y	-10.8663
room	-10.8664
▁westliche	-10.8674
▁Typen	-10.8676
▁ecosystem	-10.8683
▁Vögel	-10.8683
▁Wunsch	-10.8683
▁crash	-10.8683
▁operation	-10.8685
▁1,000	-10.8688
based	-10.869
▁stuck	-10.8693
▁Roman	-10.8693
▁leer	-10.8696
▁Start	-10.8703
daten	-10.8705
▁meters	-10.8706
gegen	-10.8709
▁Insekten	-10.8713
▁cop	-10.8718
tail	-10.872
▁zone	-10.8722
▁Architekt	-10.8723
▁platform	-10.8728
▁previous	-10.8728
▁zerstört	-10.8728
▁Gewebe	-10.8728
▁Stärke	-10.8728
▁talent	-10.8728
▁French	-10.8728
▁hurt	-10.8728
▁novel	-10.8729
▁neuer	-10.873
▁Golf	-10.873
▁Konferenz	-10.8734
life	-10.8734
▁Norden	-10.874
▁Lern	-10.8749
atter	-10.8751
▁Gesch	-10.8759
▁leider	-10.8764
kultur	-10.8772
▁Experten	-10.8772
▁strategy	-10.8772
▁visuelle	-10.8772
▁Bruder	-10.8772
▁stärker	-10.8774
▁desert	-10.8778
erfolg	-10.8779
stream	-10.8781
▁solid	-10.8783
q	-10.8787
▁Fliege	-10.8787
▁gegenseitig	-10.8788
▁erhält	-10.8792
▁Blog	-10.8795
▁leid	-10.8796
▁adult	-10.8797
▁soil	-10.8803
▁Mode	-10.8817
▁Kontinent	-10.8817
▁advantage	-10.8817
▁exercise	-10.8817
▁mechanism	-10.8817
▁getötet	-10.8817
▁mouth	-10.8817
▁prefer	-10.8817
▁bestimmen	-10.8817
▁technical	-10.8818
▁Vogel	-10.8818
▁Kra	-10.8819
▁Fällen	-10.882
▁date	-10.8822
▁Fernsehen	-10.8823
▁verbracht	-10.8823
atory	-10.8824
bewusst	-10.8826
▁lernt	-10.8833
Der	-10.8837
▁i	-10.8839
▁bird	-10.8842
▁foreign	-10.8842
▁flat	-10.8843
▁auseinander	-10.8859
▁Mitglied	-10.8862
▁hängt	-10.8862
▁geschafft	-10.8862
rechnung	-10.8862
▁wächst	-10.8862
▁coast	-10.8863
▁bezahlen	-10.8863
▁majority	-10.8868
▁ultimately	-10.8869
▁Gri	-10.8869
That	-10.8871
▁expression	-10.8875
gegangen	-10.8875
▁graph	-10.8889
stimmt	-10.889
▁hall	-10.889
▁justice	-10.8903
▁responsible	-10.8907
▁überraschend	-10.8907
▁versteckt	-10.8907
▁Materie	-10.8907
▁disorder	-10.8907
▁electronic	-10.8908
▁Krise	-10.8913
gram	-10.8918
▁Karten	-10.8918
▁May	-10.892
▁stranger	-10.8926
▁übertragen	-10.8927
ahn	-10.8939
▁Fal	-10.894
▁Act	-10.8942
▁65	-10.8944
▁1990	-10.8953
▁dinosaur	-10.8953
▁dürfen	-10.8953
▁necessarily	-10.8953
krebs	-10.8953
▁trend	-10.8953
ießen	-10.8953
▁creatures	-10.8955
sweise	-10.8957
▁bright	-10.8958
▁Haiti	-10.8959
▁solch	-10.8961
▁gewöhnlich	-10.8966
fläche	-10.8968
wick	-10.8976
▁whi	-10.8979
lla	-10.8983
zugeben	-10.8988
▁believed	-10.8989
▁cave	-10.899
▁fragt	-10.8995
▁govern	-10.8997
▁Kal	-10.8997
▁Resultat	-10.8999
▁monkey	-10.8999
▁verantwortlich	-10.8999
▁Malaria	-10.8999
▁Jungs	-10.9
Pro	-10.9001
▁Irak	-10.9002
▁Paar	-10.9002
▁Ökosystem	-10.9003
▁motion	-10.9008
sichtlich	-10.9008
▁frage	-10.9009
▁proud	-10.9012
▁particles	-10.9016
▁wichtigste	-10.9016
▁notwendig	-10.9024
▁halte	-10.9033
▁mode	-10.9035
▁museum	-10.9044
▁Symbol	-10.9044
▁Valley	-10.9044
▁effizient	-10.9044
▁gewonnen	-10.9044
▁herausgefunden	-10.9044
▁scheinen	-10.9045
▁Außerdem	-10.9045
▁Robert	-10.9047
▁repeat	-10.9049
▁EM	-10.9058
▁fairly	-10.9063
▁writer	-10.9064
Go	-10.9071
▁stem	-10.9082
▁tick	-10.909
▁monitor	-10.909
▁dress	-10.9091
▁gewaltig	-10.9091
▁bieten	-10.9092
▁außerdem	-10.9094
▁sink	-10.9095
▁Kindheit	-10.9101
▁Spielen	-10.9103
▁multiple	-10.9106
geber	-10.9107
▁adults	-10.9112
▁finish	-10.9114
unternehmen	-10.9119
▁Ben	-10.9123
▁Sein	-10.9125
▁Fünf	-10.9137
▁International	-10.9137
▁marriage	-10.9137
▁yellow	-10.9137
▁Heimat	-10.9137
▁gelangen	-10.9137
▁quiet	-10.9137
▁debate	-10.9137
▁innovative	-10.9159
▁epi	-10.9161
▁lieber	-10.9164
wirkung	-10.9173
▁Flüchtling	-10.9182
▁Erfindung	-10.9183
▁airplane	-10.9183
▁letztendlich	-10.9184
speicher	-10.9184
▁Hintergrund	-10.9184
▁einsetzen	-10.9184
▁Kurs	-10.9189
▁Einfach	-10.9192
▁hohen	-10.9202
dding	-10.9204
▁holding	-10.9214
▁leading	-10.9215
▁pet	-10.9223
▁ring	-10.9225
▁Kräfte	-10.923
projekt	-10.923
▁cartoon	-10.923
▁opinion	-10.923
▁250	-10.9231
▁Stress	-10.9231
▁Show	-10.9235
▁fold	-10.9237
▁opened	-10.9256
▁Milliarde	-10.926
▁Laden	-10.9263
▁passt	-10.9268
▁schwarz	-10.9269
▁wahre	-10.9271
▁attempt	-10.9277
▁Januar	-10.9277
▁click	-10.9277
▁Good	-10.9277
▁besitzen	-10.9277
▁Fläche	-10.9278
▁honor	-10.9278
▁Küste	-10.9278
▁Grundlage	-10.9279
leuchten	-10.9279
rechnen	-10.928
▁journalist	-10.929
▁sorry	-10.9295
▁Cap	-10.9295
▁sicherlich	-10.9297
▁Bitte	-10.9298
▁Hai	-10.9302
Na	-10.9302
▁received	-10.9302
▁Sorgen	-10.9312
▁usw	-10.9316
▁wiederum	-10.9319
▁blu	-10.9323
▁Ameisen	-10.9324
▁verbessert	-10.9324
▁Soldaten	-10.9324
▁dinner	-10.9324
▁Obwohl	-10.9324
figur	-10.9324
▁extend	-10.9325
erseits	-10.9325
▁childhood	-10.9325
▁rief	-10.9325
▁unfortunately	-10.9327
▁Mill	-10.9328
▁coal	-10.9334
▁drehen	-10.934
eign	-10.9346
ivity	-10.9346
▁plus	-10.9347
würdig	-10.9371
▁succeed	-10.9372
▁interagieren	-10.9372
▁kürzlich	-10.9372
▁phenomenon	-10.9372
▁geführt	-10.9372
▁sugar	-10.9372
fähigkeit	-10.9373
▁vollkommen	-10.9375
▁reicht	-10.9376
▁Gericht	-10.9396
▁Modelle	-10.9396
wat	-10.9396
▁failed	-10.9406
▁Einheit	-10.9408
ography	-10.9409
▁earn	-10.9416
▁Kontext	-10.9419
▁broad	-10.9419
▁bubble	-10.9419
▁restaurant	-10.9419
▁verwandeln	-10.9419
▁töten	-10.9419
▁Nutzen	-10.9419
▁gäbe	-10.9419
▁studied	-10.9419
▁traurig	-10.9419
▁Interaktion	-10.942
▁Folgendes	-10.942
▁sitzt	-10.9421
▁Stimmen	-10.9423
aving	-10.9427
▁Ost	-10.943
▁tausend	-10.9435
▁bill	-10.9448
▁stream	-10.9458
▁spec	-10.9461
Gesundheitswesen	-10.9461
istisch	-10.9463
für	-10.9467
▁Kalifornien	-10.9467
▁Kohlenstoff	-10.9467
▁konzentriert	-10.9467
▁necessary	-10.9467
▁zukünftige	-10.9467
▁mindestens	-10.9467
▁Außen	-10.9467
▁unsichtbar	-10.9467
▁concentrat	-10.9467
▁Augenblick	-10.947
▁constantly	-10.9475
▁Masse	-10.9476
▁Rot	-10.9481
jährigen	-10.9483
▁belong	-10.9486
▁band	-10.9486
▁hunderte	-10.9489
▁Kein	-10.949
▁compared	-10.9494
▁Star	-10.9495
▁bedeutend	-10.9499
glo	-10.9503
▁construct	-10.951
▁degree	-10.9511
▁hauptsächlich	-10.9515
▁sozusagen	-10.9515
▁location	-10.9515
▁vertraut	-10.9515
▁creation	-10.9516
▁battle	-10.9516
▁entwerfen	-10.9516
▁Einstellung	-10.9523
▁sichtbar	-10.9527
▁trained	-10.9533
▁Dia	-10.9537
▁Seele	-10.9537
▁erzähle	-10.9546
▁typical	-10.9552
▁sudden	-10.9552
▁Jack	-10.9554
spielen	-10.9559
▁Kaffee	-10.9563
▁Quadrat	-10.9563
▁Zweck	-10.9563
▁Affen	-10.9564
▁Wüste	-10.9564
▁caught	-10.9565
lösung	-10.9565
linie	-10.9573
▁weak	-10.958
▁Gründen	-10.9588
▁weiss	-10.9589
schütz	-10.959
▁dozen	-10.9595
▁Stimm	-10.9596
▁Yorker	-10.9599
▁dran	-10.9607
▁Egypt	-10.9612
▁Erklärung	-10.9612
▁Schrift	-10.9612
▁Hunger	-10.9612
▁1960	-10.9614
schule	-10.9615
▁2009	-10.9617
▁harder	-10.9618
▁Beweis	-10.9619
▁insight	-10.9623
▁Pra	-10.9624
▁Stamm	-10.9625
▁Once	-10.9626
▁Themen	-10.9628
▁Denk	-10.9629
▁weapons	-10.963
▁lay	-10.963
▁flag	-10.9632
▁Verstand	-10.9634
ago	-10.9636
▁tip	-10.9657
▁übrig	-10.9659
▁erhöht	-10.9661
▁interessieren	-10.9661
▁irgendwann	-10.9661
▁narrative	-10.9661
▁conduct	-10.9661
▁Rahmen	-10.9661
▁capable	-10.9666
▁Mission	-10.9666
▁2005	-10.9667
▁Bildern	-10.9669
führt	-10.967
ounce	-10.967
▁fighting	-10.967
▁assume	-10.9671
zone	-10.9675
▁habt	-10.9677
▁launch	-10.9687
▁related	-10.9698
▁Gleiche	-10.9702
▁Satelliten	-10.971
▁perception	-10.971
▁verhindern	-10.971
▁worried	-10.971
▁individuell	-10.971
▁chemische	-10.971
▁stammt	-10.971
▁Martin	-10.9711
▁leaving	-10.9711
fried	-10.972
▁frame	-10.9729
▁rap	-10.9737
▁discovery	-10.9741
▁arbeiteten	-10.975
itude	-10.975
▁described	-10.9751
▁Brust	-10.9759
▁Emotionen	-10.9759
▁Änderung	-10.9759
▁Titan	-10.9759
▁vorhanden	-10.9759
schläge	-10.976
▁empower	-10.976
▁Stift	-10.976
▁leiden	-10.9762
▁Talk	-10.9763
▁hinweg	-10.9767
▁Schicht	-10.9772
▁pair	-10.9772
metric	-10.9775
▁grau	-10.9776
▁finished	-10.9783
▁Zeitung	-10.9786
anne	-10.9792
▁versuchten	-10.9793
20	-10.9798
Man	-10.9803
▁Fabrik	-10.9808
schneiden	-10.9808
▁Öffentlichkeit	-10.9808
▁trillion	-10.9808
▁Figur	-10.9809
▁bread	-10.9809
▁Still	-10.9809
▁Strukturen	-10.9809
▁reveal	-10.9809
▁General	-10.981
▁Umstände	-10.981
▁intensiv	-10.981
▁wearing	-10.9812
▁Bericht	-10.9818
▁Apple	-10.9818
grade	-10.9822
▁bedeuten	-10.9825
▁curve	-10.9825
▁garden	-10.9831
▁schließen	-10.9832
oma	-10.9834
sorge	-10.9839
▁Gedanke	-10.9844
stoß	-10.9847
▁fell	-10.9857
▁1970	-10.9858
▁Rätsel	-10.9858
▁Mitarbeiter	-10.9858
▁verfolgen	-10.9858
▁drag	-10.9858
▁Pass	-10.9858
▁clinic	-10.9859
▁court	-10.986
schaffen	-10.9861
▁Roh	-10.9864
▁schlimmer	-10.9871
▁stone	-10.9872
durchschnittlich	-10.9873
▁Experimente	-10.9876
▁tue	-10.9877
power	-10.9878
anlage	-10.9879
▁slowly	-10.9886
illion	-10.9891
Ö	-10.9901
▁Bein	-10.9903
Wow	-10.9903
▁komplex	-10.9906
▁clinical	-10.9907
▁Zivilisation	-10.9908
▁intellectual	-10.9908
▁comment	-10.9909
▁translate	-10.9909
▁button	-10.991
But	-10.9915
▁treated	-10.9916
Fi	-10.9918
▁everyday	-10.9918
▁relative	-10.9918
▁leader	-10.9927
▁fern	-10.9927
▁Reg	-10.9927
▁concerned	-10.9929
▁Zug	-10.993
▁kosten	-10.9945
water	-10.9953
▁Sehr	-10.9956
▁verwandelt	-10.9958
▁interface	-10.9959
▁wertvoll	-10.996
▁aufhören	-10.996
▁unlike	-10.9966
▁Brücke	-10.9967
▁followed	-10.9968
▁Katze	-10.9972
azi	-10.9976
▁Sprachen	-10.9978
▁poem	-10.9978
▁modernen	-10.998
▁State	-10.9984
▁metal	-10.9987
▁gemein	-10.9989
▁werfen	-10.9993
▁Neues	-11.0003
völker	-11.0009
▁Brasilien	-11.0009
▁Ernährung	-11.0009
▁politician	-11.0009
▁Zuhause	-11.0009
▁erscheinen	-11.0009
▁horse	-11.0009
▁odd	-11.0009
▁Fahrzeug	-11.001
▁Abschluss	-11.0011
▁Landwirtschaft	-11.0013
fass	-11.0022
Okay	-11.0023
▁verschieden	-11.0023
▁invited	-11.0027
▁Have	-11.0033
▁taste	-11.0036
▁dollar	-11.0036
fully	-11.0037
▁surprised	-11.0043
▁Bob	-11.0044
▁Did	-11.0048
▁Zimmer	-11.006
▁fördern	-11.006
▁university	-11.006
▁hoffentlich	-11.006
▁Website	-11.006
▁lunch	-11.006
▁pounds	-11.0061
▁hunt	-11.0061
▁operate	-11.0067
▁pump	-11.0067
▁discussion	-11.0068
▁selber	-11.007
tiker	-11.0073
▁Au	-11.0078
▁rev	-11.0089
▁aufbauen	-11.0093
▁eingesetzt	-11.0097
▁Psycho	-11.0098
▁Gemeinden	-11.0102
▁limited	-11.0102
▁verbrachte	-11.0104
▁Higgs	-11.0111
▁studiert	-11.0111
▁refer	-11.0112
▁möglicherweise	-11.0114
Pa	-11.0116
▁Farm	-11.0118
▁grown	-11.0126
gründe	-11.013
▁Freundin	-11.0133
zel	-11.0139
itz	-11.0145
▁cure	-11.0149
▁95	-11.0151
▁conscious	-11.0161
▁Ghana	-11.0162
▁Höhle	-11.0162
▁Microsoft	-11.0162
▁collapse	-11.0162
▁extinct	-11.0162
▁survey	-11.0162
▁unterstützt	-11.0162
▁volunteer	-11.0162
▁married	-11.0162
▁teuer	-11.0162
▁Fleisch	-11.0162
▁1950	-11.0165
▁otherwise	-11.0167
nker	-11.0171
film	-11.0182
schalten	-11.0183
▁lebte	-11.0207
▁wartet	-11.021
▁Laptop	-11.0214
▁fascinating	-11.0214
▁Stanford	-11.0214
▁invisible	-11.0214
▁egg	-11.0214
▁fresh	-11.0214
▁beantworten	-11.0214
▁reef	-11.0216
▁illness	-11.0216
▁guide	-11.0216
▁Trick	-11.0218
▁Dienst	-11.0224
▁watched	-11.023
▁highest	-11.0235
statt	-11.0242
▁independent	-11.0242
▁foundation	-11.0242
▁medi	-11.0244
▁Homo	-11.0249
Tech	-11.0253
▁reform	-11.0254
produkt	-11.026
stärke	-11.0263
▁mathematics	-11.0265
▁Grafik	-11.0265
rechnet	-11.0266
▁comfortable	-11.0267
▁Tanz	-11.0267
▁lebendig	-11.0269
▁versus	-11.027
▁anfing	-11.0272
▁religiöse	-11.0273
▁daily	-11.0273
ologische	-11.0279
▁erfinden	-11.0282
▁Matt	-11.0285
▁Händen	-11.0286
▁transformation	-11.0289
▁Sur	-11.0295
istischen	-11.0298
muster	-11.03
▁Grenze	-11.0306
▁Minute	-11.0306
▁equivalent	-11.0317
▁newspaper	-11.0317
▁Muskel	-11.0318
▁Meilen	-11.0318
▁Sag	-11.0319
▁verteilt	-11.0319
▁Stufe	-11.0321
▁dennoch	-11.0324
▁Germany	-11.033
lösen	-11.0334
tanz	-11.0336
but	-11.0338
fragen	-11.0346
▁Hall	-11.0349
▁perfectly	-11.0349
▁Sub	-11.035
▁Moleküle	-11.0355
▁electric	-11.0357
▁Canada	-11.037
▁artificial	-11.037
▁contract	-11.037
▁irgendetwas	-11.037
▁puzzle	-11.037
▁unterscheiden	-11.037
▁folks	-11.037
▁hidden	-11.037
▁hyper	-11.0372
60	-11.0373
▁grass	-11.0373
▁Handlung	-11.0374
▁error	-11.0374
▁caused	-11.038
To	-11.0382
▁Maus	-11.0386
front	-11.0396
▁topic	-11.0403
▁Summe	-11.0408
▁Hol	-11.0409
▁tech	-11.0411
▁Very	-11.042
▁closed	-11.0422
▁Manhattan	-11.0422
▁Spiegel	-11.0422
▁entspricht	-11.0422
▁survival	-11.0422
▁lift	-11.0423
▁malaria	-11.0423
▁Unterhaltung	-11.0423
▁Erste	-11.0426
lässig	-11.0426
▁bull	-11.043
▁Hör	-11.0432
▁paying	-11.0432
▁lebten	-11.0439
▁organisiert	-11.044
▁mentioned	-11.0442
▁Klang	-11.0442
fon	-11.0442
hab	-11.0454
▁meiste	-11.0456
▁32	-11.0457
▁stelle	-11.0458
▁Open	-11.0461
▁Mund	-11.0466
▁experienced	-11.0466
pflanzen	-11.0475
▁Restaurant	-11.0475
▁precise	-11.0475
▁öffnet	-11.0475
▁Child	-11.0475
▁curious	-11.0476
▁trauma	-11.0477
▁mouse	-11.0479
▁Other	-11.0482
▁expected	-11.0484
▁cow	-11.0486
leiter	-11.0493
auto	-11.0496
▁researchers	-11.0499
If	-11.0503
▁resource	-11.0504
▁unless	-11.0505
gänge	-11.0513
kette	-11.0515
▁origin	-11.052
▁36	-11.0524
▁Gedächtnis	-11.0529
▁Mexico	-11.0529
▁elephant	-11.0529
▁grandmother	-11.0529
▁Texas	-11.0529
▁präsent	-11.0529
▁Schnitt	-11.0529
▁brief	-11.0529
▁filter	-11.0529
▁round	-11.0529
▁Multi	-11.053
▁existence	-11.0533
▁wake	-11.0536
gekommen	-11.0536
▁invention	-11.054
▁Sitz	-11.0543
▁gehören	-11.0544
läuft	-11.0546
▁currently	-11.0551
▁compare	-11.0555
▁tiefer	-11.0569
▁Mag	-11.057
stimmung	-11.0582
▁Wettbewerb	-11.0582
▁exchange	-11.0582
▁disaster	-11.0582
▁stood	-11.0582
▁Investition	-11.0582
▁smile	-11.0583
▁somit	-11.0583
▁operating	-11.0583
▁ernsthaft	-11.0583
▁admit	-11.0584
Sahara	-11.0586
▁angesehen	-11.0587
how	-11.0591
▁j	-11.06
grab	-11.0604
▁Annahme	-11.0606
▁logic	-11.0618
▁Mac	-11.063
▁pure	-11.0632
▁budget	-11.0636
▁cognitive	-11.0636
▁reduzieren	-11.0636
▁wheel	-11.0636
▁Alternative	-11.0636
▁gehabt	-11.0636
▁Blume	-11.0636
▁kennt	-11.0636
▁gelesen	-11.0636
▁Dach	-11.0638
▁Ausmaß	-11.0639
▁tail	-11.0639
▁managed	-11.0641
▁Cent	-11.0644
▁lifetime	-11.0648
wähl	-11.0653
▁Student	-11.0656
grenze	-11.0661
▁filled	-11.0667
▁Bedürfnisse	-11.0669
▁Ober	-11.0678
tti	-11.0681
▁counter	-11.0682
▁schlechter	-11.0684
▁26	-11.0687
▁schlagen	-11.0687
▁profession	-11.0687
theorie	-11.0689
▁Dokument	-11.069
▁Eigentlich	-11.069
▁Schimpansen	-11.069
▁economist	-11.069
▁equation	-11.069
▁zugänglich	-11.069
erkennung	-11.069
▁analog	-11.069
▁Three	-11.069
▁fellow	-11.0691
zukommen	-11.0698
Aber	-11.07
▁Absicht	-11.0702
▁Beweise	-11.0708
▁release	-11.0715
▁trug	-11.0715
krise	-11.072
▁Ski	-11.0729
schwer	-11.0735
▁channel	-11.0744
▁practical	-11.0744
▁zunächst	-11.0744
▁Partei	-11.0744
▁display	-11.0744
▁vergleichen	-11.0745
▁Zitat	-11.0745
▁continu	-11.075
ctive	-11.0756
▁collection	-11.0761
▁kostenlos	-11.0762
▁könnt	-11.0762
▁emotion	-11.0763
▁row	-11.0766
▁deeper	-11.0769
▁receive	-11.0769
▁Teilchen	-11.0774
40	-11.0775
krankheit	-11.0776
box	-11.0779
▁roten	-11.078
▁businesses	-11.0786
menge	-11.079
▁circuit	-11.0799
▁Dinosaurier	-11.0799
bücher	-11.0799
▁Nachbarn	-11.0799
▁besagt	-11.0799
▁Trend	-11.0799
effekt	-11.0799
geschlagen	-11.0801
▁dank	-11.082
▁Zell	-11.0821
▁Seh	-11.0824
▁habit	-11.0829
▁forced	-11.0834
▁Spieler	-11.0852
▁Definition	-11.0854
▁contribute	-11.0854
▁entworfen	-11.0854
▁ordinary	-11.0854
▁wisdom	-11.0854
zentrum	-11.0854
▁verdient	-11.0854
▁Fakten	-11.0854
▁Streit	-11.0854
▁considered	-11.0856
▁Lektion	-11.0856
▁Wirkung	-11.0856
▁safety	-11.0858
durch	-11.0872
▁organic	-11.0876
wissenschaftlich	-11.0876
▁picked	-11.0877
▁Atem	-11.0877
▁daß	-11.0878
▁Schau	-11.0892
reise	-11.0894
kosten	-11.0897
lag	-11.0898
▁Schaf	-11.0903
▁aktuelle	-11.0904
▁inspirieren	-11.0909
▁William	-11.0909
plätze	-11.0909
▁Black	-11.0909
▁Toilette	-11.0909
▁verbreiten	-11.0909
▁observe	-11.091
▁Fotograf	-11.0911
▁crack	-11.0912
▁gehalten	-11.0913
▁Wohl	-11.0914
▁Phase	-11.0914
▁irre	-11.0914
▁Seine	-11.0925
haltung	-11.0932
litz	-11.0938
sistent	-11.0945
lust	-11.0947
80	-11.095
▁terrorist	-11.0951
▁Bush	-11.0956
▁Galaxien	-11.0959
▁Methoden	-11.0962
▁fra	-11.0963
▁losing	-11.0964
▁Metapher	-11.0965
▁Uganda	-11.0965
▁nervous	-11.0965
▁Katastrophe	-11.0965
▁official	-11.0965
▁definieren	-11.0965
▁zoom	-11.0965
▁gewählt	-11.0965
▁feedback	-11.0965
sphäre	-11.0966
▁planning	-11.0968
▁loud	-11.0968
▁Garten	-11.098
▁Jim	-11.0983
▁120	-11.0985
ographie	-11.0986
▁string	-11.0986
▁killing	-11.0987
▁seriously	-11.0988
▁pin	-11.0991
▁advance	-11.0991
ridge	-11.0993
▁involve	-11.0995
▁wieso	-11.0996
▁trägt	-11.0996
▁mill	-11.0998
▁Hinweis	-11.1003
▁load	-11.1005
▁grundlegend	-11.1008
▁dive	-11.1009
▁fasziniert	-11.102
▁anonym	-11.102
▁encounter	-11.102
▁maintain	-11.1021
iness	-11.1021
▁hopefully	-11.1022
▁chip	-11.1022
▁Doktor	-11.1023
▁Feind	-11.1024
ektion	-11.1025
▁dealing	-11.1027
back	-11.103
▁Innen	-11.103
wind	-11.1031
▁Kerl	-11.1031
▁Camp	-11.1034
▁kick	-11.104
▁orbit	-11.1044
▁28	-11.1046
▁hide	-11.1056
▁gay	-11.106
kräfte	-11.1077
▁Magazin	-11.1077
▁accurate	-11.1077
▁stupid	-11.1077
▁geändert	-11.1077
▁shoes	-11.1077
▁Interview	-11.1077
▁Wohlstand	-11.1078
▁mirror	-11.1079
▁entgegen	-11.1079
▁Dichte	-11.1079
▁Patent	-11.108
▁ride	-11.1082
haben	-11.1083
▁Zeitalter	-11.1084
▁fähig	-11.1086
▁Reich	-11.1088
masse	-11.1088
▁bias	-11.1091
▁hergestellt	-11.1092
▁Null	-11.1093
▁Peter	-11.1095
▁wondering	-11.1095
wood	-11.1097
▁dry	-11.1098
▁Come	-11.1103
▁lung	-11.111
▁concern	-11.1115
▁fourth	-11.112
▁exact	-11.1127
▁Chirurg	-11.1133
▁liberal	-11.1133
▁automatisch	-11.1133
▁Gestalt	-11.1133
▁allerdings	-11.1133
▁Jemand	-11.1133
heiratet	-11.1134
▁Gegensatz	-11.1134
▁doubt	-11.1135
▁Linien	-11.1138
samkeit	-11.1138
▁Stock	-11.1141
▁Photo	-11.1141
▁associated	-11.1143
view	-11.1148
▁Laut	-11.1167
▁factory	-11.117
▁speaker	-11.1174
positiv	-11.1182
▁brauche	-11.1182
gebildet	-11.1186
▁Australien	-11.119
▁distribution	-11.119
▁heavy	-11.119
▁vaccine	-11.119
▁Klinik	-11.119
▁ancestor	-11.119
▁empty	-11.119
▁vessel	-11.119
▁credit	-11.119
▁Haufen	-11.119
▁chart	-11.1191
▁Kirche	-11.1191
▁erkannt	-11.1195
▁pill	-11.1202
▁wach	-11.1208
▁nurse	-11.1212
schrieb	-11.1213
▁Hinsicht	-11.122
Nun	-11.1227
▁Mary	-11.1237
▁erkennt	-11.1245
▁Gib	-11.1245
▁Existenz	-11.1247
▁symptom	-11.1247
▁zentrale	-11.1247
▁Pferd	-11.1247
▁establish	-11.1247
▁verschwinden	-11.1247
möglichkeiten	-11.1247
▁Schatten	-11.1247
▁Verhältnis	-11.1247
▁kilometers	-11.1248
▁Küche	-11.1249
▁awful	-11.125
▁protest	-11.1255
▁Brit	-11.1255
▁increasingly	-11.1258
▁setting	-11.1259
▁electrical	-11.1259
▁vermute	-11.126
Bahn	-11.1264
▁Medic	-11.1268
▁Ah	-11.1281
▁publish	-11.1282
▁abuse	-11.1292
▁essential	-11.1293
▁Argument	-11.1305
▁Kreuz	-11.1305
▁Oxford	-11.1305
▁epidemic	-11.1305
▁Dimension	-11.1305
▁Project	-11.1305
▁fiction	-11.1305
▁facing	-11.1305
▁Health	-11.1305
▁lawyer	-11.1305
▁körperlich	-11.1305
▁Riesen	-11.1305
▁Viertel	-11.1306
▁schickte	-11.1306
print	-11.1307
▁Euro	-11.1309
▁schlau	-11.1311
▁Hotel	-11.1311
▁Straf	-11.1313
▁arrived	-11.1321
▁echten	-11.1327
▁Nano	-11.1331
▁launched	-11.1332
gut	-11.1348
Yes	-11.135
▁Kapital	-11.1362
▁President	-11.1362
▁berührt	-11.1362
▁courage	-11.1362
▁embrace	-11.1362
▁galaxy	-11.1362
▁pocket	-11.1362
▁Would	-11.1362
▁Helden	-11.1363
▁Diagramm	-11.1363
▁weather	-11.1363
▁dumm	-11.1363
▁zahlen	-11.1364
▁komisch	-11.1365
▁weibliche	-11.1365
▁Umfeld	-11.1365
▁Öko	-11.1365
ologists	-11.1366
▁Folie	-11.1367
▁Lager	-11.1368
▁2,000	-11.1371
▁clip	-11.1372
▁initial	-11.1376
▁robotic	-11.1377
schaftlichen	-11.1378
▁abhängig	-11.1379
▁fehlt	-11.1388
ished	-11.1389
▁zunehmend	-11.1394
▁suchte	-11.1396
▁member	-11.1411
house	-11.1414
▁tall	-11.1415
▁cri	-11.142
▁skill	-11.142
▁analysis	-11.1421
▁variety	-11.1421
▁vulnerable	-11.1421
▁Christian	-11.1421
technik	-11.1421
▁bildet	-11.1421
▁virtuelle	-11.1424
▁Hunderte	-11.1426
maker	-11.1428
▁begrenzt	-11.1433
gibt	-11.1433
fertig	-11.1441
▁Does	-11.1443
▁theater	-11.1444
wu	-11.1448
▁Erwachsene	-11.1477
Ü	-11.1479
▁Individuen	-11.1479
▁Kleidung	-11.1479
▁Märkte	-11.1479
▁Schwierigkeiten	-11.1479
▁combination	-11.1479
▁dramatisch	-11.1479
▁pleasure	-11.1479
▁sweet	-11.1479
▁Gesamt	-11.1479
▁slave	-11.1479
▁anwenden	-11.148
▁Geschenk	-11.148
▁transition	-11.148
▁addict	-11.1483
▁pray	-11.1484
▁construction	-11.1485
▁2004	-11.1486
▁peak	-11.1487
▁gelb	-11.1493
▁shut	-11.1494
▁100,000	-11.1497
▁testing	-11.15
▁liebte	-11.1506
▁Fast	-11.1509
▁nieder	-11.1518
systeme	-11.1525
▁molecule	-11.1529
▁broke	-11.1533
aufnahme	-11.1536
▁Privat	-11.1538
ibility	-11.1538
▁galaxies	-11.1538
▁permanent	-11.1538
▁tomorrow	-11.1538
▁Köpfe	-11.1538
▁studieren	-11.1538
▁rural	-11.1538
züge	-11.1538
▁deswegen	-11.1538
▁Theater	-11.1539
▁gestern	-11.154
▁ethic	-11.1541
▁season	-11.1544
▁Vier	-11.1547
labor	-11.1547
▁tear	-11.1555
friend	-11.1561
▁saved	-11.1571
spring	-11.1576
feuer	-11.1591
▁irgend	-11.1595
▁Auswahl	-11.1597
▁Erlebnis	-11.1597
▁Korruption	-11.1597
▁equipment	-11.1597
▁quantum	-11.1597
▁SMS	-11.1597
▁Britain	-11.1598
▁gründete	-11.1599
▁normally	-11.1606
cap	-11.1608
▁Eindruck	-11.1611
▁Schalt	-11.1618
▁schi	-11.1623
▁Rock	-11.1631
▁wing	-11.1637
▁85	-11.1641
versorgung	-11.1657
▁Stattdessen	-11.1657
▁laptop	-11.1657
▁äußerst	-11.1657
▁beinahe	-11.1657
▁geschickt	-11.1657
▁Ursache	-11.1657
▁vergangen	-11.1657
▁gebraucht	-11.1657
▁Fest	-11.1659
▁orange	-11.1667
▁rocket	-11.1669
▁poet	-11.168
▁10.000	-11.1681
werfen	-11.1685
boot	-11.1695
▁scared	-11.1697
▁Planet	-11.1704
hielt	-11.1712
▁covered	-11.1715
frau	-11.1716
▁Kombination	-11.1716
▁Persönlichkeit	-11.1716
▁consumption	-11.1716
▁convention	-11.1716
▁fängt	-11.1716
▁jährlich	-11.1716
▁mathematical	-11.1716
▁radikal	-11.1716
▁transparent	-11.1716
▁GDP	-11.1716
▁Organismen	-11.1716
▁property	-11.1716
▁klug	-11.1716
▁erscheint	-11.1717
üpf	-11.1719
schritt	-11.1721
gefühl	-11.1721
▁extract	-11.1728
▁Wall	-11.1729
▁swim	-11.1729
▁teure	-11.173
verbrauch	-11.1733
▁nano	-11.1741
For	-11.1742
streit	-11.1746
team	-11.1769
▁Lab	-11.1772
▁Fälle	-11.1773
▁danger	-11.1776
organisation	-11.1777
▁Wälder	-11.1777
▁akzeptieren	-11.1777
▁beinhaltet	-11.1777
▁eindeutig	-11.1777
▁gestorben	-11.1777
▁underneath	-11.1777
▁distinct	-11.1777
▁importance	-11.1777
▁silence	-11.1777
▁relation	-11.1777
▁spannend	-11.1777
▁Brown	-11.1777
▁Prä	-11.1778
▁management	-11.1783
▁Erwachsenen	-11.1784
artikel	-11.1786
▁Besitz	-11.1786
▁ergibt	-11.1791
Wa	-11.1793
▁Anteil	-11.1798
▁Besuch	-11.1807
▁Gesichter	-11.181
▁actor	-11.1815
▁discuss	-11.1827
tip	-11.1832
▁vorne	-11.1834
opo	-11.1836
▁beliebt	-11.1836
▁Prototyp	-11.1837
▁implement	-11.1837
▁Elektrizität	-11.1837
▁Everybody	-11.1837
▁Kanada	-11.1837
▁Lebewesen	-11.1837
▁abstract	-11.1837
▁according	-11.1837
▁assumption	-11.1837
▁possibilities	-11.1837
▁chicken	-11.1837
▁reagiert	-11.1837
▁Kenia	-11.1838
▁dauern	-11.1839
▁instant	-11.184
▁flip	-11.1848
▁Mich	-11.1848
▁processes	-11.1848
▁Anruf	-11.1849
face	-11.1864
down	-11.1867
▁Wohnung	-11.1869
▁advanced	-11.1869
▁grad	-11.1869
▁Comp	-11.1874
▁Sea	-11.1877
scale	-11.1879
hrung	-11.1885
▁height	-11.1885
▁Zauber	-11.1898
▁Zwischen	-11.1898
▁grundsätzlich	-11.1898
▁reject	-11.1898
▁valuable	-11.1898
▁parallel	-11.1898
▁Räume	-11.1898
▁Everything	-11.1898
▁definiert	-11.1898
▁volume	-11.1898
▁Hilfs	-11.1898
▁judge	-11.1898
▁polar	-11.1898
▁üblich	-11.1899
▁Webseite	-11.1899
▁Fels	-11.1901
▁kaufte	-11.1901
▁review	-11.1904
▁2006	-11.1905
▁Vorfahren	-11.1907
schreiben	-11.1912
wissen	-11.1921
rock	-11.1923
▁label	-11.1923
load	-11.1924
▁Ol	-11.1924
▁Sprech	-11.1935
Hi	-11.1936
▁Güte	-11.1943
schränkung	-11.196
▁participate	-11.196
▁Foundation	-11.196
▁Gerechtigkeit	-11.196
▁empathy	-11.196
▁manipulat	-11.196
▁versteht	-11.196
▁entfernen	-11.196
▁besorgt	-11.196
▁regard	-11.196
▁status	-11.196
▁doppelt	-11.196
fahrer	-11.1961
▁convert	-11.1961
▁Tonnen	-11.1964
▁Moral	-11.1964
▁tea	-11.1964
▁grid	-11.1971
▁Tele	-11.1972
▁relatively	-11.1974
X	-11.1985
therapie	-11.1985
▁umgeben	-11.1988
▁Sogar	-11.1993
scha	-11.1998
▁Rio	-11.2008
▁increasing	-11.201
▁Top	-11.2012
▁Florida	-11.2021
▁Füße	-11.2021
▁agriculture	-11.2021
▁celebrate	-11.2021
▁verbindet	-11.2021
▁zerstören	-11.2021
▁mammal	-11.2021
▁soldiers	-11.2021
▁preserv	-11.2022
▁aufzubauen	-11.2022
▁carefully	-11.2023
▁Mikroben	-11.2026
▁classic	-11.2026
▁warming	-11.2031
▁Milch	-11.2033
flug	-11.2034
▁Kilo	-11.2035
▁Weltraum	-11.2046
▁Acht	-11.2083
▁Global	-11.2083
züglich	-11.2083
▁Entfernung	-11.2083
▁beschäftigen	-11.2083
▁Buchstaben	-11.2083
politik	-11.2083
▁Darstellung	-11.2083
▁Zuschauer	-11.2084
▁Deutschland	-11.2084
▁corruption	-11.2085
▁saubere	-11.2085
▁ungewöhnlich	-11.2085
▁specifically	-11.2086
▁Invest	-11.2086
▁exception	-11.2104
falte	-11.2108
▁consume	-11.211
▁Union	-11.2125
▁Juli	-11.2127
▁August	-11.2146
▁Brennstoff	-11.2146
▁command	-11.2146
▁dimensions	-11.2146
▁teenager	-11.2146
▁steigt	-11.2146
▁ruhig	-11.2146
▁joke	-11.2146
▁schätzen	-11.2146
▁Japanese	-11.2146
▁Winter	-11.2146
▁darstellen	-11.2147
▁title	-11.2148
▁Space	-11.2151
▁physische	-11.216
ologe	-11.2165
▁director	-11.2167
▁künstliche	-11.2169
▁Szene	-11.217
sländern	-11.2176
bringt	-11.2183
▁German	-11.2194
Ex	-11.2199
▁Congress	-11.2209
▁roughly	-11.2209
▁stattdessen	-11.2209
▁yesterday	-11.2209
Audience	-11.2209
▁sexuelle	-11.2209
▁Chemie	-11.2209
▁darunter	-11.2209
anthrop	-11.2216
▁rapidly	-11.2217
▁Leider	-11.2219
streben	-11.222
wissenschaftler	-11.222
getragen	-11.2221
▁antwortete	-11.2223
▁plate	-11.2224
▁zählen	-11.2231
zwei	-11.2232
ächte	-11.2237
▁gelöst	-11.2239
▁Aussage	-11.2248
▁mention	-11.227
▁Sprach	-11.2272
▁activities	-11.2272
▁kontrolliert	-11.2272
▁absorb	-11.2272
▁kitchen	-11.2272
▁evil	-11.2272
▁Minister	-11.2272
▁emissions	-11.2272
▁vermitteln	-11.2272
▁Kurve	-11.2272
▁kurzem	-11.2272
▁Damals	-11.2273
▁Turk	-11.2273
▁tube	-11.2274
▁mittlere	-11.2274
▁außen	-11.2274
▁grain	-11.2277
▁Gates	-11.2278
kunde	-11.2281
ermaßen	-11.2284
▁handle	-11.2287
▁blo	-11.2293
▁protection	-11.2297
fusion	-11.2304
▁sight	-11.2306
volv	-11.2306
▁exam	-11.2318
▁Großmutter	-11.2336
▁Hollywood	-11.2336
▁Löcher	-11.2336
▁Plattform	-11.2336
▁academic	-11.2336
▁infection	-11.2336
▁surgeon	-11.2336
▁quasi	-11.2336
▁snow	-11.2336
▁besuchen	-11.2336
▁Schaden	-11.2336
▁chemistry	-11.2336
▁Teilnehmer	-11.2338
preis	-11.2339
▁internal	-11.2342
▁Since	-11.2343
▁cutting	-11.2343
ville	-11.2347
▁added	-11.2349
▁700	-11.2363
▁firm	-11.2364
▁habitat	-11.2376
ografie	-11.238
▁ersetzen	-11.2388
▁Ereignisse	-11.2389
▁van	-11.2392
waffe	-11.2397
▁dolphin	-11.24
oberfläche	-11.24
▁Risiken	-11.24
▁demonstrate	-11.24
▁langfristig	-11.24
▁liquid	-11.24
▁verfolgt	-11.24
blas	-11.2402
▁pulled	-11.2402
▁toilet	-11.2406
▁Latin	-11.2408
▁stock	-11.2409
▁schwimmen	-11.241
▁33	-11.2416
foot	-11.2428
▁Ruf	-11.2434
▁relate	-11.2435
wise	-11.2436
ji	-11.2442
▁Teenager	-11.2464
▁occasion	-11.2464
▁männliche	-11.2464
▁prototype	-11.2464
▁Number	-11.2464
▁decline	-11.2464
▁unbekannt	-11.2464
▁tötet	-11.2464
▁Could	-11.2465
▁incentive	-11.2465
▁Maßstab	-11.2465
▁unendlich	-11.2465
▁shame	-11.2465
▁schlafen	-11.2465
▁Transport	-11.2466
▁fruit	-11.2466
▁Mehrheit	-11.2467
▁transportation	-11.2473
▁2001	-11.2473
leiten	-11.2487
▁Wieso	-11.249
▁convinced	-11.2492
trägt	-11.2493
▁statement	-11.2501
antwort	-11.2503
▁Blau	-11.2514
▁inspiration	-11.2529
▁physicist	-11.2529
▁vermeiden	-11.2529
▁Debatte	-11.2529
▁client	-11.2529
▁length	-11.2529
▁healthcare	-11.2529
▁conclusion	-11.253
▁transfer	-11.253
▁klinische	-11.253
▁Zahn	-11.2532
▁crop	-11.2542
amme	-11.2544
▁Molekül	-11.2548
▁released	-11.2565
▁introduce	-11.2565
träger	-11.2569
▁presentation	-11.2573
▁Ausnahme	-11.258
▁affected	-11.259
▁Allgemein	-11.2595
▁Komponente	-11.2595
▁chimpanzee	-11.2595
▁perceive	-11.2595
▁battery	-11.2595
▁überwinden	-11.2595
▁Strahl	-11.2595
orientiert	-11.2595
▁Media	-11.2595
▁Wetter	-11.26
▁Witz	-11.2605
▁Südafrika	-11.2606
▁tribe	-11.2606
▁Four	-11.2614
▁effectively	-11.262
▁Abfall	-11.2623
▁soviel	-11.2651
▁Fehl	-11.2653
▁höre	-11.2654
seitige	-11.2659
▁Literatur	-11.2661
▁explanation	-11.2661
▁Wechsel	-11.2661
▁gelebt	-11.2661
▁Training	-11.2661
▁microbes	-11.2661
▁appreciate	-11.2662
schieben	-11.2666
▁Zufall	-11.2668
▁liefern	-11.2669
▁Aktion	-11.267
▁Darum	-11.2674
▁prepared	-11.2676
▁Betrieb	-11.268
▁winter	-11.268
▁organized	-11.2688
▁introduced	-11.269
dreht	-11.2693
schleunig	-11.2726
▁Tour	-11.2726
▁Diagnose	-11.2727
▁drüben	-11.2727
▁2011	-11.2727
▁radiation	-11.2727
▁worldwide	-11.2727
▁klassische	-11.2727
▁historical	-11.2727
▁severe	-11.2729
▁icon	-11.2729
▁passionate	-11.2731
▁House	-11.2733
▁bike	-11.2736
half	-11.2741
▁meaningful	-11.2746
▁alien	-11.2753
▁however	-11.2755
lässt	-11.2759
▁Unterricht	-11.276
▁PM	-11.2773
▁800	-11.2773
tempo	-11.278
▁Grand	-11.278
▁comfort	-11.2791
▁thin	-11.2792
▁molecular	-11.2793
vermögen	-11.2793
▁CEO	-11.2793
▁scheinbar	-11.2793
▁Smith	-11.2793
▁quarter	-11.2793
▁criminal	-11.2794
▁psychological	-11.2794
▁employees	-11.2794
▁prime	-11.2794
▁steuern	-11.2794
▁zieht	-11.2794
▁steel	-11.2795
▁jail	-11.2797
▁Option	-11.2798
▁vertrauen	-11.2799
▁lady	-11.2802
▁Nase	-11.2803
▁Viren	-11.2804
▁flies	-11.2805
▁bow	-11.2816
▁Pop	-11.2818
klasse	-11.2821
▁generally	-11.2828
▁leiten	-11.2833
▁Shi	-11.2839
▁Gleichung	-11.2844
geworfen	-11.2861
▁Echtzeit	-11.2861
▁Spezial	-11.2861
▁advice	-11.2861
▁definitely	-11.2861
▁educate	-11.2861
▁privilege	-11.2861
▁2012	-11.2861
▁erweitern	-11.2861
▁spectrum	-11.2861
▁witness	-11.2861
▁teeth	-11.2861
▁empfinde	-11.2861
▁Saturn	-11.2861
▁poetry	-11.2863
▁Zehn	-11.2864
▁gebeten	-11.2875
leitung	-11.2877
▁verhalten	-11.2878
▁Women	-11.288
▁shall	-11.2881
▁wundervolle	-11.2884
CA	-11.2895
▁fundamentally	-11.2904
▁prediction	-11.2912
fühle	-11.2917
boden	-11.2919
witz	-11.2921
▁schwach	-11.2924
▁jünger	-11.2928
▁Extrem	-11.2928
▁Potential	-11.2928
▁aggressiv	-11.2928
▁rescue	-11.2928
▁bietet	-11.2928
▁gegründet	-11.2928
▁spider	-11.2928
▁hydr	-11.2928
▁sphere	-11.2928
▁CD	-11.2929
aries	-11.2929
▁deserve	-11.2931
▁Schulter	-11.2932
▁verstehe	-11.2932
kleid	-11.2937
▁Neben	-11.294
▁apartment	-11.2944
opho	-11.2963
▁mono	-11.2987
größe	-11.2996
▁NGO	-11.2996
▁circumstance	-11.2996
▁Könnte	-11.2996
▁appropriate	-11.2996
▁elegant	-11.2996
▁erfuhr	-11.2996
▁gewann	-11.2996
▁properties	-11.2996
▁sammelt	-11.2996
▁section	-11.2996
▁Dutzend	-11.2996
▁technological	-11.2996
▁gefangen	-11.2996
spruch	-11.2996
▁erschien	-11.2997
▁Flasche	-11.2997
▁darstellt	-11.2997
▁Fahrrad	-11.2997
hütte	-11.3002
▁Jugendliche	-11.3003
▁heilen	-11.3005
Mein	-11.3013
▁antworte	-11.3014
gewalt	-11.3015
▁Geistes	-11.3038
▁lebe	-11.3043
▁physically	-11.3043
will	-11.3054
▁Vietnam	-11.3065
▁Bedrohung	-11.3065
▁Gemälde	-11.3065
▁Respekt	-11.3065
▁church	-11.3065
▁conservation	-11.3065
▁langweilig	-11.3065
▁phrase	-11.3065
▁privacy	-11.3065
▁producing	-11.3065
▁Übung	-11.3065
▁illusion	-11.3065
▁Wesentlichen	-11.3065
▁White	-11.3065
▁studio	-11.3065
▁Werbung	-11.3065
▁durfte	-11.3065
▁Billionen	-11.3065
▁Therapie	-11.3065
▁compete	-11.3065
▁britische	-11.3065
▁primary	-11.3066
▁Rakete	-11.3067
▁Rasse	-11.3068
ierbar	-11.3068
▁mutig	-11.3069
▁acid	-11.3069
▁hieß	-11.307
▁Yet	-11.3099
verhalten	-11.3125
bindung	-11.3131
▁Präsentation	-11.3134
▁accomplish	-11.3134
▁Kommentar	-11.3134
▁emerging	-11.3134
▁verletzt	-11.3134
▁Batterie	-11.3134
▁Metall	-11.3134
▁autism	-11.3134
▁mystery	-11.3134
▁englische	-11.3134
Audio	-11.3135
▁Blase	-11.3135
▁settle	-11.3139
▁Ausstellung	-11.314
▁panel	-11.3141
▁escape	-11.3141
▁2003	-11.3142
▁sparen	-11.3143
▁stehe	-11.3145
▁marine	-11.3145
▁Weltkrieg	-11.3146
▁Angriff	-11.3147
▁lens	-11.3163
▁urge	-11.3166
technolog	-11.3174
luft	-11.3183
▁Mexiko	-11.3203
▁Wurzel	-11.3203
▁gravity	-11.3203
▁kollektive	-11.3203
▁Überraschung	-11.3203
▁While	-11.3203
▁Zweifel	-11.3203
▁Kredit	-11.3203
▁kreieren	-11.3203
▁wiederholt	-11.3204
schmerz	-11.3204
▁intention	-11.3204
▁confront	-11.3205
▁diverse	-11.3205
wohl	-11.3208
▁verließ	-11.3218
shirt	-11.3221
▁vorzustellen	-11.3222
▁Box	-11.3222
▁geteilt	-11.3226
zuhalten	-11.3227
▁Mel	-11.3243
▁convince	-11.3243
rauch	-11.3243
weil	-11.3254
▁Mathe	-11.326
gemacht	-11.327
▁Cambridge	-11.3273
▁Perhaps	-11.3273
▁Schließlich	-11.3273
▁lecture	-11.3273
▁stretch	-11.3273
▁ritual	-11.3273
▁silk	-11.3273
▁route	-11.3274
▁implant	-11.3274
▁Russland	-11.3274
▁aufgewachsen	-11.3274
▁Mobil	-11.3274
▁Spielzeug	-11.3275
▁zusammenarbeite	-11.3276
▁enthält	-11.3277
▁Anreiz	-11.3278
▁Kampagne	-11.328
nehmer	-11.3283
▁tele	-11.3286
▁clothes	-11.3286
ilia	-11.3289
▁River	-11.329
▁flog	-11.3293
▁Ehre	-11.3306
▁busy	-11.331
break	-11.3313
level	-11.3319
üssig	-11.332
ummer	-11.3325
▁Haushalt	-11.333
hai	-11.3331
▁dramatic	-11.3342
ücken	-11.3343
▁Infektion	-11.3343
▁Nächste	-11.3343
▁Rezept	-11.3343
▁Verbesserung	-11.3343
▁beeindruckend	-11.3343
▁eröffnet	-11.3343
▁robust	-11.3343
▁telescope	-11.3343
▁Ähnlich	-11.3343
▁Central	-11.3343
▁berichtet	-11.3343
▁prize	-11.3344
▁gespielt	-11.3344
straße	-11.3344
▁therapy	-11.3344
losigkeit	-11.3345
▁Dafür	-11.3348
▁Galaxie	-11.335
▁France	-11.335
door	-11.3356
▁hotel	-11.336
▁seitdem	-11.336
▁gebrochen	-11.3362
▁Ohne	-11.3362
gewicht	-11.3363
▁fake	-11.3363
gerufen	-11.337
▁critic	-11.3376
▁Bord	-11.3383
weiß	-11.3409
▁Terror	-11.3413
▁Pacific	-11.3414
▁Spektrum	-11.3414
▁beteiligt	-11.3414
▁confidence	-11.3414
▁democratic	-11.3414
▁flexible	-11.3414
▁shadow	-11.3414
▁DNS	-11.3414
▁Stuhl	-11.3414
▁Anführer	-11.3414
▁barrier	-11.3414
▁mechanical	-11.3414
▁pipe	-11.3415
▁Magnet	-11.3416
▁Alltag	-11.3423
▁dick	-11.3426
▁Danach	-11.3426
▁script	-11.3441
▁Klar	-11.3447
▁percentage	-11.3461
▁Koch	-11.3473
▁bemerken	-11.3485
▁Olympic	-11.3486
▁collaboration	-11.3486
▁sophisticated	-11.3486
▁Gegenwart	-11.3486
▁afternoon	-11.3486
▁swimming	-11.3486
gewiesen	-11.3486
▁brutal	-11.3486
▁löst	-11.3486
▁beschrieben	-11.3486
medizin	-11.3486
▁storm	-11.3486
▁sculpture	-11.3486
▁terrorism	-11.3486
▁Lücke	-11.3487
▁underwater	-11.3488
▁evolutionary	-11.349
ordnung	-11.3491
▁gefällt	-11.3492
▁Angestellte	-11.3499
▁Long	-11.35
▁tank	-11.3503
▁staff	-11.3509
American	-11.3521
groß	-11.3521
raub	-11.3541
▁Decke	-11.3541
post	-11.3553
mitglied	-11.3558
▁Belohnung	-11.3558
▁analyze	-11.3558
▁betroffen	-11.3558
▁harvest	-11.3558
▁observation	-11.3558
▁reduziert	-11.3558
▁basierend	-11.3558
▁disrupt	-11.3558
▁sinnvoll	-11.3558
▁drauf	-11.3558
▁Flagge	-11.3558
▁merken	-11.3558
▁Jesus	-11.3558
▁reference	-11.3559
▁toxic	-11.3562
▁Bombe	-11.3562
▁Anstatt	-11.3562
▁Mike	-11.3564
▁dahinter	-11.3565
▁linear	-11.3571
▁ignore	-11.3592
▁furchtbar	-11.363
▁Klassenzimmer	-11.363
▁Nutzung	-11.363
▁Philip	-11.363
▁exploration	-11.363
▁penguin	-11.363
▁wünsche	-11.363
▁pilot	-11.363
▁Anyway	-11.363
▁dunkel	-11.363
ifiziert	-11.363
▁kriegen	-11.3631
▁dropped	-11.3632
▁hoping	-11.3634
▁Unfall	-11.3639
▁29	-11.3641
motiv	-11.3655
▁Tony	-11.3655
▁viruses	-11.3661
▁agent	-11.3669
▁graphic	-11.367
long	-11.3671
version	-11.3672
▁Hill	-11.3677
▁dish	-11.368
▁constant	-11.3691
dependent	-11.3692
geld	-11.3697
▁Algorithmen	-11.3703
▁Zunächst	-11.3703
▁ingredient	-11.3703
▁lediglich	-11.3703
▁literature	-11.3703
▁manufacturing	-11.3703
▁mortality	-11.3703
▁wütend	-11.3703
▁drone	-11.3704
▁erneut	-11.3704
▁froh	-11.3705
▁awareness	-11.3706
▁feststellen	-11.3708
▁wrap	-11.3711
▁Scham	-11.3712
▁Weiter	-11.3713
▁musician	-11.3714
▁fiber	-11.3717
▁Schlange	-11.3717
▁clock	-11.3719
▁typically	-11.3721
▁Bevor	-11.3722
▁endet	-11.3725
▁brave	-11.3739
▁Mio	-11.3749
▁branch	-11.3767
sammlung	-11.3777
▁challenging	-11.3777
▁kümmert	-11.3777
▁Blatt	-11.3777
▁dünn	-11.3777
▁Business	-11.3777
▁trinken	-11.3777
▁Überzeugung	-11.3777
▁integrate	-11.3777
ländische	-11.3777
▁Störung	-11.3777
▁behave	-11.3777
▁Hindernis	-11.3777
▁reisen	-11.3779
▁medium	-11.3781
läufe	-11.3784
äumt	-11.3785
▁schuf	-11.3789
▁psychische	-11.3795
▁Afrikaner	-11.3796
▁Chef	-11.3802
reibung	-11.3805
media	-11.3809
▁mochte	-11.385
▁Chemikalien	-11.3851
▁Studio	-11.3851
▁hydrogen	-11.3851
▁tödlich	-11.3851
▁unknown	-11.3851
▁infinite	-11.3851
▁getrennt	-11.3851
▁psychology	-11.3851
▁neural	-11.3852
▁Sechs	-11.3852
▁intense	-11.3852
▁Blind	-11.3852
▁favor	-11.3853
▁split	-11.3855
▁apple	-11.3859
▁biologist	-11.3862
▁reverse	-11.3862
▁Kabel	-11.3866
▁Aufbau	-11.3868
▁transplant	-11.3884
▁sozial	-11.3896
studie	-11.39
▁nest	-11.3914
wickelt	-11.3924
▁Christmas	-11.3925
▁calculate	-11.3925
▁kaputt	-11.3925
▁erforscht	-11.3925
▁hypo	-11.3925
▁memories	-11.3925
▁Geburtstag	-11.3925
▁industrielle	-11.3925
▁überlebt	-11.3925
▁Disney	-11.3925
gebung	-11.3926
▁angry	-11.3926
▁Back	-11.3926
▁spiritual	-11.3927
▁wechseln	-11.3928
▁geistige	-11.3928
▁opera	-11.3929
▁commitment	-11.3931
▁productive	-11.3935
▁pile	-11.3947
▁beibringen	-11.3949
▁Jane	-11.3957
▁Magie	-11.3963
Also	-11.3964
kann	-11.3978
▁journal	-11.3979
▁magnet	-11.3994
▁Deswegen	-11.4001
▁Februar	-11.4001
▁Republic	-11.4001
▁instruction	-11.4001
▁department	-11.4001
▁unusual	-11.4001
▁wüsste	-11.4001
▁concrete	-11.4001
▁limb	-11.4001
▁Wände	-11.4001
▁besitzt	-11.4001
▁nerve	-11.4001
▁repair	-11.4001
▁bug	-11.4002
▁Talent	-11.4002
▁Schuhe	-11.4003
▁Presse	-11.4003
▁boom	-11.4004
▁Stahl	-11.4004
▁plot	-11.4008
▁wofür	-11.4008
stiegen	-11.4015
▁ausgebildet	-11.4018
▁strip	-11.4021
▁Ideal	-11.4022
schlaf	-11.4057
▁investiert	-11.4067
▁Beobachtung	-11.4076
▁Kongress	-11.4076
▁Nachbarschaft	-11.4076
▁Potenzial	-11.4076
▁Schicksal	-11.4076
▁password	-11.4076
▁pollution	-11.4076
▁regelmäßig	-11.4076
▁complain	-11.4076
▁struck	-11.4076
▁visible	-11.4076
▁Alpha	-11.4077
▁framework	-11.4077
▁predator	-11.4077
▁Terrorismus	-11.4077
▁dargestellt	-11.4078
▁east	-11.4081
▁Verstehen	-11.4086
ächtige	-11.4086
▁Sterbe	-11.4087
▁Jeff	-11.4088
schreiten	-11.4097
▁Hallo	-11.4099
▁painful	-11.4108
born	-11.4125
gesetz	-11.4136
▁mile	-11.4138
▁weigh	-11.4145
▁sustain	-11.415
▁Bibliothek	-11.4153
▁Research	-11.4153
▁Silicon	-11.4153
▁geholfen	-11.4153
▁Analyse	-11.4153
▁LED	-11.4153
▁Teufel	-11.4153
▁license	-11.4153
▁Autismus	-11.4153
▁false	-11.4153
▁erhöhen	-11.4153
▁Mangel	-11.4153
▁erfüllt	-11.4154
▁hunger	-11.4154
▁hinunter	-11.4158
schirm	-11.4161
▁55	-11.4167
trauen	-11.4181
gewinn	-11.4185
gelöst	-11.4193
▁Nick	-11.4207
ebene	-11.4217
▁brach	-11.4218
▁luck	-11.4224
▁Antibiotika	-11.423
▁Pinguin	-11.423
▁ansieht	-11.423
▁beispielsweise	-11.423
▁cortex	-11.423
▁rhythm	-11.423
▁Führer	-11.423
▁dynamisch	-11.423
▁NSA	-11.423
▁Pfund	-11.423
▁applied	-11.423
▁knapp	-11.423
▁vorsichtig	-11.423
▁attitude	-11.423
▁Zähne	-11.423
▁historische	-11.423
▁steal	-11.4233
schließt	-11.4236
▁Verbrechen	-11.4239
▁5,000	-11.4239
▁unterrichten	-11.4242
▁3,000	-11.4243
▁improvement	-11.4255
lution	-11.4284
Achse	-11.4286
zeichnung	-11.4307
▁Inspiration	-11.4307
▁demokratische	-11.4307
▁grandfather	-11.4307
▁intervention	-11.4307
▁physician	-11.4307
▁pregnant	-11.4307
▁violent	-11.4307
▁narrow	-11.4307
▁Syria	-11.4307
▁proportion	-11.4307
▁BIP	-11.4307
▁drill	-11.4307
▁Rettung	-11.4307
▁telephone	-11.4307
▁Brian	-11.4307
▁pitch	-11.4307
▁sail	-11.4307
▁Stammzellen	-11.4308
▁ought	-11.4308
▁solange	-11.4309
▁Schnee	-11.431
▁Chaos	-11.4315
▁Ohren	-11.432
▁Wann	-11.4324
trick	-11.433
▁Kopie	-11.4348
lusion	-11.4384
▁bicycle	-11.4385
▁centuries	-11.4385
▁destruction	-11.4385
▁neugierig	-11.4385
▁domestic	-11.4385
▁vorbereitet	-11.4385
▁Blue	-11.4385
▁Scott	-11.4385
sequenz	-11.4385
▁merkte	-11.4386
▁Sky	-11.4386
▁sunlight	-11.4387
▁Sonnensystem	-11.4387
▁rush	-11.4388
▁sowas	-11.4394
▁bekomme	-11.44
▁lachen	-11.4407
▁lion	-11.4409
▁Flo	-11.442
Dollar	-11.4428
skop	-11.4435
▁Free	-11.4437
▁angle	-11.4442
▁file	-11.4447
▁Zeichnung	-11.4464
▁Kapitel	-11.4464
▁primitive	-11.4464
▁verursachen	-11.4464
▁fortunate	-11.4464
▁trigger	-11.4464
▁computation	-11.4464
▁Fokus	-11.4464
▁club	-11.4464
▁finance	-11.4464
▁spüren	-11.4464
▁thick	-11.4464
▁citizen	-11.4464
▁ruin	-11.4465
▁$1	-11.4467
▁wünschte	-11.4467
▁Konsum	-11.4469
▁cents	-11.4469
▁teilweise	-11.4471
▁1,5	-11.4473
▁editor	-11.4479
▁Dick	-11.4479
▁37	-11.4482
▁Asien	-11.4492
gestalt	-11.4505
„	-11.4507
▁organize	-11.4518
▁Russ	-11.453
▁ultimate	-11.4531
tograf	-11.4539
▁Behinderung	-11.4543
▁irgendjemand	-11.4543
▁somewhat	-11.4543
▁dancing	-11.4543
▁deploy	-11.4543
▁schreibt	-11.4543
▁variation	-11.4543
▁providing	-11.4543
▁Greek	-11.4543
▁Louis	-11.4543
▁Mäuse	-11.4543
▁balloon	-11.4543
▁Krankenhäuser	-11.4543
▁Something	-11.4543
▁bekämpfen	-11.4543
▁retire	-11.4543
▁Ruhe	-11.4544
▁Schlacht	-11.4544
▁presence	-11.4544
▁ultra	-11.4544
geschäft	-11.4544
▁occurred	-11.4545
▁Pilz	-11.4546
▁wählt	-11.4547
▁download	-11.4548
▁2050	-11.455
▁prima	-11.4554
▁boring	-11.4555
▁Verfahren	-11.4556
strom	-11.4558
▁Chip	-11.4562
▁Sichtweise	-11.4564
mination	-11.4572
meister	-11.4575
▁startete	-11.46
▁Bauch	-11.4611
▁creature	-11.4619
▁Widerstand	-11.4623
▁Impfstoff	-11.4623
▁Zerstörung	-11.4623
▁chapter	-11.4623
▁iPod	-11.4623
▁2015	-11.4623
▁secure	-11.4623
▁weshalb	-11.4623
förmig	-11.4623
▁smoke	-11.4623
▁Grippe	-11.4623
▁Before	-11.4624
▁zufrieden	-11.4624
▁böse	-11.4624
▁suspect	-11.4625
▁Make	-11.4626
▁vital	-11.4626
▁Albert	-11.4627
▁liefert	-11.4631
▁Denkweise	-11.4634
▁edit	-11.4657
fragt	-11.4661
fällt	-11.4661
▁evolve	-11.4674
▁stieg	-11.4688
trug	-11.4693
▁TEDTalk	-11.4704
▁bizarre	-11.4704
▁dominant	-11.4704
▁horrible	-11.4704
▁kämpft	-11.4704
▁mosquito	-11.4704
▁paradigm	-11.4704
▁Konsequenzen	-11.4704
▁globe	-11.4704
▁unmittelbar	-11.4704
▁Vorhersage	-11.4704
▁gekauft	-11.4704
▁heisst	-11.4704
▁motivate	-11.4705
▁lehrt	-11.4705
▁Prinzipien	-11.4709
▁cheat	-11.4715
▁humor	-11.4718
digit	-11.4724
ips	-11.4745
Look	-11.4754
▁inspire	-11.4756
▁pink	-11.4757
▁invite	-11.4758
▁kilo	-11.476
gefähr	-11.4785
▁Männchen	-11.4785
▁Treffen	-11.4785
▁bedroht	-11.4785
▁berühren	-11.4785
▁discipline	-11.4785
▁manufacture	-11.4785
▁städtische	-11.4785
▁Fremden	-11.4785
▁desperate	-11.4785
▁motivation	-11.4785
▁contrast	-11.4785
▁computing	-11.4785
▁gestaltet	-11.4785
▁Futter	-11.4785
▁legitim	-11.4785
▁Berlin	-11.4785
▁laboratory	-11.4786
▁befreien	-11.4787
▁gelangt	-11.4787
▁verlangt	-11.4788
▁Mauer	-11.4788
▁tunnel	-11.4788
▁Turn	-11.4788
▁transmit	-11.4789
▁treiben	-11.4791
kamera	-11.4794
▁Strand	-11.4795
▁lying	-11.4796
▁Verlauf	-11.4797
▁flach	-11.4799
▁Ereignis	-11.4799
▁passive	-11.48
▁Wagen	-11.4805
▁attend	-11.4812
▁cord	-11.4816
▁Seide	-11.482
urchschnittliche	-11.4826
▁Leiter	-11.4839
glas	-11.4845
▁cloth	-11.4852
modul	-11.4854
▁Alexander	-11.4867
▁Erinnern	-11.4867
▁Flügel	-11.4867
▁Nobody	-11.4867
▁Säugetier	-11.4867
▁Tätigkeit	-11.4867
▁europäische	-11.4867
▁zwang	-11.4867
▁ökologisch	-11.4867
▁Freiwillige	-11.4867
▁aufgeregt	-11.4867
▁revenue	-11.4867
▁medication	-11.4867
▁Square	-11.4867
▁Teleskop	-11.4867
▁Bürgermeister	-11.4868
▁Sonnenlicht	-11.4868
▁birthday	-11.4868
▁dramatically	-11.4868
▁lehren	-11.4869
▁organisieren	-11.4869
▁psychologist	-11.4869
▁dankbar	-11.4875
▁equality	-11.4875
▁politisch	-11.4898
Spiel	-11.4913
geschwindigkeit	-11.495
▁Unfortunately	-11.495
▁Versorgung	-11.495
▁begegnen	-11.495
▁efficiency	-11.495
▁fabric	-11.495
▁genügend	-11.495
▁navigat	-11.495
▁romantic	-11.495
▁Parkinson	-11.495
▁April	-11.495
▁flash	-11.495
▁murder	-11.495
▁Marketing	-11.495
▁Ursprung	-11.495
▁verglichen	-11.495
leuchtet	-11.495
▁gründen	-11.495
▁nowhere	-11.4951
▁Everyone	-11.4953
▁exakt	-11.4955
▁quad	-11.4965
▁regime	-11.497
reißen	-11.4971
▁Six	-11.4976
▁wachsende	-11.4979
tief	-11.4981
küste	-11.4991
System	-11.4997
▁rau	-11.5027
▁Außer	-11.5031
▁gentle	-11.5033
▁Entwurf	-11.5033
▁gesammelt	-11.5033
▁nachgedacht	-11.5033
▁phenomena	-11.5033
▁sensitive	-11.5033
▁verschwunden	-11.5033
▁activist	-11.5033
▁Ebola	-11.5033
behörde	-11.5033
▁wovon	-11.5033
▁fließen	-11.5035
▁tonight	-11.5038
▁stoppen	-11.5038
▁wiederholen	-11.504
produktion	-11.5042
▁enthalten	-11.5048
▁42	-11.5057
▁vertical	-11.5071
▁Serie	-11.5087
▁biologisch	-11.5088
▁suppose	-11.5088
▁Fett	-11.5091
▁Jugend	-11.5108
▁Verletzung	-11.5117
▁Blätter	-11.5117
▁Remember	-11.5117
▁antibiotics	-11.5117
▁awesome	-11.5117
▁dioxide	-11.5117
▁elektronische	-11.5117
▁kognitive	-11.5117
▁microscope	-11.5117
▁nervös	-11.5117
▁policies	-11.5117
▁Skelett	-11.5117
▁regret	-11.5117
▁silent	-11.5117
▁piano	-11.5117
▁Weisheit	-11.5117
▁knock	-11.5117
▁worauf	-11.5117
▁Meister	-11.5117
▁flood	-11.5117
▁punish	-11.5117
▁causing	-11.5117
▁Status	-11.5118
▁genießen	-11.5118
▁sweat	-11.5118
▁Frankreich	-11.5119
▁Studierende	-11.5119
▁Comic	-11.5122
▁Darüber	-11.5126
▁mittels	-11.5128
gefasst	-11.5128
▁Rauch	-11.5134
▁Koran	-11.5142
Wissen	-11.5168
▁Carolina	-11.5202
▁Kategorie	-11.5202
▁November	-11.5202
▁Plötzlich	-11.5202
▁constrain	-11.5202
▁solving	-11.5202
▁unexpected	-11.5202
▁verdammt	-11.5202
frage	-11.5202
▁hormone	-11.5202
▁Wärme	-11.5202
▁Bestandteil	-11.5202
▁depth	-11.5202
▁defend	-11.5202
▁Kugel	-11.5203
▁Henry	-11.5203
▁Hacker	-11.5208
▁Johnson	-11.5208
▁spezifische	-11.5221
▁Dreh	-11.5221
▁Report	-11.5223
verkehr	-11.5243
Drohne	-11.5243
school	-11.5251
basierte	-11.526
▁Farb	-11.5267
ruhe	-11.5273
▁commit	-11.528
nnerhalb	-11.5287
▁Budget	-11.5287
▁Ungleichheit	-11.5287
▁corporate	-11.5287
▁resistance	-11.5287
▁grateful	-11.5287
▁scholar	-11.5287
▁Ängste	-11.5287
▁Kolonie	-11.5288
▁miracle	-11.5288
anstalt	-11.5288
▁Schwimm	-11.5288
▁overcome	-11.5288
▁greenhouse	-11.5288
▁Sicher	-11.5291
▁exhibition	-11.5292
▁neigen	-11.5297
▁Wäre	-11.5303
▁Fertig	-11.5309
▁heutige	-11.5311
▁quot	-11.5339
Institut	-11.536
Philosoph	-11.5374
▁Verwendung	-11.5374
▁correspond	-11.5374
▁recommend	-11.5374
clusive	-11.5374
▁Fantasie	-11.5374
▁Heutzutage	-11.5374
▁Wichtigste	-11.5374
▁gerettet	-11.5374
▁physikalische	-11.5374
▁FBI	-11.5374
methode	-11.5374
▁genius	-11.5374
▁welcome	-11.5374
▁Finally	-11.5374
▁milk	-11.5374
▁freue	-11.5374
elect	-11.5376
▁capitalism	-11.5377
stütze	-11.5377
▁knee	-11.5377
▁wireless	-11.5378
▁wahrnehmen	-11.5382
▁colleague	-11.5389
nutzer	-11.5432
▁physisch	-11.5441
▁Skulptur	-11.5461
▁Brooklyn	-11.5461
▁Nachhaltigkeit	-11.5461
▁Stephen	-11.5461
▁insbesondere	-11.5461
▁judgment	-11.5461
▁konfrontiert	-11.5461
▁veröffentlichen	-11.5461
▁Neugier	-11.5461
▁erweitert	-11.5461
▁infiziert	-11.5461
▁Ritual	-11.5461
▁inject	-11.5461
▁flew	-11.5461
▁produktiv	-11.5461
▁Population	-11.5461
▁extent	-11.5461
▁horizontal	-11.5461
▁ewig	-11.5462
▁committed	-11.5462
▁anpassen	-11.5463
▁tanzen	-11.5463
▁Schweine	-11.5463
geborene	-11.5464
▁2020	-11.5466
▁fluid	-11.5467
▁objective	-11.5472
▁Knie	-11.5473
▁rapid	-11.5487
stamm	-11.5489
▁finanzielle	-11.5496
▁automatically	-11.5548
▁merkwürdig	-11.5548
▁öfter	-11.5548
▁Angebot	-11.5548
▁frankly	-11.5548
▁Wirklich	-11.5548
▁housing	-11.5548
▁Enkel	-11.5548
▁zurückkehren	-11.5548
▁Gebrauch	-11.5549
▁Rwanda	-11.5549
▁unterwegs	-11.5549
▁alarm	-11.5549
▁technologische	-11.5549
▁erfüllen	-11.5549
▁pretend	-11.5549
▁rufen	-11.555
▁eingeladen	-11.555
▁guard	-11.5554
▁authority	-11.5555
▁Congo	-11.5556
▁leap	-11.5559
pflege	-11.5569
▁Sorge	-11.5576
Projekt	-11.56
▁Einzelne	-11.5625
▁Großvater	-11.5637
▁Taliban	-11.5637
▁Verbreitung	-11.5637
▁candidate	-11.5637
▁exploit	-11.5637
▁identical	-11.5637
▁lächerlich	-11.5637
▁obsessed	-11.5637
▁thumb	-11.5637
▁Ägypten	-11.5637
▁County	-11.5637
▁authentic	-11.5637
▁scream	-11.5637
▁reserve	-11.5637
▁Mandela	-11.5637
▁neutral	-11.5637
▁psychologische	-11.5637
▁carried	-11.5637
▁Privatsphäre	-11.5637
▁Next	-11.5637
▁ugly	-11.5637
▁betreiben	-11.5637
▁sustainability	-11.5637
▁betrieben	-11.5638
▁continuous	-11.5639
▁sales	-11.564
▁consistent	-11.564
▁besessen	-11.564
▁expectations	-11.564
▁Naja	-11.5645
▁database	-11.5646
▁comic	-11.5648
▁magnetic	-11.5652
gehört	-11.569
schlecht	-11.5693
gehalten	-11.5693
▁Fundament	-11.5726
▁Gemüse	-11.5726
▁Hawaii	-11.5726
▁Trotzdem	-11.5726
▁anxiety	-11.5726
▁conclude	-11.5726
▁lifestyle	-11.5726
▁philosophy	-11.5726
▁Illusion	-11.5726
▁Kritik	-11.5726
▁befand	-11.5726
▁verliert	-11.5726
▁Richter	-11.5727
▁mechanisch	-11.5727
▁immense	-11.5727
▁chest	-11.5728
▁hinterlassen	-11.573
▁rising	-11.5731
▁überlegt	-11.5731
▁hook	-11.5731
▁könne	-11.5752
psychiat	-11.5753
▁Geschmack	-11.5816
▁Kennedy	-11.5816
▁beschreibt	-11.5816
▁fotografiert	-11.5816
▁recognition	-11.5816
▁ridiculous	-11.5816
▁Schauspieler	-11.5816
▁Kreatur	-11.5816
▁Saudi	-11.5816
▁philosopher	-11.5816
▁Pilot	-11.5817
▁Brustkrebs	-11.5817
▁refuse	-11.5817
▁Tesla	-11.5817
▁wisst	-11.5817
▁Herstellung	-11.5818
▁jegliche	-11.5819
▁brown	-11.582
▁Dadurch	-11.5821
▁Verkauf	-11.5823
▁optimistisch	-11.5829
▁bond	-11.5834
▁audit	-11.5836
▁loop	-11.5843
▁frisch	-11.5849
stufe	-11.5852
geschnitten	-11.5853
region	-11.5872
▁commun	-11.5904
▁curiosity	-11.5907
▁procedure	-11.5907
▁scenario	-11.5907
▁Atlantic	-11.5907
▁adjust	-11.5907
▁ernähren	-11.5907
▁gezwungen	-11.5907
▁inequality	-11.5907
▁routine	-11.5907
▁Nelson	-11.5907
gängig	-11.5907
▁Treppe	-11.5907
▁plenty	-11.5907
▁versorgen	-11.5907
▁Hitze	-11.5907
▁distant	-11.5907
aktivität	-11.5912
▁shake	-11.5913
▁Nadel	-11.5913
▁controlled	-11.5913
▁Umfrage	-11.5917
▁gray	-11.5918
▁Umgang	-11.5918
glücklicherweise	-11.5921
▁Beute	-11.5959
▁Mobiltelefon	-11.5999
▁obstacle	-11.5999
▁rebuild	-11.5999
kapital	-11.5999
▁Shakespeare	-11.5999
▁Zentral	-11.5999
▁cooperation	-11.5999
▁crucial	-11.5999
▁distributed	-11.5999
▁exploring	-11.5999
▁exponential	-11.5999
▁infected	-11.5999
gespräch	-11.5999
▁Spannung	-11.5999
▁süß	-11.5999
▁Wichtige	-11.5999
▁asteroid	-11.5999
▁raising	-11.5999
▁external	-11.5999
▁geschützt	-11.5999
▁agenda	-11.5999
osphere	-11.5999
▁animation	-11.6
▁shelter	-11.6
▁wenigstens	-11.6
▁hinzufügen	-11.6
▁aussah	-11.6003
flüge	-11.6006
▁engagement	-11.6013
minal	-11.6039
ähnliche	-11.6061
called	-11.6068
▁landete	-11.6085
wünscht	-11.6088
▁350	-11.609
▁Gandhi	-11.6091
▁Psychologie	-11.6091
▁intellektuell	-11.6091
”	-11.6091
▁Erdbeben	-11.6091
▁Symmetrie	-11.6091
▁earthquake	-11.6091
▁fascinated	-11.6091
▁scratch	-11.6091
▁stirbt	-11.6091
▁Süß	-11.6091
▁cluster	-11.6091
▁margin	-11.6091
▁erfand	-11.6092
▁instinct	-11.6092
▁productivity	-11.6092
▁engaging	-11.6093
▁breed	-11.6094
▁glu	-11.6094
▁Moore	-11.6097
▁wundervoll	-11.6152
▁Flüssigkeit	-11.6185
▁Löwen	-11.6185
▁diagram	-11.6185
▁feminist	-11.6185
▁compound	-11.6185
▁household	-11.6185
▁Dörfer	-11.6185
▁strike	-11.6185
▁manifest	-11.6185
▁Animation	-11.6185
faktor	-11.6185
▁drove	-11.6185
nseits	-11.6185
▁heaven	-11.6185
▁properly	-11.6185
▁Tempo	-11.6185
▁Mögliche	-11.6185
▁Dienstleistung	-11.6185
▁staatliche	-11.6186
▁Dün	-11.6186
▁kreiert	-11.6187
▁minimal	-11.6191
▁isoliert	-11.6191
gebunden	-11.6192
wichtig	-11.6219
▁Darm	-11.6221
hirn	-11.6235
▁impos	-11.6239
grafische	-11.6241
bomb	-11.626
▁Senat	-11.6276
▁Feynman	-11.6279
▁finanziert	-11.6279
▁vernünftig	-11.6279
▁Clinton	-11.6279
▁Original	-11.6279
▁column	-11.6279
▁economies	-11.6279
▁library	-11.6279
▁neither	-11.6279
▁synchron	-11.6279
▁Polizist	-11.6279
▁regulation	-11.6279
▁Schriftsteller	-11.6279
▁Erfinder	-11.6279
▁Philosophie	-11.6279
▁isolated	-11.6279
▁Geruch	-11.6279
▁Verlangen	-11.6279
▁footprint	-11.628
▁Basically	-11.628
▁Terroristen	-11.628
▁Front	-11.6281
▁grave	-11.6281
▁gentlemen	-11.6281
▁Böse	-11.6282
objekt	-11.6282
▁hindurch	-11.6283
▁Sektor	-11.6284
ombin	-11.6287
▁Zurück	-11.6288
meldet	-11.629
teressanterweise	-11.6291
▁beendet	-11.6311
▁logisch	-11.6315
gelenk	-11.6328
stunde	-11.6341
unterricht	-11.6349
▁Julia	-11.636
chirurg	-11.6374
▁1998	-11.6374
▁Anstieg	-11.6374
▁Lebenserwartung	-11.6374
▁Motivation	-11.6374
▁confident	-11.6374
▁conservative	-11.6374
▁guarantee	-11.6374
▁integriert	-11.6374
▁opposed	-11.6374
▁pyramid	-11.6374
▁resolution	-11.6374
▁surveillance	-11.6374
▁Überwachung	-11.6374
▁distract	-11.6374
▁Apollo	-11.6374
▁fragment	-11.6375
▁gemessen	-11.6375
▁Quanten	-11.6375
▁stammen	-11.6375
▁leitet	-11.6376
▁Gulf	-11.6379
▁salt	-11.6387
▁plug	-11.6393
▁Brüder	-11.6471
▁Lincoln	-11.6471
▁chocolate	-11.6471
▁hässlich	-11.6471
▁portrait	-11.6471
▁suicide	-11.6471
▁Besondere	-11.6471
▁Gipfel	-11.6471
▁Initiative	-11.6471
▁Stämme	-11.6471
▁exposed	-11.6471
▁Impuls	-11.6471
▁emergency	-11.6471
▁Logik	-11.6471
▁Weibchen	-11.6471
▁trocken	-11.6471
▁Bronx	-11.6471
▁request	-11.6471
▁Anpassung	-11.6471
▁Einwohner	-11.6471
▁wirksam	-11.6471
▁backwards	-11.6471
▁optimistic	-11.6472
▁bedeckt	-11.6473
plikation	-11.6473
▁Onkel	-11.6474
▁Nachfrage	-11.6481
▁angenehm	-11.6498
glück	-11.6509
spitze	-11.6525
▁reiste	-11.6537
männer	-11.6568
▁Detroit	-11.6568
▁irgendwelche	-11.6568
▁renewable	-11.6568
▁Arctic	-11.6568
▁Zivil	-11.6568
▁erfordert	-11.6568
▁incident	-11.6568
▁reparieren	-11.6568
▁stroke	-11.6568
▁clue	-11.6568
▁hungry	-11.6568
▁diagnosed	-11.6568
▁minor	-11.6568
▁Gleichgewicht	-11.6568
▁Italien	-11.6568
▁Kapitalismus	-11.6569
▁surf	-11.657
▁viral	-11.657
▁sorgt	-11.6571
▁verlor	-11.6578
▁Hals	-11.6579
▁Abou	-11.6594
hundert	-11.6627
Yeah	-11.6629
script	-11.663
firma	-11.666
▁Ethiopia	-11.6666
▁announced	-11.6666
▁decrease	-11.6666
▁gestartet	-11.6666
▁gewöhnt	-11.6666
▁korrekt	-11.6666
▁mathematician	-11.6666
▁umgekehrt	-11.6666
▁unerwartet	-11.6666
▁yield	-11.6666
▁Knopf	-11.6666
▁letztlich	-11.6666
▁herself	-11.6666
kontakt	-11.6666
▁zwingen	-11.6666
▁Ocean	-11.6666
läufig	-11.6666
▁abandon	-11.6666
▁angepasst	-11.6666
▁Nothing	-11.6666
▁worm	-11.667
▁Strecke	-11.6671
▁Palm	-11.6671
▁Andrew	-11.6671
▁activate	-11.6671
generation	-11.6673
▁Eigenschaft	-11.6677
▁müsst	-11.6681
▁Schwelle	-11.6695
computer	-11.6728
▁Videospiele	-11.6738
ogram	-11.675
▁Kranken	-11.6765
frequent	-11.6765
á	-11.6765
▁Angelegenheit	-11.6765
▁Empathie	-11.6765
▁Kandidat	-11.6765
▁Shanghai	-11.6765
▁analysieren	-11.6765
▁chromosome	-11.6765
▁dedicated	-11.6765
▁gefährdet	-11.6765
▁identifizieren	-11.6765
▁underground	-11.6765
▁vegetable	-11.6765
▁ceiling	-11.6765
▁enemy	-11.6765
▁geeignet	-11.6765
▁depressed	-11.6765
▁vielmehr	-11.6765
▁Nahrungsmittel	-11.6765
▁Watson	-11.6765
physik	-11.6765
▁feiern	-11.6765
▁indicate	-11.6765
▁hardware	-11.6765
▁obesity	-11.6765
▁Bewohner	-11.6765
▁dringend	-11.6765
▁getestet	-11.6765
▁Maßnahmen	-11.6765
▁Ehemann	-11.6766
▁slum	-11.6767
▁accessible	-11.6768
▁Work	-11.6771
▁Waffe	-11.6803
leute	-11.6808
wache	-11.6822
dollar	-11.6828
century	-11.6828
field	-11.6829
streu	-11.6865
▁1999	-11.6865
▁Anstrengung	-11.6865
▁Berkeley	-11.6865
▁Diabetes	-11.6865
▁Schätzung	-11.6865
▁disgust	-11.6865
▁erwähnen	-11.6865
▁explosion	-11.6865
▁Abraham	-11.6865
▁poison	-11.6865
▁senior	-11.6865
▁verstecken	-11.6865
▁ausgewählt	-11.6865
▁Schöne	-11.6865
▁Pollen	-11.687
▁Astronom	-11.6966
▁Bedarf	-11.6966
▁Eigentum	-11.6966
▁adventure	-11.6966
▁recycle	-11.6966
▁uncomfortable	-11.6966
▁verblüffend	-11.6966
▁Schädel	-11.6966
▁disagree	-11.6966
▁Ökonomen	-11.6966
▁Hügel	-11.6966
▁MRI	-11.6966
▁borrow	-11.6966
▁erledigen	-11.6966
▁facial	-11.6966
▁frozen	-11.6966
▁consult	-11.6966
▁granted	-11.6966
▁minus	-11.6966
▁Schweiz	-11.6966
▁entwarf	-11.6966
▁gesture	-11.6966
▁herrscht	-11.6966
▁utter	-11.6966
▁stimmen	-11.6966
▁appeal	-11.6966
▁Virginia	-11.6967
▁football	-11.6967
▁Dunkelheit	-11.6967
▁mutation	-11.6967
▁Schweden	-11.6967
▁Schnell	-11.6967
▁Dialog	-11.6968
▁subtle	-11.6968
▁stets	-11.6969
▁Sierra	-11.697
▁Stasi	-11.6972
istori	-11.7022
Sti	-11.7032
▁benutze	-11.7035
invasiv	-11.7057
häuser	-11.7068
empfindlich	-11.7068
entwicklung	-11.7068
▁DVD	-11.7068
▁Klavier	-11.7068
▁Nordamerika	-11.7068
▁Tränen	-11.7068
▁Vagina	-11.7068
▁Vermögen	-11.7068
▁diabetes	-11.7068
▁district	-11.7068
▁illustrate	-11.7068
▁legacy	-11.7068
▁paradox	-11.7068
▁2014	-11.7068
▁defense	-11.7068
▁Niveau	-11.7068
▁tweet	-11.7068
▁örtliche	-11.7068
▁frog	-11.7068
▁Schlechte	-11.7069
▁schief	-11.7069
▁sheep	-11.707
▁Ernst	-11.708
ponent	-11.7087
▁Merk	-11.71
▁particle	-11.7132
▁weapon	-11.7132
▁arrive	-11.7141
ggle	-11.7153
▁Mountain	-11.7171
▁Normalerweise	-11.7171
▁Seattle	-11.7171
▁furniture	-11.7171
▁jüngste	-11.7171
▁measuring	-11.7171
▁Tunnel	-11.7171
▁Erziehung	-11.7171
▁insurance	-11.7171
▁dignity	-11.7171
städte	-11.7171
▁Mikroskop	-11.7171
▁sharp	-11.7171
würfe	-11.7172
▁füllen	-11.7172
▁Queen	-11.7176
greift	-11.7178
▁psych	-11.7179
▁Pflanze	-11.721
zählen	-11.7219
▁formula	-11.7223
▁autonomous	-11.7275
▁Digital	-11.7275
▁Philadelphia	-11.7275
▁embedded	-11.7275
▁happier	-11.7275
▁hilfreich	-11.7275
▁insgesamt	-11.7275
▁ländlichen	-11.7275
▁neuroscience	-11.7275
▁schmerzhaft	-11.7275
▁struggling	-11.7275
▁anscheinend	-11.7275
▁drift	-11.7275
▁fließt	-11.7275
▁Selbstmord	-11.7275
▁nachdenkt	-11.7275
▁polio	-11.7275
▁Humor	-11.7275
▁ladies	-11.7275
▁mimic	-11.7275
verhältnis	-11.7276
▁freak	-11.7277
▁Ziege	-11.7277
schön	-11.7278
▁Linse	-11.7291
Source	-11.7321
tschaftswachstum	-11.7326
stätte	-11.7331
sexual	-11.7357
▁bun	-11.7359
rgendwo	-11.738
▁Charlie	-11.738
▁Größenordnung	-11.738
▁Röntgen	-11.738
▁Speicher	-11.738
▁Tragödie	-11.738
▁Vergnügen	-11.738
▁geöffnet	-11.738
▁strategies	-11.738
▁Church	-11.738
▁description	-11.738
Jährige	-11.738
▁Beijing	-11.738
▁angemessen	-11.738
▁reputation	-11.738
▁tragedy	-11.738
▁Praxis	-11.738
▁Neuigkeiten	-11.738
▁Käfer	-11.738
▁Kevin	-11.738
▁tackle	-11.738
▁Medium	-11.738
▁replicate	-11.7381
▁Sprung	-11.7381
▁IBM	-11.7381
▁Redwood	-11.7381
▁Egal	-11.7381
▁Jones	-11.7383
bedarf	-11.7384
▁mask	-11.7391
▁Gramm	-11.7409
kämpfe	-11.7486
drängt	-11.7487
▁Alkohol	-11.7487
▁Explosion	-11.7487
▁Parlament	-11.7487
▁exponentiell	-11.7487
▁fulfill	-11.7487
▁repräsentiert	-11.7487
brüche	-11.7487
▁Ruanda	-11.7487
▁Service	-11.7487
▁abstrakte	-11.7487
▁agricultural	-11.7487
▁corporation	-11.7487
▁molekulare	-11.7487
▁participants	-11.7487
▁skeleton	-11.7487
▁universities	-11.7487
▁Übrigens	-11.7487
▁sacred	-11.7487
▁colony	-11.7487
▁herausfand	-11.7487
▁anbieten	-11.7487
▁Letztes	-11.7487
▁absurd	-11.7487
▁intuition	-11.7487
▁Soviet	-11.7487
▁Vorurteile	-11.7487
▁ensure	-11.7487
▁Heilung	-11.7487
▁restrict	-11.7487
▁Level	-11.7487
▁Venus	-11.7487
▁Gegenstände	-11.7487
▁spill	-11.7488
▁blank	-11.749
▁Bedürfnis	-11.7528
strafe	-11.7548
kilometer	-11.7556
drehen	-11.7568
Star	-11.7573
▁schizophren	-11.7594
▁Benjamin	-11.7594
▁Feedback	-11.7594
▁Leonardo	-11.7594
▁Lächeln	-11.7594
▁McDonald	-11.7594
▁Studium	-11.7594
▁Transparenz	-11.7594
▁bewahren	-11.7594
▁fliegt	-11.7594
▁muslimische	-11.7594
▁transparency	-11.7594
▁simulation	-11.7594
▁Delhi	-11.7594
▁motiviert	-11.7594
▁Beitrag	-11.7594
▁Meeting	-11.7595
▁Reichtum	-11.7595
▁verbraucht	-11.7596
▁Edward	-11.7596
▁ethisch	-11.7596
unterschied	-11.7596
▁blend	-11.7596
▁Branche	-11.7597
▁Verwandte	-11.7597
▁shore	-11.7597
▁Auftrag	-11.7602
▁Nachde	-11.7645
Technologie	-11.7667
sammeln	-11.7667
bleiben	-11.7669
spezifisch	-11.7679
Cola	-11.7698
▁Diplomat	-11.7703
▁Gletscher	-11.7703
▁Priorität	-11.7703
▁Töchter	-11.7703
▁Weihnachts	-11.7703
▁acknowledge	-11.7703
▁boundaries	-11.7703
▁contribution	-11.7703
▁definitiv	-11.7703
▁evaluat	-11.7703
▁französische	-11.7703
▁rainforest	-11.7703
▁sorgfältig	-11.7703
▁synthetic	-11.7703
▁unangenehm	-11.7703
▁Befehl	-11.7703
▁dauerhaft	-11.7703
▁verringern	-11.7703
▁federal	-11.7703
▁sensation	-11.7703
▁Bürgerkrieg	-11.7704
▁Höhepunkt	-11.7705
▁Modern	-11.7706
▁tragic	-11.7712
▁Platte	-11.7712
▁Ehrlich	-11.7737
unwahrscheinlich	-11.7758
gebrauch	-11.7765
philosoph	-11.7812
▁Blickwinkel	-11.7813
▁Jewish	-11.7813
▁Kohlendioxid	-11.7813
▁Kooperation	-11.7813
▁Monterey	-11.7813
▁Nährstoffe	-11.7813
▁Schokolade	-11.7813
▁reconstruct	-11.7813
▁spectacular	-11.7813
▁Sammlung	-11.7813
▁acquire	-11.7813
▁circa	-11.7813
▁Gemeinsam	-11.7813
▁substance	-11.7813
ifikation	-11.7813
▁Apfel	-11.7813
▁jeweils	-11.7813
▁suburb	-11.7813
▁whistle	-11.7813
▁unterrichtet	-11.7813
▁programmieren	-11.7813
rabischen	-11.7813
▁Väter	-11.7813
▁deutsche	-11.7813
▁domain	-11.7814
▁Fußball	-11.7814
▁Lärm	-11.7814
▁theories	-11.7817
gesundheit	-11.7826
gestoßen	-11.7837
gemeinschaft	-11.7855
▁corn	-11.7874
gras	-11.7897
▁immediate	-11.7912
sterblichkeit	-11.792
▁Disziplin	-11.7924
▁1994	-11.7924
▁Abenteuer	-11.7924
▁Produktivität	-11.7924
▁breakthrough	-11.7924
▁demonstration	-11.7924
▁diskutieren	-11.7924
▁elsewhere	-11.7924
▁enhance	-11.7924
▁identified	-11.7924
▁interconnect	-11.7924
▁sketch	-11.7924
▁volcan	-11.7924
▁Hölle	-11.7924
▁Mozart	-11.7924
▁inspiring	-11.7924
▁Bruno	-11.7924
▁Cartoon	-11.7924
▁Hormon	-11.7924
▁affair	-11.7924
▁identisch	-11.7924
▁Verteilung	-11.7924
▁profile	-11.7924
resistant	-11.7924
▁Arthur	-11.7924
missbrauch	-11.7924
kreuz	-11.7924
▁Daumen	-11.7925
▁erfasst	-11.7925
▁systematisch	-11.7925
▁beschleunigt	-11.7926
brecher	-11.7931
moral	-11.7972
pflanzt	-11.8036
▁Beschreibung	-11.8036
▁Entstehung	-11.8036
▁Moskito	-11.8036
▁Prüfung	-11.8036
▁akzeptiert	-11.8036
gefügt	-11.8036
▁1995	-11.8036
▁Effizienz	-11.8036
▁Nairobi	-11.8036
▁Währung	-11.8036
▁aufmerksam	-11.8036
▁bedeutsam	-11.8036
▁calculation	-11.8036
▁gelehrt	-11.8036
▁inklusive	-11.8036
▁nutrition	-11.8036
▁südlich	-11.8036
▁charity	-11.8036
▁fraction	-11.8036
▁schwanger	-11.8036
▁skull	-11.8036
▁initiative	-11.8036
▁confirm	-11.8036
▁Slum	-11.8036
▁rabbi	-11.8037
▁mittlerweile	-11.8037
▁ausreichend	-11.8038
▁Indeed	-11.804
stadium	-11.8041
▁slice	-11.8045
▁terror	-11.8062
▁negativ	-11.8073
▁Gelände	-11.8077
▁Kontroll	-11.8082
▁Angesicht	-11.8084
▁Atlanta	-11.815
▁Horizont	-11.815
▁Hypothese	-11.815
▁Richtlinie	-11.815
▁SETI	-11.815
▁dilemma	-11.815
▁erneuerbare	-11.815
▁simplicity	-11.815
▁verdoppelt	-11.815
▁verzweifelt	-11.815
▁Baseball	-11.815
▁fragile	-11.815
▁fügt	-11.815
▁resolve	-11.815
▁sandwich	-11.815
▁Simulation	-11.815
▁heiraten	-11.815
▁mysterious	-11.815
▁Sweden	-11.815
Nobelpreis	-11.815
▁Knoten	-11.815
▁figuring	-11.815
▁japanische	-11.815
▁afterwards	-11.815
▁Globalisierung	-11.8151
▁vermittelt	-11.8151
analyse	-11.8151
▁klingen	-11.8151
▁Aufstieg	-11.8153
stift	-11.818
▁stieß	-11.8217
temperatur	-11.8264
diagnose	-11.8265
▁Täuschung	-11.8265
▁offiziell	-11.8265
▁spontan	-11.8265
▁Bitcoin	-11.8265
▁Department	-11.8265
▁Joseph	-11.8265
▁Liefer	-11.8265
▁Wohlbefinden	-11.8265
▁advertising	-11.8265
▁jahrelang	-11.8265
▁smooth	-11.8265
▁variable	-11.8265
▁2013	-11.8265
▁Intuition	-11.8265
▁recipe	-11.8265
▁engagiert	-11.8265
▁probability	-11.8265
süchtig	-11.8265
▁Lügen	-11.8265
▁begun	-11.8265
▁Anzeige	-11.8266
▁mild	-11.8267
▁beetle	-11.8268
▁rettet	-11.8272
▁capita	-11.8304
geschoss	-11.8318
▁unglücklich	-11.8325
Programm	-11.8345
second	-11.8366
▁CRISPR	-11.8381
▁Frequenz	-11.8381
▁Verhandlung	-11.8381
▁eliminate	-11.8381
▁helicopter	-11.8381
▁mushroom	-11.8381
▁recruit	-11.8381
▁Chinesisch	-11.8381
▁Mumbai	-11.8381
▁ehemalige	-11.8381
▁ethnic	-11.8381
▁freiwillig	-11.8381
▁inevitable	-11.8381
▁verschwindet	-11.8381
▁verwirrt	-11.8381
▁Jordan	-11.8381
▁bewirkt	-11.8381
▁fifth	-11.8381
▁fought	-11.8381
▁reinvent	-11.8381
▁translation	-11.8381
▁Babies	-11.8381
▁twist	-11.8381
▁erzielen	-11.8382
▁fortune	-11.8383
▁institutional	-11.8383
▁assess	-11.8384
▁restore	-11.839
strecken	-11.8392
platte	-11.8399
▁chat	-11.8402
floss	-11.8435
mütig	-11.8487
▁virtue	-11.8492
▁Karikatur	-11.8499
▁Buddha	-11.8499
▁Lebensqualität	-11.8499
▁Neanderthal	-11.8499
▁Through	-11.8499
▁alcohol	-11.8499
▁champion	-11.8499
▁chief	-11.8499
▁explode	-11.8499
▁fabulous	-11.8499
▁mechanics	-11.8499
▁präzise	-11.8499
▁ungeheuer	-11.8499
▁unterscheidet	-11.8499
▁überwältigend	-11.8499
nutzung	-11.8499
▁Alaska	-11.8499
▁chaos	-11.8499
▁leverage	-11.8499
▁shrimp	-11.8499
▁abilities	-11.8499
▁Third	-11.8499
▁cousin	-11.8499
▁Tibet	-11.8499
▁convey	-11.8499
▁verlangen	-11.85
▁umfasst	-11.85
weisung	-11.851
mangel	-11.8521
▁Hochschul	-11.8535
▁schreibe	-11.8553
wachstum	-11.8561
Where	-11.8582
cellular	-11.8589
▁Hätte	-11.8603
▁diskutiert	-11.8618
▁vielfältig	-11.8618
gebäude	-11.8618
prinzip	-11.8618
verständnis	-11.8618
▁Snowden	-11.8618
▁Substanz	-11.8618
▁astonishing	-11.8618
▁ausschließlich	-11.8618
▁bewältigen	-11.8618
▁comparison	-11.8618
▁competitive	-11.8618
▁dictionary	-11.8618
▁skeptic	-11.8618
▁survivor	-11.8618
▁Variation	-11.8618
schaffung	-11.8618
▁Canyon	-11.8618
▁Craig	-11.8618
▁Pfeil	-11.8618
▁überprüfen	-11.8618
▁Scheibe	-11.8618
▁Mühe	-11.8618
▁beschützen	-11.8618
▁Deep	-11.8619
▁geplant	-11.8619
▁vernetzt	-11.862
▁Gerade	-11.862
sprung	-11.8635
gesichts	-11.8644
geholt	-11.868
related	-11.8701
genoss	-11.8734
▁horizon	-11.8737
▁Völker	-11.8738
▁Algorithmus	-11.8738
▁Columbia	-11.8738
▁Democrat	-11.8738
▁Engagement	-11.8738
▁Individuum	-11.8738
▁Konzentration	-11.8738
▁October	-11.8738
▁Sklaverei	-11.8738
▁Treibhausgas	-11.8738
▁accelerate	-11.8738
▁facility	-11.8738
▁intersection	-11.8738
▁musikalische	-11.8738
▁resilience	-11.8738
▁structural	-11.8738
▁stärkste	-11.8738
▁vagina	-11.8738
▁verhindert	-11.8738
▁Regenwald	-11.8738
▁beschränkt	-11.8738
▁excuse	-11.8738
▁hübsch	-11.8738
▁Möbel	-11.8738
▁trivial	-11.8738
▁Winkel	-11.8738
▁ermutigen	-11.8738
geschaltet	-11.8738
▁injury	-11.8738
▁buried	-11.8738
▁Pläne	-11.8739
▁dominate	-11.8739
▁silly	-11.8739
▁Merkmale	-11.8739
▁stoßen	-11.8739
▁Akteur	-11.874
▁rope	-11.8741
▁vereint	-11.8746
geteilt	-11.8771
▁Angel	-11.8781
gewöhnlich	-11.882
▁pioneer	-11.886
▁Bangladesh	-11.886
▁Nachmittag	-11.886
▁Obviously	-11.886
▁Oktober	-11.886
▁Privileg	-11.886
▁agencies	-11.886
▁anfängt	-11.886
▁attribute	-11.886
▁bathroom	-11.886
▁bestätigt	-11.886
▁combat	-11.886
▁dialogue	-11.886
▁entschlossen	-11.886
▁frustrated	-11.886
▁gemeinnützige	-11.886
▁genocide	-11.886
▁potentiell	-11.886
▁Bescheid	-11.886
▁Management	-11.886
▁unterhalb	-11.886
▁Schwanz	-11.886
▁erstaunt	-11.886
▁relax	-11.886
▁Everest	-11.886
▁spirituelle	-11.886
▁gegessen	-11.886
▁elected	-11.886
▁naked	-11.8861
risiko	-11.8861
▁Mittlere	-11.8861
▁punch	-11.8861
▁Cousin	-11.8861
▁agency	-11.8861
▁stigma	-11.8861
▁Bindung	-11.8861
▁Lagos	-11.8861
kunst	-11.8863
▁Fleck	-11.8866
▁aktuell	-11.8871
▁Clar	-11.8889
▁menschlich	-11.8912
pound	-11.8931
minute	-11.8952
▁Kapazität	-11.8984
▁Mahlzeit	-11.8984
í	-11.8984
ündigt	-11.8984
▁Gravitation	-11.8984
▁Hospital	-11.8984
▁Kompromiss	-11.8984
▁Verteidigung	-11.8984
▁Zufriedenheit	-11.8984
▁compromise	-11.8984
▁hervorragend	-11.8984
▁overwhelming	-11.8984
▁sacrifice	-11.8984
▁suspend	-11.8984
▁unbelievable	-11.8984
▁verurteilt	-11.8984
▁ärmsten	-11.8984
▁Plätze	-11.8984
▁crystal	-11.8984
▁FDA	-11.8984
blätter	-11.8984
▁Liberia	-11.8984
gewebe	-11.8984
▁Konsumenten	-11.8984
▁zahlreiche	-11.8984
▁mood	-11.8984
▁Nepal	-11.8984
▁Manager	-11.8985
▁gefühlt	-11.8986
fleisch	-11.8988
gefertigt	-11.9012
▁Lampe	-11.902
haufen	-11.904
abhängig	-11.9068
Zeit	-11.9073
control	-11.9078
Komm	-11.9099
▁Abhängigkeit	-11.9109
▁Allerdings	-11.9109
▁Council	-11.9109
▁Flughafen	-11.9109
▁Jupiter	-11.9109
▁außerordentlich	-11.9109
▁category	-11.9109
▁choosing	-11.9109
▁collaborative	-11.9109
▁längst	-11.9109
▁schlussendlich	-11.9109
▁threshold	-11.9109
▁thrill	-11.9109
▁vacuum	-11.9109
▁verknüpft	-11.9109
▁Michigan	-11.9109
▁kombiniert	-11.9109
▁smoking	-11.9109
Origami	-11.9109
▁garbage	-11.9109
bedingungen	-11.9109
▁loving	-11.9109
▁shrink	-11.9109
▁valid	-11.9109
▁Italian	-11.9109
wurzel	-11.9109
drüse	-11.9109
▁gewinnt	-11.9109
▁Daniel	-11.9109
▁Filter	-11.9109
▁barrel	-11.911
▁programming	-11.911
▁Bereit	-11.911
▁Prinz	-11.9111
▁Einzige	-11.9111
▁Termin	-11.9114
▁islamische	-11.9115
deutet	-11.9127
▁prepare	-11.9206
▁nördlich	-11.9235
sufficient	-11.9235
▁Besonders	-11.9235
▁Dynamik	-11.9235
▁Kalorien	-11.9235
▁Mechanismus	-11.9235
▁Pyramide	-11.9235
▁Should	-11.9235
▁Zuhörer	-11.9235
▁anticipate	-11.9235
▁disconnect	-11.9235
▁expansion	-11.9235
▁experiencing	-11.9235
▁nutrients	-11.9235
▁wheelchair	-11.9235
▁primarily	-11.9235
▁steigern	-11.9235
▁cliff	-11.9235
▁Versicherung	-11.9235
▁voting	-11.9235
▁versagt	-11.9235
▁Variante	-11.9236
▁erkunden	-11.9236
▁accus	-11.9236
▁scharf	-11.9236
gehoben	-11.924
▁finanziell	-11.9312
schätzung	-11.9364
▁Behauptung	-11.9364
▁analysiert	-11.9364
▁begleitet	-11.9364
▁diagnostiziert	-11.9364
▁erheblich	-11.9364
▁grandchildren	-11.9364
▁irrational	-11.9364
=	-11.9364
assembly	-11.9364
▁Anwälte	-11.9364
▁Gewohnheit	-11.9364
▁Jedenfalls	-11.9364
▁Kämpfe	-11.9364
▁Passwörter	-11.9364
▁Pazifik	-11.9364
▁Syrien	-11.9364
▁Urknall	-11.9364
▁diagnosis	-11.9364
▁erledigt	-11.9364
▁frequency	-11.9364
▁kombinieren	-11.9364
▁romantische	-11.9364
▁vulnerability	-11.9364
▁broadcast	-11.9364
▁magnitude	-11.9364
▁orchestra	-11.9364
▁scheitern	-11.9364
▁weiterentwickel	-11.9364
▁impression	-11.9364
▁beantwortet	-11.9364
▁audio	-11.9364
▁zutiefst	-11.9364
▁transcend	-11.9364
▁Säule	-11.9364
▁involviert	-11.9364
unclear	-11.9364
▁lenken	-11.9364
▁gefüllt	-11.9364
▁Halb	-11.9364
▁spürt	-11.9365
▁tragisch	-11.9365
Boot	-11.9458
grenzt	-11.9471
▁exhibit	-11.9486
▁Afghan	-11.9493
▁Oxytocin	-11.9493
▁Vulkan	-11.9493
▁begegnet	-11.9493
▁gesünder	-11.9493
▁Joshua	-11.9493
▁Offensichtlich	-11.9493
▁Sklaven	-11.9493
▁akademische	-11.9493
▁brillante	-11.9493
▁capabilities	-11.9493
▁ecological	-11.9493
▁expedition	-11.9493
▁militärische	-11.9493
▁origami	-11.9493
▁treibt	-11.9493
▁unfair	-11.9493
▁äußere	-11.9493
▁Little	-11.9493
▁uniform	-11.9493
▁unfold	-11.9493
▁vergleichbar	-11.9493
▁wohlhabend	-11.9493
▁Club	-11.9494
▁pulse	-11.9494
▁Periode	-11.9494
▁sanft	-11.9494
▁peinlich	-11.9494
▁Monster	-11.9494
▁snake	-11.9494
▁screw	-11.9494
▁generell	-11.9494
klatsch	-11.9495
▁umfassende	-11.9496
aught	-11.9509
▁snap	-11.9528
▁selbe	-11.9536
patient	-11.9589
erfahrung	-11.9625
kenntnis	-11.9625
▁Berührung	-11.9625
▁Himalaya	-11.9625
Syndrom	-11.9625
▁Schreibtisch	-11.9625
▁Sylvia	-11.9625
▁Unsicherheit	-11.9625
▁Verbraucher	-11.9625
▁anfühlt	-11.9625
▁einschließlich	-11.9625
▁reducing	-11.9625
▁simultaneously	-11.9625
▁terrifying	-11.9625
▁zwölf	-11.9625
▁durchzuführen	-11.9625
▁whatsoever	-11.9625
▁Rechner	-11.9625
▁besaß	-11.9625
▁elderly	-11.9625
▁Truppe	-11.9625
▁glacier	-11.9625
▁signature	-11.9625
▁Erscheinung	-11.9625
▁Sarah	-11.9625
▁theoretisch	-11.9625
Glücklicherweise	-11.9625
▁vertikal	-11.9625
höhe	-11.9625
▁gewohnt	-11.9626
▁beruflich	-11.9627
▁Insekt	-11.967
Modell	-11.9722
fabrik	-11.9758
fahrzeug	-11.9758
▁Holocaust	-11.9758
▁beängstigend	-11.9758
▁fortgeschritten	-11.9758
▁Gewässer	-11.9758
▁Indonesia	-11.9758
▁Jerusalem	-11.9758
▁Offenheit	-11.9758
▁Trinkwasser	-11.9758
▁advocate	-11.9758
▁biodiversity	-11.9758
▁breakfast	-11.9758
▁enterprise	-11.9758
▁fertilize	-11.9758
▁gewissermaßen	-11.9758
▁konstruiert	-11.9758
▁pandemic	-11.9758
▁pharmaceutical	-11.9758
konzept	-11.9758
▁1984	-11.9758
▁register	-11.9758
▁verletzen	-11.9758
▁qualities	-11.9758
▁Veranstaltung	-11.9758
▁automobile	-11.9758
▁Fossil	-11.9758
▁Elektronik	-11.9758
▁compelling	-11.9758
▁geredet	-11.9758
▁bulb	-11.9758
▁irgendwas	-11.9758
▁Benzin	-11.9758
▁Balance	-11.9758
▁Anwalt	-11.9758
▁crawl	-11.9758
▁Food	-11.9758
▁Gefangene	-11.9758
▁detailliert	-11.9759
▁Girl	-11.9759
bürger	-11.9759
forscher	-11.9759
▁Töne	-11.9759
▁retina	-11.976
hülle	-11.976
Fiction	-11.9766
▁derzeitige	-11.9784
ogel	-11.9817
Energieverbrauch	-11.9823
▁innovativ	-11.9827
Maschine	-11.9857
looking	-11.9857
▁Anhänger	-11.9893
▁distinguish	-11.9893
▁eingeschränkt	-11.9893
▁schmutzig	-11.9893
▁ähnelt	-11.9893
▁Bonobo	-11.9893
▁Dezember	-11.9893
▁Getreide	-11.9893
▁Narrator	-11.9893
▁Türkei	-11.9893
▁calories	-11.9893
▁currency	-11.9893
▁extension	-11.9893
▁gegenwärtige	-11.9893
▁intimate	-11.9893
▁konkrete	-11.9893
▁participation	-11.9893
▁purchase	-11.9893
▁LHC	-11.9893
▁Führungskräfte	-11.9893
▁Praktik	-11.9893
▁reliable	-11.9894
▁Mischung	-11.9894
▁ambition	-11.9894
▁Tendenz	-11.9894
▁Mentor	-11.9894
märkte	-11.9895
▁farbige	-11.9897
flasche	-11.9897
branche	-11.9915
umbling	-11.9926
▁Route	-11.9969
engineer	-11.9994
food	-11.9994
keeper	-12.0007
gehörigkeit	-12.003
▁Thunfisch	-12.003
▁Zwilling	-12.003
▁chaotisch	-12.003
▁verstärkt	-12.003
▁1996	-12.003
▁Analogie	-12.003
▁Erwärmung	-12.003
▁Gerüst	-12.003
▁Geschwister	-12.003
▁Kosovo	-12.003
▁Mittagessen	-12.003
▁Phoenix	-12.003
▁Widerspruch	-12.003
▁Zimbabwe	-12.003
▁beneath	-12.003
▁facilities	-12.003
▁finanzieren	-12.003
▁gradually	-12.003
▁injustice	-12.003
▁smallpox	-12.003
▁unprecedented	-12.003
▁unzählige	-12.003
▁LKW	-12.003
▁valley	-12.003
▁Kleider	-12.003
▁benannt	-12.003
▁unheimlich	-12.0031
▁Schweigen	-12.0031
▁parasite	-12.0031
▁torture	-12.0031
▁überwachen	-12.0031
▁Methan	-12.0031
▁creator	-12.0031
▁Somalia	-12.0031
▁defeat	-12.0032
richtig	-12.0095
Adresse	-12.0096
found	-12.0131
gebrochen	-12.0133
student	-12.0133
katastrophe	-12.0169
kräftig	-12.0169
▁December	-12.0169
▁Glühbirne	-12.0169
▁beschädigt	-12.0169
▁contemporary	-12.0169
▁episode	-12.0169
▁excitement	-12.0169
▁hypothesis	-12.0169
▁oxytocin	-12.0169
▁supermarket	-12.0169
▁Äthiopien	-12.0169
▁Matrix	-12.0169
▁simulate	-12.0169
▁Kansas	-12.0169
▁attraktiv	-12.0169
▁Konzert	-12.0169
▁motivieren	-12.0169
▁Distanz	-12.0169
▁commission	-12.0169
▁miserable	-12.0169
▁Oliver	-12.0169
▁Tempel	-12.0169
▁methane	-12.0169
▁inhabit	-12.017
▁Versprechen	-12.017
▁künstlerische	-12.017
▁descend	-12.017
▁tätig	-12.017
▁distort	-12.0174
wächs	-12.0175
▁compress	-12.0176
schwäche	-12.0209
▁Deutsch	-12.0309
▁multinational	-12.031
▁Optimismus	-12.031
▁Stewart	-12.031
▁Urlaub	-12.031
▁Zentimeter	-12.031
▁stattfindet	-12.031
▁stomach	-12.031
▁verfügen	-12.031
▁vergrößern	-12.031
▁2016	-12.031
▁Blüte	-12.031
▁Direktor	-12.031
▁chronic	-12.031
▁Reihenfolge	-12.031
▁temple	-12.031
▁thrive	-12.031
▁microbial	-12.031
▁Anweisungen	-12.031
▁versorgt	-12.031
▁Pharma	-12.031
▁cyber	-12.031
▁Vorlesung	-12.0311
▁künstlich	-12.04
organizing	-12.0408
interest	-12.0417
geschrieben	-12.0421
▁Voraussetzung	-12.0453
▁frustriert	-12.0453
▁gestohlen	-12.0453
+	-12.0453
▁Although	-12.0453
▁Durchmesser	-12.0453
▁Fußgänger	-12.0453
▁PowerPoint	-12.0453
▁Verzweiflung	-12.0453
▁awkward	-12.0453
▁chamber	-12.0453
▁collaborator	-12.0453
▁colonies	-12.0453
▁empfehle	-12.0453
▁exposure	-12.0453
▁genuine	-12.0453
▁spontaneous	-12.0453
▁Psychologen	-12.0453
▁cheese	-12.0453
▁circulat	-12.0453
▁located	-12.0453
▁storytelling	-12.0453
▁Anfänge	-12.0453
▁RNA	-12.0453
▁Spanish	-12.0453
▁Furcht	-12.0453
▁widmen	-12.0453
▁Später	-12.0453
▁marvel	-12.0453
▁pride	-12.0453
bewohner	-12.0453
▁Bewertung	-12.0453
▁statistisch	-12.0454
▁bribe	-12.0455
institut	-12.0496
▁privat	-12.0505
▁appreciat	-12.0595
▁streng	-12.0596
Veröffentlichung	-12.0598
charakter	-12.0598
‹	-12.0598
›	-12.0598
▁Feuerwehr	-12.0598
▁Hardware	-12.0598
▁Jersey	-12.0598
▁Michelangelo	-12.0598
▁Norwegen	-12.0598
▁Notwendigkeit	-12.0598
▁Smartphone	-12.0598
▁Society	-12.0598
▁Thailand	-12.0598
▁Unabhängigkeit	-12.0598
▁beeindruckt	-12.0598
▁categories	-12.0598
▁divorce	-12.0598
▁excellent	-12.0598
▁fröhlich	-12.0598
▁gigantische	-12.0598
▁immigrant	-12.0598
▁strategic	-12.0598
▁syndrome	-12.0598
▁vergrößert	-12.0598
ifizierung	-12.0598
▁1997	-12.0598
▁expectancy	-12.0598
▁interrupt	-12.0598
▁venture	-12.0598
▁züchten	-12.0598
geräusch	-12.0598
▁Company	-12.0598
▁mobility	-12.0598
▁überqueren	-12.0598
▁Almost	-12.0598
▁Peace	-12.0598
▁generous	-12.0598
▁probieren	-12.0598
▁verarbeitet	-12.0598
▁jewel	-12.0598
▁Trauer	-12.0598
▁bedienen	-12.0598
▁mutual	-12.0598
▁civic	-12.0598
▁Söhne	-12.0599
▁zehntausende	-12.0599
zweck	-12.0604
röhre	-12.0604
▁Industrial	-12.0745
▁Rollstuhl	-12.0745
▁Twenty	-12.0745
▁vergewaltigt	-12.0745
▁Canadian	-12.0745
▁Dilemma	-12.0745
▁Erlaubnis	-12.0745
▁Orleans	-12.0745
▁Roosevelt	-12.0745
▁Stabilität	-12.0745
▁Trennung	-12.0745
▁humanitarian	-12.0745
▁introvert	-12.0745
▁residents	-12.0745
▁rubber	-12.0745
▁rückwärts	-12.0745
▁serving	-12.0745
▁spektakulär	-12.0745
▁terrified	-12.0745
▁Jefferson	-12.0745
▁aufhört	-12.0745
▁Bruce	-12.0745
▁Tweet	-12.0745
▁bzw	-12.0745
▁ownership	-12.0745
▁cruel	-12.0745
▁Apparat	-12.0745
▁Sudan	-12.0745
▁grasp	-12.0745
▁browse	-12.0746
pixel	-12.0746
▁probiert	-12.0747
europa	-12.0749
▁Vereinte	-12.0757
▁Verwaltung	-12.0894
▁Academy	-12.0894
▁Carnegie	-12.0894
▁Dopamin	-12.0894
▁Fettleibigkeit	-12.0894
▁Götter	-12.0894
▁Minderheit	-12.0894
▁Oklahoma	-12.0894
▁Verpflichtung	-12.0894
▁coordinate	-12.0894
▁curriculum	-12.0894
▁deforestation	-12.0894
▁hemisphere	-12.0894
▁hungrig	-12.0894
▁jellyfish	-12.0894
▁paralyzed	-12.0894
▁pedestrian	-12.0894
▁prosperity	-12.0894
▁temporary	-12.0894
▁earliest	-12.0894
▁schätzt	-12.0894
▁composition	-12.0894
▁bewiesen	-12.0894
störungen	-12.0894
▁Norway	-12.0894
▁Tropfen	-12.0894
▁tendency	-12.0894
▁beteiligen	-12.0894
▁depressiv	-12.0894
▁schwamm	-12.0895
▁grace	-12.0895
ströme	-12.0895
▁Kühe	-12.0895
▁programmiert	-12.0895
▁andauernd	-12.0895
▁exhaust	-12.0895
▁Schwäche	-12.0895
▁Arktis	-12.0902
apparat	-12.0904
plex	-12.0952
firmen	-12.098
▁Erstaunlich	-12.0991
größte	-12.1009
▁Dunkel	-12.1044
#	-12.1046
‘	-12.1046
▁Amsterdam	-12.1046
▁Expedition	-12.1046
▁Namibia	-12.1046
▁Pennsylvania	-12.1046
▁Renaissance	-12.1046
▁Schwangerschaft	-12.1046
▁Technology	-12.1046
▁acoustic	-12.1046
▁beherrschen	-12.1046
▁bestätigen	-12.1046
▁bräuchte	-12.1046
▁cigarette	-12.1046
▁deliberate	-12.1046
▁eröffnen	-12.1046
▁grandparents	-12.1046
▁identifiziert	-12.1046
▁jüdische	-12.1046
▁nukleare	-12.1046
▁sanitation	-12.1046
▁spezialisiert	-12.1046
▁tsunami	-12.1046
Nullsummen	-12.1046
▁Cloud	-12.1046
▁Portugal	-12.1046
▁Wünsche	-12.1046
▁flavor	-12.1046
▁hallucinat	-12.1046
▁Hersteller	-12.1046
▁Reaktor	-12.1046
▁aspiration	-12.1046
▁resembl	-12.1046
▁ALS	-12.1046
▁despair	-12.1046
▁beruht	-12.1046
▁harness	-12.1046
▁Programmierer	-12.1046
▁Rekord	-12.1046
▁Tafel	-12.1047
▁uralte	-12.1048
▁Regime	-12.1076
lapse	-12.1093
Regierung	-12.1163
efficient	-12.1163
▁recall	-12.1181
▁Demonstration	-12.12
▁Hühner	-12.12
▁Installation	-12.12
▁Nebenwirkungen	-12.12
▁Suddenly	-12.12
▁Szenario	-12.12
▁believing	-12.12
▁collaborate	-12.12
▁communicating	-12.12
▁cooperate	-12.12
▁embryo	-12.12
▁ermutigt	-12.12
▁erschafft	-12.12
▁gelähmt	-12.12
▁geprägt	-12.12
▁membrane	-12.12
▁prescription	-12.12
▁reproduce	-12.12
▁1991	-12.12
▁Reichweite	-12.12
▁amazed	-12.12
▁ethnische	-12.12
▁Aufzeichnungen	-12.12
▁Ärger	-12.12
▁Georgia	-12.12
▁Jedoch	-12.12
▁lonely	-12.12
▁drunk	-12.12
▁lügen	-12.12
▁interior	-12.12
▁Belastung	-12.12
blatt	-12.1267
▁Kollege	-12.1292
Patient	-12.1319
zufügen	-12.1354
familie	-12.1355
schüchtern	-12.1356
▁Bakterium	-12.1356
▁Großeltern	-12.1356
▁Informatik	-12.1356
▁Security	-12.1356
▁Tokyo	-12.1356
▁clarity	-12.1356
▁default	-12.1356
▁diagnostic	-12.1356
▁encouraging	-12.1356
▁lächeln	-12.1356
▁magnificent	-12.1356
▁matrix	-12.1356
▁negotiation	-12.1356
▁stimulate	-12.1356
▁straightforward	-12.1356
▁synthetische	-12.1356
▁ultimative	-12.1356
▁verkündet	-12.1356
▁verpflichtet	-12.1356
▁1989	-12.1356
▁Melodie	-12.1356
▁Selektion	-12.1356
▁drastisch	-12.1356
▁monument	-12.1356
▁rethink	-12.1356
▁Sonntag	-12.1356
▁flourish	-12.1356
▁woanders	-12.1356
▁excess	-12.1356
▁Tanzania	-12.1356
▁derjenige	-12.1356
▁befürchte	-12.1356
▁friedlich	-12.1357
▁Hürde	-12.1357
▁possess	-12.136
▁Schwierig	-12.1364
▁grip	-12.1395
Problem	-12.1478
culture	-12.1479
leidenschaftlich	-12.1495
Herangehensweise	-12.1515
verschmutzung	-12.1515
▁Arizona	-12.1515
▁Indonesien	-12.1515
▁accumulate	-12.1515
▁administration	-12.1515
▁athletes	-12.1515
▁dokumentiert	-12.1515
▁endangered	-12.1515
▁geschätzt	-12.1515
▁großzügig	-12.1515
▁iPad	-12.1515
▁konservativ	-12.1515
▁recycling	-12.1515
▁swallow	-12.1515
▁trajectory	-12.1515
▁yourselves	-12.1515
▁Ignoranz	-12.1515
▁Kepler	-12.1515
▁Stickstoff	-12.1515
▁Unglaublich	-12.1515
▁dictator	-12.1515
▁stattfand	-12.1515
verarbeitung	-12.1515
▁MRT	-12.1515
▁sibling	-12.1515
▁leather	-12.1515
▁März	-12.1515
▁verborgen	-12.1515
▁Republikaner	-12.1515
▁Tiefsee	-12.1515
▁Hektar	-12.1515
▁Rabbi	-12.1515
▁Käse	-12.1515
▁retreat	-12.1515
Anonym	-12.1515
kugel	-12.1516
▁Glaube	-12.1612
übergreifend	-12.1615
menschliche	-12.1641
biologi	-12.1661
ó	-12.1676
β	-12.1676
▁substantial	-12.1676
▁Festival	-12.1676
▁Galileo	-12.1676
▁Hausaufgaben	-12.1676
▁Interpretation	-12.1676
▁Wahnsinn	-12.1676
▁auszuprobieren	-12.1676
▁disabilities	-12.1676
▁drought	-12.1676
▁griechische	-12.1676
▁hybrid	-12.1676
▁indigenous	-12.1676
▁nucleus	-12.1676
▁receiving	-12.1676
▁repräsentieren	-12.1676
▁synapse	-12.1676
▁terribly	-12.1676
▁verwirklichen	-12.1676
▁1975	-12.1676
▁Luxus	-12.1676
▁Wiederholung	-12.1676
▁anerkannt	-12.1676
▁knife	-12.1676
▁verbrannt	-12.1676
▁destiny	-12.1676
è	-12.4259
ã	-12.4472
⁄	-12.5139
Ä	-12.5573
—	-12.7134
(	-12.7386
^	-12.7751
à	-12.9724
@	-13.1296
‚	-13.1296
‒	-13.2185
–	-13.6087
ê	-13.9349
ø	-13.9349
­	-13.9349
ù	-13.9349
ā	-14.0349
â	-14.271
$	-14.5769
ī	-14.5805
ô	-14.5805
	-14.7805
	-14.7805
	-14.7805
Á	-15.0305
•	-15.0305
♫	-15.3602
É	-15.3638
¡	-15.3639
~	-15.3639
®	-15.3639
×	-15.3639
»	-15.8603
š	-15.8638
©	-15.8639
Ō	-15.8639
ū	-15.8639
你	-15.8639
葱	-15.8639
送	-15.8639
ý	-15.8639
«	-16.8605
्	-16.8612
े	-16.8613
र	-16.8614
म	-16.8615
प	-16.8616
ě	-16.8617
Č	-16.8618
ć	-16.8619
û	-16.862
œ	-16.8621
¥	-16.8622
£	-16.8623
ú	-16.8624
Å	-16.8625
ë	-16.8626
Ç	-16.8627
*	-16.8628
ï	-16.8629
€	-16.863
‟	-16.8631
́	-16.8632
ñ	-16.8633
°	-16.8634
ç	-16.8635
_	-16.8636
/	-16.8637
’	-16.8638
Ű	-16.8639
[	-16.8639
	-16.8639
	-16.8639
¶	-16.8639
ò	-16.8639
Ă	-16.8639
Œ	-16.8639
Ť	-16.8639
