<s>	0
<pad>	0
</s>	0
<unk>	0
,	-3.06103
.	-3.19676
s	-3.44124
▁de	-3.9632
▁a	-4.0205
▁the	-4.12365
▁que	-4.28979
▁to	-4.52357
▁la	-4.54717
'	-4.61054
▁of	-4.66066
▁en	-4.66659
▁and	-4.72037
▁y	-4.79086
▁that	-4.90376
▁I	-4.93877
▁el	-4.95712
▁in	-4.95917
▁un	-5.2476
▁es	-5.26045
▁is	-5.26898
t	-5.27256
▁it	-5.29614
▁you	-5.30328
▁we	-5.37193
▁los	-5.47117
▁no	-5.5009
▁una	-5.50289
n	-5.512
r	-5.62626
▁And	-5.69359
▁se	-5.6967
▁this	-5.71401
?	-5.71886
▁lo	-5.74982
▁con	-5.75372
▁para	-5.79598
▁"	-5.80063
▁Y	-5.84491
re	-5.91019
:	-5.92161
▁las	-5.92925
▁was	-5.96365
▁me	-5.97506
▁—	-5.97914
▁for	-5.98755
▁por	-6.02102
es	-6.02682
d	-6.02721
ing	-6.06268
▁del	-6.07034
▁are	-6.08481
▁have	-6.10054
-	-6.1275
ed	-6.14025
▁on	-6.14157
▁they	-6.15183
▁más	-6.17668
a	-6.19229
▁with	-6.19604
▁can	-6.19738
o	-6.20983
m	-6.22381
▁be	-6.24417
▁So	-6.29069
▁como	-6.32135
▁what	-6.33977
▁about	-6.36067
c	-6.38437
▁¿	-6.40201
▁su	-6.42201
▁do	-6.42965
▁not	-6.43637
e	-6.47092
▁al	-6.48541
▁at	-6.48765
)	-6.49508
▁(	-6.51403
▁all	-6.52946
▁so	-6.54307
▁o	-6.55308
▁my	-6.56892
▁people	-6.59936
▁one	-6.61175
▁like	-6.61235
y	-6.61353
▁si	-6.63344
▁there	-6.64539
▁an	-6.66717
▁from	-6.66915
▁mi	-6.67214
▁It	-6.68946
do	-6.69545
▁our	-6.69886
▁or	-6.71041
ly	-6.71177
▁	-6.72219
▁but	-6.72735
ve	-6.73147
▁he	-6.7491
▁as	-6.77383
l	-6.78922
▁just	-6.79278
er	-6.80995
▁We	-6.82993
▁But	-6.84584
▁out	-6.85573
▁esta	-6.86243
▁Pero	-6.88007
p	-6.88413
▁if	-6.89164
▁son	-6.89261
▁these	-6.91028
mos	-6.91483
▁muy	-6.92177
▁The	-6.92187
▁este	-6.92805
▁up	-6.9387
▁know	-6.94458
▁by	-6.94813
▁pero	-6.95058
ar	-6.95291
▁very	-6.96143
▁esto	-6.96394
▁when	-6.96995
▁them	-6.97521
te	-6.98392
▁more	-6.98607
▁had	-6.98789
▁going	-7.00956
▁because	-7.01329
▁their	-7.04648
▁who	-7.04954
▁No	-7.05084
▁La	-7.0642
▁us	-7.06536
▁think	-7.06766
en	-7.07108
▁eso	-7.07117
▁re	-7.07267
▁were	-7.0745
ll	-7.07494
▁see	-7.07848
▁A	-7.08126
▁your	-7.10194
▁hacer	-7.10354
▁está	-7.105
le	-7.10822
▁cuando	-7.11061
▁would	-7.11623
▁how	-7.12234
la	-7.12254
ó	-7.12957
▁ser	-7.13402
mente	-7.15004
▁todo	-7.15364
al	-7.1543
▁get	-7.15483
▁really	-7.15629
ra	-7.16854
▁años	-7.16882
▁which	-7.16979
▁time	-7.19083
da	-7.19693
▁porque	-7.20755
▁Así	-7.21094
an	-7.21302
▁hay	-7.221
▁mundo	-7.22372
lo	-7.22577
▁algo	-7.24032
▁world	-7.25477
▁sobre	-7.26263
;	-7.26272
▁has	-7.26528
▁sus	-7.28132
se	-7.28173
▁era	-7.28369
▁don	-7.28508
▁En	-7.29335
▁some	-7.30968
▁Es	-7.31474
▁here	-7.31648
ta	-7.32721
▁way	-7.33094
▁This	-7.33623
▁into	-7.33704
ción	-7.3422
g	-7.34277
▁ha	-7.35125
▁El	-7.36045
▁will	-7.36271
▁go	-7.36484
."	-7.36972
▁le	-7.37037
▁gente	-7.3771
▁You	-7.38098
u	-7.38249
▁want	-7.38273
▁nos	-7.38474
"	-7.38641
▁where	-7.3903
▁other	-7.39181
▁personas	-7.39764
▁years	-7.3992
▁actually	-7.39937
▁ver	-7.39964
▁puede	-7.40016
▁then	-7.40995
▁could	-7.41554
▁cosas	-7.41968
ro	-7.42283
▁now	-7.42838
▁qué	-7.43603
▁make	-7.4379
ndo	-7.43868
▁things	-7.44366
▁vez	-7.44704
é	-7.45643
▁been	-7.46493
▁uno	-7.47248
to	-7.47484
▁Now	-7.47638
▁They	-7.48968
as	-7.49266
▁todos	-7.50595
b	-7.50938
ri	-7.51434
▁fue	-7.52027
ba	-7.53544
▁idea	-7.54554
me	-7.55094
▁e	-7.55158
i	-7.58094
▁right	-7.58132
▁vida	-7.58945
▁than	-7.59188
▁así	-7.59456
▁those	-7.5968
▁something	-7.601
▁over	-7.6034
▁said	-7.60368
▁In	-7.6309
li	-7.63109
▁tiene	-7.63149
▁tiempo	-7.63637
▁work	-7.63817
▁first	-7.6397
▁están	-7.63994
in	-7.6418
▁solo	-7.64394
▁much	-7.64405
▁two	-7.64819
▁también	-7.64936
Laughter	-7.65452
▁also	-7.65768
▁aquí	-7.66966
▁Si	-7.68118
de	-7.68402
on	-7.6874
▁thing	-7.6891
▁ese	-7.69485
▁s	-7.69738
".	-7.69893
▁forma	-7.70182
▁most	-7.70438
▁back	-7.70663
▁need	-7.71377
▁hecho	-7.71478
▁she	-7.7154
▁look	-7.71653
í	-7.72154
▁even	-7.72248
▁yo	-7.7279
▁say	-7.72894
▁got	-7.7305
▁les	-7.73204
Risas	-7.73258
▁mucho	-7.73449
▁De	-7.73606
▁hace	-7.73666
▁pueden	-7.73721
ce	-7.73793
▁cómo	-7.74241
▁little	-7.75145
no	-7.75225
▁life	-7.75491
▁He	-7.75908
▁only	-7.77028
▁sin	-7.77281
▁his	-7.77301
os	-7.77765
ma	-7.78362
▁That	-7.78631
▁esa	-7.79439
vi	-7.79827
▁come	-7.80788
▁cada	-7.81126
▁many	-7.81239
▁take	-7.81455
▁Lo	-7.82196
▁estos	-7.82199
▁donde	-7.82538
▁Se	-7.82604
▁tenemos	-7.82811
ía	-7.82906
ca	-7.83014
...	-7.83589
▁bien	-7.84435
▁her	-7.84688
▁new	-7.84746
co	-7.8488
ic	-7.85389
ci	-7.85959
ado	-7.86401
▁ahora	-7.86553
▁te	-7.86614
▁dos	-7.86838
▁tan	-7.87251
á	-7.87269
▁realmente	-7.88202
▁lot	-7.88409
▁kind	-7.88839
▁estaba	-7.89719
▁did	-7.89863
▁estas	-7.89914
▁parte	-7.90361
▁good	-7.90386
?"	-7.90393
dos	-7.90736
▁podemos	-7.90997
A	-7.91183
ti	-7.91441
▁gran	-7.91458
▁around	-7.91761
▁What	-7.92452
▁different	-7.93169
th	-7.93267
di	-7.93397
ir	-7.94155
▁being	-7.9511
or	-7.95287
▁tienen	-7.95301
▁use	-7.96738
na	-7.97142
ron	-7.97223
tion	-7.97401
▁entre	-7.97919
▁There	-7.9822
ck	-7.98261
▁manera	-7.98344
▁down	-7.98376
▁había	-7.98595
w	-7.98668
▁every	-7.9878
▁han	-7.98886
ten	-8.00151
el	-8.00279
▁through	-8.00428
able	-8.00547
▁día	-8.00809
ion	-8.01201
S	-8.01642
▁nuestra	-8.01841
▁Me	-8.01974
▁same	-8.02031
▁Por	-8.02545
I	-8.02709
▁Los	-8.02999
mo	-8.03125
▁trabajo	-8.03283
▁decir	-8.03521
▁nuestro	-8.0359
▁mismo	-8.0377
▁real	-8.04284
▁C	-8.04648
f	-8.04785
▁va	-8.05056
▁S	-8.05196
il	-8.05515
▁day	-8.05563
▁10	-8.05684
▁ya	-8.06401
▁E	-8.06698
ted	-8.06969
nt	-8.07736
▁tu	-8.07739
▁mejor	-8.08037
▁lugar	-8.08132
▁tener	-8.08899
ne	-8.09005
▁historia	-8.09213
pe	-8.0971
▁poco	-8.09912
▁realidad	-8.1015
▁nosotros	-8.11135
▁tipo	-8.12384
▁human	-8.12447
idad	-8.12976
▁put	-8.1317
▁Ahora	-8.13258
z	-8.13311
amos	-8.13594
les	-8.13683
▁desde	-8.14025
▁doing	-8.14417
▁three	-8.15184
▁ellos	-8.15363
▁otra	-8.15439
▁estamos	-8.16038
▁If	-8.17147
go	-8.17844
▁hasta	-8.18188
ando	-8.1858
▁sea	-8.19004
ting	-8.19136
▁percent	-8.19144
▁mis	-8.19273
C	-8.19678
▁otro	-8.20105
▁any	-8.2023
▁di	-8.2064
ur	-8.20648
▁part	-8.20672
▁own	-8.20747
▁well	-8.20762
▁luego	-8.2135
▁called	-8.21375
▁tell	-8.21653
▁millones	-8.22102
▁made	-8.22205
▁fact	-8.22341
▁change	-8.22357
▁let	-8.22642
▁menos	-8.22814
▁creo	-8.22999
fi	-8.23037
▁pre	-8.23108
▁20	-8.23803
▁find	-8.24031
▁momento	-8.24035
▁Esto	-8.24892
ity	-8.25145
▁man	-8.25273
h	-8.25299
▁should	-8.25627
va	-8.25849
ment	-8.259
pa	-8.26045
▁pro	-8.26457
ga	-8.26618
▁why	-8.26686
ciones	-8.2695
▁didn	-8.27377
▁year	-8.27475
▁sólo	-8.27837
ter	-8.28206
ers	-8.28405
ge	-8.28579
▁dijo	-8.28598
it	-8.28621
▁Well	-8.29054
▁O	-8.29416
▁año	-8.2955
ación	-8.29621
ru	-8.30031
po	-8.30208
▁después	-8.30379
rse	-8.3054
ría	-8.30583
▁today	-8.30628
▁entonces	-8.30634
▁talk	-8.30639
▁Mi	-8.30766
▁car	-8.30767
▁hemos	-8.30772
▁ex	-8.3099
ation	-8.31314
lu	-8.31628
us	-8.31692
▁problema	-8.32299
mp	-8.32367
▁Esta	-8.32572
est	-8.32667
▁after	-8.32785
▁started	-8.32811
▁importante	-8.3287
▁thought	-8.32907
▁co	-8.33189
tu	-8.33223
!	-8.33225
tra	-8.33592
▁él	-8.33687
▁todas	-8.3395
tor	-8.34309
das	-8.34439
▁great	-8.3461
▁B	-8.34921
▁place	-8.34991
nos	-8.35206
que	-8.35664
ido	-8.35705
▁ir	-8.35862
▁hoy	-8.35884
,"	-8.35894
▁social	-8.36031
▁might	-8.36175
Qué	-8.36188
▁Entonces	-8.36598
▁veces	-8.36697
▁T	-8.36705
un	-8.36712
▁ve	-8.3687
▁better	-8.37153
▁antes	-8.37223
▁niños	-8.37277
▁before	-8.37289
▁ejemplo	-8.38072
▁never	-8.38329
bo	-8.38406
▁problem	-8.38454
▁tenía	-8.38475
▁nuestros	-8.38503
▁dis	-8.38667
k	-8.3898
so	-8.3948
▁give	-8.39698
▁Este	-8.40531
▁important	-8.40717
▁ni	-8.40907
▁ven	-8.41181
▁big	-8.4172
▁bit	-8.4172
▁muchos	-8.4193
▁per	-8.41938
▁otros	-8.41991
▁system	-8.42212
▁sistema	-8.42311
▁start	-8.42702
▁still	-8.42772
▁mí	-8.43165
mi	-8.43295
▁♫	-8.43609
▁together	-8.43641
▁able	-8.43675
▁durante	-8.43709
ive	-8.43713
▁cuenta	-8.43741
x	-8.43773
▁ago	-8.43841
▁off	-8.43872
ada	-8.44295
man	-8.44606
▁Cuando	-8.44719
▁him	-8.45095
▁control	-8.45112
▁last	-8.45125
nd	-8.45414
▁went	-8.45449
▁long	-8.45642
▁agua	-8.45811
emos	-8.45856
▁few	-8.46119
▁show	-8.46369
▁pregunta	-8.46405
▁sí	-8.46651
▁nada	-8.47135
▁another	-8.47159
▁casa	-8.4721
▁contra	-8.47241
▁tra	-8.47287
▁primera	-8.47323
▁brain	-8.4738
▁nuevo	-8.47585
▁came	-8.47917
D	-8.4794
▁help	-8.48059
▁tres	-8.48206
be	-8.48374
▁sino	-8.49136
▁pensar	-8.49163
▁course	-8.49221
P	-8.49252
iendo	-8.49286
▁story	-8.49778
ul	-8.49836
▁global	-8.5001
bi	-8.50089
▁poder	-8.50327
▁Al	-8.50548
▁tanto	-8.50597
▁When	-8.50775
▁next	-8.50805
▁simple	-8.51377
án	-8.52134
▁estar	-8.52165
▁found	-8.52322
▁Hay	-8.5253
▁algunos	-8.5274
▁women	-8.52767
▁call	-8.52803
▁hacia	-8.52829
▁each	-8.5286
▁estado	-8.53003
▁feel	-8.53087
▁mean	-8.53102
▁water	-8.53278
▁cerebro	-8.533
M	-8.53514
▁podría	-8.53729
▁tecnología	-8.53818
▁muchas	-8.54022
▁ella	-8.54031
▁data	-8.54225
▁question	-8.54255
▁mujeres	-8.5471
▁3	-8.54797
▁Re	-8.54873
▁point	-8.55331
is	-8.55338
▁tal	-8.55482
▁estoy	-8.55634
▁ti	-8.55747
▁love	-8.55855
▁end	-8.55878
▁nunca	-8.56114
▁live	-8.56439
nte	-8.56834
▁used	-8.5686
▁does	-8.57051
▁again	-8.57055
▁P	-8.571
▁home	-8.57217
tic	-8.57586
▁otras	-8.58019
▁hablar	-8.58109
▁between	-8.5811
▁vi	-8.58359
las	-8.58374
▁30	-8.586
ch	-8.58613
▁persona	-8.58682
▁da	-8.58723
▁ca	-8.5878
▁Bueno	-8.59145
▁quiero	-8.5924
▁example	-8.59325
▁technology	-8.59391
▁alguien	-8.59425
▁too	-8.5972
▁U	-8.59966
vo	-8.60185
▁siempre	-8.60452
▁unos	-8.60707
dor	-8.60759
▁c	-8.60812
▁understand	-8.60871
▁allí	-8.6104
ry	-8.61545
▁Ma	-8.61639
▁Un	-8.61654
▁Le	-8.61739
▁ideas	-8.61962
▁sido	-8.62106
▁ra	-8.62344
ha	-8.62881
▁incluso	-8.62968
▁dice	-8.6318
▁G	-8.63534
▁datos	-8.63926
▁bo	-8.64085
2	-8.64321
▁Mo	-8.64371
ban	-8.64525
ia	-8.64569
▁19	-8.64727
ja	-8.6473
▁person	-8.65077
gu	-8.65137
▁Las	-8.65483
▁hacerlo	-8.65618
▁wanted	-8.66158
▁toda	-8.66267
▁información	-8.66326
et	-8.6634
▁nuestras	-8.66489
▁doesn	-8.66767
▁may	-8.66814
rá	-8.67055
▁esas	-8.67066
▁Eso	-8.67081
▁school	-8.6775
▁believe	-8.67791
T	-8.67887
▁significa	-8.67954
ad	-8.6809
ho	-8.68181
▁cosa	-8.68254
▁public	-8.68495
▁mayor	-8.687
▁looking	-8.68896
▁am	-8.68938
▁saben	-8.68968
▁always	-8.69279
▁space	-8.69333
▁children	-8.69486
ina	-8.69572
B	-8.69605
▁create	-8.6972
du	-8.6977
▁cualquier	-8.7021
E	-8.70283
▁done	-8.70299
▁personal	-8.70306
▁usar	-8.70539
▁haciendo	-8.70579
qué	-8.70695
▁ever	-8.70948
▁For	-8.70949
▁Una	-8.71301
ian	-8.71332
Applause	-8.71642
ú	-8.71719
ng	-8.71856
▁grandes	-8.72034
▁punto	-8.72047
▁second	-8.72421
▁light	-8.72448
za	-8.72475
▁country	-8.72634
der	-8.7271
tar	-8.72761
▁crear	-8.72809
si	-8.73052
los	-8.73187
Aplausos	-8.73324
▁encontrar	-8.73428
▁F	-8.73439
▁million	-8.73507
▁auto	-8.73544
qui	-8.73775
▁esos	-8.73875
▁working	-8.73887
▁away	-8.74026
ness	-8.74058
▁sort	-8.7413
▁power	-8.74157
▁high	-8.74161
ist	-8.74574
▁diferentes	-8.74806
▁whole	-8.74881
▁trying	-8.74991
▁sub	-8.75039
▁acerca	-8.75123
▁50	-8.75385
sh	-8.75529
▁Thank	-8.75569
▁Porque	-8.75747
▁Because	-8.75835
R	-8.76334
▁K	-8.76474
he	-8.7648
tas	-8.76566
▁casi	-8.76632
ón	-8.7689
▁par	-8.76972
▁four	-8.77473
bu	-8.78358
ni	-8.78478
▁ahí	-8.78544
▁Ha	-8.7863
ble	-8.78643
▁"¿	-8.78695
▁try	-8.78897
▁Con	-8.78988
▁algunas	-8.79019
ré	-8.7922
▁misma	-8.79252
▁país	-8.79407
ig	-8.79539
▁100	-8.79554
fa	-8.79611
ver	-8.7969
▁cambiar	-8.7981
▁aún	-8.79934
ida	-8.80201
▁D	-8.80221
▁f	-8.80291
▁espacio	-8.80485
▁using	-8.80596
▁trata	-8.80797
▁verdad	-8.80857
ke	-8.80876
min	-8.81056
1	-8.81272
▁thinking	-8.81341
▁cambio	-8.81363
▁maybe	-8.81448
▁old	-8.81483
▁comp	-8.81528
je	-8.81777
▁hard	-8.81821
▁primer	-8.81886
at	-8.81944
▁pa	-8.82018
▁become	-8.82048
▁Yo	-8.82185
▁moment	-8.82286
▁p	-8.82287
▁small	-8.82452
▁medio	-8.82487
▁money	-8.82565
▁future	-8.82848
ados	-8.82957
▁voy	-8.83168
ine	-8.8321
▁How	-8.83212
▁means	-8.83341
▁dinero	-8.83375
Cómo	-8.83377
▁Para	-8.83475
▁15	-8.83485
▁information	-8.83622
ran	-8.83673
▁took	-8.83745
▁play	-8.83965
▁hacen	-8.84033
▁energía	-8.8405
O	-8.84103
ie	-8.84116
▁tengo	-8.84252
▁everything	-8.84341
▁mayoría	-8.84436
▁final	-8.84525
dores	-8.84557
▁Uds	-8.84567
▁She	-8.84677
▁My	-8.85071
▁red	-8.85086
▁kids	-8.85356
io	-8.85444
per	-8.85584
id	-8.85609
▁posible	-8.85611
▁Internet	-8.85611
▁futuro	-8.85661
▁number	-8.85685
▁miles	-8.85874
▁five	-8.85894
▁problemas	-8.85913
▁mar	-8.86052
▁design	-8.86113
▁TED	-8.86202
%	-8.86224
▁po	-8.86268
▁2	-8.86362
▁New	-8.86419
▁Pa	-8.86464
▁video	-8.8656
▁fuera	-8.8656
▁imp	-8.86647
▁sense	-8.86675
▁best	-8.86719
ica	-8.86895
▁natural	-8.86959
▁enough	-8.87357
No	-8.87618
▁bu	-8.8781
▁left	-8.87865
encia	-8.87973
▁One	-8.8828
▁ask	-8.88332
▁haber	-8.88463
▁Su	-8.88611
ty	-8.88758
▁difícil	-8.88768
▁care	-8.88864
▁To	-8.89207
▁van	-8.89681
▁M	-8.89805
ies	-8.89865
▁EE	-8.89958
Por	-8.9002
▁York	-8.90144
▁general	-8.9042
hi	-8.90423
▁pasado	-8.90629
▁getting	-8.90974
▁lado	-8.9131
▁través	-8.91429
▁India	-8.92251
imos	-8.92289
▁tomar	-8.92337
▁mientras	-8.92372
▁move	-8.9241
aba	-8.92567
▁bring	-8.92597
▁alrededor	-8.92688
▁4	-8.92949
um	-8.92967
▁hand	-8.93161
▁planeta	-8.93274
▁men	-8.93277
▁eran	-8.93293
▁bueno	-8.93321
▁diferente	-8.93383
▁ayuda	-8.93404
▁Ro	-8.94085
N	-8.9417
ntes	-8.9418
▁funciona	-8.942
▁answer	-8.9423
▁'	-8.94311
▁without	-8.94357
ieron	-8.9437
▁países	-8.94457
ven	-8.94492
▁food	-8.94605
▁particular	-8.94727
▁head	-8.94738
▁making	-8.94783
con	-8.95039
▁These	-8.95064
ros	-8.95113
less	-8.95123
sión	-8.9513
▁face	-8.95388
▁sentido	-8.9539
▁ustedes	-8.95524
▁puedo	-8.95524
▁told	-8.95741
▁li	-8.95794
8	-8.95815
▁g	-8.95993
▁China	-8.96018
▁color	-8.96037
▁dentro	-8.96234
▁body	-8.963
▁Ba	-8.9634
v	-8.96429
▁talking	-8.96473
▁bastante	-8.96505
jo	-8.9654
▁grande	-8.96608
▁under	-8.9665
▁dije	-8.96887
▁mo	-8.96931
▁quite	-8.97105
up	-8.97164
▁Do	-8.97371
ber	-8.97394
▁mal	-8.97427
▁media	-8.97472
4	-8.9767
ria	-8.97697
ían	-8.9773
▁lives	-8.97754
▁family	-8.97774
▁happened	-8.97866
5	-8.97878
▁ciudad	-8.9792
▁dar	-8.97975
▁health	-8.98087
▁planet	-8.98098
▁room	-8.98127
▁5	-8.98128
▁build	-8.98321
▁interesting	-8.98466
▁probably	-8.98611
▁luz	-8.98624
Y	-8.98911
▁Co	-8.99069
▁inter	-8.9909
▁modo	-8.99099
G	-8.99101
▁cierto	-8.99194
▁process	-8.99268
▁matter	-8.99353
▁sal	-8.99706
▁experience	-8.99726
▁salud	-8.99776
▁pe	-8.9986
▁madre	-9.00008
▁far	-9.00301
▁energy	-9.00417
ue	-9.00485
▁reason	-9.00851
▁side	-9.00882
",	-9.01025
▁mil	-9.01082
gen	-9.01433
▁young	-9.0145
mer	-9.01499
▁supuesto	-9.01623
fe	-9.01659
▁science	-9.01795
▁hombre	-9.01916
▁comes	-9.01955
▁local	-9.0217
▁entender	-9.0243
▁días	-9.02474
▁ba	-9.02537
▁sería	-9.02552
▁cuerpo	-9.02588
▁vamos	-9.02652
▁building	-9.02706
▁countries	-9.02726
▁Po	-9.02758
▁cual	-9.0279
▁bajo	-9.02795
▁across	-9.02899
▁humanos	-9.02926
▁pretty	-9.02957
▁Como	-9.03049
▁anything	-9.03074
illa	-9.03245
▁such	-9.03291
▁hizo	-9.03318
▁happen	-9.03443
▁As	-9.03494
age	-9.03587
7	-9.03751
▁less	-9.04005
▁razón	-9.04074
▁CA	-9.04291
▁Aquí	-9.04386
▁soy	-9.04403
▁open	-9.04486
▁past	-9.04543
▁grupo	-9.04583
▁alguna	-9.04884
▁learn	-9.04997
▁parece	-9.05063
▁form	-9.05142
car	-9.05326
▁proceso	-9.05623
▁caso	-9.05675
ling	-9.05846
▁Let	-9.06133
▁¡	-9.06225
▁sé	-9.0635
▁-	-9.06635
▁billion	-9.06722
wa	-9.0675
▁diseño	-9.06831
▁Ca	-9.06899
▁living	-9.06963
▁dollars	-9.0699
▁coming	-9.06994
▁half	-9.07026
▁asked	-9.07032
▁saw	-9.07159
▁podía	-9.07189
cha	-9.07295
▁bad	-9.07298
6	-9.07323
00	-9.0744
ero	-9.07572
▁case	-9.07657
L	-9.07826
▁Africa	-9.08015
▁hi	-9.08129
▁stuff	-9.08424
▁Creo	-9.08426
▁ciencia	-9.08493
▁having	-9.08536
▁pi	-9.09057
▁while	-9.09058
▁18	-9.09061
▁saber	-9.09086
▁mind	-9.0909
▁gracias	-9.09106
rnos	-9.09161
ton	-9.09351
▁llegar	-9.09367
ol	-9.09606
▁project	-9.09622
am	-9.0964
▁pequeño	-9.09678
▁nueva	-9.09726
]	-9.09729
▁com	-9.09767
▁pasa	-9.09811
▁d	-9.09853
▁remember	-9.09854
▁super	-9.09993
▁later	-9.10032
▁hope	-9.10094
▁times	-9.10394
▁respuesta	-9.10465
gan	-9.10503
▁Be	-9.10509
▁war	-9.10555
▁city	-9.10721
3	-9.10749
▁single	-9.10926
▁[	-9.10927
▁Here	-9.10936
nce	-9.11061
ista	-9.11329
▁community	-9.11371
▁sabemos	-9.11565
▁art	-9.11604
▁fe	-9.11704
▁keep	-9.11787
rán	-9.1202
▁both	-9.13102
▁often	-9.13147
▁imagine	-9.13414
▁estaban	-9.13488
ure	-9.1364
▁somos	-9.13791
▁escuela	-9.13904
▁simplemente	-9.14093
▁else	-9.14121
▁read	-9.14164
▁R	-9.14183
▁40	-9.14419
▁Gracias	-9.14476
bra	-9.14477
▁ayudar	-9.14698
▁almost	-9.14871
▁interesante	-9.15
▁picture	-9.1526
til	-9.15355
▁equipo	-9.15444
▁All	-9.15541
adas	-9.15557
ncia	-9.15634
gi	-9.15656
▁llamado	-9.15698
▁cancer	-9.15829
9	-9.15831
▁Di	-9.15875
▁seen	-9.15905
ente	-9.15912
▁trabajar	-9.15915
▁familia	-9.15939
▁hombres	-9.16052
▁Sa	-9.16216
K	-9.16227
▁line	-9.16377
▁visto	-9.16461
iva	-9.16492
▁gra	-9.16588
▁Earth	-9.16591
▁número	-9.16704
▁buena	-9.16894
▁computer	-9.16911
▁proyecto	-9.16913
▁myself	-9.16926
▁cerca	-9.16964
▁camino	-9.16994
▁hacemos	-9.1701
▁already	-9.17061
▁cuatro	-9.17128
▁plan	-9.17166
ces	-9.17189
ivo	-9.17196
▁someone	-9.17248
▁L	-9.17473
▁normal	-9.17549
▁Vi	-9.17571
▁12	-9.1779
por	-9.17826
▁cu	-9.18046
ous	-9.18224
lar	-9.18311
tos	-9.18401
▁job	-9.18527
▁imagen	-9.18661
▁happens	-9.18696
▁increíble	-9.18748
aron	-9.18766
▁meses	-9.19006
▁pu	-9.1902
▁inside	-9.19039
▁name	-9.19118
▁goes	-9.193
era	-9.19361
▁siguiente	-9.19376
,000	-9.19436
▁sure	-9.19512
▁wrong	-9.19514
▁saying	-9.19553
▁experiencia	-9.19803
▁dólares	-9.19818
▁mucha	-9.19851
▁construir	-9.1986
V	-9.19927
com	-9.19976
▁possible	-9.20415
▁age	-9.20525
▁vemos	-9.20588
▁Tenemos	-9.20768
▁t	-9.20803
▁days	-9.20818
▁research	-9.20874
▁visual	-9.20904
H	-9.20955
▁humano	-9.21021
▁yet	-9.21067
▁test	-9.21081
ras	-9.21156
▁material	-9.21368
▁history	-9.21551
▁nivel	-9.21575
pre	-9.21576
im	-9.21613
▁debe	-9.21647
▁u	-9.21749
ante	-9.21841
▁once	-9.21863
▁necesita	-9.21994
ster	-9.22108
ita	-9.22151
▁igual	-9.22166
ate	-9.22207
iz	-9.22387
▁run	-9.22438
▁digital	-9.22597
▁algún	-9.22662
ized	-9.22694
▁looked	-9.22716
▁order	-9.22808
cho	-9.2292
▁nothing	-9.23243
▁amazing	-9.23311
▁largo	-9.23393
▁comunidad	-9.23574
ut	-9.23586
▁llama	-9.23698
▁mother	-9.23753
▁state	-9.23781
UU	-9.23837
▁palabras	-9.2398
▁mujer	-9.24004
▁noche	-9.2404
▁Bien	-9.24083
▁mu	-9.24109
▁set	-9.24129
▁whether	-9.24174
▁base	-9.24285
▁fueron	-9.24298
▁dónde	-9.24407
che	-9.24506
▁six	-9.24539
▁na	-9.24587
▁self	-9.24683
▁Or	-9.24752
▁problems	-9.24859
▁book	-9.24897
▁true	-9.25046
▁arte	-9.25187
red	-9.25193
▁group	-9.2523
▁government	-9.25237
▁business	-9.25242
tes	-9.25411
ña	-9.25441
▁ways	-9.25468
ally	-9.25635
▁ju	-9.25664
▁especie	-9.25759
▁child	-9.25774
▁turn	-9.25833
▁model	-9.25898
▁pequeña	-9.2591
▁months	-9.25924
▁makes	-9.26232
▁hijos	-9.26333
▁También	-9.2644
ismo	-9.26637
▁ho	-9.26646
▁Why	-9.26693
▁quería	-9.26757
▁stories	-9.26959
▁b	-9.27014
▁act	-9.27017
▁todavía	-9.27263
▁says	-9.27387
▁niño	-9.27436
▁OK	-9.27451
▁Da	-9.27514
▁ob	-9.27639
ful	-9.27653
▁beautiful	-9.28005
den	-9.28039
▁record	-9.28309
▁education	-9.28325
▁Bo	-9.2838
▁J	-9.28424
▁6	-9.2845
▁within	-9.28462
ible	-9.28466
▁stop	-9.28482
▁top	-9.2852
▁nadie	-9.28532
ence	-9.2864
▁África	-9.28683
zo	-9.28769
▁Te	-9.28802
dy	-9.28824
▁couple	-9.29138
▁humana	-9.29249
j	-9.29407
▁sh	-9.29589
▁heart	-9.29729
▁mano	-9.29832
▁Quiero	-9.29833
▁actual	-9.2986
▁ma	-9.29877
▁night	-9.29901
op	-9.2991
vers	-9.29934
▁hu	-9.29962
cción	-9.30135
▁gobierno	-9.30181
▁front	-9.30214
▁guerra	-9.30284
▁poner	-9.30297
▁words	-9.30311
▁cells	-9.30417
▁tras	-9.30433
▁Ra	-9.30469
▁primero	-9.30586
▁individual	-9.30622
▁guy	-9.30971
▁centro	-9.31017
▁since	-9.31063
▁experiment	-9.31129
▁libro	-9.31137
▁60	-9.31164
▁llevar	-9.31204
▁language	-9.3121
▁music	-9.31302
▁United	-9.31443
tive	-9.31463
▁lugares	-9.31575
▁embargo	-9.31603
▁heard	-9.31607
▁ro	-9.31815
aciones	-9.31841
▁share	-9.31905
▁knew	-9.31989
▁learned	-9.32115
▁cantidad	-9.32141
▁atención	-9.32464
mar	-9.32657
▁fácil	-9.32852
son	-9.32886
▁cáncer	-9.32931
▁large	-9.32966
▁mente	-9.32998
ving	-9.33005
men	-9.33122
▁dejar	-9.33312
▁movimiento	-9.33326
old	-9.33435
▁células	-9.33479
▁fall	-9.33493
▁causa	-9.33516
▁público	-9.33564
ner	-9.33712
▁segundo	-9.33732
▁pasar	-9.33808
▁market	-9.33815
▁Na	-9.33819
▁seguro	-9.33884
ios	-9.34003
▁línea	-9.34392
▁diferencia	-9.34397
▁exist	-9.34523
▁America	-9.34535
ste	-9.34605
▁nombre	-9.3465
▁black	-9.3478
F	-9.34829
▁woman	-9.34843
pro	-9.34936
▁solar	-9.34943
▁necesitamos	-9.34957
▁robot	-9.34999
▁N	-9.35002
▁became	-9.35004
ring	-9.3501
▁bio	-9.35078
▁Era	-9.35212
▁study	-9.35337
▁gusta	-9.35383
▁wasn	-9.35405
The	-9.35479
▁programa	-9.35521
▁until	-9.35581
land	-9.35624
▁decided	-9.35683
▁Fue	-9.35693
the	-9.35764
▁escala	-9.35769
▁llamada	-9.35802
▁7	-9.35892
fu	-9.35915
ther	-9.35942
▁importa	-9.35989
▁Les	-9.36019
▁must	-9.36105
▁difference	-9.36138
▁team	-9.36162
▁1	-9.36318
▁close	-9.36323
▁25	-9.36441
▁basically	-9.3647
▁amigos	-9.36568
ism	-9.3659
▁environment	-9.36725
▁built	-9.36874
▁rápido	-9.36956
▁fundamental	-9.36998
▁though	-9.3702
gar	-9.37043
▁view	-9.37141
▁Ya	-9.37275
mon	-9.37351
▁mental	-9.37408
ales	-9.37448
▁Li	-9.37606
▁present	-9.3762
xi	-9.37633
▁friends	-9.37687
▁animal	-9.37762
▁11	-9.37879
▁word	-9.37931
tiva	-9.38039
ish	-9.38112
▁house	-9.38133
▁cost	-9.38151
▁cinco	-9.38196
▁air	-9.38233
ities	-9.38365
one	-9.38436
tal	-9.3852
▁hospital	-9.38536
▁tratar	-9.38902
▁against	-9.39068
▁historias	-9.39148
▁du	-9.39195
▁tierra	-9.39199
ió	-9.39221
end	-9.3933
▁Ho	-9.39368
▁Tierra	-9.39451
▁ourselves	-9.39451
▁siglo	-9.39537
▁produce	-9.39567
we	-9.39839
gre	-9.39879
ite	-9.40062
ary	-9.4008
▁empezar	-9.40164
▁horas	-9.40184
▁land	-9.40263
▁fo	-9.40305
▁free	-9.40693
▁phone	-9.40924
ach	-9.4095
▁species	-9.41149
ize	-9.41193
▁quizá	-9.41229
▁8	-9.41308
▁sociedad	-9.41336
▁hear	-9.41351
cion	-9.41488
▁probablemente	-9.41522
cer	-9.41578
▁themselves	-9.41665
▁completely	-9.41712
▁campo	-9.41717
▁9	-9.41768
▁post	-9.41825
▁figure	-9.41854
0	-9.41975
cy	-9.42066
ance	-9.42107
▁company	-9.42183
▁ta	-9.422
▁sound	-9.42329
lin	-9.42442
▁culture	-9.42443
▁similar	-9.4246
▁disease	-9.4257
▁Son	-9.42591
▁animales	-9.42626
king	-9.42641
▁ri	-9.42654
izar	-9.42705
par	-9.42755
▁everybody	-9.4279
▁sometimes	-9.42791
line	-9.42856
▁ga	-9.42929
▁aprender	-9.42938
▁society	-9.42964
▁clase	-9.42969
▁piece	-9.42981
▁Uno	-9.43104
▁taking	-9.43147
▁step	-9.43266
▁exactly	-9.43272
▁States	-9.43331
▁leave	-9.43404
▁educación	-9.43618
▁comida	-9.43699
▁somebody	-9.43753
▁Google	-9.43929
▁quiere	-9.43967
▁queremos	-9.44005
remos	-9.44005
▁fin	-9.44058
▁Sin	-9.44178
▁film	-9.44195
nk	-9.4425
▁estructura	-9.44281
▁foto	-9.4432
▁sent	-9.44353
▁sa	-9.44501
way	-9.44576
▁única	-9.44636
▁paso	-9.44704
cia	-9.44761
▁arm	-9.44972
▁huge	-9.45021
gue	-9.45075
▁gustaría	-9.45116
▁economic	-9.45169
▁capacidad	-9.45169
▁alta	-9.45261
port	-9.45261
▁muestra	-9.45304
▁H	-9.45423
▁vivir	-9.45441
▁happening	-9.45522
▁desarrollo	-9.45526
▁support	-9.45799
istas	-9.45968
rme	-9.45972
nes	-9.46041
▁suficiente	-9.46166
▁hice	-9.4631
▁allá	-9.46429
▁cultura	-9.46488
▁hours	-9.46512
▁imágenes	-9.46606
▁questions	-9.46772
▁looks	-9.46775
▁instead	-9.46787
▁juego	-9.46789
▁impact	-9.46834
▁American	-9.4687
▁level	-9.47083
ico	-9.47204
▁quien	-9.47245
▁vidas	-9.47303
▁moral	-9.4731
ex	-9.47363
▁everyone	-9.47368
▁walk	-9.47433
▁oportunidad	-9.47455
ide	-9.47601
▁alto	-9.4762
▁minutos	-9.47694
▁nature	-9.47698
▁modelo	-9.47795
▁micro	-9.478
▁difficult	-9.47972
▁cell	-9.47977
▁será	-9.48016
▁image	-9.48057
▁últimos	-9.48083
▁economía	-9.48156
▁Ga	-9.48175
▁worked	-9.48413
▁nuevas	-9.48413
▁die	-9.48485
▁ello	-9.48579
▁cre	-9.48611
▁puedes	-9.48692
▁students	-9.48756
▁padre	-9.48765
▁000	-9.48804
▁risk	-9.48811
▁places	-9.48915
▁Todos	-9.48919
▁padres	-9.48931
▁demasiado	-9.49079
▁última	-9.49171
▁population	-9.49172
W	-9.49315
▁cabeza	-9.49357
▁pueda	-9.49423
▁política	-9.49439
▁learning	-9.4944
▁itself	-9.4945
▁único	-9.49543
▁Esa	-9.49821
▁medida	-9.49922
▁estudio	-9.49928
▁amor	-9.49967
▁fish	-9.4997
▁partes	-9.50038
ult	-9.50168
▁investigación	-9.50331
▁along	-9.50363
▁bar	-9.50448
▁machine	-9.505
▁quieren	-9.50531
ye	-9.5058
ac	-9.50637
ant	-9.50676
▁created	-9.50678
ea	-9.5069
▁sala	-9.50708
▁Mu	-9.50708
▁mejores	-9.50922
▁acuerdo	-9.50951
▁ellas	-9.50982
▁Ju	-9.5105
▁program	-9.51079
▁sucede	-9.511
▁mismos	-9.51281
ez	-9.51375
ding	-9.51511
▁debería	-9.51624
▁rather	-9.5173
▁fi	-9.51762
▁seguir	-9.51814
▁ciudades	-9.51934
▁thousands	-9.51977
ning	-9.52096
▁early	-9.52283
cent	-9.5237
▁ocean	-9.52378
dora	-9.52434
▁pay	-9.52513
▁tarde	-9.5259
▁entire	-9.52652
▁San	-9.52779
▁propia	-9.52886
▁Hace	-9.52967
▁grow	-9.52971
▁rest	-9.5317
▁crisis	-9.53249
eñ	-9.53286
▁Mar	-9.5329
ler	-9.53332
▁música	-9.53341
▁couldn	-9.53378
▁hablando	-9.5341
▁valor	-9.53496
▁consider	-9.53502
▁least	-9.53537
cor	-9.53543
▁volver	-9.53655
▁At	-9.53726
▁aunque	-9.53738
▁nu	-9.5376
▁fu	-9.53775
▁Sí	-9.53783
ep	-9.5386
▁mundial	-9.53923
▁common	-9.54034
▁completamente	-9.54055
ard	-9.54071
▁naturaleza	-9.54118
▁dicen	-9.54168
▁behavior	-9.54313
em	-9.54347
▁fear	-9.54379
▁short	-9.54412
▁political	-9.54509
▁cha	-9.54565
▁Todo	-9.54595
▁virus	-9.54609
▁claro	-9.54654
▁muerte	-9.54705
▁works	-9.54845
▁menudo	-9.54901
▁friend	-9.54946
idos	-9.54983
▁estudiantes	-9.55011
▁palabra	-9.55067
▁papel	-9.55099
▁im	-9.55186
▁map	-9.55206
▁outside	-9.55302
▁último	-9.55373
▁exactamente	-9.55396
tions	-9.55409
▁minutes	-9.55415
▁iba	-9.55509
ag	-9.55609
U	-9.55722
▁edad	-9.55725
▁feeling	-9.55743
nta	-9.55755
.000	-9.55836
for	-9.55956
▁éxito	-9.55988
▁Nueva	-9.56087
ura	-9.56093
cen	-9.56128
▁game	-9.56249
▁encanta	-9.56291
▁sexual	-9.56293
▁felt	-9.56387
▁tema	-9.56398
▁ch	-9.56438
▁buy	-9.56446
▁universe	-9.56486
▁won	-9.5671
▁An	-9.56785
▁turns	-9.56914
ap	-9.56946
▁preocupa	-9.56971
▁común	-9.56987
▁poor	-9.56988
▁sign	-9.57001
▁full	-9.57042
▁animals	-9.57128
cómo	-9.57189
oso	-9.57389
▁tenían	-9.57504
▁sur	-9.57529
▁trabajando	-9.57553
▁W	-9.57588
▁viaje	-9.57612
▁resto	-9.57684
▁dream	-9.57691
▁third	-9.57691
▁robots	-9.5774
▁siendo	-9.57941
▁cities	-9.58018
spect	-9.58023
▁existe	-9.58053
tric	-9.58069
▁trans	-9.58092
ging	-9.5815
rio	-9.58182
▁ojos	-9.5821
▁death	-9.58219
▁miedo	-9.58429
▁changed	-9.58527
▁podrían	-9.58527
can	-9.5858
ction	-9.58649
▁gave	-9.58741
▁Some	-9.58783
▁structure	-9.58815
▁preguntas	-9.58837
▁Ka	-9.5885
▁companies	-9.58912
▁field	-9.58928
▁cara	-9.58931
▁week	-9.59007
▁pensé	-9.59016
▁frente	-9.5903
▁prop	-9.59265
▁desa	-9.5938
amente	-9.59419
bil	-9.59521
▁powerful	-9.59551
▁scale	-9.59579
▁pequeños	-9.59714
▁met	-9.59718
ice	-9.59721
▁semana	-9.59782
by	-9.59861
▁lleva	-9.59863
▁sta	-9.59915
▁fa	-9.60047
▁web	-9.60074
▁propio	-9.60089
▁toma	-9.60122
▁sonido	-9.60275
▁total	-9.60293
qu	-9.60424
▁población	-9.60458
▁software	-9.60458
vis	-9.60473
side	-9.60584
▁em	-9.60687
van	-9.60696
▁Then	-9.60732
▁aire	-9.60838
▁Tu	-9.60928
▁protect	-9.61034
▁amount	-9.61062
▁ab	-9.61065
▁Ni	-9.6113
▁jóvenes	-9.61188
▁Go	-9.61275
mic	-9.61302
▁middle	-9.61317
▁easy	-9.61398
▁taken	-9.61403
▁hora	-9.61499
▁anti	-9.61535
▁ce	-9.61574
▁behind	-9.61607
▁80	-9.61633
ries	-9.61751
▁needed	-9.61789
▁vista	-9.61956
cas	-9.6196
osa	-9.62043
▁reality	-9.6205
▁mercado	-9.62362
▁Just	-9.62453
▁mitad	-9.62485
▁Podemos	-9.6258
▁doctor	-9.62605
▁fui	-9.62653
pt	-9.62712
ización	-9.62735
▁parents	-9.62743
arse	-9.62769
▁St	-9.62792
▁interact	-9.62887
fin	-9.6291
ador	-9.6293
▁habían	-9.63032
▁gana	-9.63152
▁tamaño	-9.63303
▁yourself	-9.63303
▁favor	-9.6336
▁systems	-9.63362
▁extra	-9.63404
ud	-9.63417
ya	-9.63423
▁Está	-9.63499
▁Muchas	-9.63518
tivo	-9.63586
▁seeing	-9.6363
▁tenido	-9.6364
▁seven	-9.63675
▁rep	-9.63691
▁mirar	-9.6373
fer	-9.6374
▁sex	-9.63762
té	-9.63782
year	-9.63834
▁compartir	-9.6384
▁app	-9.63904
▁juntos	-9.64031
▁God	-9.6417
▁sabe	-9.64198
▁fuerte	-9.643
▁pr	-9.64409
▁pensamos	-9.64595
▁haya	-9.64613
▁principio	-9.64668
▁drive	-9.64783
▁formas	-9.64802
cial	-9.64893
▁sentir	-9.64896
▁capital	-9.64929
▁realized	-9.64952
▁On	-9.65
▁began	-9.65043
ated	-9.65116
▁sol	-9.65191
rlo	-9.65193
▁uso	-9.65331
▁tienes	-9.6549
▁given	-9.65501
▁nuclear	-9.65574
▁atrás	-9.65697
▁paper	-9.65716
▁14	-9.65804
▁200	-9.65837
▁enfermedad	-9.65879
Es	-9.66236
▁isn	-9.66275
rd	-9.66281
▁podríamos	-9.66321
▁turned	-9.66335
▁fund	-9.66413
▁enorme	-9.66483
tica	-9.66529
▁seguridad	-9.66563
▁simply	-9.66563
▁kinds	-9.66584
▁usando	-9.66618
des	-9.66635
▁objetivo	-9.66673
▁justo	-9.66707
▁océano	-9.66784
▁solve	-9.6685
▁mostrar	-9.6685
▁mañana	-9.66894
▁hicimos	-9.66895
▁genes	-9.66963
rí	-9.67191
▁stay	-9.6737
▁challenge	-9.67391
mas	-9.67441
▁prove	-9.67547
▁spend	-9.67669
▁beginning	-9.67681
▁news	-9.67696
▁center	-9.67791
▁happy	-9.67801
▁eyes	-9.67826
▁cor	-9.67849
▁especial	-9.6788
▁longer	-9.67889
▁teléfono	-9.67897
▁size	-9.679
▁guys	-9.67911
tch	-9.67961
▁tend	-9.67992
▁relación	-9.6801
▁cannot	-9.68016
▁century	-9.68025
▁empresa	-9.6808
▁resulta	-9.68232
▁shape	-9.68236
▁certain	-9.68336
▁explain	-9.68345
▁key	-9.68349
▁resultado	-9.68473
▁father	-9.68582
▁bi	-9.68618
▁sistemas	-9.68618
idas	-9.68733
▁mas	-9.68734
▁contar	-9.68778
▁Estados	-9.68883
▁movement	-9.69024
▁gas	-9.6907
▁low	-9.69087
▁Unidos	-9.69093
▁voice	-9.69139
cio	-9.69241
▁cal	-9.6937
if	-9.694
▁pienso	-9.69476
▁measure	-9.69476
▁crea	-9.69545
▁report	-9.69599
▁sociales	-9.69601
▁buen	-9.69645
during	-9.69801
▁w	-9.69846
▁debemos	-9.69877
▁period	-9.69918
▁baja	-9.70027
And	-9.70056
▁Can	-9.70082
▁laboratorio	-9.7016
▁siquiera	-9.7016
▁demás	-9.70164
▁16	-9.70189
▁pl	-9.70231
▁17	-9.7027
and	-9.70498
▁multi	-9.70505
▁photograph	-9.70621
▁Dios	-9.70751
▁finally	-9.70806
▁representa	-9.70823
▁blood	-9.7085
▁viene	-9.70921
▁rate	-9.71043
▁Our	-9.71194
▁Él	-9.71196
▁resolver	-9.71261
▁access	-9.71303
▁sabía	-9.71303
ana	-9.71343
fo	-9.71443
enta	-9.71465
ger	-9.7153
▁lu	-9.7153
▁white	-9.7159
▁area	-9.71597
▁value	-9.71625
▁document	-9.7166
▁ru	-9.7182
▁climate	-9.71821
▁col	-9.71849
▁fuerza	-9.71862
▁marca	-9.7196
▁generation	-9.71981
▁Estamos	-9.71993
table	-9.72018
▁Chris	-9.72126
▁eight	-9.72176
▁class	-9.7224
ual	-9.72245
▁perhaps	-9.7236
▁quién	-9.72505
▁científicos	-9.72552
▁People	-9.72594
▁falta	-9.72594
▁movie	-9.726
▁result	-9.72642
▁imaginar	-9.72692
miento	-9.72823
▁física	-9.72829
▁represent	-9.72923
▁Bu	-9.72931
▁speak	-9.72931
▁civil	-9.72935
▁compar	-9.73037
▁pacientes	-9.73327
▁others	-9.7336
▁ne	-9.73407
▁conversation	-9.73419
▁begin	-9.73555
▁crecimiento	-9.73655
▁Pueden	-9.73666
▁moving	-9.73674
▁’	-9.73774
▁stand	-9.73797
▁salir	-9.7385
form	-9.73979
▁cámara	-9.74012
▁tratando	-9.74044
▁Estos	-9.74055
▁comportamiento	-9.74132
▁charla	-9.74139
rían	-9.74204
▁terms	-9.74276
íamos	-9.74422
▁seis	-9.74511
sis	-9.74524
wi	-9.7474
▁product	-9.74777
▁terrible	-9.74848
▁break	-9.74876
mu	-9.74925
▁cap	-9.74959
▁ocurre	-9.74968
▁Luego	-9.7497
ario	-9.74973
▁Pro	-9.75056
ier	-9.75151
sum	-9.75207
▁wonderful	-9.75497
▁hubiera	-9.75499
▁special	-9.7557
▁universo	-9.7557
▁spent	-9.75571
▁dio	-9.75676
▁arriba	-9.75692
▁ground	-9.75713
!"	-9.7579
▁libre	-9.75813
▁Dr	-9.75908
▁efecto	-9.75909
▁Ella	-9.75929
▁approach	-9.75934
iones	-9.75943
led	-9.76046
▁attention	-9.76055
▁African	-9.76132
▁ability	-9.76172
▁mantener	-9.76177
▁fun	-9.76207
aban	-9.76304
▁riesgo	-9.76313
▁tried	-9.76336
▁empresas	-9.76342
▁quickly	-9.7635
▁Jo	-9.76397
▁hands	-9.76484
▁cientos	-9.76538
▁blue	-9.76542
▁básicamente	-9.7682
▁70	-9.76954
▁lograr	-9.77087
▁focus	-9.77188
▁original	-9.7729
▁adult	-9.77359
ical	-9.7751
▁kid	-9.7756
▁whatever	-9.77643
▁surface	-9.77646
▁abajo	-9.77648
▁máquina	-9.77676
cos	-9.77715
▁totalmente	-9.77741
leg	-9.77769
▁office	-9.77867
val	-9.78024
▁dijeron	-9.78095
▁cultural	-9.78109
▁Estoy	-9.78133
▁region	-9.78148
▁visión	-9.78184
▁k	-9.78208
ight	-9.78236
▁qui	-9.78328
▁superficie	-9.78389
▁Tom	-9.78427
▁puedan	-9.78428
med	-9.78468
▁travel	-9.78522
▁Estas	-9.78543
▁girl	-9.78574
▁hijo	-9.78595
▁conocimiento	-9.78638
▁acaba	-9.78727
▁opportunity	-9.78763
zar	-9.78817
▁gu	-9.78825
▁genera	-9.78831
▁pick	-9.78875
nas	-9.78912
ization	-9.78976
aria	-9.79002
ped	-9.79122
▁ambiente	-9.79138
▁radio	-9.7916
rla	-9.79229
▁digo	-9.79282
fra	-9.79401
▁Ese	-9.79474
▁hit	-9.79616
▁semanas	-9.79617
▁diciendo	-9.79766
▁esperanza	-9.79768
ability	-9.79774
▁Hoy	-9.79836
▁fire	-9.79898
ones	-9.80029
▁permite	-9.80121
▁lead	-9.80226
▁born	-9.80314
Oh	-9.80344
▁Des	-9.80471
▁finalmente	-9.80476
▁entra	-9.8049
yo	-9.80557
▁complex	-9.80626
▁continue	-9.80652
▁enfermedades	-9.80679
▁joven	-9.80783
▁gone	-9.80801
▁situation	-9.80907
tura	-9.80943
▁interested	-9.80947
▁DNA	-9.81034
▁Tiene	-9.8104
▁Fa	-9.81071
▁fast	-9.81117
▁situación	-9.81162
ear	-9.81187
▁patients	-9.81281
▁cut	-9.81301
▁oil	-9.81356
▁tuve	-9.81457
▁clear	-9.81553
▁wall	-9.81591
ial	-9.81672
You	-9.81684
▁m	-9.81686
▁computadora	-9.81773
▁Facebook	-9.81803
▁either	-9.81803
▁familiar	-9.81812
▁weeks	-9.81921
▁eat	-9.82009
La	-9.82019
▁based	-9.82037
▁bus	-9.8205
ping	-9.82104
▁reach	-9.82104
▁conseguir	-9.8219
▁provide	-9.82191
▁gen	-9.8225
▁dark	-9.82257
▁13	-9.82279
▁needs	-9.82306
▁John	-9.82309
izado	-9.82316
ward	-9.82347
▁motor	-9.82513
▁safe	-9.82543
▁vol	-9.82546
▁known	-9.82605
▁90	-9.82645
▁write	-9.82742
▁pan	-9.82744
▁message	-9.82838
▁pensando	-9.82838
▁Puede	-9.82882
▁hold	-9.82902
▁World	-9.82967
▁Right	-9.82979
▁escuchar	-9.82995
▁deep	-9.83035
▁sitting	-9.83123
▁character	-9.83228
▁segunda	-9.83228
▁indica	-9.83391
▁quienes	-9.83446
▁visit	-9.83495
▁Estaba	-9.83546
có	-9.83592
▁gets	-9.83692
▁hicieron	-9.83751
▁Cada	-9.83779
▁realize	-9.83822
▁etc	-9.83895
▁chance	-9.83908
▁fondo	-9.83978
▁llega	-9.84054
▁sitio	-9.84141
▁growth	-9.84195
▁V	-9.8449
▁popular	-9.84542
▁trust	-9.84673
▁truth	-9.84673
▁necesitan	-9.84677
istic	-9.84739
row	-9.84767
rios	-9.84781
▁nuevos	-9.84842
▁industria	-9.84845
ores	-9.84942
▁medical	-9.84945
▁win	-9.85
▁resultados	-9.85038
▁pen	-9.85139
▁integra	-9.85338
ábamos	-9.85433
▁acceso	-9.85471
▁obtener	-9.85471
▁transform	-9.85476
▁mapa	-9.85521
▁Nos	-9.85568
▁box	-9.85571
▁scientists	-9.85577
▁average	-9.85605
▁takes	-9.85699
▁Que	-9.8577
dan	-9.85837
▁medicina	-9.85872
▁afecta	-9.85872
tter	-9.85901
▁peor	-9.85992
▁corazón	-9.86006
▁izquierda	-9.86006
▁action	-9.86104
▁manos	-9.86154
▁rápidamente	-9.86175
▁sean	-9.86175
▁pat	-9.86183
▁ante	-9.86243
▁Z	-9.86254
▁ninguna	-9.86274
▁Ja	-9.86304
▁growing	-9.86329
▁plant	-9.86333
▁invent	-9.86342
▁medios	-9.86357
ff	-9.86382
▁lots	-9.86462
▁economy	-9.86544
▁universidad	-9.86544
▁X	-9.86577
ral	-9.86598
▁morning	-9.86683
▁dado	-9.86696
▁table	-9.86786
▁piensan	-9.86797
▁central	-9.86832
▁cool	-9.86875
▁ADN	-9.86949
▁issue	-9.86957
▁recursos	-9.8702
▁network	-9.87026
ating	-9.87081
▁eres	-9.87188
▁Not	-9.87194
▁understanding	-9.87227
▁decía	-9.87242
▁Hu	-9.87311
▁humans	-9.87439
▁película	-9.87444
▁debido	-9.87507
▁edificio	-9.87584
ak	-9.87602
▁leg	-9.87621
▁knowledge	-9.87629
▁virtual	-9.87765
▁text	-9.87771
▁stage	-9.87802
▁empecé	-9.87902
▁sector	-9.87906
▁respond	-9.87964
▁parts	-9.87977
▁main	-9.87986
▁habría	-9.8804
▁deal	-9.88125
▁alone	-9.88154
▁connect	-9.88172
▁literally	-9.88189
▁physical	-9.8819
▁Europe	-9.88238
▁producto	-9.88246
▁buscar	-9.88386
▁Wa	-9.88418
▁thank	-9.88443
▁th	-9.88485
ima	-9.88522
▁lista	-9.88533
lia	-9.88563
▁educa	-9.88578
▁Okay	-9.88603
▁brought	-9.88727
▁Solo	-9.88877
▁honest	-9.89004
▁termina	-9.89025
▁TV	-9.89048
So	-9.89105
▁respecto	-9.89139
ka	-9.89325
▁pal	-9.89328
▁importantes	-9.89393
izing	-9.8941
▁telling	-9.8941
▁incredible	-9.89417
▁pueblo	-9.89417
tur	-9.89426
▁herramientas	-9.8949
▁camera	-9.89535
▁meta	-9.89572
cle	-9.896
▁allow	-9.89664
▁teoría	-9.89695
via	-9.89829
▁legal	-9.89842
▁piensa	-9.89851
▁South	-9.89887
▁voz	-9.90132
▁pesar	-9.90145
▁tools	-9.90176
▁watch	-9.90228
tado	-9.9025
▁queda	-9.90277
▁nice	-9.90559
ático	-9.90646
ino	-9.90883
▁audience	-9.90955
▁solución	-9.90956
▁dolor	-9.90989
ound	-9.91078
▁blanco	-9.91097
▁derecha	-9.91108
▁coral	-9.91134
au	-9.91158
▁ningún	-9.91238
▁shows	-9.91285
▁artist	-9.91321
▁esté	-9.91366
▁Ne	-9.91469
▁seems	-9.91538
▁pass	-9.91557
▁vision	-9.91591
What	-9.91683
▁enter	-9.91704
▁neuro	-9.91776
▁escribir	-9.91805
▁vuelta	-9.91805
▁forest	-9.91885
▁libros	-9.91947
▁pronto	-9.91948
▁pequeñas	-9.91974
▁development	-9.91977
▁vivo	-9.92027
▁hundreds	-9.92072
▁green	-9.92089
like	-9.92128
▁cambia	-9.92193
▁amigo	-9.92339
▁desp	-9.92356
cional	-9.92364
▁Europa	-9.92375
▁Ri	-9.92403
▁utiliza	-9.92407
▁role	-9.92447
▁leer	-9.92448
cía	-9.92485
mento	-9.92514
▁wrote	-9.92518
▁suerte	-9.92521
▁♪	-9.92661
▁strange	-9.92662
▁wouldn	-9.92701
▁Of	-9.92798
▁cuanto	-9.92805
▁opera	-9.92888
▁Ve	-9.92944
▁giving	-9.92954
▁impacto	-9.93032
▁tuvo	-9.93066
iera	-9.93161
▁pensamiento	-9.93236
▁goal	-9.9324
use	-9.93268
▁road	-9.93268
▁dicho	-9.93293
▁girls	-9.93458
▁Car	-9.93514
▁mira	-9.93606
▁ja	-9.9362
▁Cu	-9.93657
cal	-9.93685
▁cierta	-9.93736
▁encontramos	-9.93822
J	-9.93837
▁Tengo	-9.93846
▁send	-9.93868
antes	-9.93874
▁online	-9.93886
▁images	-9.93905
ki	-9.93924
▁ci	-9.93978
▁depend	-9.93994
▁Je	-9.94078
dia	-9.94087
rlos	-9.94101
ile	-9.94153
▁meet	-9.94217
▁secret	-9.94229
▁calle	-9.94267
▁generación	-9.94325
ris	-9.94393
imiento	-9.94407
▁running	-9.94414
▁starting	-9.94458
▁usa	-9.94548
▁likely	-9.94589
out	-9.94647
▁forward	-9.94679
▁desafío	-9.94689
▁azul	-9.94691
▁push	-9.94726
▁24	-9.94817
iente	-9.94877
▁areas	-9.94972
▁grab	-9.95178
▁bacteria	-9.95185
▁developed	-9.95188
▁v	-9.95264
▁bottom	-9.95276
▁numbers	-9.95348
▁discovered	-9.95442
▁viendo	-9.95444
▁Va	-9.95496
ship	-9.95514
▁Después	-9.9557
▁artificial	-9.9557
▁industry	-9.9557
▁strong	-9.95608
▁anyone	-9.95618
ions	-9.95651
▁Oh	-9.95698
▁listen	-9.95711
ium	-9.95755
▁soon	-9.95782
▁cuidado	-9.95872
▁feet	-9.95908
ned	-9.95957
▁type	-9.95958
▁”	-9.96014
▁expand	-9.96016
▁gene	-9.96029
▁siento	-9.96187
▁modern	-9.96217
Well	-9.96255
▁tratamiento	-9.9633
lly	-9.96347
▁teach	-9.9637
▁California	-9.9646
▁term	-9.96505
▁decisiones	-9.9651
▁malo	-9.9652
▁prueba	-9.9656
▁mon	-9.96569
▁nacional	-9.96619
▁ice	-9.96674
▁Tenía	-9.96678
▁busca	-9.96738
lí	-9.96762
ense	-9.96843
▁500	-9.96852
▁cat	-9.96904
▁innovation	-9.97057
▁especially	-9.9707
▁puerta	-9.97208
▁pasó	-9.97215
▁factor	-9.97326
▁carrera	-9.97359
▁eye	-9.97496
▁photo	-9.97507
illo	-9.97579
gin	-9.97591
▁página	-9.97658
▁guess	-9.97668
▁creating	-9.97706
▁choice	-9.978
▁concentra	-9.97813
▁Cha	-9.97827
▁potencial	-9.97855
▁pasando	-9.97856
▁obra	-9.97892
▁genial	-9.97968
El	-9.97992
▁books	-9.97996
▁With	-9.98002
▁llamamos	-9.9802
▁asking	-9.98055
▁radical	-9.98116
▁sorprendente	-9.98118
▁quizás	-9.98122
▁ley	-9.98133
▁sola	-9.98169
▁spread	-9.98263
▁interior	-9.98264
▁communities	-9.98265
▁relationship	-9.98269
▁recognize	-9.98415
▁sueño	-9.98426
▁baby	-9.98433
▁carbon	-9.98534
▁cri	-9.98558
▁lenguaje	-9.98574
▁productos	-9.98665
▁worth	-9.98745
ists	-9.98756
▁grupos	-9.98783
▁mensaje	-9.98898
▁touch	-9.98991
▁Man	-9.99053
▁investiga	-9.99061
▁código	-9.99177
▁reduce	-9.9918
▁fotos	-9.99228
▁develop	-9.9931
▁changes	-9.99486
▁sab	-9.99492
ula	-9.99503
▁plane	-9.99552
▁Hi	-9.99627
▁basic	-9.99844
rado	-9.99898
▁lucha	-10.0003
▁industrial	-10.0006
rica	-10.0007
▁solution	-10.0017
▁completo	-10.0025
▁bla	-10.0028
▁área	-10.0032
▁gr	-10.0036
act	-10.004
▁pie	-10.005
▁señal	-10.0051
▁door	-10.0053
gas	-10.0055
▁determina	-10.0056
▁law	-10.0057
▁Yeah	-10.0059
▁21	-10.0061
ny	-10.0068
▁serie	-10.0072
▁perspectiva	-10.0072
▁technologies	-10.0072
▁razones	-10.0077
▁Wi	-10.0078
▁violencia	-10.0087
▁North	-10.0089
▁ban	-10.0089
▁hum	-10.0098
▁tiny	-10.0105
▁dead	-10.0107
▁designed	-10.0109
▁hago	-10.0111
▁millions	-10.0115
▁estábamos	-10.0122
▁l	-10.0124
▁extraño	-10.0134
▁screen	-10.0134
▁fuente	-10.0149
▁component	-10.015
▁mine	-10.0152
▁hija	-10.0154
Video	-10.0155
▁recently	-10.0157
rop	-10.0159
▁motiva	-10.016
▁smart	-10.0166
tivos	-10.017
▁perfect	-10.0176
▁recon	-10.0183
▁offer	-10.0184
▁source	-10.0185
▁lab	-10.0188
▁mejorar	-10.0193
▁Per	-10.0195
icos	-10.0198
▁primeros	-10.0201
▁save	-10.0203
▁seem	-10.0211
▁casos	-10.0211
▁deben	-10.0214
▁Pe	-10.0234
▁/	-10.0244
▁suggest	-10.0244
▁bosque	-10.0245
time	-10.0246
▁follow	-10.0247
▁comunidades	-10.025
▁sc	-10.0254
▁issues	-10.0268
▁agree	-10.0269
▁Ta	-10.0271
▁changing	-10.0278
rma	-10.0285
puesto	-10.0295
▁Soy	-10.0296
▁Pi	-10.0297
▁genetic	-10.0297
▁dispositivo	-10.0308
▁sigue	-10.0318
▁activa	-10.0331
▁kill	-10.0334
▁lejos	-10.034
▁patient	-10.0341
▁wonder	-10.0345
▁ran	-10.0355
▁cuestión	-10.0356
▁pantalla	-10.0356
▁redes	-10.0356
▁success	-10.0363
▁revolution	-10.0388
▁términos	-10.0396
▁journey	-10.0404
▁médico	-10.0407
De	-10.0408
▁habla	-10.0409
▁Fi	-10.0413
light	-10.0415
▁médicos	-10.0416
▁Ar	-10.0427
▁poli	-10.0429
▁force	-10.0432
▁fre	-10.0432
▁progress	-10.0436
▁showed	-10.0444
▁expect	-10.0446
▁clave	-10.0447
▁sleep	-10.0452
▁practice	-10.0452
▁invest	-10.0454
▁absolutely	-10.0455
▁tipos	-10.0461
▁metros	-10.0462
▁comprar	-10.0464
bla	-10.047
▁treat	-10.0474
«	-10.0484
▁especies	-10.0488
▁coche	-10.0495
▁terminar	-10.0498
▁compra	-10.0501
Cuál	-10.0503
▁male	-10.0516
ín	-10.0524
▁deseo	-10.0525
put	-10.0529
▁verde	-10.0541
▁national	-10.0542
▁tú	-10.0553
▁chi	-10.056
▁playing	-10.0562
▁»	-10.0566
▁flu	-10.0568
▁event	-10.0574
▁enseñar	-10.0579
▁major	-10.0579
▁deberíamos	-10.0583
ab	-10.0586
▁compañía	-10.0591
▁By	-10.0593
▁towards	-10.0603
uch	-10.061
iv	-10.0611
▁Comp	-10.0611
▁interest	-10.0613
▁clean	-10.0615
▁block	-10.0615
mate	-10.0623
cula	-10.0629
▁rich	-10.063
▁beyond	-10.0631
▁principal	-10.0632
▁star	-10.0633
▁entrar	-10.0639
▁deliver	-10.0639
chi	-10.0647
▁velocidad	-10.0648
▁jugar	-10.065
▁presente	-10.0653
▁treatment	-10.0653
▁talked	-10.0657
▁Hemo	-10.0659
▁fly	-10.0661
▁Tra	-10.0662
▁explicar	-10.0663
▁económico	-10.0664
▁capaces	-10.0665
▁seres	-10.0666
▁300	-10.0673
▁Ellos	-10.0692
▁evidence	-10.0697
▁religion	-10.0697
▁tri	-10.0707
▁War	-10.071
▁tumor	-10.0715
▁fight	-10.0726
▁resources	-10.0727
mica	-10.073
▁enseña	-10.0735
▁street	-10.0752
▁anima	-10.0757
▁dan	-10.0762
idades	-10.0763
▁domina	-10.0766
▁theory	-10.0767
▁bomb	-10.077
▁interesa	-10.0771
adores	-10.0774
▁humanidad	-10.0795
▁First	-10.0797
▁response	-10.0814
▁hacía	-10.0816
▁violence	-10.083
▁extend	-10.0831
▁reto	-10.0834
▁grado	-10.0839
▁ésta	-10.0847
▁ciento	-10.0851
▁teníamos	-10.0852
mis	-10.0854
day	-10.0855
▁increase	-10.0857
aje	-10.0858
▁feliz	-10.0864
▁trip	-10.0871
▁hundred	-10.0883
▁tus	-10.0888
▁director	-10.0894
ern	-10.0895
eros	-10.0896
▁puntos	-10.0896
uda	-10.0897
▁incredibly	-10.0898
▁search	-10.0899
▁derecho	-10.0901
gún	-10.0902
▁separa	-10.091
▁wi	-10.0912
▁dedica	-10.0914
▁emp	-10.0914
han	-10.0915
▁suelo	-10.0916
▁llamar	-10.0924
▁code	-10.0928
▁junto	-10.0935
▁zona	-10.0935
▁simula	-10.0936
▁lived	-10.0941
▁Maybe	-10.0944
▁noticias	-10.0948
top	-10.0953
▁Lu	-10.0957
ática	-10.0965
▁debate	-10.0965
▁pensaba	-10.0967
▁espera	-10.0968
▁drug	-10.0971
▁corre	-10.0976
▁attack	-10.0982
▁década	-10.0988
▁práctica	-10.0992
▁content	-10.0996
▁escrito	-10.0998
▁subject	-10.0999
▁cambios	-10.1004
▁Ex	-10.1005
▁sounds	-10.1011
▁cla	-10.1014
▁pobres	-10.1015
▁page	-10.1022
▁version	-10.1023
▁dura	-10.1026
▁site	-10.1028
rk	-10.1032
▁concepto	-10.1035
▁bigger	-10.1037
▁experimento	-10.1049
▁artículo	-10.1051
▁pública	-10.1051
▁village	-10.1068
▁relaciones	-10.1068
dad	-10.1078
▁emerge	-10.1084
▁Every	-10.1084
▁track	-10.1086
▁developing	-10.1094
▁decide	-10.1102
ándose	-10.1103
▁calidad	-10.1108
▁escucha	-10.1109
▁caja	-10.111
▁distancia	-10.1119
of	-10.113
▁buenas	-10.1133
▁fotografía	-10.1137
▁literalmente	-10.1138
▁observa	-10.1144
lie	-10.1146
▁several	-10.1154
▁potential	-10.1159
udi	-10.1165
▁intentar	-10.1165
my	-10.1169
▁sensor	-10.1171
▁favorite	-10.1173
▁detect	-10.1183
▁comenzar	-10.1184
▁mat	-10.119
nia	-10.1201
▁tendría	-10.1203
ji	-10.1204
▁English	-10.1206
▁predict	-10.121
▁effect	-10.1217
▁desarrollar	-10.1217
▁check	-10.1224
▁groups	-10.1232
ah	-10.1235
▁wait	-10.1237
▁paciente	-10.1238
▁capaz	-10.1244
▁print	-10.1246
▁mostrarles	-10.1264
▁Ge	-10.1268
▁libera	-10.1269
▁list	-10.1272
▁confianza	-10.1276
▁inteligencia	-10.1276
▁add	-10.1279
▁putting	-10.128
▁cars	-10.1281
▁nation	-10.1293
▁available	-10.1294
rri	-10.1308
▁achieve	-10.1311
▁libertad	-10.1311
▁corta	-10.1312
lk	-10.1319
▁error	-10.1324
▁apart	-10.1325
▁families	-10.1329
▁innovación	-10.1329
én	-10.133
▁estás	-10.1338
▁carga	-10.134
▁urban	-10.1349
▁fix	-10.135
▁aquellos	-10.1352
▁ten	-10.1353
▁connection	-10.1358
ito	-10.1359
arlo	-10.136
▁Pri	-10.1365
▁month	-10.1368
▁account	-10.1382
▁successful	-10.1391
▁montón	-10.14
▁Podría	-10.1404
ju	-10.1407
▁físico	-10.1417
▁mass	-10.1419
▁store	-10.1422
▁depende	-10.1424
▁geo	-10.1429
▁producir	-10.1435
ced	-10.1435
flu	-10.1444
▁recordar	-10.1453
▁object	-10.1454
▁“	-10.1456
▁prepara	-10.146
▁feed	-10.1462
▁concept	-10.1469
▁comenzó	-10.1472
▁Asia	-10.148
▁aprendizaje	-10.1489
▁recuerdo	-10.1489
▁creer	-10.1492
▁viven	-10.1497
▁involved	-10.1498
press	-10.1499
▁Mars	-10.15
pan	-10.1502
▁pudiera	-10.1502
▁usan	-10.1504
mbo	-10.1505
▁siente	-10.1509
▁varios	-10.1511
▁usamos	-10.1512
▁democracia	-10.1524
▁abierto	-10.1524
▁threat	-10.1525
▁appear	-10.1525
▁ganar	-10.1529
▁sit	-10.1532
▁jobs	-10.1533
▁slow	-10.1535
▁descubrir	-10.1542
▁college	-10.1542
▁oído	-10.1543
▁died	-10.1543
▁creen	-10.1544
▁larga	-10.1549
▁superior	-10.1561
ments	-10.1572
▁choose	-10.1597
▁empezamos	-10.1597
▁petróleo	-10.1597
▁wish	-10.16
ece	-10.1602
▁cause	-10.1605
▁aumenta	-10.1605
▁creado	-10.1606
▁US	-10.161
▁Había	-10.1615
▁reasons	-10.1622
▁rules	-10.1631
▁universal	-10.1633
▁amenaza	-10.1633
▁decision	-10.1636
▁mediante	-10.1639
▁dig	-10.1641
▁path	-10.1649
▁segura	-10.1651
▁varias	-10.1651
su	-10.1666
ecto	-10.1668
▁perspective	-10.1669
▁promedio	-10.1669
▁After	-10.1669
▁detrás	-10.1669
▁cuánto	-10.1684
▁tecnologías	-10.1696
hy	-10.1696
tory	-10.1698
▁dog	-10.1699
▁argument	-10.1699
▁Pu	-10.1702
▁derechos	-10.1703
jó	-10.1725
ión	-10.1729
ev	-10.1729
▁poll	-10.173
▁qua	-10.1732
▁encuentra	-10.1739
▁estudios	-10.174
▁climático	-10.1742
▁ocurrió	-10.1742
▁cree	-10.1755
▁preguntar	-10.1756
ever	-10.1757
▁empieza	-10.1757
tamos	-10.1758
▁prison	-10.1761
▁farm	-10.1761
▁hermano	-10.1761
▁East	-10.1763
▁near	-10.1763
▁Who	-10.1764
▁computers	-10.1765
▁partir	-10.1768
fre	-10.1773
▁scientific	-10.178
▁desea	-10.1781
▁reglas	-10.1782
▁blog	-10.1783
▁Gran	-10.1784
▁expert	-10.1793
▁llevó	-10.1798
▁maravilloso	-10.1798
▁flow	-10.1822
▁police	-10.1823
▁materiales	-10.1827
▁líderes	-10.1828
▁Don	-10.1831
▁tro	-10.1831
▁Algunos	-10.1835
▁pul	-10.1835
▁plantas	-10.1835
▁bank	-10.1839
▁meaning	-10.1839
tiendo	-10.1842
amiento	-10.1843
▁veo	-10.1846
▁West	-10.1848
▁desarrolla	-10.1853
▁remain	-10.1853
▁fit	-10.1855
ker	-10.1862
▁familias	-10.1865
▁Australia	-10.1872
▁entorno	-10.1874
▁rodea	-10.1874
▁adelante	-10.189
▁nine	-10.1891
Lo	-10.1892
▁brillante	-10.1894
▁lost	-10.1896
▁op	-10.1898
▁higher	-10.19
▁Even	-10.1902
ick	-10.1904
lógico	-10.1908
▁carbono	-10.1915
▁moved	-10.1921
▁objeto	-10.1928
▁medicine	-10.1928
▁writing	-10.1928
▁llena	-10.1928
▁interpret	-10.1928
▁UU	-10.1942
▁further	-10.1947
▁prevent	-10.195
gg	-10.1955
▁function	-10.1955
▁comercial	-10.1957
low	-10.1959
▁finding	-10.1962
rry	-10.1963
▁conflict	-10.1968
▁boy	-10.1974
sen	-10.1975
▁skin	-10.1975
▁drugs	-10.1979
▁conocer	-10.1981
▁David	-10.1984
▁oficina	-10.1984
puesta	-10.2
▁Vamos	-10.2001
rew	-10.2002
▁bloque	-10.2003
▁memoria	-10.2003
▁speed	-10.2003
▁cover	-10.2016
▁creative	-10.2024
▁wind	-10.2028
▁Washington	-10.2041
▁USD	-10.2043
▁fl	-10.2049
▁Voy	-10.2054
▁Quizá	-10.206
▁puesto	-10.2068
▁walking	-10.207
▁direct	-10.207
▁sp	-10.2077
▁prob	-10.2077
▁comienza	-10.2079
cular	-10.208
▁correcta	-10.208
▁device	-10.2085
▁Ki	-10.209
▁especialmente	-10.2092
▁prefer	-10.2093
▁mayores	-10.2097
▁pain	-10.2097
▁reducir	-10.2098
▁biggest	-10.2098
▁return	-10.2098
▁siete	-10.2098
▁pobreza	-10.2099
▁pone	-10.2114
icia	-10.2115
▁accept	-10.2117
▁complejo	-10.2117
▁calcula	-10.2119
▁buenos	-10.2119
ors	-10.2124
▁discover	-10.2125
▁comer	-10.2125
ología	-10.2126
▁cub	-10.2131
▁card	-10.2131
▁element	-10.2133
▁negocios	-10.2136
▁Bi	-10.2137
▁context	-10.2142
▁supposed	-10.2142
ze	-10.2147
▁Chinese	-10.2155
▁dirección	-10.2155
▁policía	-10.2155
▁throw	-10.2156
▁leaders	-10.2162
▁vino	-10.2171
▁duda	-10.2173
▁pictures	-10.2174
▁Incluso	-10.2174
▁evolución	-10.2174
▁sacar	-10.2174
▁count	-10.2177
▁vive	-10.2179
ology	-10.219
▁becomes	-10.219
▁conocido	-10.2193
▁imposible	-10.2194
▁grew	-10.2195
▁Am	-10.2202
▁cross	-10.2202
▁pull	-10.2202
▁gui	-10.2203
▁áreas	-10.2204
▁podían	-10.2205
▁máquinas	-10.2208
▁coopera	-10.2212
▁morir	-10.2217
▁particularly	-10.2218
▁student	-10.2222
▁watching	-10.2225
▁organization	-10.2226
▁gives	-10.2228
▁organiza	-10.2234
nger	-10.2235
▁enviar	-10.2239
ib	-10.2239
▁showing	-10.2251
▁época	-10.2251
ug	-10.2252
▁non	-10.2266
▁disponible	-10.227
▁exciting	-10.227
▁repente	-10.2272
▁sun	-10.2274
ley	-10.2274
rie	-10.2279
▁bebé	-10.2282
bb	-10.2285
quen	-10.2288
▁daughter	-10.229
▁including	-10.229
▁poverty	-10.229
We	-10.2303
▁fan	-10.2304
▁draw	-10.2305
▁certainly	-10.2311
▁position	-10.2316
▁br	-10.2316
her	-10.2317
▁notice	-10.2318
▁je	-10.2321
▁security	-10.2329
▁técnica	-10.2329
▁Most	-10.2332
izada	-10.2336
▁Tal	-10.2342
ft	-10.2345
▁empezó	-10.2348
▁invisible	-10.2348
▁inteligente	-10.2362
▁conflicto	-10.2366
▁necesario	-10.2368
▁hielo	-10.2368
▁shift	-10.2368
▁esperar	-10.2371
▁Nunca	-10.2387
▁improve	-10.2401
▁convertir	-10.2401
▁costa	-10.2403
▁anybody	-10.2407
▁aparece	-10.2407
▁quality	-10.2409
bles	-10.2416
▁evitar	-10.2421
▁Th	-10.2421
▁entend	-10.2424
▁intelligence	-10.2426
▁plazo	-10.2426
▁eleva	-10.2427
▁considera	-10.243
▁Han	-10.2438
bilidad	-10.2441
cido	-10.2444
▁hole	-10.2444
▁Twitter	-10.2446
▁crazy	-10.2446
▁profundo	-10.2446
▁conmigo	-10.2446
▁task	-10.2446
▁ready	-10.2447
▁price	-10.2448
▁comunicación	-10.245
▁totally	-10.2452
▁train	-10.2456
▁diría	-10.2459
▁Están	-10.2465
▁objetos	-10.2466
▁Har	-10.2466
▁Fu	-10.2478
▁meeting	-10.2478
▁tercer	-10.2479
▁existen	-10.248
▁Nuestro	-10.2486
▁positive	-10.2486
▁masa	-10.25
tada	-10.2504
ería	-10.2504
▁camp	-10.2505
▁cerebral	-10.2505
▁email	-10.2505
▁anterior	-10.2506
▁stick	-10.2506
▁taught	-10.2506
▁costo	-10.2515
▁convierte	-10.2516
▁require	-10.2521
▁conversación	-10.2525
▁pagar	-10.2528
▁negocio	-10.2545
ified	-10.2552
▁allowed	-10.2556
ey	-10.2557
▁cualquiera	-10.256
▁affect	-10.2563
▁describe	-10.2565
▁"¡	-10.2565
▁worse	-10.2565
toria	-10.257
▁adopt	-10.2572
▁hour	-10.2573
work	-10.2579
▁respect	-10.2582
▁Paul	-10.2584
▁eventually	-10.2585
▁employ	-10.2586
▁results	-10.2587
▁permit	-10.2591
▁tasa	-10.2593
▁connected	-10.2597
▁ball	-10.26
▁amp	-10.261
▁contexto	-10.2619
▁Wo	-10.2624
▁respira	-10.2625
▁muerto	-10.2625
▁standard	-10.2626
▁negro	-10.2632
▁valores	-10.2635
Se	-10.264
ow	-10.264
▁malaria	-10.2649
▁largest	-10.2649
ologist	-10.2652
▁rock	-10.2652
ky	-10.2654
ás	-10.2655
▁imagina	-10.2657
▁named	-10.2657
bar	-10.2662
▁among	-10.2664
▁evidencia	-10.2665
▁afuera	-10.2665
▁piel	-10.2666
▁tuvimos	-10.267
▁2000	-10.267
▁servicios	-10.2677
▁viejo	-10.2685
▁cocina	-10.2686
▁drop	-10.2688
▁orden	-10.2706
▁aspecto	-10.2712
▁regular	-10.2721
▁onto	-10.2722
▁ocupa	-10.2726
▁cielo	-10.2726
▁encontré	-10.2728
▁mom	-10.2745
▁female	-10.2746
▁letter	-10.2757
▁correcto	-10.2757
▁tenga	-10.2763
▁enfoque	-10.2767
▁deja	-10.277
▁mono	-10.2779
▁estudiar	-10.2784
▁además	-10.2787
▁compassion	-10.2787
▁nobody	-10.2787
▁detail	-10.2788
▁escenario	-10.2789
▁direction	-10.2794
ee	-10.2798
▁Ru	-10.2802
▁cra	-10.2804
▁útil	-10.2807
▁cuán	-10.2811
▁paga	-10.2811
▁gal	-10.2811
▁invita	-10.282
▁loved	-10.2823
vin	-10.2826
▁evolution	-10.2827
▁chemical	-10.2828
▁esfuerzo	-10.2828
▁everywhere	-10.2828
▁llegó	-10.2828
pri	-10.283
▁led	-10.2834
▁km	-10.284
▁millón	-10.2848
▁acción	-10.2853
▁tool	-10.2854
▁career	-10.2856
▁sexo	-10.2857
▁standing	-10.2868
▁democracy	-10.2869
▁criminal	-10.287
▁estadounidenses	-10.2871
▁training	-10.2873
▁números	-10.2875
▁gasta	-10.288
▁CO	-10.2882
▁fuel	-10.2883
▁conjunto	-10.2889
▁peace	-10.2889
▁link	-10.2893
▁serio	-10.2898
▁profesor	-10.2906
▁precio	-10.291
▁sangre	-10.291
▁address	-10.291
▁Cor	-10.291
▁Where	-10.2912
sol	-10.2913
▁sell	-10.2918
ically	-10.293
▁Today	-10.2932
▁bed	-10.2936
▁sentado	-10.2938
▁hot	-10.2944
▁hubo	-10.2944
▁signal	-10.2947
▁mesa	-10.2947
▁explore	-10.2951
▁memory	-10.2951
▁meant	-10.2957
▁Du	-10.2961
▁principle	-10.2972
▁permitir	-10.2977
▁brazo	-10.2993
▁shown	-10.2994
bal	-10.2997
▁decirles	-10.3009
ció	-10.3011
▁hogar	-10.3013
▁stress	-10.3014
▁montaña	-10.3014
hu	-10.302
▁organización	-10.3021
▁mala	-10.3022
▁magic	-10.3023
▁Sp	-10.3023
▁adapt	-10.3029
▁traditional	-10.3042
▁buscando	-10.3043
ieran	-10.305
▁Mientras	-10.3055
▁revolución	-10.3055
▁survive	-10.3056
▁diseñar	-10.3059
ego	-10.307
▁pattern	-10.3073
ko	-10.3084
▁individuals	-10.3089
torio	-10.3092
▁international	-10.3097
▁mountain	-10.3097
▁Nigeria	-10.3097
▁bodies	-10.3098
▁genética	-10.3098
▁materia	-10.3114
▁ignora	-10.3117
▁dinosaur	-10.3119
▁audiencia	-10.3119
▁hermoso	-10.3119
Bueno	-10.3127
af	-10.313
▁condiciones	-10.314
▁h	-10.3144
▁niña	-10.3145
▁lower	-10.3148
▁planta	-10.3148
▁bro	-10.315
▁proteger	-10.3152
jan	-10.3157
▁extraordinary	-10.3161
▁excited	-10.3161
▁dance	-10.3165
▁mirando	-10.3178
▁empleo	-10.3182
▁decisión	-10.3182
ise	-10.3182
▁shot	-10.3182
▁salvar	-10.3184
▁machines	-10.3198
▁árboles	-10.3201
▁Those	-10.3203
▁éste	-10.3203
▁race	-10.3205
▁join	-10.3205
▁extremely	-10.3211
▁conecta	-10.3219
▁schools	-10.3224
▁inglés	-10.3224
▁próxima	-10.3224
▁debajo	-10.3225
▁intenta	-10.3247
▁tarea	-10.3249
▁alimentos	-10.3251
0,000	-10.3258
▁gi	-10.326
▁parecía	-10.3267
▁tienda	-10.3267
▁amplia	-10.3269
▁dia	-10.327
▁healthy	-10.3275
▁ideal	-10.3284
▁sensación	-10.3289
▁Sólo	-10.3289
▁z	-10.3289
▁maneras	-10.329
▁rural	-10.3291
▁revela	-10.3291
▁escuelas	-10.3302
▁conditions	-10.3309
▁35	-10.3312
▁thousand	-10.3314
▁400	-10.3316
▁older	-10.3317
▁manage	-10.3318
kin	-10.3328
▁identidad	-10.3332
▁requiere	-10.3332
▁esposa	-10.3332
▁Bill	-10.3341
▁patent	-10.3345
▁reco	-10.3349
▁computadoras	-10.3351
▁capa	-10.3353
▁algorithm	-10.3353
▁soluciones	-10.3353
▁unique	-10.3353
▁consciente	-10.3354
▁podamos	-10.3355
▁laugh	-10.3357
▁nano	-10.3368
▁norte	-10.3372
▁frustra	-10.3375
▁truly	-10.3375
▁río	-10.3375
▁His	-10.3375
▁texto	-10.3377
▁essentially	-10.338
ef	-10.3394
▁tengan	-10.3397
▁perform	-10.34
▁cama	-10.3404
▁obviously	-10.3406
▁pocos	-10.341
▁implica	-10.3417
▁sky	-10.3423
▁teachers	-10.3424
▁killed	-10.3426
▁científico	-10.3426
▁pin	-10.3432
right	-10.3437
▁limit	-10.3438
▁plants	-10.3439
▁instituciones	-10.344
▁violent	-10.344
▁Necesitamos	-10.3443
▁serious	-10.3452
▁habit	-10.346
▁wife	-10.3463
▁demand	-10.3466
▁tree	-10.3471
▁combustible	-10.3483
▁reflect	-10.3484
▁remind	-10.3484
uro	-10.3485
▁critical	-10.3496
▁sale	-10.3503
▁somewhere	-10.3505
rate	-10.3507
▁products	-10.3509
cua	-10.3516
▁verlo	-10.3521
▁construcción	-10.3527
▁comprender	-10.3529
▁vo	-10.3536
ene	-10.354
▁hablamos	-10.3541
▁Primero	-10.3549
▁famous	-10.3549
▁due	-10.3556
▁wave	-10.3558
▁Pen	-10.3562
▁kept	-10.3571
▁Duran	-10.3572
▁haven	-10.3573
▁aren	-10.3577
▁trees	-10.3584
Sí	-10.3584
▁actividad	-10.3591
▁waste	-10.3591
▁aprendido	-10.3593
▁estilo	-10.3595
▁organ	-10.3598
▁decisions	-10.3604
▁reading	-10.3606
▁perder	-10.3608
▁vulnerable	-10.3615
▁interés	-10.3616
▁accident	-10.3618
▁rojo	-10.3619
▁partner	-10.3624
▁complete	-10.3627
▁decidí	-10.3638
▁espero	-10.3639
▁institutions	-10.364
▁Pre	-10.3641
▁vuelve	-10.3642
mine	-10.3643
▁ejemplos	-10.3644
▁examples	-10.3652
▁quisiera	-10.3661
▁above	-10.3661
ham	-10.3665
▁dirigi	-10.3667
▁late	-10.3668
▁modelos	-10.3668
▁infect	-10.3673
▁económica	-10.3682
▁felicidad	-10.3682
▁cura	-10.3687
▁suddenly	-10.3689
▁gay	-10.3692
▁haría	-10.3693
▁completa	-10.3698
▁faster	-10.3704
▁blind	-10.3704
▁Yes	-10.3705
▁solía	-10.3708
▁City	-10.371
▁ambos	-10.3712
place	-10.3714
▁centra	-10.3714
▁trabajado	-10.3722
▁minute	-10.3724
▁economist	-10.3727
▁complicated	-10.3728
▁sup	-10.3729
▁regula	-10.3741
▁estrategia	-10.3749
▁floor	-10.3749
▁bunch	-10.375
▁producción	-10.3751
▁vaya	-10.3771
▁patrones	-10.3772
▁pedir	-10.3773
▁vio	-10.3773
cut	-10.3776
bia	-10.3777
▁usually	-10.3777
▁rise	-10.3782
▁caminar	-10.3786
▁allows	-10.3789
▁mosquito	-10.3794
▁impossible	-10.3794
▁asunto	-10.3794
▁policy	-10.3795
▁supone	-10.3796
▁financial	-10.3798
▁funcionar	-10.3803
ably	-10.3807
▁150	-10.3815
▁principios	-10.3824
vía	-10.3827
▁autos	-10.3831
▁teacher	-10.3831
▁HIV	-10.3839
▁búsqueda	-10.3839
▁crecer	-10.3849
▁disco	-10.3859
stitution	-10.386
▁método	-10.3862
▁responsabilidad	-10.3862
▁tuviera	-10.3862
▁hermosa	-10.3863
▁humanity	-10.3864
▁proyectos	-10.3866
ray	-10.3867
▁Marte	-10.3871
Si	-10.3872
▁service	-10.3885
▁Imagine	-10.389
meter	-10.3892
▁propios	-10.3903
▁objects	-10.3904
▁cambiado	-10.3909
▁probar	-10.3913
posición	-10.3916
▁lesson	-10.3919
▁board	-10.3923
▁Steve	-10.3932
▁célula	-10.3932
▁massive	-10.3933
▁edificios	-10.3938
▁terrorist	-10.394
▁estrellas	-10.3953
▁horrible	-10.3953
▁sucedió	-10.3953
▁hall	-10.3956
▁Tienen	-10.3957
▁Like	-10.3957
▁mío	-10.3961
▁probable	-10.3972
▁sentía	-10.3975
▁George	-10.3976
▁purpose	-10.3976
▁anymore	-10.3976
▁honor	-10.3976
▁workers	-10.3977
▁contrario	-10.3983
▁alter	-10.3987
▁conduct	-10.3995
zi	-10.3999
▁afford	-10.3999
▁obtiene	-10.4
▁brother	-10.4
term	-10.4008
▁controlar	-10.4018
▁darles	-10.4028
▁45	-10.4038
▁ended	-10.4041
▁perro	-10.4043
▁plastic	-10.4045
▁freedom	-10.4045
▁materials	-10.4049
▁burn	-10.4049
▁vote	-10.4062
▁cita	-10.4067
▁compasión	-10.4068
▁monitor	-10.4069
▁exact	-10.4069
▁vas	-10.407
▁sat	-10.4073
▁hair	-10.4075
▁deberían	-10.4076
▁cuál	-10.4076
Co	-10.4081
▁skills	-10.4092
▁encima	-10.4092
▁ataque	-10.4093
▁specific	-10.4094
▁indeed	-10.4094
▁zero	-10.4094
▁somehow	-10.4095
cap	-10.4096
50	-10.4097
▁vale	-10.4097
▁series	-10.4101
▁private	-10.4115
let	-10.4115
▁pues	-10.4119
▁armas	-10.412
▁jump	-10.4123
▁arma	-10.4129
▁song	-10.4131
▁transport	-10.4133
▁darle	-10.4133
▁trade	-10.4138
▁eje	-10.4143
▁debía	-10.4149
verdad	-10.4152
▁collect	-10.4156
▁fine	-10.4158
▁please	-10.4162
▁cases	-10.4162
▁obliga	-10.4162
▁habrá	-10.4163
▁models	-10.4165
▁utilizar	-10.417
▁larger	-10.4174
▁acepta	-10.4181
▁suma	-10.4183
▁cold	-10.4184
▁website	-10.4185
▁apoyo	-10.4185
▁wild	-10.4185
▁dangerous	-10.4186
▁pena	-10.4194
Quién	-10.4195
▁servicio	-10.4195
cado	-10.4197
▁tax	-10.4197
▁Otra	-10.4206
▁target	-10.4209
▁ship	-10.4209
▁Más	-10.4211
▁colegas	-10.4211
▁emotional	-10.4211
▁herramienta	-10.422
▁sold	-10.4222
▁insect	-10.4225
▁reside	-10.4231
▁wealth	-10.4232
bling	-10.4233
▁tendencia	-10.4235
▁chicos	-10.4236
▁matemáticas	-10.4242
▁niveles	-10.4242
▁décadas	-10.4248
▁hagan	-10.4249
▁verdadero	-10.4249
▁evento	-10.4257
▁sentimiento	-10.4257
▁menor	-10.4257
▁hero	-10.4258
▁responder	-10.426
▁Ud	-10.4275
▁alimenta	-10.4277
▁studies	-10.4279
20	-10.428
▁Che	-10.4281
▁Mc	-10.4286
▁waiting	-10.4287
tera	-10.4294
▁programas	-10.4297
▁decades	-10.4302
▁vehículo	-10.4303
▁elegir	-10.4303
▁cadena	-10.4303
▁window	-10.4303
▁i	-10.4306
▁cuales	-10.431
▁brains	-10.4315
▁wide	-10.4315
lig	-10.4322
▁significant	-10.4324
▁habilidades	-10.4325
▁algoritmo	-10.4327
▁políticas	-10.433
▁increíblemente	-10.433
▁income	-10.4331
▁gira	-10.4334
▁gobiernos	-10.4335
▁range	-10.4337
▁trial	-10.4338
▁current	-10.4338
▁doctors	-10.434
▁starts	-10.4343
▁projects	-10.4344
▁posibilidad	-10.435
▁tampoco	-10.4351
▁tejido	-10.4351
▁conciencia	-10.4351
▁finger	-10.4354
▁secreto	-10.4354
lock	-10.4356
▁host	-10.4362
▁haga	-10.4364
▁actor	-10.4366
▁estudia	-10.4368
▁Sha	-10.437
▁mix	-10.4372
▁Universidad	-10.4374
▁communication	-10.4374
▁worry	-10.4374
▁piensen	-10.4374
▁ocho	-10.4375
cus	-10.4378
ular	-10.4378
▁abandon	-10.4381
▁curso	-10.4382
az	-10.4385
▁upon	-10.4387
▁políticos	-10.4388
▁rob	-10.4396
iste	-10.4396
▁sabes	-10.4398
▁cultiva	-10.4398
▁effort	-10.4398
▁manipula	-10.4398
▁neighborhood	-10.4398
▁foot	-10.4403
▁military	-10.441
▁oportunidades	-10.4414
▁town	-10.4422
▁aprendí	-10.4422
▁aumento	-10.4422
▁biology	-10.4423
▁shared	-10.4425
▁cable	-10.443
▁funcione	-10.4438
rar	-10.4442
▁quieres	-10.4447
▁alive	-10.4467
▁tele	-10.4469
▁frecuencia	-10.447
▁written	-10.447
▁extremo	-10.4471
▁Sta	-10.4471
▁electricidad	-10.4472
▁compañías	-10.4481
▁listening	-10.4484
▁solutions	-10.4484
▁propósito	-10.4495
▁patrón	-10.4495
▁becoming	-10.4495
▁activity	-10.4495
▁architecture	-10.4495
▁instala	-10.4497
▁tira	-10.4501
gram	-10.4505
ética	-10.451
▁paz	-10.4511
▁estadounidense	-10.4519
▁balance	-10.4519
ua	-10.4522
▁cero	-10.4523
▁cur	-10.4529
▁conferencia	-10.4533
dió	-10.4536
▁metal	-10.4539
▁earlier	-10.4543
▁maravillosa	-10.4543
fund	-10.4553
▁elimina	-10.4558
▁barrio	-10.4561
▁greatest	-10.4564
▁usted	-10.4566
▁cuarto	-10.4567
▁estudiante	-10.4568
▁pressure	-10.4569
▁biología	-10.4569
▁mini	-10.4573
▁desarrollado	-10.4576
▁arquitectura	-10.4592
▁square	-10.4592
▁temperatura	-10.4592
▁–	-10.4592
▁politics	-10.4592
▁slide	-10.4592
▁enjoy	-10.4592
▁confi	-10.4593
▁patterns	-10.4596
▁calor	-10.4612
lico	-10.4614
mal	-10.4615
▁birth	-10.4616
▁pérdida	-10.4616
▁divide	-10.4616
▁spot	-10.4617
▁performance	-10.4617
▁electricity	-10.4618
ify	-10.4623
▁helped	-10.4626
▁tap	-10.4629
▁ó	-10.463
▁games	-10.4639
▁vivimos	-10.4641
▁contenido	-10.4641
▁cloud	-10.4641
▁necesitaba	-10.4642
▁decade	-10.4643
▁venir	-10.4644
culo	-10.4659
▁financia	-10.4661
▁scan	-10.4664
try	-10.4667
▁fabrica	-10.4676
▁carta	-10.4677
▁Harvard	-10.469
▁University	-10.469
▁belleza	-10.469
▁include	-10.469
▁llamo	-10.469
▁statistic	-10.469
▁emociones	-10.469
▁roll	-10.4692
▁ciudadanos	-10.4696
▁duro	-10.4703
▁leyes	-10.4706
▁novel	-10.4706
▁propias	-10.4714
pin	-10.4716
▁vast	-10.4717
▁mor	-10.4719
ook	-10.4719
rte	-10.4727
cé	-10.4729
▁effective	-10.4732
▁transmit	-10.4737
▁presidente	-10.4739
▁idioma	-10.4739
▁mezcla	-10.4739
▁evalu	-10.4739
▁reconocer	-10.4746
ition	-10.4749
▁personaje	-10.4752
▁lie	-10.4754
wn	-10.4758
▁comienzo	-10.4764
▁expensive	-10.4764
▁instance	-10.4764
▁pintura	-10.4765
▁versión	-10.4768
▁challenges	-10.4777
▁press	-10.478
▁Vo	-10.4784
▁opinion	-10.4789
▁glass	-10.4789
▁ritmo	-10.479
lé	-10.4796
▁pieza	-10.4797
▁aplica	-10.4805
▁perdido	-10.4814
▁cab	-10.4827
ches	-10.4828
nza	-10.4831
▁creemos	-10.4834
▁mismas	-10.4838
▁physics	-10.4839
▁okay	-10.4839
▁river	-10.484
▁verán	-10.4843
▁rain	-10.4846
▁fail	-10.4849
pped	-10.485
▁cro	-10.4863
▁Mundial	-10.4864
▁científica	-10.4864
▁tocar	-10.4875
▁difíciles	-10.4884
▁harm	-10.4884
▁serve	-10.4887
▁cheap	-10.4889
▁kilo	-10.4889
ative	-10.489
▁sorprend	-10.4891
▁presta	-10.4891
▁raise	-10.4892
▁professional	-10.4904
▁necesidad	-10.4915
▁informa	-10.4918
▁Col	-10.4922
▁values	-10.4923
▁rule	-10.4926
▁buildings	-10.4926
▁conserva	-10.4929
cin	-10.4931
pping	-10.4931
▁cambió	-10.494
▁happiness	-10.494
▁silencio	-10.494
▁temperature	-10.494
▁limpia	-10.494
▁directamente	-10.4941
▁option	-10.4941
▁walked	-10.4949
▁contacto	-10.4954
▁estén	-10.4962
▁services	-10.4965
▁enormous	-10.4965
▁implement	-10.4965
▁Look	-10.4971
▁75	-10.4974
ake	-10.4982
▁cop	-10.4983
▁clearly	-10.4989
▁citizens	-10.499
▁exterior	-10.499
▁secuencia	-10.499
▁Muchos	-10.499
▁extraña	-10.4993
mbre	-10.4994
▁cook	-10.4995
▁fija	-10.5001
▁clima	-10.5006
▁emocional	-10.5008
▁videos	-10.501
▁labor	-10.5011
▁Are	-10.5014
▁averiguar	-10.5016
▁painting	-10.5017
▁spi	-10.5018
▁apply	-10.5019
▁organizaciones	-10.5019
▁respuestas	-10.5023
▁profunda	-10.5033
board	-10.5038
▁señor	-10.5041
▁paint	-10.5046
▁trick	-10.5047
▁individuos	-10.5051
▁contact	-10.5052
▁Many	-10.5062
▁musical	-10.5064
▁colleagues	-10.5066
▁National	-10.5067
▁babies	-10.5067
▁pareja	-10.5067
▁forget	-10.5068
▁enfrenta	-10.5073
▁justicia	-10.5082
▁joy	-10.5083
▁drink	-10.5092
▁Siempre	-10.5092
▁conexión	-10.5092
▁driving	-10.5092
▁peces	-10.5098
▁participa	-10.5099
▁peso	-10.5107
leta	-10.511
▁Ph	-10.511
▁define	-10.5115
▁tomó	-10.5125
▁inteligentes	-10.5125
▁Ab	-10.513
▁vienen	-10.5131
▁fat	-10.5131
iéramos	-10.5132
▁veía	-10.5133
▁lines	-10.5135
log	-10.5135
del	-10.5138
▁opinión	-10.5144
▁Israel	-10.5144
▁preserv	-10.5145
▁Americans	-10.5148
ár	-10.515
eron	-10.515
bol	-10.5152
▁pruebas	-10.5152
▁pieces	-10.5156
▁combina	-10.5156
Me	-10.5159
tial	-10.5163
▁Times	-10.5163
▁environmental	-10.5165
▁suficientemente	-10.5167
▁beauty	-10.517
▁match	-10.5172
▁organism	-10.5173
bro	-10.5183
ví	-10.5186
▁Imaginen	-10.519
▁Fe	-10.5195
▁neighbor	-10.5195
▁anywhere	-10.5196
▁espacial	-10.5196
▁charge	-10.5196
▁Second	-10.5196
▁contain	-10.5196
▁avión	-10.5197
▁sister	-10.5198
▁smaller	-10.5204
▁Ad	-10.5205
▁funcionan	-10.5209
▁presión	-10.5209
cita	-10.5215
▁abierta	-10.5222
▁daño	-10.5222
▁struggle	-10.5222
▁internet	-10.5223
▁combat	-10.5227
▁transporte	-10.5227
▁locales	-10.5229
▁Sé	-10.5239
▁parecen	-10.524
▁absoluto	-10.5248
▁agujero	-10.5248
▁method	-10.5248
▁biological	-10.5248
tz	-10.525
▁collective	-10.525
▁ingresos	-10.5253
▁nube	-10.5254
▁medir	-10.5259
▁Sol	-10.5279
▁throughout	-10.528
▁adapta	-10.5282
▁wa	-10.5283
plan	-10.5289
▁ido	-10.529
▁MIT	-10.53
▁mistake	-10.53
▁elección	-10.53
▁bone	-10.5302
▁doble	-10.5304
▁bin	-10.5307
▁hate	-10.5309
vu	-10.5319
▁stars	-10.532
▁Sur	-10.5325
▁weren	-10.5326
▁niñas	-10.5328
▁frontera	-10.533
▁revista	-10.5333
wer	-10.5336
ek	-10.5336
▁breath	-10.5336
▁manda	-10.5343
▁greater	-10.5345
Ma	-10.5348
▁cent	-10.5349
▁influence	-10.5353
▁Sabemos	-10.5353
▁absolutamente	-10.5354
▁mission	-10.5355
▁Islam	-10.5356
▁immediately	-10.5356
▁disc	-10.5359
▁Muy	-10.5363
▁atrapa	-10.5364
media	-10.5364
▁heat	-10.5366
▁galaxia	-10.5379
▁opción	-10.5388
ciente	-10.5389
▁sad	-10.5394
▁Gu	-10.5398
▁agricultura	-10.5405
▁antiguo	-10.5405
▁Francisco	-10.5406
▁math	-10.5407
▁Wal	-10.5408
▁llegado	-10.5411
▁player	-10.5419
ético	-10.542
dé	-10.5421
▁refer	-10.5421
▁marcha	-10.5429
▁willing	-10.5431
▁continent	-10.5431
▁NASA	-10.5432
▁himself	-10.5432
▁pregunté	-10.5432
▁viola	-10.5432
▁poderoso	-10.5438
▁habilidad	-10.5443
off	-10.5443
▁Arab	-10.5446
▁1,	-10.5446
▁core	-10.5451
cil	-10.5462
▁dad	-10.5478
▁oh	-10.5481
▁noticia	-10.5483
▁descubrimiento	-10.5485
▁earth	-10.5485
roll	-10.5497
▁continua	-10.5508
▁catch	-10.5508
▁levels	-10.551
▁convirtió	-10.5512
▁árbol	-10.5514
▁obviamente	-10.5514
▁tomamos	-10.5515
▁panel	-10.5521
▁vital	-10.5522
▁chino	-10.5529
▁Her	-10.5531
gui	-10.5537
▁Amazon	-10.5539
▁evoluciona	-10.5539
▁prosper	-10.5539
▁trabajadores	-10.5541
▁observar	-10.5548
gamos	-10.5552
▁segundos	-10.5563
▁responsable	-10.5566
▁custom	-10.5566
▁probabilidad	-10.5566
▁interview	-10.5566
▁efectos	-10.5571
▁separate	-10.5577
▁negra	-10.5584
Ha	-10.5587
▁serán	-10.5587
▁acto	-10.5589
▁reales	-10.559
▁identity	-10.5593
▁ingeniería	-10.5593
hal	-10.5593
▁juegos	-10.5593
▁poderosa	-10.5598
cab	-10.5601
craft	-10.5601
rico	-10.5602
▁colabora	-10.5613
▁Instead	-10.562
▁Nuestra	-10.562
▁communicate	-10.562
▁reciente	-10.562
▁failure	-10.5621
En	-10.5621
▁corner	-10.5622
▁damos	-10.5624
▁laws	-10.5624
▁bebés	-10.5631
▁Ser	-10.5641
▁relationships	-10.5646
▁refugee	-10.5647
▁Another	-10.5647
▁gigante	-10.5647
▁Two	-10.5647
▁"(	-10.5647
▁president	-10.5647
▁cruza	-10.5648
▁diseases	-10.5661
▁chip	-10.5666
over	-10.5669
▁landscape	-10.5674
▁usuario	-10.5674
▁viento	-10.5674
▁encontrado	-10.5677
▁administra	-10.5679
▁lanza	-10.5682
▁park	-10.5684
▁teaching	-10.5689
▁broken	-10.5696
▁express	-10.5697
▁compara	-10.57
▁prima	-10.57
▁médica	-10.5701
▁afraid	-10.5701
▁triste	-10.5703
▁distintas	-10.5708
▁diseñado	-10.5708
▁types	-10.5712
mé	-10.5713
▁hará	-10.5717
▁engineering	-10.5721
▁verdadera	-10.5727
▁spoke	-10.5728
▁mobile	-10.5728
▁Realmente	-10.5729
▁forth	-10.5729
▁London	-10.5729
▁production	-10.5736
▁beneficios	-10.5736
▁yes	-10.5742
▁active	-10.5742
pia	-10.5749
▁spin	-10.5753
▁neg	-10.5756
▁adolescente	-10.5756
▁infraestructura	-10.5756
▁speech	-10.5756
▁político	-10.5767
ena	-10.578
▁negros	-10.5781
▁junta	-10.5781
▁conectar	-10.5783
▁campaña	-10.5783
▁captura	-10.5785
▁rare	-10.5786
tones	-10.58
▁clo	-10.5803
▁weight	-10.5807
▁calles	-10.5808
▁22	-10.5809
▁infrastructure	-10.5811
▁comencé	-10.5811
▁summer	-10.5811
▁election	-10.5811
▁hermana	-10.5811
▁neuronas	-10.5812
▁organizations	-10.5826
▁divertido	-10.5839
▁fantastic	-10.5839
▁frase	-10.5839
▁capture	-10.5839
▁abrir	-10.584
▁habitación	-10.5842
▁ventana	-10.5846
▁governments	-10.585
▁militar	-10.5853
cultura	-10.5855
▁barco	-10.5865
▁estuviera	-10.5866
▁except	-10.5866
▁volume	-10.5867
▁opciones	-10.587
▁resu	-10.5871
▁conoce	-10.5879
cop	-10.5879
▁grave	-10.5888
▁Sal	-10.5892
▁fair	-10.5892
▁justice	-10.5897
▁glo	-10.5905
▁spa	-10.5909
▁obvious	-10.5911
▁piso	-10.5912
He	-10.5916
▁speaking	-10.5921
▁Think	-10.5922
▁estadística	-10.5922
▁instrument	-10.5923
▁Ven	-10.5923
▁provoca	-10.5924
▁paid	-10.593
Mi	-10.5934
▁useful	-10.5939
▁crime	-10.5948
▁lose	-10.5948
▁región	-10.595
▁Sun	-10.5955
▁golpe	-10.5956
▁consecuencias	-10.5957
▁conocemos	-10.596
▁atmosphere	-10.5961
▁dieron	-10.5969
▁banco	-10.597
▁trabaja	-10.5974
▁Quería	-10.5978
▁Chicago	-10.5978
▁Which	-10.5978
▁atmósfera	-10.5978
▁período	-10.5978
▁progreso	-10.5978
▁verano	-10.5979
gh	-10.5982
▁emocionante	-10.5983
▁tercera	-10.5987
▁orient	-10.5994
▁costs	-10.6003
▁pude	-10.6003
▁cirugía	-10.6006
▁vehicle	-10.6006
▁worst	-10.6006
▁shock	-10.6006
▁therefore	-10.6006
▁silla	-10.6006
▁Gi	-10.6009
▁avanza	-10.6009
▁significado	-10.6009
▁corto	-10.6011
▁aleja	-10.6016
▁recent	-10.6019
▁transforma	-10.602
▁posición	-10.6021
▁boca	-10.6026
▁básica	-10.6026
▁grit	-10.6027
▁accidente	-10.6031
&	-10.6034
▁criatura	-10.6034
▁feature	-10.6034
▁entiende	-10.6034
▁plástico	-10.6034
▁observ	-10.6035
▁alcanzar	-10.6047
▁asegurar	-10.605
▁experiencias	-10.6057
▁género	-10.6062
▁recibir	-10.6062
▁protein	-10.6062
▁importancia	-10.6066
▁realiza	-10.607
▁involucra	-10.6076
▁copia	-10.6079
▁sociedades	-10.6086
▁pase	-10.6089
▁understood	-10.6091
▁ensayo	-10.6091
▁etapa	-10.6091
▁repeti	-10.6091
▁dispara	-10.6094
▁whose	-10.6097
▁artista	-10.6099
▁Einstein	-10.6119
▁weapon	-10.6119
▁correo	-10.6121
▁choices	-10.6121
▁demanda	-10.613
part	-10.6132
▁parecer	-10.614
▁ahead	-10.6141
▁interaction	-10.6144
▁forms	-10.6145
gun	-10.6147
▁lleno	-10.6148
▁visible	-10.6148
▁yeah	-10.6148
▁Western	-10.6149
▁stopped	-10.615
pit	-10.6152
ificación	-10.616
▁following	-10.6161
▁gun	-10.6165
▁sick	-10.6166
▁mostly	-10.6171
▁electro	-10.6172
▁pudo	-10.6174
▁diversidad	-10.6176
▁víctima	-10.6176
▁camina	-10.6182
▁películas	-10.6186
net	-10.619
▁señales	-10.6192
bio	-10.6194
▁matar	-10.6197
▁química	-10.6205
▁trouble	-10.6205
▁genoma	-10.6205
▁hip	-10.6205
▁neurons	-10.6207
▁tar	-10.6211
▁chico	-10.6211
▁autor	-10.6213
▁peligro	-10.6224
▁zonas	-10.6227
▁explorar	-10.6231
▁próximos	-10.6233
▁pop	-10.6233
▁felices	-10.6233
▁straight	-10.6233
▁circle	-10.6234
▁double	-10.6234
▁contarles	-10.6242
▁rid	-10.6244
▁replace	-10.6244
▁presentar	-10.6255
▁mid	-10.6257
▁traje	-10.6257
▁layer	-10.6257
▁plataforma	-10.6262
hand	-10.6265
▁compren	-10.6266
▁creamos	-10.6268
▁intent	-10.6269
▁vota	-10.6273
▁quick	-10.6287
▁rostro	-10.6291
▁mamá	-10.6291
▁comunica	-10.6298
▁cast	-10.6303
▁net	-10.6307
▁gain	-10.6308
▁Fui	-10.631
▁pocas	-10.6313
▁Ed	-10.6319
▁campaign	-10.632
▁círculo	-10.632
▁kilómetros	-10.632
▁molecular	-10.632
▁tissue	-10.632
▁distance	-10.632
▁television	-10.632
▁minuto	-10.6321
▁condition	-10.6321
▁99	-10.6324
▁pared	-10.6325
▁effects	-10.6327
damente	-10.6329
▁streets	-10.6341
ándolo	-10.6343
▁unit	-10.6345
cum	-10.6348
▁Richard	-10.6349
▁genome	-10.6349
▁random	-10.6349
▁pobre	-10.635
▁recientemente	-10.6358
▁costos	-10.6362
▁cabo	-10.6368
Re	-10.6368
▁points	-10.6375
▁none	-10.6378
▁destroy	-10.6378
▁proteína	-10.6378
▁belief	-10.6378
▁antigua	-10.6378
▁Mil	-10.638
▁boys	-10.6381
▁hoja	-10.6386
▁tells	-10.6387
▁vibra	-10.6387
▁ropa	-10.6388
▁conocen	-10.6391
late	-10.6399
▁...	-10.64
▁construct	-10.6405
▁creatividad	-10.6408
▁minds	-10.6409
▁experiences	-10.6434
▁rota	-10.6435
▁religión	-10.6437
▁avoid	-10.6437
▁determine	-10.6437
▁sentí	-10.6439
▁2008	-10.644
▁gender	-10.6441
▁noticed	-10.6446
▁clases	-10.645
▁mud	-10.6461
▁emotions	-10.6465
▁VIH	-10.6466
▁crucial	-10.6466
▁iPhone	-10.6466
▁celular	-10.6466
▁circula	-10.6467
▁lit	-10.6467
▁aun	-10.6468
▁tí	-10.6468
▁scientist	-10.6472
▁nuevamente	-10.6474
▁adultos	-10.6478
▁Norte	-10.6478
▁bear	-10.6487
tiene	-10.6493
▁societies	-10.6496
▁saving	-10.6499
▁King	-10.6501
▁generate	-10.6502
▁Dis	-10.6504
▁listo	-10.6507
▁mover	-10.6509
▁líneas	-10.6514
▁directly	-10.6515
omb	-10.6515
How	-10.6515
▁Street	-10.6525
▁eficiente	-10.6525
▁fenómeno	-10.6525
▁paisaje	-10.6525
▁hotel	-10.6531
▁Bar	-10.6534
▁beat	-10.6539
▁llevan	-10.6544
▁nearly	-10.6545
ografía	-10.6547
ough	-10.6548
▁highly	-10.6549
▁Muslim	-10.6555
▁sample	-10.6555
▁refugiados	-10.6556
▁Human	-10.6561
fí	-10.6565
▁función	-10.6571
▁Part	-10.6571
▁solamente	-10.6573
Do	-10.6575
▁Londres	-10.6585
▁YouTube	-10.6585
▁café	-10.6585
▁creando	-10.6591
▁bal	-10.6601
▁Gra	-10.6607
▁escena	-10.6614
▁Frank	-10.6615
▁secundaria	-10.6615
▁switch	-10.6615
▁technique	-10.6615
▁easier	-10.6615
▁damage	-10.6615
▁entrevista	-10.6615
▁trabajan	-10.6616
▁Ci	-10.6617
▁various	-10.6617
▁remove	-10.6618
matic	-10.6619
▁volar	-10.6621
▁simples	-10.6624
▁bacterias	-10.6633
▁members	-10.6634
▁Indian	-10.6635
▁admit	-10.6641
Le	-10.6643
▁escribió	-10.6645
▁posibilidades	-10.6645
▁closer	-10.6655
dimensional	-10.6657
ught	-10.6661
▁celebra	-10.6663
▁rein	-10.6673
▁2010	-10.6675
▁diversity	-10.6675
▁abstract	-10.6675
▁although	-10.6675
▁vacuna	-10.6675
▁victim	-10.6675
▁aproximadamente	-10.6675
▁apenas	-10.6675
▁interesado	-10.6675
▁urge	-10.6677
▁argue	-10.6678
▁subir	-10.6681
▁investment	-10.6684
▁bill	-10.6685
▁gap	-10.6689
▁ruido	-10.6694
▁llaman	-10.6698
▁editor	-10.6702
▁relaciona	-10.6702
▁Darwin	-10.6705
▁órgano	-10.6705
▁From	-10.6705
Cuánto	-10.6705
▁tuvieron	-10.6705
▁trauma	-10.6706
▁sorts	-10.6708
▁profesores	-10.671
▁rev	-10.6717
In	-10.6725
▁alternativa	-10.6735
▁husband	-10.6735
▁responsibility	-10.6735
▁estrés	-10.6735
▁Algunas	-10.6735
▁ciclo	-10.6735
▁epi	-10.6737
ious	-10.6737
berg	-10.6738
▁engage	-10.6738
▁differently	-10.6743
▁elecciones	-10.6744
▁extraordinario	-10.6747
▁raro	-10.6753
cierto	-10.6753
▁Iraq	-10.6757
▁rápida	-10.6757
▁creación	-10.6761
▁disappear	-10.6765
▁easily	-10.6765
▁remarkable	-10.6765
▁satellite	-10.6765
▁profound	-10.6765
▁traffic	-10.6765
▁acelera	-10.6765
▁addition	-10.6766
▁vieron	-10.677
▁altura	-10.6772
▁perfecto	-10.6775
▁hor	-10.6776
▁party	-10.6779
▁coloca	-10.678
Puede	-10.6784
imo	-10.6784
▁similares	-10.679
▁fragment	-10.6796
▁occidental	-10.6796
▁graduate	-10.6796
▁promise	-10.6797
▁seemed	-10.6799
▁principales	-10.681
▁Ap	-10.6812
▁copy	-10.6813
▁entrega	-10.6813
▁miramos	-10.6818
▁mata	-10.6818
Q	-10.6824
▁escond	-10.6825
▁Además	-10.6826
▁surprising	-10.6826
▁edge	-10.6827
▁predic	-10.6827
▁court	-10.6827
▁surgery	-10.6828
▁gather	-10.6829
▁interesantes	-10.683
▁gráfico	-10.6833
▁anyway	-10.6836
▁missing	-10.6837
▁eco	-10.6837
▁miembros	-10.6838
▁emit	-10.6842
▁instrumento	-10.6856
▁creativity	-10.6857
▁riqueza	-10.6857
▁supply	-10.6857
▁President	-10.6857
▁Otro	-10.6858
▁flying	-10.687
▁parque	-10.6873
▁Over	-10.6876
▁delante	-10.6877
▁bat	-10.6878
▁sand	-10.688
▁informe	-10.6885
▁partículas	-10.6888
▁possibly	-10.6888
▁sobrevivir	-10.6888
▁Boston	-10.6888
▁bridge	-10.6888
▁despite	-10.6889
▁driver	-10.6896
▁inspired	-10.6901
▁mueve	-10.6909
▁helping	-10.6914
▁reserva	-10.6918
▁mecanismo	-10.6918
It	-10.692
▁brand	-10.6921
oja	-10.6921
▁tough	-10.6923
▁sitios	-10.6924
▁contest	-10.6949
▁sencilla	-10.6949
▁Great	-10.6949
▁dying	-10.6949
▁James	-10.695
▁23	-10.6953
▁aboga	-10.6953
▁usado	-10.6961
▁desire	-10.6963
▁muestran	-10.6964
▁equal	-10.6965
▁invented	-10.6968
▁cambiando	-10.6971
▁mark	-10.6978
▁compleja	-10.698
▁shoot	-10.698
ney	-10.6982
▁internacional	-10.6987
▁temas	-10.6988
▁banda	-10.6992
▁creía	-10.6994
arios	-10.7003
▁climb	-10.7011
▁Nadie	-10.7011
▁below	-10.7012
▁capacity	-10.7018
head	-10.7022
hood	-10.7023
iento	-10.7024
▁dando	-10.7036
Pero	-10.7041
▁diario	-10.7042
▁empezando	-10.7042
▁Resulta	-10.7042
▁cycle	-10.7042
▁Hasta	-10.7044
Music	-10.7046
▁sufri	-10.7048
▁complicado	-10.7054
▁published	-10.7056
▁aquel	-10.7059
▁techo	-10.706
▁drogas	-10.7064
▁inferior	-10.7074
▁Brazil	-10.7074
▁misterio	-10.7074
▁station	-10.7075
▁sustainable	-10.7076
▁attract	-10.7077
▁tren	-10.7078
▁Pues	-10.7086
▁Dan	-10.7086
▁engineer	-10.709
▁diga	-10.7091
▁correct	-10.7092
▁benefit	-10.71
▁ancient	-10.7105
▁continente	-10.7106
▁suena	-10.711
▁passion	-10.7116
▁esperando	-10.7116
▁Web	-10.7132
▁encourage	-10.7136
▁platform	-10.7136
▁emplea	-10.7137
▁background	-10.7138
▁sentence	-10.714
▁claramente	-10.7142
▁momentos	-10.7143
▁sienten	-10.7144
▁favorito	-10.7146
▁master	-10.7149
chu	-10.7154
▁0	-10.7155
din	-10.7166
▁occur	-10.7167
▁Big	-10.7167
▁conference	-10.7168
▁consumo	-10.7168
▁cuesta	-10.7169
▁gotten	-10.7173
▁propiedad	-10.7175
▁Bra	-10.7175
▁ganado	-10.7194
▁visita	-10.7195
▁inevitable	-10.72
▁dynamic	-10.72
▁breve	-10.72
▁smell	-10.72
▁escuchado	-10.7201
▁lack	-10.7202
▁liberal	-10.7206
▁border	-10.7208
▁cuerpos	-10.721
▁arena	-10.7212
▁played	-10.7214
▁fully	-10.722
▁alternative	-10.7231
▁ingredient	-10.7231
▁strength	-10.7231
▁replica	-10.7232
▁asesina	-10.7232
quí	-10.7232
▁traer	-10.724
▁fill	-10.7242
ological	-10.7245
burg	-10.7253
▁piezas	-10.7256
▁opportunities	-10.7263
▁slightly	-10.7263
▁inspira	-10.7263
▁piedra	-10.7263
▁arrest	-10.7264
▁próximo	-10.7264
▁estrella	-10.7264
▁giant	-10.7264
▁held	-10.7265
▁detener	-10.7268
▁encuentran	-10.7269
▁conectado	-10.7272
▁realizar	-10.7274
▁rights	-10.7274
▁10,000	-10.7279
▁colores	-10.7279
▁causes	-10.7282
▁vaca	-10.7284
▁hearing	-10.7287
▁Kenya	-10.7295
▁clínica	-10.7295
▁hueso	-10.7296
▁aware	-10.7296
▁vivía	-10.7298
▁reaction	-10.7301
▁gold	-10.7312
▁transformar	-10.7316
▁iron	-10.732
▁basa	-10.7321
▁fábrica	-10.7327
▁outcome	-10.7329
▁experimentos	-10.7333
▁humor	-10.7338
▁comunes	-10.734
▁luna	-10.7344
▁misión	-10.7352
mov	-10.7353
▁boat	-10.7354
▁hecha	-10.7357
▁construido	-10.7359
▁However	-10.7362
▁peligroso	-10.7364
▁aid	-10.7364
▁suffer	-10.7368
arme	-10.7377
▁programs	-10.738
▁studying	-10.7388
▁estima	-10.7388
▁beneficia	-10.7392
▁symbol	-10.7392
▁aspira	-10.7392
▁basura	-10.7392
▁sequence	-10.7392
point	-10.7399
abilidad	-10.7404
▁conocí	-10.741
▁pack	-10.7413
▁explora	-10.7416
▁complejidad	-10.7424
▁opposite	-10.7424
▁sucediendo	-10.7424
▁classroom	-10.7424
▁claim	-10.7426
▁curva	-10.7431
ency	-10.7435
▁PM	-10.7441
▁Tim	-10.7441
▁logra	-10.7442
Why	-10.7445
▁estaría	-10.7452
▁meters	-10.7452
▁América	-10.7456
▁decidir	-10.7456
▁modifica	-10.7458
▁mantiene	-10.7459
▁acciones	-10.746
▁Sus	-10.7468
▁passed	-10.7473
▁elementos	-10.7477
▁moon	-10.7484
▁produced	-10.7485
▁Afghanistan	-10.7489
▁etiqueta	-10.7489
▁religious	-10.7489
strucción	-10.749
▁basis	-10.7493
▁recover	-10.7493
▁pasión	-10.7498
▁existencia	-10.7499
▁pensado	-10.7501
eta	-10.7501
▁vean	-10.7505
▁parent	-10.7506
▁prior	-10.7507
dita	-10.7509
▁weird	-10.7509
▁crean	-10.7521
▁Piensen	-10.7522
▁commercial	-10.7522
▁oxygen	-10.7522
▁article	-10.7522
▁proporciona	-10.7522
▁depression	-10.7522
▁Anderson	-10.7522
▁chicas	-10.7533
▁BG	-10.7535
▁agent	-10.7541
▁consume	-10.7542
▁extreme	-10.7542
▁focused	-10.7546
▁construye	-10.7548
▁sharing	-10.7555
▁bought	-10.7556
▁consumer	-10.7558
▁incluyendo	-10.7559
▁Ben	-10.7561
▁expertos	-10.7563
▁volví	-10.7569
▁European	-10.7572
▁suffering	-10.7578
▁origin	-10.7584
▁análisis	-10.7587
▁nueve	-10.7587
▁Fo	-10.7587
▁negative	-10.7588
▁reflex	-10.7592
▁móvil	-10.7596
▁ref	-10.7601
▁diferencias	-10.7607
▁solid	-10.761
▁pesca	-10.7614
▁vender	-10.7619
▁lengua	-10.7619
▁necesidades	-10.7619
▁Obama	-10.762
▁muscle	-10.762
▁depresión	-10.762
▁carry	-10.7622
▁efficient	-10.7624
▁entirely	-10.7629
▁Your	-10.7641
▁detectar	-10.7643
▁Algo	-10.7647
▁correspond	-10.7653
▁twice	-10.7653
▁actuar	-10.7654
▁enfoca	-10.7656
▁flujo	-10.7656
▁infla	-10.7658
▁transfer	-10.7658
▁orbit	-10.7661
cies	-10.7662
▁imagination	-10.7663
▁legs	-10.767
▁levanta	-10.7674
cuál	-10.7674
Te	-10.7675
▁engine	-10.7678
▁cumpl	-10.7685
▁viva	-10.7693
▁fuego	-10.7693
▁moda	-10.7701
▁cry	-10.7703
▁coffee	-10.772
▁definition	-10.772
▁Russia	-10.772
▁leadership	-10.772
▁estuve	-10.7721
▁scene	-10.7721
▁fascinante	-10.7727
▁profundamente	-10.773
▁puso	-10.7734
▁May	-10.7745
▁knowing	-10.7745
:"	-10.7746
▁continuar	-10.7751
▁intento	-10.7751
▁abuela	-10.7753
▁Trabaj	-10.7754
▁1,000	-10.7758
▁Take	-10.7762
▁cave	-10.7763
▁regresar	-10.7767
▁participar	-10.7776
▁cine	-10.7776
▁pig	-10.7778
▁ejército	-10.7787
▁satisfac	-10.7787
▁lucky	-10.7787
▁crowd	-10.7787
▁fuimos	-10.779
▁limita	-10.7791
▁procesa	-10.7791
▁miran	-10.7791
▁explica	-10.7792
▁identifica	-10.7794
▁errores	-10.78
▁Somos	-10.7803
▁mostraré	-10.7805
▁dimension	-10.7816
▁raised	-10.7819
▁electrónico	-10.7821
▁jamás	-10.7821
▁oxígeno	-10.7821
▁carretera	-10.7821
▁tremendous	-10.7821
▁actualmente	-10.7822
▁blow	-10.7822
▁desert	-10.7827
▁wood	-10.7829
grade	-10.7836
▁diseñadores	-10.7838
nna	-10.7841
▁olvida	-10.7853
▁disminu	-10.7853
▁definición	-10.7854
▁identify	-10.7854
▁pudiéramos	-10.7854
▁Sometimes	-10.7854
▁laptop	-10.7855
based	-10.7856
▁pierde	-10.7856
▁implant	-10.7856
▁funny	-10.7857
izó	-10.786
▁experiments	-10.7861
▁partido	-10.7865
▁island	-10.7866
▁quiet	-10.7876
▁vimos	-10.7881
▁enormes	-10.7881
▁identificar	-10.7882
▁vía	-10.7882
▁importantly	-10.7884
▁saca	-10.7888
▁poet	-10.7889
▁noise	-10.789
ivity	-10.7893
▁vertical	-10.7894
▁imaginación	-10.7899
rimi	-10.7916
▁loco	-10.7918
▁Mal	-10.792
▁querían	-10.7921
▁competition	-10.7922
▁necessarily	-10.7922
▁empower	-10.7923
▁fuerzas	-10.7932
▁hacerse	-10.7933
▁chair	-10.7935
▁chain	-10.7939
▁belong	-10.794
▁basado	-10.7942
▁creativo	-10.7944
▁mensajes	-10.7951
▁siguen	-10.7952
▁select	-10.7954
▁Pienso	-10.7956
▁básico	-10.7956
▁exercise	-10.7956
▁Fin	-10.7964
▁oficial	-10.7964
▁tradicional	-10.7966
▁investigadores	-10.7969
▁Ver	-10.7976
▁precios	-10.7981
▁loca	-10.799
▁establec	-10.7991
▁Michael	-10.7991
▁recuerda	-10.7991
▁vuelo	-10.7991
▁influencia	-10.7991
▁Parece	-10.7991
▁chica	-10.7994
▁hurt	-10.7995
org	-10.7995
▁intentando	-10.8003
▁alma	-10.8004
▁evolved	-10.8005
▁entrepreneur	-10.801
▁bias	-10.8011
▁saludable	-10.8011
ístico	-10.8011
▁Aunque	-10.8025
▁presenta	-10.8025
▁chose	-10.8027
▁periodista	-10.8032
ólogos	-10.8044
▁podíamos	-10.8048
▁operation	-10.8052
cubr	-10.8054
▁fácilmente	-10.806
▁application	-10.806
▁tarjeta	-10.806
▁Martin	-10.8061
▁decían	-10.8062
▁generar	-10.8066
▁miren	-10.8068
▁Island	-10.8069
▁digamos	-10.808
▁pega	-10.8081
▁pies	-10.8084
To	-10.8088
▁descubierto	-10.8094
▁fantástico	-10.8094
▁sencillo	-10.8094
▁interface	-10.8094
▁parecido	-10.8094
▁Charles	-10.8094
▁corriente	-10.8095
▁Existe	-10.8095
▁puente	-10.81
▁enfrentar	-10.8108
▁networks	-10.811
▁mejora	-10.8111
ibera	-10.8112
ística	-10.8113
▁coal	-10.8119
▁seat	-10.8119
▁mercados	-10.8124
▁desaparece	-10.8129
▁strategy	-10.8129
▁mouth	-10.8129
▁abuelo	-10.8129
▁shark	-10.8129
▁paradigm	-10.8129
▁narrative	-10.813
▁rueda	-10.813
▁caliente	-10.813
▁avance	-10.8131
▁versus	-10.8132
▁fri	-10.8141
▁sac	-10.8155
▁mad	-10.8156
▁sueños	-10.8161
▁ilumina	-10.8164
▁discurso	-10.8164
▁viviendo	-10.8164
▁blanca	-10.8164
▁farmers	-10.817
▁birds	-10.817
▁atom	-10.817
▁proud	-10.8172
▁opt	-10.8178
▁whi	-10.818
▁ofrece	-10.8187
well	-10.8189
position	-10.819
▁devices	-10.819
▁artistas	-10.8191
▁compromiso	-10.8199
▁explota	-10.8199
▁vacío	-10.8199
▁impulsa	-10.8199
▁billones	-10.8199
▁asombroso	-10.82
▁aprende	-10.8201
▁pesa	-10.8201
▁tendrá	-10.8202
▁benefits	-10.8204
▁forces	-10.8204
▁contamina	-10.8227
▁límites	-10.8231
gal	-10.8231
▁Afganistán	-10.8234
▁eléctrica	-10.8234
▁responsible	-10.8234
▁diagnostic	-10.8234
▁competencia	-10.8235
▁root	-10.8237
range	-10.8239
▁creencia	-10.8243
▁deeply	-10.8268
▁moléculas	-10.8268
▁intelectual	-10.8269
▁faith	-10.8269
▁descubrí	-10.8269
▁ritual	-10.8269
product	-10.8271
▁pose	-10.8275
tón	-10.8288
▁degrees	-10.8289
▁malas	-10.8292
▁ingenieros	-10.8293
▁riesgos	-10.83
▁tareas	-10.8301
▁escribí	-10.8304
▁volvió	-10.8304
▁Guerra	-10.8304
▁bright	-10.8307
izo	-10.8309
▁salió	-10.8309
room	-10.831
▁vende	-10.8312
Esto	-10.8325
▁tradition	-10.8327
ándole	-10.8334
▁mechanism	-10.834
▁stuck	-10.834
▁Green	-10.834
▁spending	-10.8345
▁Life	-10.8345
▁moderna	-10.8345
▁normalmente	-10.8346
▁drawing	-10.8347
itos	-10.8349
▁verdaderamente	-10.835
▁carne	-10.8353
▁llegamos	-10.8367
▁figured	-10.8368
▁Inter	-10.8371
▁bag	-10.8371
▁Nosotros	-10.8375
▁diapositiva	-10.8375
▁manifest	-10.8375
▁tercio	-10.8375
▁Medio	-10.8376
▁British	-10.8376
▁ambas	-10.8377
▁aldea	-10.8378
▁molecules	-10.8379
▁Ahí	-10.8379
tió	-10.838
▁majority	-10.8381
▁turning	-10.8381
▁imita	-10.8382
▁ultimately	-10.8382
▁navega	-10.8383
▁cola	-10.8384
▁aquella	-10.8384
win	-10.8388
▁experimentar	-10.8392
▁importar	-10.8396
▁clientes	-10.8398
▁tantas	-10.8399
This	-10.8399
▁tomando	-10.8402
▁grand	-10.8405
▁quote	-10.8405
▁author	-10.8408
ui	-10.8409
▁Apple	-10.8411
▁extremadamente	-10.8411
▁aparato	-10.8411
▁consciousness	-10.8413
▁600	-10.8414
▁tens	-10.8414
dding	-10.8422
▁canción	-10.8424
▁alcanza	-10.843
▁aspectos	-10.8437
▁cultivo	-10.8447
▁consejo	-10.8447
▁remote	-10.8447
▁famoso	-10.8447
▁civilization	-10.8449
▁jefe	-10.8449
▁estándar	-10.845
▁Puedo	-10.8451
▁Saben	-10.8457
▁surprise	-10.8459
▁Sh	-10.846
▁bomba	-10.846
▁fighting	-10.8461
▁Todas	-10.8466
▁cer	-10.8467
▁pet	-10.8468
▁See	-10.8472
▁wire	-10.8475
▁extraordinaria	-10.848
▁cercano	-10.8483
▁discrimina	-10.8483
▁baño	-10.8483
▁bicicleta	-10.8483
▁asteroid	-10.8483
▁puse	-10.8489
▁forever	-10.8497
▁superar	-10.8501
▁flor	-10.8501
▁hablan	-10.8502
▁regresa	-10.8504
▁27	-10.8505
▁designers	-10.8511
▁More	-10.8514
▁ambiental	-10.8519
▁ejercicio	-10.8519
▁fashion	-10.8519
▁possibility	-10.8519
▁inversión	-10.8519
▁2009	-10.8523
▁complexity	-10.8526
áramos	-10.8527
▁suit	-10.8532
▁cuándo	-10.8541
▁coordina	-10.8555
▁oscura	-10.8555
▁positiva	-10.8555
▁puzzle	-10.8555
▁university	-10.8555
▁vieja	-10.8555
▁estuvo	-10.8555
▁colonia	-10.8556
▁Red	-10.8557
▁Miren	-10.8557
▁pretend	-10.8562
▁zone	-10.8566
▁lección	-10.8585
▁advantage	-10.8592
▁bottle	-10.8592
▁terreno	-10.8592
▁desastre	-10.8592
▁Again	-10.8592
▁ubica	-10.8592
Dónde	-10.8592
▁Middle	-10.8593
▁2007	-10.8596
▁eating	-10.8599
▁oír	-10.8603
▁juntas	-10.8605
▁distintos	-10.8616
▁resultó	-10.8617
▁moderno	-10.8619
▁holding	-10.862
▁recuperar	-10.8622
▁consequences	-10.8624
▁trend	-10.8626
▁architect	-10.8627
▁quiera	-10.8628
▁decidimos	-10.8628
▁attempt	-10.8628
▁ahorra	-10.8628
▁aplicar	-10.8628
▁ventaja	-10.863
▁Ko	-10.8632
cious	-10.8632
▁medicamentos	-10.8638
▁fueran	-10.8638
▁borde	-10.8656
▁salta	-10.8657
▁believed	-10.866
▁Alzheimer	-10.8665
▁Wikipedia	-10.8665
▁matemático	-10.8665
▁televisión	-10.8665
▁multiple	-10.8665
▁repeat	-10.8668
▁decimos	-10.8671
▁date	-10.8671
▁tanta	-10.8674
30	-10.8683
▁diagram	-10.8684
hop	-10.869
▁venta	-10.8699
▁pasan	-10.87
▁liderazgo	-10.8702
▁llamó	-10.8702
▁frío	-10.8702
▁trastorno	-10.8702
▁gift	-10.8702
▁roof	-10.8703
▁amiga	-10.8707
▁caza	-10.871
▁viajar	-10.871
▁motion	-10.8713
Go	-10.8714
dujo	-10.8714
▁ph	-10.8714
▁suceder	-10.8719
▁permiten	-10.8724
▁reward	-10.8726
▁viaja	-10.8738
▁Actually	-10.8738
▁descubrimos	-10.8738
▁ecosistema	-10.8738
▁ecosystem	-10.8738
▁sostenible	-10.8738
▁asocia	-10.8742
▁pudieran	-10.8747
▁aplicación	-10.8748
▁apoya	-10.8755
▁score	-10.8756
▁llegan	-10.8764
▁independiente	-10.8766
▁expresión	-10.8775
▁incrementa	-10.8775
▁abejas	-10.8775
▁positivo	-10.8775
icamente	-10.878
▁dispuesto	-10.8781
iéndose	-10.8785
oh	-10.8789
▁finish	-10.8795
▁salva	-10.8798
▁reform	-10.8801
▁disfruta	-10.8803
gran	-10.8806
▁leading	-10.8807
▁naturales	-10.8807
▁oscuro	-10.8813
▁reunión	-10.8813
▁hablo	-10.8813
▁clip	-10.8813
▁convertido	-10.8815
▁roja	-10.8821
▁location	-10.8825
chan	-10.883
▁plantea	-10.8831
▁Rob	-10.8831
▁aumentar	-10.8832
nny	-10.8834
▁minor	-10.8834
▁fluid	-10.8834
▁warm	-10.8839
▁diseña	-10.8845
▁hormiga	-10.885
▁reacción	-10.885
▁habido	-10.885
▁premio	-10.885
▁surge	-10.8852
▁coast	-10.8854
▁organismos	-10.8854
▁flight	-10.8854
▁shop	-10.886
▁estimate	-10.886
▁grade	-10.8862
▁asegur	-10.8863
▁hack	-10.8866
▁degree	-10.887
cribe	-10.887
▁ricos	-10.887
éis	-10.8876
▁restaurant	-10.8878
▁Bro	-10.8883
▁encuentro	-10.8887
▁federal	-10.8887
▁demostrar	-10.8888
▁empa	-10.8892
▁earn	-10.8893
▁compared	-10.8903
itud	-10.8903
▁roca	-10.8915
▁arquitecto	-10.8925
▁studied	-10.8925
▁familiares	-10.8926
▁Park	-10.8931
▁dif	-10.8933
▁tratamos	-10.8935
▁protest	-10.8938
▁concern	-10.8942
▁formula	-10.8952
tip	-10.8952
▁particles	-10.8953
▁entrada	-10.8958
▁Valley	-10.8963
▁cálculo	-10.8963
▁registro	-10.8963
▁GPS	-10.8963
▁critic	-10.8964
▁cifra	-10.8964
▁Unido	-10.897
▁metro	-10.8976
▁agradec	-10.8976
▁profesional	-10.8976
▁hacían	-10.8978
▁opened	-10.8987
▁matrimonio	-10.9001
▁ocurrir	-10.9001
▁professor	-10.9001
▁marriage	-10.9001
▁previous	-10.9001
▁technical	-10.9001
▁journalist	-10.9002
▁trained	-10.9004
▁dimos	-10.9006
esta	-10.9006
▁wearing	-10.9007
▁engineers	-10.901
▁Estado	-10.9014
state	-10.9014
▁construyendo	-10.9014
▁luchar	-10.9021
▁piernas	-10.9026
▁cau	-10.9028
▁failed	-10.9033
long	-10.9036
▁dress	-10.9039
▁llora	-10.9039
▁practica	-10.904
▁cuáles	-10.904
▁drag	-10.9052
60	-10.9053
▁weak	-10.9057
▁250	-10.9062
▁fines	-10.9065
▁arch	-10.9072
Música	-10.9077
▁foreign	-10.9077
▁fracaso	-10.9077
▁disorder	-10.9077
▁trillion	-10.9077
▁truck	-10.9077
▁dinner	-10.9077
▁reveal	-10.9077
▁graph	-10.9092
▁scar	-10.91
▁Chi	-10.9105
▁ski	-10.9111
zan	-10.9113
▁breast	-10.9115
▁reemplaza	-10.9115
▁refiero	-10.9115
▁anticipa	-10.9115
▁leaving	-10.9115
▁denomina	-10.9115
▁ill	-10.9115
▁stem	-10.9116
▁punta	-10.9118
▁infantil	-10.912
▁broad	-10.912
▁watched	-10.9136
▁equivocado	-10.9141
Está	-10.9144
▁golpea	-10.9145
▁Once	-10.9146
▁clic	-10.9151
▁dibujo	-10.9154
▁percepción	-10.9154
▁receptor	-10.9154
▁Egypt	-10.9154
▁club	-10.9154
▁daily	-10.9154
▁yellow	-10.9154
gging	-10.9155
▁limited	-10.9155
▁sienta	-10.9159
▁manejar	-10.916
▁quo	-10.916
▁Veamos	-10.9161
▁hablaba	-10.9164
▁madera	-10.9165
▁convince	-10.9168
▁escape	-10.9168
▁trataba	-10.917
▁particularmente	-10.9171
known	-10.918
▁pair	-10.9182
▁clinic	-10.9186
▁Ten	-10.9192
▁específico	-10.9192
▁metaphor	-10.9192
▁origen	-10.9192
▁Aún	-10.9192
▁luces	-10.9196
▁stream	-10.9203
▁click	-10.9206
▁líder	-10.9207
▁received	-10.9215
▁pinta	-10.9217
▁químicos	-10.9218
▁Básicamente	-10.9231
▁encuesta	-10.9231
▁magazine	-10.9231
▁papá	-10.9231
▁carbón	-10.9231
▁profit	-10.9232
▁crash	-10.9234
▁Jim	-10.9237
▁sentimos	-10.9237
▁maestros	-10.9238
▁hambre	-10.9241
▁pelea	-10.9242
▁tratado	-10.9242
▁ponen	-10.9244
▁soil	-10.9248
▁autoridad	-10.9253
▁sudden	-10.9258
▁africanos	-10.9259
arán	-10.926
▁verse	-10.9261
▁regla	-10.9263
▁esencia	-10.9265
voca	-10.9267
▁Todavía	-10.927
▁cárcel	-10.927
▁lluvia	-10.927
▁registra	-10.927
▁conversaciones	-10.927
▁garden	-10.927
▁married	-10.927
▁describir	-10.927
▁Brasil	-10.927
▁basada	-10.927
▁Japan	-10.9271
▁childhood	-10.9271
▁firm	-10.9288
▁compañeros	-10.929
▁counter	-10.9298
▁llegué	-10.9309
▁airplane	-10.9309
▁comentario	-10.9309
▁museo	-10.9309
▁dozen	-10.9309
▁dicta	-10.931
Hey	-10.9312
▁managed	-10.9314
▁Hub	-10.9316
▁crack	-10.9316
▁nurse	-10.9319
ella	-10.9322
▁typical	-10.9336
▁leader	-10.9337
▁falla	-10.9345
▁detalles	-10.9348
▁French	-10.9348
▁periódico	-10.9348
▁satélite	-10.9348
▁succeed	-10.9348
▁vuelto	-10.9348
▁prisión	-10.9348
▁translate	-10.9351
▁grown	-10.9355
▁everyday	-10.9356
▁tomado	-10.9358
▁raza	-10.9365
▁flower	-10.9378
list	-10.938
▁bird	-10.9383
▁65	-10.9385
▁espíritu	-10.9387
▁perception	-10.9387
▁rendimiento	-10.9388
▁batalla	-10.9388
▁hiciera	-10.9388
▁status	-10.9388
▁Good	-10.9389
▁alimentar	-10.9391
▁inicial	-10.9392
▁guard	-10.9396
▁harder	-10.94
▁computador	-10.9401
▁fairly	-10.9405
That	-10.9415
▁Art	-10.9423
▁brilliant	-10.9427
▁necessary	-10.9427
▁museum	-10.9427
▁folks	-10.9427
▁survey	-10.9427
▁inmediato	-10.9427
▁pelo	-10.9429
▁comfortable	-10.943
friend	-10.9431
▁considered	-10.9437
▁gases	-10.9439
▁ojo	-10.9446
▁empezaron	-10.9449
▁notion	-10.945
▁tea	-10.9454
▁mega	-10.9454
▁vecinos	-10.9458
▁hablarles	-10.9462
▁battle	-10.9467
▁odd	-10.9473
▁expression	-10.9478
▁pod	-10.948
▁assume	-10.9483
▁transformation	-10.9484
▁volunteer	-10.9507
▁worried	-10.9507
▁murió	-10.9507
▁ultra	-10.9507
▁caught	-10.9509
▁cena	-10.9511
▁empleados	-10.9512
▁iban	-10.9512
▁constantly	-10.9515
▁insectos	-10.9515
▁convertirse	-10.9522
▁Congo	-10.9531
▁band	-10.954
town	-10.9545
▁Thomas	-10.9547
▁colectiva	-10.9547
▁dinámica	-10.9547
▁permanece	-10.9547
▁predecir	-10.9547
▁Pensé	-10.9547
como	-10.9549
▁unfortunately	-10.9549
▁tribu	-10.9551
▁emociona	-10.9551
▁imaginen	-10.9554
ónica	-10.9554
▁creatures	-10.9554
40	-10.9558
▁tech	-10.9563
▁researchers	-10.9563
▁foundation	-10.9575
▁corte	-10.9578
▁comenzamos	-10.9587
▁conducir	-10.9587
▁agenda	-10.9589
▁tiende	-10.9589
▁safety	-10.9591
▁esperaba	-10.9592
▁aceptar	-10.9593
▁constantemente	-10.9594
▁comment	-10.9594
▁abuse	-10.9603
▁hang	-10.9606
▁esencial	-10.961
▁confront	-10.9611
▁discovery	-10.9615
▁vaccine	-10.9627
▁innovador	-10.9627
▁almacena	-10.9627
▁credit	-10.9628
▁temor	-10.9631
ólogo	-10.9634
▁empiezan	-10.9634
▁generaciones	-10.9635
▁experienced	-10.9638
▁businesses	-10.964
▁release	-10.9643
▁pond	-10.965
▁highest	-10.965
▁analog	-10.9653
▁surprised	-10.9654
▁entera	-10.966
▁analizar	-10.9664
▁Japón	-10.9668
▁fossil	-10.9668
▁escolar	-10.9668
mark	-10.9668
▁contiene	-10.9671
▁hablado	-10.9671
▁fresh	-10.9672
▁gato	-10.9684
▁fold	-10.9686
▁currently	-10.9688
▁creation	-10.9697
▁ofrecer	-10.9699
▁Antes	-10.97
▁factores	-10.9701
▁Simplemente	-10.9708
▁pájaro	-10.9708
▁invertir	-10.9708
▁bolsa	-10.9708
▁curious	-10.971
▁comercio	-10.971
▁creativa	-10.9711
▁teniendo	-10.9713
▁encontró	-10.9714
▁ataca	-10.9722
▁capable	-10.9723
▁tail	-10.9724
▁curve	-10.9729
▁fell	-10.9738
▁maneja	-10.9743
▁Mr	-10.9746
▁cargo	-10.9748
▁privado	-10.9749
▁descend	-10.975
▁1980	-10.9751
▁Did	-10.9751
▁conscious	-10.9755
▁myth	-10.9763
▁resolv	-10.9771
▁características	-10.9772
▁Will	-10.9775
uff	-10.9778
▁fila	-10.9784
dición	-10.9786
ties	-10.9788
▁temprana	-10.979
▁Probablemente	-10.979
▁incorpora	-10.979
▁inmediatamente	-10.979
▁juguete	-10.979
▁hidden	-10.979
▁recolect	-10.979
▁refleja	-10.979
▁Center	-10.979
▁whale	-10.979
▁barato	-10.979
▁fortuna	-10.979
▁launch	-10.9791
train	-10.9794
▁insight	-10.9797
▁electronic	-10.9798
▁quedar	-10.98
▁member	-10.9806
▁bru	-10.9813
▁nación	-10.9817
▁nace	-10.9829
▁adecuada	-10.9831
▁definitiva	-10.9831
▁curiosidad	-10.9831
▁recompensa	-10.9831
▁bubble	-10.9831
▁transparent	-10.9831
▁drone	-10.9833
▁fascinating	-10.9834
▁Ku	-10.9835
water	-10.9836
ploy	-10.9836
▁expected	-10.9845
▁trabajamos	-10.9846
▁related	-10.9856
▁writer	-10.9861
▁cure	-10.9864
▁constante	-10.9868
▁veamos	-10.9872
▁newspaper	-10.9872
▁piano	-10.9873
▁Robert	-10.9873
▁tendremos	-10.9875
▁analiza	-10.9879
▁rara	-10.988
▁talent	-10.9903
▁bra	-10.9909
▁mathematics	-10.9914
▁situaciones	-10.9914
▁judge	-10.9914
▁frame	-10.9914
▁necesariamente	-10.9921
▁soul	-10.993
▁receive	-10.9931
▁mentioned	-10.9932
▁guide	-10.9941
▁dé	-10.9946
▁sorry	-10.9947
▁culpa	-10.9951
▁AIDS	-10.9956
▁contribute	-10.9956
▁emisiones	-10.9956
▁ignore	-10.9956
▁cuerda	-10.9956
▁Korea	-10.9958
▁plano	-10.996
▁operating	-10.9964
▁described	-10.9965
▁compare	-10.9968
▁dollar	-10.9978
▁slowly	-10.9984
▁independent	-10.9984
Saben	-10.9985
▁cord	-10.9986
▁califica	-10.9987
▁diagnóstico	-10.9997
▁financiero	-10.9997
▁symptom	-10.9997
▁otherwise	-10.9997
▁Volv	-10.9999
poniendo	-11.0002
born	-11.0005
▁tomé	-11.0008
▁manual	-11.0008
▁quit	-11.001
▁observe	-11.001
▁argumento	-11.0012
▁operate	-11.0015
▁restaurante	-11.0016
▁concerned	-11.0021
▁diré	-11.0022
▁vuelven	-11.0031
power	-11.0032
But	-11.0038
▁Manhattan	-11.0039
▁ninguno	-11.0039
▁phenomenon	-11.0039
▁sorpresa	-11.0039
▁interacción	-11.0039
▁disaster	-11.004
▁reunir	-11.004
▁ballena	-11.004
▁illness	-11.0041
▁wake	-11.0043
▁2005	-11.0044
▁forced	-11.0045
▁icon	-11.0048
▁referencia	-11.0048
▁treated	-11.0054
ounce	-11.0069
▁topic	-11.0077
▁Mark	-11.0079
▁spirit	-11.0081
▁School	-11.0082
▁apasiona	-11.0082
▁mirror	-11.0082
▁afirma	-11.0082
▁esquina	-11.0082
▁facial	-11.0085
▁Rein	-11.0086
▁Qui	-11.0088
▁Dije	-11.0091
▁entero	-11.0096
▁término	-11.0102
▁north	-11.0103
▁cuadrado	-11.0103
▁fuese	-11.0104
▁caer	-11.0108
gué	-11.011
▁mentor	-11.0111
▁26	-11.0115
▁Usa	-11.0116
▁95	-11.0118
▁confirm	-11.0119
▁$	-11.0123
▁héroe	-11.0124
▁intellectual	-11.0124
▁variedad	-11.0124
▁árabe	-11.0124
▁pregunto	-11.0124
▁cuestiona	-11.0124
▁pounds	-11.0124
▁presencia	-11.0125
▁impresionante	-11.0128
▁clinical	-11.0131
▁Van	-11.0133
▁lifetime	-11.0136
▁responde	-11.0137
fully	-11.0137
gio	-11.0138
▁talento	-11.0142
▁diez	-11.015
stream	-11.0154
ification	-11.0162
maker	-11.0163
▁crítico	-11.0167
▁distribución	-11.0167
▁grandmother	-11.0167
▁llegue	-11.0167
▁vídeo	-11.0167
▁monkey	-11.0167
▁destino	-11.0167
▁smile	-11.0167
▁discussion	-11.0174
▁caused	-11.0182
▁crece	-11.0187
▁logic	-11.0189
▁mito	-11.0192
▁contract	-11.0195
▁calling	-11.0195
▁taste	-11.0196
▁explic	-11.0196
▁conductor	-11.0202
now	-11.0203
▁deeper	-11.0206
▁obvio	-11.0207
ducción	-11.0209
▁Stanford	-11.0209
▁budget	-11.0209
▁tráfico	-11.0209
▁kilometers	-11.0209
▁lunch	-11.021
▁decenas	-11.021
ándonos	-11.021
▁mouse	-11.0213
▁promet	-11.0215
▁significativa	-11.0218
▁followed	-11.0225
▁advance	-11.0228
▁correr	-11.0231
▁finished	-11.0234
▁matemática	-11.0234
▁filled	-11.0239
▁32	-11.0246
▁rent	-11.025
▁closed	-11.0251
▁biblioteca	-11.0252
▁metáfora	-11.0252
▁músculo	-11.0252
▁preguntó	-11.0252
▁entrenamiento	-11.0252
▁creciendo	-11.0252
▁desplaza	-11.0252
▁inicio	-11.0253
▁exhib	-11.0255
▁Nacional	-11.0255
▁cuyo	-11.0256
▁Ah	-11.0256
cito	-11.0271
▁Bob	-11.0274
▁apaga	-11.0283
▁significativo	-11.0295
▁Microsoft	-11.0295
▁Recuerdo	-11.0295
▁núcleo	-11.0295
▁survival	-11.0295
▁oculta	-11.0295
▁desierto	-11.0295
▁figura	-11.0295
▁truco	-11.0295
▁prensa	-11.0295
▁alcance	-11.0296
▁rap	-11.0296
▁monta	-11.0296
▁prohib	-11.0297
▁Oriente	-11.0298
▁invited	-11.0313
▁seguido	-11.032
▁protesta	-11.0325
▁odia	-11.0334
▁granja	-11.0335
▁ring	-11.0338
▁regenera	-11.0339
▁fellow	-11.0339
▁voces	-11.0341
▁asusta	-11.0345
▁flag	-11.0349
▁50%	-11.0353
▁odio	-11.0354
▁consiste	-11.0354
▁paying	-11.0357
▁quitar	-11.0359
▁podrán	-11.0368
▁compete	-11.0368
tábamos	-11.0368
cuán	-11.037
▁deporte	-11.0372
▁ride	-11.038
▁Texas	-11.0382
▁recibí	-11.0382
▁stood	-11.0382
▁título	-11.0382
▁Nobel	-11.0382
▁declara	-11.0383
▁preguntamos	-11.0383
▁perfecta	-11.0384
ik	-11.0414
zado	-11.0422
▁2011	-11.0426
▁brief	-11.0426
▁chimpancé	-11.0426
▁chocolate	-11.0426
▁exchange	-11.0426
▁flexible	-11.0426
▁bienestar	-11.0426
▁intelligent	-11.0428
ppy	-11.0428
▁flat	-11.0431
If	-11.0433
▁Germany	-11.0436
▁Jack	-11.0437
▁decirle	-11.0441
activa	-11.045
▁pasamos	-11.0453
Ah	-11.0455
▁contrast	-11.0458
▁Crea	-11.0462
▁sirve	-11.0462
▁react	-11.0463
▁recur	-11.0467
▁aquello	-11.0469
▁Hollywood	-11.047
▁channel	-11.047
▁telescopio	-11.047
▁dijimos	-11.047
▁microbios	-11.047
▁official	-11.047
▁lawyer	-11.047
▁Espero	-11.047
▁rig	-11.047
▁Claro	-11.0471
▁podido	-11.0472
▁Bur	-11.0475
▁Dijo	-11.0478
▁theater	-11.0481
▁dealing	-11.0483
▁Other	-11.0483
pper	-11.0484
america	-11.0489
▁alien	-11.0493
▁picked	-11.0502
▁stone	-11.0504
▁ingreso	-11.0504
▁alguno	-11.0504
▁horse	-11.0508
▁2015	-11.0514
▁SIDA	-11.0514
▁aprendiendo	-11.0514
▁Black	-11.0514
▁pudimos	-11.0514
▁disrupt	-11.0514
▁golf	-11.0516
▁resist	-11.0519
▁estará	-11.0521
▁querido	-11.0528
▁bond	-11.0529
▁distant	-11.0532
▁introduce	-11.0534
▁profesionales	-11.0542
▁organic	-11.0547
quién	-11.055
▁designer	-11.0556
▁button	-11.0557
▁expectativa	-11.0558
▁necesito	-11.0558
▁proviene	-11.0558
▁conocida	-11.0558
▁round	-11.0558
▁molesta	-11.0558
▁acumula	-11.0558
▁attach	-11.0559
▁associated	-11.0565
▁oye	-11.0568
vision	-11.0574
▁existence	-11.0578
▁comunicar	-11.0583
▁pez	-11.0588
Bien	-11.059
▁perfectly	-11.0592
▁Tri	-11.0596
▁narra	-11.0602
▁nervous	-11.0602
▁botella	-11.0602
▁conexiones	-11.0602
▁protección	-11.0602
▁símbolo	-11.0602
▁36	-11.0605
▁pasé	-11.0605
▁polar	-11.0605
▁sugar	-11.0606
▁estimula	-11.0607
▁masiva	-11.0607
▁favorita	-11.0607
▁lift	-11.0607
just	-11.0607
▁shut	-11.0609
▁racial	-11.0611
▁Talk	-11.062
▁excepto	-11.0634
▁cow	-11.0639
gged	-11.0644
▁Alemania	-11.0647
▁wheel	-11.0647
▁cartoon	-11.0647
▁bread	-11.0647
▁precise	-11.0647
▁dulce	-11.0647
▁install	-11.0647
▁débil	-11.0648
▁pila	-11.0649
▁pasaba	-11.0668
▁apoyar	-11.0672
▁electric	-11.0681
▁2012	-11.0692
▁accurate	-11.0692
▁encounter	-11.0692
▁Uganda	-11.0692
▁embrace	-11.0692
▁empatía	-11.0692
▁sensible	-11.0692
▁cuento	-11.0692
▁adicional	-11.0692
▁cerrar	-11.0694
▁pista	-11.0699
▁abre	-11.07
▁king	-11.0705
▁instant	-11.0709
▁formación	-11.0717
▁relative	-11.0725
▁Habl	-11.0725
80	-11.0725
actic	-11.0727
▁abordar	-11.0736
▁cognitive	-11.0737
▁diabetes	-11.0737
▁presupuesto	-11.0737
▁telescope	-11.0737
▁profundidad	-11.0737
▁apunta	-11.0737
▁hubiese	-11.0737
▁liquid	-11.0737
▁aprecia	-11.0737
▁relacionado	-11.0738
▁cambian	-11.0738
▁Queremos	-11.074
▁epidemic	-11.0742
▁revisa	-11.075
▁marco	-11.0751
▁socio	-11.0753
▁sabían	-11.0762
▁recorr	-11.0762
▁row	-11.0766
▁pill	-11.0777
▁crítica	-11.0782
▁CEO	-11.0782
▁jugando	-11.0782
▁emoción	-11.0782
▁comprensión	-11.0784
▁distribution	-11.0786
▁tube	-11.0787
▁planning	-11.0788
▁collection	-11.0792
▁yendo	-11.0794
▁killing	-11.0803
▁principalmente	-11.0804
▁setting	-11.0804
▁pasaría	-11.0804
▁esperamos	-11.0809
gger	-11.0813
▁bajar	-11.0817
▁EM	-11.0822
▁collapse	-11.0828
▁ilustra	-11.0828
▁Occidente	-11.0828
▁analysis	-11.0828
▁desigualdad	-11.0828
▁ordinary	-11.0828
▁pertenece	-11.0828
▁brecha	-11.0828
▁Latin	-11.0828
▁detalle	-11.0829
▁1960	-11.083
▁igualdad	-11.083
▁mirada	-11.0834
▁wash	-11.0835
▁acá	-11.0835
▁skill	-11.0838
▁processes	-11.0841
▁trabajaba	-11.0845
▁pure	-11.0847
▁cien	-11.0849
▁Cal	-11.085
▁ponemos	-11.0852
▁launched	-11.0852
▁llevado	-11.0857
▁convert	-11.0862
▁aves	-11.0866
▁emotion	-11.087
▁automóvil	-11.0873
▁construimos	-11.0873
▁juicio	-11.0873
▁aventura	-11.0873
▁Three	-11.0873
▁narrativa	-11.0874
▁fiction	-11.0877
▁macho	-11.0879
▁lung	-11.088
▁dry	-11.0887
▁100,000	-11.089
▁preocup	-11.0893
▁queríamos	-11.0894
▁necesaria	-11.0911
▁discuss	-11.0911
▁equivalent	-11.0913
▁1990	-11.0919
▁Déjenme	-11.0919
▁mathematical	-11.0919
▁obstáculo	-11.0919
▁pedazo	-11.0919
▁prototipo	-11.0919
▁átomo	-11.0919
▁courage	-11.0919
▁equation	-11.0919
▁stock	-11.0919
▁seguimos	-11.0919
▁Mary	-11.092
posiciones	-11.0921
▁conforme	-11.0921
▁finales	-11.0923
grama	-11.0925
scale	-11.0928
▁cuidar	-11.093
▁Star	-11.0933
▁presentación	-11.0942
▁seriously	-11.0945
▁poem	-11.0948
▁celebr	-11.0949
▁fascina	-11.095
bió	-11.095
▁incluye	-11.0959
▁William	-11.0965
▁burbuja	-11.0965
▁ocurriendo	-11.0965
▁extinct	-11.0965
▁facing	-11.0965
ibility	-11.0965
▁regalo	-11.0966
▁flota	-11.0966
▁actitud	-11.0967
▁lento	-11.0968
▁examina	-11.0968
▁importance	-11.0972
▁increasingly	-11.0977
▁epidemia	-11.098
rious	-11.098
▁salvo	-11.098
poli	-11.0982
▁eliminar	-11.0984
▁conocía	-11.0986
▁involve	-11.0987
▁barra	-11.0989
▁Very	-11.099
▁clara	-11.0991
▁Any	-11.1011
▁Central	-11.1012
▁conclusion	-11.1012
▁feedback	-11.1012
▁financiera	-11.1012
▁wisdom	-11.1012
▁maintain	-11.1012
▁batería	-11.1012
▁equilibrio	-11.1012
▁Their	-11.1013
▁consulta	-11.1013
▁fiesta	-11.1013
▁1970	-11.1013
▁actividades	-11.1016
▁cumplir	-11.1017
▁considerar	-11.1018
▁2,000	-11.1021
▁plate	-11.1023
▁season	-11.1032
▁cima	-11.1033
▁poema	-11.1036
▁dimensiones	-11.1045
▁extract	-11.1047
▁establish	-11.1058
▁acostumbr	-11.1058
▁display	-11.1058
▁eléctrico	-11.1058
▁voluntad	-11.1058
▁voluntario	-11.1058
▁teatro	-11.1058
▁alegría	-11.1058
▁microbes	-11.1058
▁Adam	-11.1061
▁1950	-11.1062
▁aplicaciones	-11.1063
life	-11.1065
para	-11.1072
▁logrado	-11.108
▁Joe	-11.1081
▁invention	-11.1082
▁mode	-11.1083
▁autism	-11.1085
▁mueren	-11.1086
▁28	-11.1091
gráfica	-11.1093
▁producen	-11.1093
▁distribut	-11.1101
▁hide	-11.1103
▁fármaco	-11.1105
▁Ghana	-11.1105
▁empuja	-11.1105
▁feminist	-11.1105
▁hopefully	-11.1106
▁kick	-11.1106
▁titula	-11.1107
▁soldados	-11.1108
▁logro	-11.1108
▁gang	-11.1114
Yes	-11.1114
▁sana	-11.1116
▁colaboración	-11.1116
▁resource	-11.1122
▁autismo	-11.1125
▁asiento	-11.1131
▁designing	-11.1138
X	-11.1139
▁internal	-11.114
▁Since	-11.1145
▁sabíamos	-11.1147
▁pocket	-11.1152
▁recién	-11.1152
▁hardware	-11.1152
▁speaker	-11.1159
▁gustan	-11.1159
▁convencer	-11.1162
▁circuit	-11.1165
▁móviles	-11.1186
▁creó	-11.1192
▁jardín	-11.1199
▁Mexico	-11.1199
▁impulso	-11.1199
▁caballo	-11.1199
▁rechaza	-11.1199
▁General	-11.12
▁genético	-11.12
▁magia	-11.12
▁ratón	-11.1201
▁Matt	-11.1206
▁exam	-11.1207
▁Canada	-11.1208
▁mama	-11.1211
▁comenzaron	-11.1212
▁wondering	-11.122
▁terror	-11.1224
▁robotic	-11.1227
▁essential	-11.1234
▁fourth	-11.1237
▁bare	-11.1239
▁horizon	-11.1245
▁practical	-11.1245
▁cuestiones	-11.1246
▁heavy	-11.1246
▁kitchen	-11.1246
▁manufacturing	-11.1246
▁recicla	-11.1246
▁Finalmente	-11.1246
▁elabora	-11.1247
▁biológica	-11.1247
▁tent	-11.125
▁Gene	-11.1255
▁addict	-11.1255
▁esencialmente	-11.1256
▁colo	-11.1259
▁cuadr	-11.1263
ridge	-11.1269
▁20%	-11.1272
▁saved	-11.1272
▁warming	-11.1276
▁Air	-11.1276
▁decirlo	-11.128
▁Have	-11.1281
▁rapid	-11.1287
▁merece	-11.1288
▁hospitales	-11.1289
▁México	-11.1294
▁doubt	-11.1294
▁respeto	-11.1294
▁suministro	-11.1294
▁tomorrow	-11.1294
▁espectro	-11.1294
▁pusimos	-11.1294
▁transition	-11.1298
▁Peter	-11.1302
▁ethic	-11.1302
▁perfectamente	-11.1305
▁fake	-11.1307
▁diaria	-11.1308
▁south	-11.1324
▁keeping	-11.1324
▁inspirado	-11.1326
wood	-11.133
▁normally	-11.1332
Que	-11.1332
▁Empecé	-11.1342
▁pleasure	-11.1342
▁temporal	-11.1342
▁toneladas	-11.1342
▁uniform	-11.1342
▁silence	-11.1342
▁regard	-11.1342
▁podremos	-11.1343
▁hogares	-11.135
▁combination	-11.1355
▁nave	-11.1363
▁loud	-11.1372
▁dirá	-11.1373
▁circuito	-11.1376
▁consistent	-11.138
▁according	-11.139
▁agriculture	-11.139
▁stupid	-11.139
▁church	-11.139
▁Christian	-11.139
▁Wall	-11.139
▁propaga	-11.1391
Con	-11.1391
▁globo	-11.1394
▁construction	-11.1397
▁prediction	-11.1397
▁acid	-11.1399
▁chart	-11.1403
▁Does	-11.1409
▁insist	-11.1409
▁prácticamente	-11.1412
▁participate	-11.1418
▁released	-11.1419
▁representan	-11.1426
▁daba	-11.1434
▁colocar	-11.1436
▁negocia	-11.1438
▁Florida	-11.1438
▁academic	-11.1438
▁continúa	-11.1438
▁emissions	-11.1438
▁entusiasma	-11.1438
▁oscuridad	-11.1438
▁síntomas	-11.1438
▁Higgs	-11.1438
▁Health	-11.1438
▁detector	-11.1438
▁espejo	-11.1438
▁reloj	-11.1438
▁equipment	-11.1441
▁dormir	-11.1441
acter	-11.1443
▁tendrán	-11.145
▁edit	-11.1452
▁deriva	-11.1453
▁Ok	-11.1455
▁testing	-11.1456
▁advert	-11.1456
▁propiedades	-11.1475
.....	-11.1478
▁marketing	-11.1482
▁conozco	-11.1487
▁funcionó	-11.1487
▁technological	-11.1487
▁Congress	-11.1487
▁perceive	-11.1487
▁decidió	-11.1487
▁initial	-11.1487
▁gradual	-11.1487
▁resistencia	-11.1488
▁empty	-11.1491
▁danger	-11.1492
▁mosca	-11.1493
Esta	-11.151
▁advanced	-11.1514
view	-11.1515
▁firma	-11.1522
▁increasing	-11.1523
▁persist	-11.1525
▁recuerden	-11.1535
▁zapatos	-11.1535
▁anuncio	-11.1535
▁property	-11.1535
▁sweet	-11.1535
▁France	-11.1536
▁intimida	-11.1536
▁muchísimo	-11.1538
▁urbana	-11.154
▁electrical	-11.1541
▁fase	-11.1546
▁reef	-11.1555
▁broke	-11.1558
▁1000	-11.1561
Sabes	-11.1578
▁factory	-11.1579
▁opening	-11.158
▁Canadá	-11.1584
▁Global	-11.1584
▁categoría	-11.1584
▁porcentaje	-11.1584
▁psico	-11.1585
▁plato	-11.1585
▁pilot	-11.1585
▁reject	-11.1589
▁2006	-11.159
▁jail	-11.1595
▁increased	-11.1606
ónico	-11.1606
▁organized	-11.1606
dico	-11.1607
▁surround	-11.1612
▁Would	-11.1634
▁assumption	-11.1634
▁azúcar	-11.1634
▁circunstancia	-11.1634
▁diagnose	-11.1634
▁precisión	-11.1634
▁alumnos	-11.1634
▁escalera	-11.1634
▁llegaron	-11.1635
▁suburb	-11.1637
▁quiénes	-11.1637
▁cantidades	-11.1639
▁trato	-11.1646
▁fabric	-11.1646
▁teenager	-11.1647
▁entrenado	-11.1652
▁rico	-11.1655
some	-11.166
▁publish	-11.1662
▁directo	-11.1665
▁x	-11.1669
▁tradicionales	-11.1669
▁preparado	-11.1671
down	-11.1681
▁agradable	-11.1683
▁alcohol	-11.1683
▁elephant	-11.1683
▁magnitud	-11.1683
▁variety	-11.1683
▁ilegal	-11.1683
▁tranquil	-11.1683
▁valuable	-11.1683
▁witness	-11.1683
▁Debemos	-11.1683
▁specifically	-11.1685
▁lógica	-11.1689
quat	-11.169
▁flip	-11.1691
▁Bank	-11.1691
▁inventor	-11.1694
▁rapidly	-11.1696
▁daña	-11.1696
misión	-11.1698
▁salen	-11.1702
▁guía	-11.1703
▁transformación	-11.1704
▁liber	-11.1706
▁personalidad	-11.1707
▁usual	-11.1707
▁quarter	-11.171
▁miembro	-11.1713
▁individuo	-11.1713
▁wing	-11.1719
▁client	-11.1721
American	-11.1721
▁paredes	-11.1726
▁nervio	-11.1729
▁privilege	-11.1733
▁nacimiento	-11.1733
▁filter	-11.1733
▁England	-11.1733
▁huevo	-11.1733
▁incident	-11.1733
▁reinvent	-11.1733
▁biológico	-11.1735
▁trozo	-11.1736
ándome	-11.1736
ography	-11.1743
ándola	-11.1745
grafía	-11.1745
▁adentro	-11.1747
▁experimental	-11.1747
▁export	-11.1748
▁sight	-11.1753
▁120	-11.1756
▁potencia	-11.1768
▁Grand	-11.1783
▁demostrado	-11.1783
▁reacciona	-11.1783
▁refrigera	-11.1783
▁vergüenza	-11.1783
▁GDP	-11.1783
▁privada	-11.1783
▁inequality	-11.1783
▁convencional	-11.1783
▁lidiar	-11.1783
▁deserve	-11.1784
▁arrived	-11.1799
▁escuchando	-11.18
▁té	-11.1801
▁protection	-11.1807
▁85	-11.1817
▁Institute	-11.1833
▁vivienda	-11.1833
▁revolucion	-11.1833
▁brinda	-11.1833
▁distinct	-11.1833
▁goberna	-11.1833
▁Sch	-11.1834
▁pensó	-11.1834
▁bandera	-11.1835
▁solicit	-11.1835
▁brutal	-11.1835
▁joke	-11.1835
▁permitió	-11.1835
▁pray	-11.1837
▁dientes	-11.1842
▁activista	-11.1852
▁marine	-11.1853
▁moverse	-11.187
▁urbano	-11.1872
▁querer	-11.1876
▁suele	-11.1878
▁desk	-11.1878
▁expresar	-11.188
▁XX	-11.1881
▁desgracia	-11.1884
▁empathy	-11.1884
▁consigue	-11.1884
▁potente	-11.1884
▁barrera	-11.1884
▁emprendedor	-11.1884
▁weather	-11.1884
▁motivo	-11.1884
ductor	-11.189
▁cutting	-11.1895
▁meaningful	-11.1901
▁Asi	-11.1906
▁consecuencia	-11.1921
▁existía	-11.1929
iff	-11.1932
▁height	-11.1932
▁Everybody	-11.1934
▁definitely	-11.1934
▁immune	-11.1934
▁mecánica	-11.1934
▁múltiple	-11.1934
▁possibilities	-11.1934
▁negativo	-11.1935
▁soldiers	-11.1935
▁juega	-11.1936
▁receta	-11.1936
▁retira	-11.1937
▁title	-11.1938
▁ajusta	-11.1938
▁ficción	-11.194
▁surgeon	-11.1941
▁covered	-11.1942
▁added	-11.1946
▁sending	-11.1968
▁alimento	-11.1974
rump	-11.1975
▁Come	-11.1986
▁Detroit	-11.1986
▁Universo	-11.1986
▁Everything	-11.1986
▁rational	-11.1986
▁citizen	-11.1986
▁toilet	-11.1988
▁tradición	-11.1988
▁valle	-11.1995
hold	-11.1998
▁relatively	-11.1999
▁exception	-11.2
▁zoom	-11.2005
▁quedó	-11.2005
▁mention	-11.201
front	-11.2016
▁reconoce	-11.2024
▁peer	-11.2029
▁electron	-11.2035
logía	-11.2035
▁healthcare	-11.2037
▁elefante	-11.2037
▁historical	-11.2046
▁selling	-11.2049
Hay	-11.205
▁salón	-11.2051
▁fundamentally	-11.2062
▁scared	-11.2066
▁activist	-11.2069
▁crecí	-11.2071
▁reciben	-11.2075
▁celebrate	-11.2075
break	-11.2076
▁maestro	-11.208
ifying	-11.2086
▁embar	-11.2088
▁iglesia	-11.2088
▁sabiduría	-11.2088
▁underneath	-11.2088
ü	-11.2088
▁espalda	-11.2088
▁valiente	-11.2088
▁gratis	-11.2089
▁conservative	-11.209
▁float	-11.209
▁mortalidad	-11.209
ville	-11.2091
▁entendemos	-11.2094
▁Act	-11.2096
tech	-11.2097
▁terminado	-11.2098
▁levantar	-11.2108
▁however	-11.2111
▁severe	-11.2113
▁equip	-11.2114
fold	-11.2119
▁label	-11.2122
▁guarda	-11.2122
▁tape	-11.2122
▁engaged	-11.213
▁classic	-11.2131
▁quantum	-11.214
▁supervivencia	-11.214
▁terminó	-11.214
▁Kenia	-11.214
▁clothes	-11.214
▁incentive	-11.214
▁calentamiento	-11.214
▁command	-11.2141
▁robust	-11.2141
▁sufrimiento	-11.2141
▁archivo	-11.2142
▁Irak	-11.2142
▁settle	-11.2144
▁grid	-11.2145
▁80%	-11.2147
▁roughly	-11.2147
▁apartment	-11.2158
▁enfrentamos	-11.216
▁State	-11.2162
▁convinced	-11.2173
▁statement	-11.2176
▁kit	-11.2178
▁molecule	-11.2187
▁corrupción	-11.2192
▁discapacidad	-11.2192
▁religiosa	-11.2192
▁terapia	-11.2192
▁atraves	-11.2192
▁tubo	-11.2194
▁handle	-11.2194
▁Bush	-11.2199
▁cuadro	-11.2203
▁effectively	-11.2218
▁crimen	-11.2218
▁ciertamente	-11.2221
▁defect	-11.2223
▁ego	-11.2228
Podría	-11.2232
rich	-11.2242
▁Congreso	-11.2245
▁galaxy	-11.2245
▁volviendo	-11.2245
▁advice	-11.2245
▁fruit	-11.2245
▁string	-11.2245
▁evil	-11.2245
▁gravedad	-11.2245
óxido	-11.2245
▁piloto	-11.2247
▁pidió	-11.2247
uthern	-11.2247
▁civilización	-11.2248
▁permanente	-11.2249
▁inspiration	-11.2251
▁pulled	-11.2254
▁naciones	-11.2264
▁Italia	-11.2269
▁limb	-11.2271
▁sentirse	-11.2281
▁dieta	-11.2289
▁arrecife	-11.2297
▁tropical	-11.2297
▁sugiere	-11.2297
▁interactuar	-11.2297
▁aviones	-11.2298
▁#	-11.2298
▁plot	-11.2299
▁Women	-11.23
▁haciéndo	-11.23
print	-11.2301
▁2004	-11.2303
▁darse	-11.2303
▁polio	-11.2309
▁reactor	-11.231
▁appreciate	-11.2312
▁mueven	-11.2313
tuvimos	-11.2321
▁lanzar	-11.2323
▁salida	-11.2326
▁bike	-11.2328
▁afro	-11.233
▁comfort	-11.2347
▁astronaut	-11.235
▁circumstance	-11.235
▁demonstrate	-11.235
▁explanation	-11.235
▁producing	-11.235
▁swim	-11.235
▁sombra	-11.235
▁retro	-11.2351
▁reforma	-11.2353
graph	-11.2355
▁baile	-11.2356
▁encontraron	-11.2356
▁90%	-11.2356
▁sheet	-11.2357
▁funding	-11.2359
▁review	-11.2359
▁carefully	-11.2361
how	-11.2361
▁nació	-11.2366
▁jo	-11.2369
▁utilizando	-11.2372
risas	-11.2375
▁Hici	-11.2385
▁err	-11.239
phone	-11.2392
▁Super	-11.2395
▁accomplish	-11.2403
▁terrestre	-11.2403
▁Britain	-11.2403
▁worldwide	-11.2403
▁Could	-11.2403
▁aterriza	-11.2403
▁rayos	-11.2404
▁incentivo	-11.2404
▁molécula	-11.2405
▁laboral	-11.2406
▁awful	-11.2407
▁peak	-11.2409
▁estarán	-11.2409
▁confiar	-11.2411
▁pico	-11.2412
Sahara	-11.2413
▁equivalente	-11.2415
Quiere	-11.2425
▁Bang	-11.2427
▁bailar	-11.2429
▁Silic	-11.2429
▁cercana	-11.2439
▁reached	-11.2439
▁usarlo	-11.244
pusieron	-11.2455
▁firme	-11.2456
safortunadamente	-11.2457
▁Number	-11.2457
▁coincide	-11.2457
▁consumption	-11.2457
▁enemigo	-11.2457
▁extranjero	-11.2457
▁improvisa	-11.2457
▁privacy	-11.2457
▁impresión	-11.2457
▁relation	-11.2457
▁recrea	-11.2458
▁route	-11.2458
▁congela	-11.2459
▁suave	-11.246
▁gasto	-11.2461
▁management	-11.2463
▁condena	-11.2464
▁audit	-11.2465
▁toxic	-11.2465
▁Paris	-11.2466
▁educativo	-11.2476
▁dejamos	-11.2486
▁organismo	-11.2503
▁arreglar	-11.2505
▁soft	-11.251
▁Oxford	-11.2511
▁Ustedes	-11.2511
▁caballero	-11.2511
▁computación	-11.2511
▁duplica	-11.2511
▁chicken	-11.2511
▁chemistry	-11.2511
▁docena	-11.2512
▁primary	-11.2514
▁affected	-11.2515
▁límite	-11.2516
▁caminando	-11.2522
▁marina	-11.253
▁infection	-11.2533
▁hub	-11.2535
▁descri	-11.2539
ddle	-11.2546
▁específica	-11.2557
▁torno	-11.2564
▁facilita	-11.2565
▁Inglaterra	-11.2565
▁fósiles	-11.2565
▁prototype	-11.2565
▁arriesga	-11.2565
▁domestic	-11.2565
▁infancia	-11.2565
▁shame	-11.2565
▁corteza	-11.2567
▁rocket	-11.257
human	-11.2575
▁combinación	-11.2578
▁recibe	-11.2579
▁terrorismo	-11.2583
▁hagamos	-11.2601
▁aprovechar	-11.2604
▁relate	-11.2612
▁existente	-11.2616
▁bolsillo	-11.2619
▁relativamente	-11.2619
▁resolución	-11.2619
▁tecnológica	-11.2619
▁vuelva	-11.2619
▁illegal	-11.2619
▁Smith	-11.2619
▁moneda	-11.262
▁passionate	-11.2621
▁wrap	-11.2627
▁inspire	-11.2636
▁defend	-11.2652
▁observamos	-11.2655
▁preocupado	-11.2659
▁Dur	-11.266
dónde	-11.2662
▁quita	-11.2663
▁extrema	-11.2673
▁activities	-11.2674
▁challenging	-11.2674
▁discusión	-11.2674
▁frecuente	-11.2674
▁mammal	-11.2674
▁neutral	-11.2674
▁ocurrido	-11.2674
▁contribuye	-11.2674
▁exitoso	-11.2674
▁ésto	-11.2674
▁Trump	-11.2676
▁spring	-11.2676
▁nervioso	-11.2678
▁Tan	-11.2682
eciendo	-11.2682
▁veremos	-11.2683
▁attitude	-11.2688
▁intention	-11.269
▁SW	-11.2692
ecciones	-11.2699
▁invad	-11.2709
▁potentially	-11.2712
ferencia	-11.2716
▁internacionales	-11.2717
▁orgullo	-11.2724
stimula	-11.2727
▁enfermera	-11.2729
▁galaxies	-11.2729
▁privacidad	-11.2729
▁properties	-11.2729
▁spectrum	-11.2729
▁cruel	-11.2729
▁obsesion	-11.2729
▁falsa	-11.2729
▁lectura	-11.2729
▁decline	-11.2731
▁inherent	-11.2733
▁ruta	-11.2734
▁agricultores	-11.2734
▁Alex	-11.2743
▁agrega	-11.2747
▁700	-11.2752
▁salario	-11.2753
▁preguntaba	-11.276
▁800	-11.2761
▁German	-11.2771
▁torre	-11.2773
▁physically	-11.2778
OK	-11.2784
▁appropriate	-11.2784
▁cirujano	-11.2784
▁escritura	-11.2784
▁mamífero	-11.2784
▁reconocimiento	-11.2784
▁licencia	-11.2784
▁Japanese	-11.2784
▁arrastr	-11.2784
▁veteran	-11.2785
▁staff	-11.2787
▁borra	-11.2788
▁enferma	-11.2788
▁Angeles	-11.2795
▁required	-11.2796
▁Media	-11.2807
▁pelota	-11.2811
▁pedí	-11.2813
▁Tú	-11.2814
▁10%	-11.2819
▁llevamos	-11.2838
▁defined	-11.2838
▁ayudó	-11.2839
▁physicist	-11.2839
▁universitario	-11.2839
▁pollution	-11.2839
▁length	-11.2839
▁murder	-11.2839
▁variable	-11.2839
▁sujeto	-11.284
▁policies	-11.284
▁codifica	-11.2841
▁romper	-11.2844
▁vistazo	-11.2844
▁Ángeles	-11.2845
▁2003	-11.2845
▁racism	-11.2846
▁Gates	-11.2848
▁prepared	-11.2853
▁droga	-11.2856
▁pasada	-11.2869
▁observation	-11.2883
gráfico	-11.2883
iness	-11.2884
▁cup	-11.2887
▁collaboration	-11.2895
▁desconocido	-11.2895
▁Vietnam	-11.2895
▁While	-11.2895
▁milagro	-11.2895
▁awesome	-11.2895
▁phrase	-11.2895
▁caída	-11.2895
▁intereses	-11.2896
▁selva	-11.2896
▁asombrosa	-11.2897
▁corruption	-11.2898
idio	-11.2899
▁tribe	-11.2903
▁gráfica	-11.291
▁distinto	-11.2913
▁Habla	-11.2919
▁tengamos	-11.2924
▁breathe	-11.293
▁astro	-11.2933
▁lograrlo	-11.2934
▁limitado	-11.2941
▁conclusión	-11.2951
▁occasion	-11.2951
▁introduci	-11.2951
▁filtra	-11.2951
▁psycho	-11.2951
▁flash	-11.2951
▁storm	-11.2952
▁quieran	-11.2957
▁cuya	-11.2958
▁racional	-11.2959
▁propose	-11.2965
▁dorm	-11.2965
▁aprenden	-11.2965
▁diseñador	-11.2967
▁Casi	-11.2975
flex	-11.2976
▁melt	-11.298
▁llevaba	-11.2987
▁servir	-11.2987
source	-11.2987
▁beneficio	-11.2992
▁impos	-11.2992
▁lente	-11.2995
▁sustain	-11.3004
▁psychological	-11.3008
▁temprano	-11.3008
▁técnico	-11.3008
▁hembra	-11.3008
▁ejecuta	-11.3008
▁angry	-11.3008
▁vagina	-11.3009
▁crecen	-11.3009
▁thin	-11.3009
▁Éste	-11.3013
▁rica	-11.3016
▁campus	-11.3017
▁Ésta	-11.3017
▁visitar	-11.302
box	-11.3036
▁planifica	-11.3039
▁introduced	-11.3039
▁exig	-11.3044
▁tomada	-11.3054
▁adecuado	-11.3065
▁antibiotic	-11.3065
▁efectivo	-11.3065
▁innovative	-11.3065
▁manufacture	-11.3065
▁emerging	-11.3065
▁radiación	-11.3065
▁optimism	-11.3065
▁reproduci	-11.3065
▁identifi	-11.3065
▁configur	-11.3065
▁seleccion	-11.3065
▁Brown	-11.3066
▁famosa	-11.3066
▁Pasa	-11.3068
▁productive	-11.3075
▁contaminación	-11.3075
▁Entre	-11.3075
▁poca	-11.3076
▁march	-11.3077
▁complicada	-11.3093
▁leche	-11.3115
ológica	-11.3117
▁mencionar	-11.3121
▁Scott	-11.3122
▁crédito	-11.3122
▁democratic	-11.3122
▁microscope	-11.3122
▁sanguíneo	-11.3122
▁yesterday	-11.3122
▁típico	-11.3122
▁permiso	-11.3122
▁applied	-11.3122
▁Also	-11.3123
Audience	-11.3123
▁barrier	-11.3123
▁realizado	-11.3124
▁boom	-11.3124
▁miró	-11.3125
▁habitat	-11.3125
▁snow	-11.3129
▁cartel	-11.313
▁EEUU	-11.3133
▁coste	-11.3135
▁typically	-11.314
▁lens	-11.3142
▁comparación	-11.3148
▁existir	-11.3151
▁pescado	-11.3153
▁sano	-11.3163
▁absolute	-11.3167
iller	-11.3179
▁interna	-11.3179
▁Bangladesh	-11.3179
▁hábitat	-11.3179
▁supongo	-11.3179
▁Science	-11.3179
▁radiation	-11.3179
▁gravity	-11.3179
▁balloon	-11.3179
▁corporal	-11.3179
▁capacit	-11.3181
▁creciente	-11.3181
▁expresa	-11.3184
▁pitch	-11.3186
▁equality	-11.3186
▁Hola	-11.3188
▁29	-11.3192
▁hyper	-11.3192
▁logramos	-11.3197
▁jugadores	-11.3198
▁encontr	-11.32
▁columna	-11.3201
▁presentation	-11.3211
▁ponerlo	-11.3221
▁rol	-11.3222
▁absorb	-11.3224
▁avanzar	-11.3232
▁Sudáfrica	-11.3237
▁centuries	-11.3237
▁hombro	-11.3237
▁optimista	-11.3237
▁rescue	-11.3237
▁PIB	-11.3237
▁polvo	-11.3237
▁manzana	-11.3237
▁vidrio	-11.3237
▁strip	-11.3237
▁repair	-11.3237
▁ayude	-11.3237
▁joined	-11.3238
▁relevant	-11.3238
▁XXI	-11.3241
▁encaja	-11.3243
▁objective	-11.3244
▁precisamente	-11.3244
▁transmitir	-11.3246
▁pump	-11.3258
▁grass	-11.3271
▁cuida	-11.3272
▁venía	-11.3279
▁microscopio	-11.3295
▁pregnant	-11.3295
▁poquito	-11.3295
▁providing	-11.3295
▁lentamente	-11.3295
▁corriendo	-11.3295
▁amplio	-11.3295
▁behave	-11.3296
▁recuperación	-11.33
▁orgulloso	-11.33
▁disciplina	-11.3301
▁hable	-11.3301
▁apple	-11.3301
▁enfermo	-11.3303
▁fecha	-11.3306
▁improvement	-11.3314
▁Eric	-11.3333
▁dish	-11.3334
Podemos	-11.3342
▁Permítan	-11.3354
▁analyze	-11.3354
▁White	-11.3354
▁housing	-11.3354
▁cueva	-11.3354
▁framework	-11.3354
▁marido	-11.3356
▁parking	-11.3356
▁salvaje	-11.3356
▁esfera	-11.3357
▁menciona	-11.3357
▁botón	-11.3357
▁cinta	-11.3357
▁compuesto	-11.3358
▁Four	-11.3359
▁2050	-11.3361
▁script	-11.3365
▁rebel	-11.3366
making	-11.3371
▁mostrado	-11.3376
▁milk	-11.3386
▁primo	-11.3394
▁darnos	-11.3398
▁condición	-11.3401
▁relevante	-11.3411
▁2014	-11.3413
▁espiritual	-11.3413
▁studio	-11.3413
▁diploma	-11.3413
▁persuad	-11.3413
▁Space	-11.3413
▁falso	-11.3413
▁Syria	-11.3413
▁descarga	-11.3413
▁High	-11.3414
▁House	-11.3416
▁transportation	-11.3419
▁plus	-11.3429
▁elemento	-11.3449
▁journal	-11.347
▁informal	-11.3471
▁acompaña	-11.3472
▁Bretaña	-11.3472
▁académico	-11.3472
▁fraud	-11.3472
▁disturb	-11.3472
▁false	-11.3472
▁horror	-11.3472
▁medium	-11.3472
▁trampa	-11.3472
▁finance	-11.3477
▁marino	-11.3479
▁2001	-11.348
shirt	-11.3482
▁vivido	-11.3482
▁explicación	-11.3487
▁ayer	-11.3498
▁intentamos	-11.3505
▁evolve	-11.3507
▁buscamos	-11.3512
▁file	-11.3528
▁grandfather	-11.3531
▁músico	-11.3531
▁physician	-11.3531
▁sophisticated	-11.3531
▁struck	-11.3531
▁confidence	-11.3531
▁steel	-11.3531
▁teeth	-11.3531
▁department	-11.3532
▁sculpture	-11.3532
▁knee	-11.3532
▁branch	-11.3532
▁secure	-11.3532
▁esposo	-11.3532
▁ciego	-11.3533
▁ingresa	-11.3535
▁emergencia	-11.3535
▁extraer	-11.3536
▁winter	-11.3543
▁agencia	-11.3544
,500	-11.3548
▁llamaba	-11.3555
▁combine	-11.3567
▁interno	-11.3568
▁painful	-11.3576
aire	-11.3584
half	-11.3586
▁comun	-11.3586
▁collected	-11.3586
▁daré	-11.3588
▁computation	-11.3591
▁antibiótico	-11.3591
▁evidente	-11.3591
▁reuniones	-11.3591
▁Segundo	-11.3591
▁clever	-11.3591
▁dueño	-11.3591
▁memories	-11.3591
▁sustancia	-11.3591
▁hongo	-11.3591
▁trigger	-11.3592
▁evolutionary	-11.3594
▁olvidar	-11.3594
▁cortex	-11.3594
▁seguía	-11.3598
▁inventar	-11.3598
piece	-11.3603
jando	-11.363
▁CD	-11.3648
▁convenc	-11.365
▁Francia	-11.3651
▁stretch	-11.3651
▁therapy	-11.3651
▁exitosa	-11.3651
▁tormenta	-11.3652
▁respeta	-11.3652
▁dramatic	-11.3652
▁retroced	-11.3652
▁recoger	-11.3654
▁nacido	-11.3655
▁muchacho	-11.3661
▁consumidores	-11.3665
▁estudiando	-11.3666
▁pasaje	-11.3668
▁olor	-11.3672
▁equally	-11.3675
▁intercambio	-11.3688
▁carrying	-11.3694
▁constant	-11.3695
▁grain	-11.3695
▁distinta	-11.3697
▁Allí	-11.3701
▁separado	-11.3706
▁venga	-11.3707
▁Pakistan	-11.3712
▁déjenme	-11.3712
▁musulmanes	-11.3712
▁shadow	-11.3712
▁interrupt	-11.3712
▁transplant	-11.3712
▁intención	-11.3713
▁awareness	-11.3715
▁pale	-11.3715
▁retire	-11.3716
▁efectivamente	-11.3719
▁funcionamiento	-11.3719
▁5,000	-11.3723
▁Plan	-11.3725
▁viral	-11.3726
▁55	-11.3729
▁neo	-11.3744
▁dólar	-11.3749
▁organize	-11.3752
▁leap	-11.3755
▁stronger	-11.3757
vierte	-11.3759
▁muro	-11.3762
foot	-11.3762
▁sentada	-11.3769
▁flood	-11.3773
▁parezca	-11.3773
▁asigna	-11.3773
▁mostró	-11.3774
▁fusion	-11.3775
▁masivo	-11.3779
▁Debería	-11.378
▁reverse	-11.3782
▁acero	-11.3783
▁inspiración	-11.3785
▁luchando	-11.3797
▁ponga	-11.3797
▁gripe	-11.3805
▁mag	-11.3814
▁terrorism	-11.3816
▁flores	-11.3816
ulation	-11.383
▁chimpanzee	-11.3834
▁clínico	-11.3834
▁departamento	-11.3834
▁navigat	-11.3834
▁harvest	-11.3834
▁prevenir	-11.3834
▁regreso	-11.3834
▁iniciativa	-11.3834
▁intervention	-11.3834
▁narrow	-11.3834
▁pudieron	-11.3834
▁singular	-11.3834
▁poesía	-11.3834
▁mechanical	-11.3835
▁dirige	-11.3835
▁dropped	-11.3836
▁propuesta	-11.3843
▁participación	-11.3851
▁3,000	-11.3852
▁Ze	-11.3855
▁ética	-11.3865
person	-11.3868
▁cliente	-11.3871
▁mate	-11.388
▁invite	-11.3884
▁commit	-11.3888
▁permanent	-11.3891
▁solucionar	-11.3895
struyó	-11.3896
▁fantástica	-11.3896
▁gentlemen	-11.3896
▁maravilla	-11.3896
▁privilegio	-11.3896
▁humanitaria	-11.3896
▁placa	-11.3897
▁molde	-11.3897
▁entendimiento	-11.3898
▁huella	-11.3898
▁reference	-11.3898
▁33	-11.3899
▁bound	-11.39
▁Tony	-11.3904
▁exploration	-11.3904
script	-11.3919
▁podrá	-11.3921
▁scary	-11.3921
▁Camp	-11.3935
▁brave	-11.3948
▁voto	-11.3951
▁colega	-11.3951
▁dejado	-11.3957
▁Carolina	-11.3958
▁Perhaps	-11.3958
▁británico	-11.3958
▁dolphin	-11.3958
▁fotografi	-11.3958
▁origami	-11.3958
▁valioso	-11.3958
▁battery	-11.3958
▁transición	-11.3958
▁unusual	-11.3958
▁testigo	-11.3958
▁aterrador	-11.3958
▁Rusia	-11.3958
▁mystery	-11.3958
▁steal	-11.3959
▁lecciones	-11.3959
▁predator	-11.396
▁$1	-11.396
▁horizontal	-11.396
▁wound	-11.3961
▁inunda	-11.3961
▁intense	-11.3961
▁suceda	-11.3961
▁oeste	-11.3962
▁fiscal	-11.3964
▁Nada	-11.3974
▁cobra	-11.3982
▁ordenador	-11.4004
▁despert	-11.4015
70	-11.402
▁descubrió	-11.4021
▁hydrogen	-11.4021
▁illusion	-11.4021
▁invierno	-11.4021
▁literature	-11.4021
▁tiburones	-11.4021
▁elegido	-11.4021
▁swimming	-11.4021
▁split	-11.4021
▁hormona	-11.4021
▁nerve	-11.4021
▁spiritual	-11.4022
▁comporta	-11.4022
▁audio	-11.4023
▁dibujar	-11.4023
▁hoping	-11.4026
▁recta	-11.4027
▁Alguien	-11.4029
▁certifi	-11.4043
▁gustaba	-11.4072
▁Instituto	-11.4084
▁International	-11.4084
▁apartamento	-11.4084
▁campamento	-11.4084
▁economies	-11.4084
▁eficiencia	-11.4084
▁monument	-11.4084
▁thick	-11.4085
▁numero	-11.4086
▁cerdo	-11.4089
▁arregl	-11.4091
▁fabricación	-11.4103
▁100%	-11.4103
▁percentage	-11.4114
▁aporta	-11.4123
▁Cualquier	-11.4147
▁fútbol	-11.4147
▁préstamo	-11.4147
▁tecnológico	-11.4147
▁videojuego	-11.4147
▁demuestra	-11.4147
▁Tuvimos	-11.4147
▁sphere	-11.4147
▁assign	-11.4147
▁poetry	-11.415
▁Corea	-11.415
▁longitud	-11.415
▁globe	-11.4152
▁hackers	-11.4152
▁solving	-11.4152
▁rising	-11.4152
▁prime	-11.4154
▁exposición	-11.4154
▁escritorio	-11.4157
▁investigaciones	-11.4158
▁exploración	-11.4159
▁boring	-11.4162
▁shall	-11.4165
ísima	-11.4166
▁combined	-11.4173
▁surrounded	-11.4175
▁suspend	-11.4183
▁hiper	-11.4201
▁destruction	-11.4211
▁máximo	-11.4211
▁interfaz	-11.4211
▁infinite	-11.4211
▁desperate	-11.4211
▁neural	-11.4211
▁alarm	-11.4211
▁disgust	-11.4211
▁típica	-11.4211
▁locura	-11.4211
▁resistente	-11.4212
titude	-11.4214
▁consent	-11.4214
ificado	-11.4224
▁mineral	-11.4235
▁defender	-11.4237
▁Arch	-11.4253
▁pipe	-11.4254
▁llevaron	-11.4271
▁Cambridge	-11.4275
▁ONU	-11.4275
▁candidate	-11.4275
▁exploit	-11.4275
▁concrete	-11.4275
▁scenario	-11.4275
▁afternoon	-11.4275
▁complain	-11.4275
▁variation	-11.4275
▁style	-11.4275
▁cristal	-11.4275
▁confident	-11.4275
▁phase	-11.4275
▁Saturn	-11.4275
▁conduce	-11.4278
▁colleague	-11.4278
▁Trans	-11.4282
▁attend	-11.4285
▁ingenio	-11.4287
▁import	-11.43
▁salto	-11.4312
▁ultimate	-11.4327
▁publicado	-11.4336
▁vigilancia	-11.4339
▁índice	-11.4339
ómetro	-11.4339
▁sucedido	-11.4339
▁abuso	-11.434
▁sorprendió	-11.4341
▁authority	-11.4344
▁commitment	-11.4345
▁instruction	-11.4346
▁fibra	-11.4347
▁peligrosa	-11.4352
▁Digo	-11.4366
duje	-11.4367
▁risa	-11.4374
q	-11.4388
ponga	-11.4389
▁precisa	-11.4396
▁govern	-11.4402
▁FBI	-11.4404
▁fracasa	-11.4404
▁negativa	-11.4404
▁arroja	-11.4404
▁actúa	-11.4405
▁tabla	-11.4407
▁avanzada	-11.4408
▁escapar	-11.4408
▁involucrado	-11.4439
▁bella	-11.4439
Tiene	-11.4457
▁agregar	-11.4462
▁Egipto	-11.4469
▁Rwanda	-11.4469
▁africana	-11.4469
▁centavos	-11.4469
▁espectacular	-11.4469
▁literatura	-11.4469
▁medication	-11.4469
▁NSA	-11.4469
▁scholar	-11.4469
▁Before	-11.4469
▁amarillo	-11.447
▁admira	-11.447
▁welcome	-11.447
▁anuncia	-11.447
▁Anyway	-11.4471
▁araña	-11.4471
▁biologist	-11.4472
▁refuse	-11.4474
▁pecho	-11.4481
▁clock	-11.4483
▁sabor	-11.4509
▁pour	-11.4512
▁representación	-11.452
▁graphic	-11.4523
house	-11.4534
▁recommend	-11.4535
▁bicycle	-11.4535
▁líquido	-11.4535
▁enseñó	-11.4535
▁absurd	-11.4535
▁retina	-11.4536
▁Jeff	-11.4538
▁silent	-11.4539
▁committed	-11.4539
▁densidad	-11.4539
▁conservation	-11.4544
▁guardia	-11.455
▁taller	-11.4551
▁Nick	-11.456
▁observando	-11.4564
▁Mike	-11.457
▁dense	-11.4573
▁instante	-11.4577
▁tonto	-11.4581
control	-11.4591
▁2013	-11.4601
▁excelente	-11.4601
▁explosion	-11.4601
▁multiplica	-11.4601
▁psychologist	-11.4601
▁psychology	-11.4601
▁religioso	-11.4601
▁somewhat	-11.4601
▁renunci	-11.4601
▁preciso	-11.4602
▁diverse	-11.4602
▁engaging	-11.4602
▁multitud	-11.4602
▁presence	-11.4602
▁gusto	-11.4603
▁mortality	-11.4604
▁spider	-11.4606
▁Johnson	-11.4607
▁east	-11.4609
▁discut	-11.4609
▁library	-11.4613
▁danza	-11.462
▁capitalismo	-11.4627
▁debt	-11.463
▁motivation	-11.4636
▁abandonar	-11.4649
▁equivoca	-11.4653
▁diseñada	-11.4667
▁Centro	-11.4668
▁September	-11.4668
▁acceder	-11.4668
▁dioxide	-11.4668
▁Project	-11.4668
▁lecture	-11.4668
▁scream	-11.4668
▁cyber	-11.4668
▁siguiendo	-11.4668
▁smoke	-11.4668
▁fruta	-11.4668
▁compartido	-11.4669
▁greenhouse	-11.4669
▁smartphone	-11.4669
▁resistance	-11.4669
▁Cambi	-11.467
▁occurred	-11.467
▁flies	-11.4673
▁valid	-11.4674
▁muere	-11.4696
nnie	-11.47
▁dust	-11.4703
▁establecer	-11.4721
▁llegando	-11.4721
scrito	-11.4722
▁prize	-11.4727
called	-11.4727
▁weigh	-11.4729
▁Indonesia	-11.4735
▁Unfortunately	-11.4735
▁invernadero	-11.4735
▁Nobody	-11.4735
▁informática	-11.4735
▁Something	-11.4735
▁Blue	-11.4736
▁extent	-11.4736
▁definir	-11.4736
▁Disney	-11.4736
▁articul	-11.4736
▁Louis	-11.4736
▁overcome	-11.4736
▁underwater	-11.4737
▁Llev	-11.4738
▁destaca	-11.4742
▁específicamente	-11.4745
▁fiber	-11.4746
▁reducción	-11.4749
▁africano	-11.4754
▁Gold	-11.4761
▁patio	-11.4765
▁pace	-11.477
▁37	-11.4771
▁difundi	-11.4774
▁functional	-11.4776
Z	-11.4791
▁candidato	-11.4803
▁histórico	-11.4803
▁procedimiento	-11.4803
▁robótica	-11.4803
▁éramos	-11.4803
▁promesa	-11.4803
▁cosecha	-11.4803
▁alcalde	-11.4803
▁trivial	-11.4803
▁contigo	-11.4803
▁mínimo	-11.4803
▁overall	-11.4804
▁Hombre	-11.4805
▁acabo	-11.4805
▁participantes	-11.4807
▁rush	-11.4813
▁gris	-11.4814
▁River	-11.482
▁ingeniero	-11.4824
▁biólogo	-11.4828
▁intercambi	-11.483
▁operación	-11.4833
vertimos	-11.4847
▁capitalism	-11.4856
▁inject	-11.4858
▁Necesita	-11.4862
▁mentira	-11.4863
▁asociado	-11.4864
ggle	-11.4866
▁Remember	-11.4871
▁escribiendo	-11.4871
▁frankly	-11.4871
▁hipótesis	-11.4871
▁laboratory	-11.4871
▁productividad	-11.4871
▁surveillance	-11.4871
▁unexpected	-11.4871
▁degrada	-11.4871
▁license	-11.4871
▁nieve	-11.4871
▁presiona	-11.4872
▁dramatically	-11.4872
▁causing	-11.4872
▁comprob	-11.4873
▁Albert	-11.4874
▁Everyone	-11.4874
cripción	-11.4879
▁conservación	-11.4888
▁pierna	-11.4894
▁posterior	-11.4939
▁ansiedad	-11.4939
▁cotidiana	-11.4939
▁efficiency	-11.4939
▁electrónica	-11.4939
▁genius	-11.4939
▁médula	-11.4939
▁trabajé	-11.4939
▁vínculo	-11.4939
▁nariz	-11.4939
▁dignidad	-11.4939
▁computing	-11.4939
▁carried	-11.494
▁tonight	-11.4942
▁disminuye	-11.4942
▁lying	-11.4943
▁lujo	-11.4947
▁infant	-11.4955
▁Hice	-11.4964
▁external	-11.4967
nzó	-11.4992
▁pide	-11.5001
▁roto	-11.5004
▁Pacific	-11.5008
▁aparentemente	-11.5008
▁curiosity	-11.5008
▁expansión	-11.5008
▁habló	-11.5008
▁procedure	-11.5008
▁psicólogo	-11.5008
▁transparencia	-11.5008
▁emergency	-11.5008
▁knock	-11.5008
▁Christmas	-11.5008
▁murieron	-11.5008
▁penetra	-11.5009
▁nowhere	-11.5009
▁Brit	-11.5009
▁Lagos	-11.5016
▁Chile	-11.5023
▁promote	-11.5028
▁broma	-11.5034
level	-11.5043
▁regulation	-11.5051
▁punt	-11.5051
▁Dice	-11.5054
▁adoptar	-11.5063
▁LED	-11.5078
▁Obviamente	-11.5078
▁embarazada	-11.5078
▁peculiar	-11.5078
▁pingüino	-11.5078
▁romantic	-11.5078
▁sensitive	-11.5078
▁ámbito	-11.5078
▁concreto	-11.5078
▁pidieron	-11.5078
▁reconstruir	-11.5078
▁paquete	-11.5078
▁Consider	-11.5079
▁cerrado	-11.5079
▁dejé	-11.5079
destruct	-11.508
▁sunlight	-11.508
▁pool	-11.5094
▁prioridad	-11.5111
▁equivocada	-11.5116
▁Trata	-11.5121
▁42	-11.514
▁agrícola	-11.5148
▁apareció	-11.5148
▁atractivo	-11.5148
▁capítulo	-11.5148
▁extinción	-11.5148
▁filosofía	-11.5148
▁hábito	-11.5148
▁penguin	-11.5148
▁instancia	-11.5148
▁ahorro	-11.5148
▁drill	-11.5148
▁hormone	-11.5148
▁brown	-11.5149
▁productivity	-11.5149
▁continuous	-11.5149
▁Jane	-11.5173
▁especializa	-11.5174
Wow	-11.518
▁compañero	-11.5181
▁recogi	-11.5181
▁corri	-11.5185
▁recurso	-11.5186
▁Abou	-11.519
▁Comenz	-11.5201
▁Homo	-11.5217
▁Square	-11.5218
▁decidieron	-11.5218
▁judgment	-11.5218
▁permítanme	-11.5218
▁philosophy	-11.5218
▁recognition	-11.5218
▁tragedia	-11.5218
▁Research	-11.5218
▁añadir	-11.5218
▁Bronx	-11.5218
▁enamora	-11.5218
▁selección	-11.5218
▁Pensamos	-11.5218
▁telephone	-11.5219
assemble	-11.5219
▁rasgo	-11.522
▁implications	-11.5221
▁minister	-11.5222
Encontr	-11.5224
▁tight	-11.5224
▁despertar	-11.5234
▁Howard	-11.5234
▁continuación	-11.5235
▁chest	-11.5235
▁acusa	-11.5238
▁vasos	-11.524
worth	-11.5277
conscious	-11.5277
saben	-11.5278
▁transit	-11.528
▁efectiva	-11.5281
▁drama	-11.5287
unch	-11.5287
▁mortal	-11.5288
▁láser	-11.5289
▁prejuicio	-11.5289
▁súper	-11.5289
▁direcciones	-11.5289
▁hablé	-11.5289
▁deshacer	-11.5289
▁chapter	-11.5289
▁cuello	-11.5289
▁refiere	-11.5289
▁psicología	-11.5289
▁París	-11.5289
▁password	-11.5289
▁mostrando	-11.529
▁parallel	-11.529
▁household	-11.529
▁birthday	-11.529
▁razonable	-11.5292
▁regime	-11.5296
▁Nu	-11.5301
▁magnifi	-11.5304
▁bello	-11.5308
▁Shi	-11.5314
▁Escrib	-11.5316
▁penal	-11.534
▁ruin	-11.5351
▁2016	-11.536
▁Alexander	-11.536
▁Brooklyn	-11.536
▁Republican	-11.536
▁conventional	-11.536
▁septiembre	-11.536
▁hydr	-11.5361
▁Ebola	-11.5361
▁inusual	-11.5361
▁Finally	-11.5363
▁2030	-11.5365
▁70%	-11.5369
▁operaciones	-11.5373
▁angle	-11.5376
▁insert	-11.5402
Necesit	-11.5407
▁sonrisa	-11.5424
▁dibuja	-11.543
class	-11.5432
▁anxiety	-11.5432
▁apariencia	-11.5432
▁instinct	-11.5432
▁obstacle	-11.5432
▁cubierta	-11.5432
▁revenue	-11.5432
▁dignity	-11.5432
▁compartimos	-11.5432
▁download	-11.5432
▁drove	-11.5432
book	-11.5436
▁primaria	-11.5436
▁calculate	-11.5442
▁examen	-11.5446
▁40%	-11.5448
▁promot	-11.5452
▁protege	-11.5463
dministración	-11.5491
▁corporate	-11.5505
▁diálogo	-11.5505
▁eficaz	-11.5505
▁guarantee	-11.5505
▁izquierdo	-11.5505
▁colección	-11.5505
▁rodilla	-11.5505
▁activism	-11.5505
▁pedimos	-11.5505
▁asumir	-11.5505
▁Brian	-11.5506
▁empresarial	-11.5506
▁cubrir	-11.5506
▁database	-11.5516
▁48	-11.5522
▁Tres	-11.5528
▁sail	-11.5532
▁evita	-11.5533
Look	-11.5569
osphere	-11.5578
▁CRISPR	-11.5578
▁Empezamos	-11.5578
▁Foundation	-11.5578
▁defensa	-11.5578
▁europeo	-11.5578
▁fotógrafo	-11.5578
▁inclusive	-11.5578
▁proyecta	-11.5578
▁recibido	-11.5578
▁survivor	-11.5578
▁tsunami	-11.5578
▁cabello	-11.5578
▁automático	-11.5578
▁colegio	-11.5578
▁Next	-11.5578
▁apertura	-11.5578
▁dancing	-11.5578
▁sweat	-11.5578
▁Henry	-11.5578
▁aguja	-11.5578
▁renovable	-11.558
▁discutir	-11.5582
▁lidera	-11.5584
▁engagement	-11.5586
▁entrenar	-11.5608
▁cash	-11.5614
Fi	-11.5615
sistir	-11.562
▁hyp	-11.5647
▁Tanzania	-11.5651
▁accesible	-11.5651
▁discipline	-11.5651
▁encuentre	-11.5651
▁hidrógeno	-11.5651
▁neither	-11.5651
▁obsessed	-11.5651
▁Greek	-11.5651
▁raíces	-11.5651
▁suicide	-11.5651
▁exhibition	-11.5652
▁aceite	-11.5652
▁compensa	-11.5653
▁futura	-11.5656
▁elegante	-11.5676
uvieron	-11.5711
▁histórica	-11.5725
▁aburrido	-11.5725
▁conclude	-11.5725
▁contribuir	-11.5725
▁lifestyle	-11.5725
▁tunnel	-11.5725
▁íbamos	-11.5725
▁órbita	-11.5725
▁Nelson	-11.5725
▁ecuación	-11.5725
▁insurance	-11.5725
▁ticket	-11.5725
▁reserve	-11.5726
▁perdiendo	-11.5726
▁vinieron	-11.5726
▁Banco	-11.5726
▁Haiti	-11.5727
▁Moore	-11.5727
▁careful	-11.5727
▁detección	-11.5727
▁reconstruct	-11.5728
▁volcan	-11.5733
▁depth	-11.5733
▁2002	-11.5738
▁absorbe	-11.5742
▁coach	-11.5748
▁Espera	-11.5749
▁jugador	-11.5776
▁medicamento	-11.578
▁nest	-11.5783
▁magnet	-11.5787
▁Philip	-11.58
▁authentic	-11.58
▁automatically	-11.58
▁exploring	-11.58
▁identical	-11.58
▁philosopher	-11.58
▁portátil	-11.58
▁cambie	-11.58
▁Minister	-11.58
▁envejece	-11.58
▁grateful	-11.58
▁appeal	-11.58
▁granjero	-11.58
▁regret	-11.58
▁wireless	-11.5803
▁magnetic	-11.5813
▁rango	-11.5814
▁controlled	-11.5815
▁column	-11.5848
▁encontraba	-11.5862
▁deposit	-11.5868
▁herself	-11.5875
▁inmigrante	-11.5875
▁introvert	-11.5875
▁simetría	-11.5875
▁strike	-11.5875
▁struggling	-11.5875
▁contempla	-11.5875
▁demasiada	-11.5875
▁football	-11.5875
▁incendio	-11.5875
▁Atlanta	-11.5875
▁isolated	-11.5875
▁americano	-11.5875
▁shelter	-11.5875
▁senior	-11.5876
▁ascenso	-11.5876
▁celda	-11.5876
▁Estudi	-11.5876
▁gesto	-11.5877
▁cheat	-11.5879
▁selection	-11.5883
▁permitido	-11.5887
▁ladies	-11.5889
▁sumergi	-11.5917
▁genio	-11.592
▁suppose	-11.5927
▁creature	-11.5936
▁Significa	-11.5951
▁colectivo	-11.5951
▁corporation	-11.5951
▁destruir	-11.5951
▁diccionario	-11.5951
▁empezado	-11.5951
▁exhaust	-11.5951
▁mathematician	-11.5951
▁estrecha	-11.5951
▁Jordan	-11.5951
▁Mandela	-11.5951
▁pareció	-11.5951
▁embarazo	-11.5951
▁flew	-11.5951
▁cuarta	-11.5951
▁engaña	-11.5951
▁expectations	-11.5951
▁lector	-11.5952
▁leído	-11.5952
▁cuántica	-11.5954
▁encarga	-11.5957
▁admitir	-11.5961
▁Verán	-11.5961
▁1%	-11.5964
▁nerd	-11.5966
▁rosa	-11.5982
▁iniciar	-11.5986
Qaeda	-11.6027
▁XIX	-11.6027
▁controversia	-11.6027
▁escuché	-11.6027
▁francés	-11.6027
▁illustrate	-11.6027
▁universities	-11.6027
▁Museum	-11.6027
▁Revolution	-11.6027
▁garantiza	-11.6027
▁ocasiones	-11.6027
▁protocol	-11.6027
▁recibió	-11.6027
▁entienda	-11.6027
▁altruist	-11.6028
▁inclina	-11.6028
▁suicida	-11.6028
▁tridimensional	-11.6028
▁dominio	-11.6028
▁depressed	-11.6029
▁miracle	-11.603
▁intact	-11.6031
▁complica	-11.6034
▁asegurarnos	-11.6034
▁compound	-11.6036
related	-11.6073
field	-11.6093
puede	-11.6094
▁Stephen	-11.6104
▁excepción	-11.6104
▁judío	-11.6104
▁resolution	-11.6104
▁rhythm	-11.6104
▁transparency	-11.6104
▁comenzando	-11.6104
▁exponencial	-11.6104
▁curioso	-11.6104
▁cohete	-11.6104
▁Design	-11.6104
▁barata	-11.6105
▁Sabía	-11.6106
▁vigil	-11.6106
▁convencido	-11.6114
active	-11.6134
▁190	-11.6139
▁wage	-11.6151
▁arrive	-11.6159
word	-11.617
Yeah	-11.617
▁librar	-11.6173
▁rompe	-11.6177
▁Clinton	-11.6182
▁ONG	-11.6182
▁aeropuerto	-11.6182
▁filtro	-11.6182
▁iPod	-11.6182
▁institución	-11.6182
▁ministro	-11.6182
▁optimistic	-11.6182
▁secundario	-11.6182
▁strategies	-11.6182
▁cluster	-11.6182
▁exposed	-11.6182
▁raising	-11.6182
▁remota	-11.6183
▁restrict	-11.6185
▁plena	-11.6186
▁ratones	-11.6187
▁Venus	-11.6189
▁convertí	-11.6225
▁elige	-11.6231
▁capita	-11.6247
▁apropiada	-11.626
▁recruit	-11.626
▁ancestro	-11.626
▁cubierto	-11.626
▁espectáculo	-11.626
▁filósofo	-11.626
▁interacciones	-11.626
▁mágico	-11.626
▁orgánico	-11.626
▁phenomena	-11.626
▁reproduce	-11.626
▁Segunda	-11.626
▁surgió	-11.626
▁Debido	-11.626
▁sustainability	-11.6261
▁cómic	-11.6261
ensambla	-11.6261
▁habitantes	-11.6262
▁conceptual	-11.6263
clasifica	-11.6267
▁Free	-11.6281
▁Turn	-11.6314
▁Parkinson	-11.6339
▁cognitiva	-11.6339
▁ilusión	-11.6339
▁refugio	-11.6339
▁disagree	-11.6339
▁división	-11.6339
▁borrow	-11.6339
▁proportion	-11.6339
▁ciega	-11.6339
▁portrait	-11.6339
sociación	-11.6343
▁blank	-11.6343
▁perfora	-11.6344
▁grasa	-11.6362
public	-11.6406
▁Estuv	-11.6407
changing	-11.6408
▁casual	-11.6409
▁corrupt	-11.6415
▁Industrial	-11.6418
▁adventure	-11.6418
▁aprendimos	-11.6418
▁obstante	-11.6418
▁ridiculous	-11.6418
▁tuberculosis	-11.6418
▁ángulo	-11.6418
▁construí	-11.6418
▁plenty	-11.6418
▁reducido	-11.6418
▁thumb	-11.6418
▁reacciones	-11.6418
▁limpio	-11.6418
▁alucina	-11.6418
▁retrato	-11.6419
▁junio	-11.6419
▁dificultades	-11.6419
▁transmisión	-11.6419
▁procesamiento	-11.6419
▁distract	-11.6422
▁recorrido	-11.643
▁polariz	-11.6431
▁contradict	-11.6438
▁querría	-11.644
▁Qu	-11.6451
normal	-11.6487
▁tension	-11.6489
▁Pacífico	-11.6498
▁Seattle	-11.6498
▁bathroom	-11.6498
▁permission	-11.6498
▁scratch	-11.6498
▁pizza	-11.6498
▁reduction	-11.6498
▁plaza	-11.6498
▁properly	-11.6498
▁ugly	-11.6498
▁dirty	-11.6498
▁autopista	-11.6498
▁hook	-11.65
▁spark	-11.65
▁perfil	-11.6501
▁respondió	-11.6503
▁calent	-11.6503
▁convenient	-11.6505
▁relacionadas	-11.6505
▁perdió	-11.6506
▁paraliza	-11.6506
▁postura	-11.6506
▁limitaciones	-11.6507
clav	-11.6518
“	-11.6567
century	-11.6567
▁fulfill	-11.6579
▁Kennedy	-11.6579
▁Nairobi	-11.6579
▁almuerzo	-11.6579
▁indígena	-11.6579
▁territorio	-11.6579
▁tweet	-11.6579
▁obtenemos	-11.6579
▁desechos	-11.6579
▁Creemos	-11.6579
▁participants	-11.6579
▁recaud	-11.6579
▁adjust	-11.6579
▁breed	-11.658
▁shopping	-11.658
▁hunger	-11.6582
▁shake	-11.6583
▁fascinated	-11.6584
▁accessible	-11.6585
▁vacaciones	-11.6585
▁stake	-11.6591
▁Never	-11.6592
▁segment	-11.6601
▁posee	-11.6615
▁Intel	-11.6628
▁zoo	-11.6628
ltamente	-11.6656
▁depósito	-11.666
▁elsewhere	-11.666
▁gestión	-11.666
▁hungry	-11.666
▁práctico	-11.666
▁renewable	-11.666
▁residuos	-11.666
▁temporada	-11.666
▁uncomfortable	-11.666
▁decrease	-11.666
▁festival	-11.666
▁Ruanda	-11.666
▁Watson	-11.666
▁Liberia	-11.666
▁miserable	-11.666
▁diverso	-11.666
▁backwards	-11.6661
▁subtle	-11.6662
▁modula	-11.6663
▁Kong	-11.6664
▁mindset	-11.6666
▁fluye	-11.6667
▁consequence	-11.6668
▁echar	-11.6675
▁agita	-11.6699
▁slip	-11.6702
▁plug	-11.6704
▁supiera	-11.6715
▁razon	-11.6715
correcto	-11.673
▁dificulta	-11.6741
▁aproxima	-11.6742
▁1998	-11.6742
▁Naturaleza	-11.6742
▁Olympic	-11.6742
▁carácter	-11.6742
▁cromosoma	-11.6742
▁desempeño	-11.6742
▁embedded	-11.6742
▁explosión	-11.6742
▁rebuild	-11.6742
▁ultraviolet	-11.6742
▁tragedy	-11.6742
▁abundant	-11.6742
▁Cuanto	-11.6742
▁cousin	-11.6742
▁promover	-11.6742
▁excava	-11.6742
▁rastrea	-11.6742
▁leyendo	-11.6742
▁vestido	-11.6742
▁entró	-11.6742
▁sufren	-11.6742
▁profile	-11.6742
▁Sierra	-11.6742
▁remoto	-11.6743
▁lleve	-11.6743
▁slavery	-11.6744
▁incómodo	-11.6745
▁procede	-11.6749
▁recupera	-11.675
▁Unión	-11.675
▁aprovecha	-11.6764
▁alarma	-11.6768
▁tremenda	-11.6825
▁1999	-11.6825
▁August	-11.6825
▁January	-11.6825
▁Pakistán	-11.6825
▁Recuerden	-11.6825
▁autonomous	-11.6825
▁experiencing	-11.6825
▁instrucciones	-11.6825
▁producido	-11.6825
▁stroke	-11.6825
▁exponential	-11.6825
▁routine	-11.6825
▁bullet	-11.6825
▁informático	-11.6825
▁legacy	-11.6825
▁intuition	-11.6825
▁Museo	-11.6825
▁Basically	-11.6825
▁defense	-11.6825
▁footprint	-11.6825
▁expone	-11.6825
▁enemy	-11.6826
▁predicciones	-11.6831
▁casualidad	-11.6835
▁Comenc	-11.6839
▁brilla	-11.6896
▁viaj	-11.6897
▁obvia	-11.6907
▁Ethiopia	-11.6908
▁acknowledge	-11.6908
▁extremist	-11.6908
▁francamente	-11.6908
▁gracioso	-11.6908
▁murciélago	-11.6908
▁trayectoria	-11.6908
▁ethnic	-11.6908
▁jazz	-11.6908
▁champion	-11.6908
▁acercó	-11.6908
▁maestra	-11.6908
▁interroga	-11.6908
▁túnel	-11.6909
▁sacred	-11.6911
▁intensa	-11.6911
▁session	-11.6911
▁crecido	-11.6911
▁envió	-11.6912
▁vocal	-11.6912
▁division	-11.6913
▁amongst	-11.6915
ground	-11.6974
▁immediate	-11.698
▁modest	-11.6989
▁Beijing	-11.6992
▁Daniel	-11.6992
▁arbitra	-11.6992
▁chromosome	-11.6992
▁esclavitud	-11.6992
▁forgotten	-11.6992
▁innovaciones	-11.6992
▁passenger	-11.6992
▁pursue	-11.6992
▁supermercado	-11.6992
▁telefónica	-11.6992
▁cerveza	-11.6992
▁fantasma	-11.6992
▁terminé	-11.6992
▁escuche	-11.6992
▁Children	-11.6992
▁curiosa	-11.6992
▁bombarde	-11.6993
▁pausa	-11.6993
▁underground	-11.6993
▁slum	-11.6994
▁Tesla	-11.6996
Audio	-11.6996
▁vecino	-11.7012
material	-11.7065
▁Gandhi	-11.7077
▁Joseph	-11.7077
▁NGO	-11.7077
▁abrumado	-11.7077
▁announced	-11.7077
▁earthquake	-11.7077
▁opposed	-11.7077
▁substance	-11.7077
▁Haití	-11.7077
▁muestro	-11.7077
▁aislado	-11.7077
▁tangible	-11.7077
▁Secret	-11.7077
▁district	-11.7077
▁recipe	-11.7077
▁estuvieron	-11.7077
▁pregunte	-11.7077
▁density	-11.7077
▁clue	-11.7078
▁package	-11.708
▁upset	-11.7088
▁tragic	-11.7089
▁particle	-11.7099
Tengo	-11.715
▁Número	-11.7162
▁Virginia	-11.7162
▁boundaries	-11.7162
▁corazones	-11.7162
▁ligeramente	-11.7162
▁neurociencia	-11.7162
▁poblaciones	-11.7162
▁skull	-11.7162
▁vecindario	-11.7162
parecieron	-11.7162
▁conseguí	-11.7162
▁poison	-11.7162
▁sostener	-11.7162
▁recomend	-11.7162
▁Mujer	-11.7162
▁agency	-11.7163
▁funeral	-11.7163
▁Costa	-11.7169
▁Salud	-11.7183
▁skeptic	-11.7248
▁Atlantic	-11.7248
▁Lincoln	-11.7248
▁cumpleaños	-11.7248
▁dialogue	-11.7248
▁gubernamental	-11.7248
▁incertidumbre	-11.7248
▁llamé	-11.7248
▁measuring	-11.7248
▁terremoto	-11.7248
▁vegetable	-11.7248
▁reputación	-11.7248
▁confused	-11.7248
▁comenzado	-11.7248
▁ceiling	-11.7248
▁Delhi	-11.7248
▁dispersa	-11.7249
▁Geographic	-11.7249
▁eterna	-11.7249
▁governance	-11.7249
▁enhance	-11.7251
▁tribal	-11.7251
▁culpable	-11.7262
▁commun	-11.7272
▁químico	-11.7277
▁Medica	-11.7297
▁repi	-11.7299
▁investigador	-11.732
▁rough	-11.7323
▁autobús	-11.7335
▁contribution	-11.7335
▁claridad	-11.7335
▁obesidad	-11.7335
▁bonito	-11.7336
▁Civil	-11.7336
▁spell	-11.7336
▁enseñanza	-11.7337
▁partnership	-11.7337
▁reparar	-11.7338
▁ignorancia	-11.734
iésemos	-11.7341
▁particip	-11.7347
llowing	-11.7394
Alguien	-11.7411
dollar	-11.7412
+	-11.7423
▁Berkeley	-11.7423
▁initiative	-11.7423
▁neuroscience	-11.7423
▁panorama	-11.7423
▁resonancia	-11.7423
▁sucesivamente	-11.7423
▁synthetic	-11.7423
▁arroz	-11.7423
▁camiones	-11.7423
▁rutina	-11.7423
▁asistente	-11.7423
▁mutation	-11.7423
▁muerta	-11.7423
▁Derek	-11.7423
▁heaven	-11.7423
▁pedido	-11.7424
▁sharp	-11.7425
▁chronic	-11.7425
▁Llega	-11.7426
▁twin	-11.7426
▁sensorial	-11.7427
▁pathway	-11.7427
▁mutila	-11.7428
▁apropiado	-11.7512
▁desagradable	-11.7512
▁desperdicio	-11.7512
▁homosexual	-11.7512
▁instinto	-11.7512
▁sofisticado	-11.7512
▁construida	-11.7512
▁desorden	-11.7512
▁sneak	-11.7512
▁Ocean	-11.7512
▁request	-11.7512
▁domain	-11.7512
▁invención	-11.7512
▁Nothing	-11.7513
▁calendar	-11.7513
▁Prize	-11.7514
▁neuronal	-11.7516
▁Llam	-11.7518
▁ratio	-11.7521
▁ponía	-11.7522
▁asesor	-11.754
▁característica	-11.755
▁externa	-11.7565
▁encarcela	-11.7601
▁gratuita	-11.7601
▁tiburón	-11.7601
▁Shakespeare	-11.7601
▁gesture	-11.7601
▁intuitive	-11.7601
▁ocurra	-11.7601
▁sagrado	-11.7601
▁spectacular	-11.7601
▁defensor	-11.7601
▁resuelto	-11.7601
▁yield	-11.7601
▁Gulf	-11.7601
▁rescate	-11.7601
▁lucro	-11.7601
▁juvenil	-11.7601
▁ganó	-11.7601
Cuánta	-11.7603
▁locked	-11.7604
▁idiot	-11.7605
▁freak	-11.7605
▁flee	-11.7606
ducimos	-11.7629
▁Tendr	-11.764
When	-11.7679
labor	-11.7688
▁Hospital	-11.7691
▁Through	-11.7691
▁explode	-11.7691
▁recycle	-11.7691
▁resilience	-11.7691
▁régimen	-11.7691
▁decidido	-11.7691
▁athlete	-11.7691
▁imaging	-11.7691
▁seguimiento	-11.7691
▁llave	-11.7691
▁hierba	-11.7691
▁tackle	-11.7691
▁encender	-11.7691
▁Girl	-11.7691
▁description	-11.7691
▁underlying	-11.7691
▁afterwards	-11.7691
▁textbook	-11.7692
▁tumba	-11.7692
▁inmune	-11.7692
▁remonta	-11.7692
Cuándo	-11.7693
▁glad	-11.7694
▁honey	-11.7694
▁Luther	-11.7696
▁ascend	-11.7699
▁profession	-11.7728
▁aferr	-11.7751
▁comunitario	-11.7782
▁diagnosis	-11.7782
▁entertainment	-11.7782
▁figuring	-11.7782
▁lámpara	-11.7782
▁profesión	-11.7782
▁pyramid	-11.7782
▁smooth	-11.7782
▁sólido	-11.7782
▁extension	-11.7782
▁perpetua	-11.7782
▁proporción	-11.7782
▁Vivimos	-11.7782
▁depredador	-11.7782
▁contagio	-11.7782
▁progresa	-11.7782
▁compartida	-11.7782
▁mood	-11.7783
▁fought	-11.7784
▁creció	-11.7785
▁alinea	-11.7789
digit	-11.7795
▁germ	-11.7803
▁inconsciente	-11.7874
▁voluntaria	-11.7874
▁clásico	-11.7874
▁frágil	-11.7874
▁incremento	-11.7874
▁industries	-11.7874
▁micrófono	-11.7874
▁necesite	-11.7874
▁overwhelming	-11.7874
▁reputation	-11.7874
▁Arctic	-11.7874
▁Navidad	-11.7874
▁logró	-11.7874
▁clothing	-11.7874
▁raíz	-11.7874
▁Doctor	-11.7874
▁orquesta	-11.7874
▁muriendo	-11.7874
▁obesity	-11.7874
▁bonita	-11.7874
▁consigo	-11.7874
▁worm	-11.7874
▁colony	-11.7875
▁Junto	-11.7875
▁slice	-11.7875
▁convirtieron	-11.7966
▁distrito	-11.7966
▁esqueleto	-11.7966
▁eventualmente	-11.7966
▁fluorescent	-11.7966
▁nutrientes	-11.7966
▁vulnerabilidad	-11.7966
▁advocate	-11.7966
▁cardíaco	-11.7966
▁orchestra	-11.7966
▁conozca	-11.7966
▁injury	-11.7966
▁sugerir	-11.7966
▁garage	-11.7966
▁primavera	-11.7966
▁plasma	-11.7966
▁demographic	-11.7967
▁programming	-11.7967
▁exagera	-11.7967
▁sync	-11.7968
▁aborda	-11.7969
▁coloniz	-11.7978
▁concert	-11.7982
pending	-11.8001
spire	-11.8003
Á	-11.806
▁Actualmente	-11.806
▁Departamento	-11.806
▁Michigan	-11.806
▁Sweden	-11.806
▁divertida	-11.806
▁engaño	-11.806
▁estacionamiento	-11.806
▁femenino	-11.806
▁garbage	-11.806
▁mutuamente	-11.806
▁naranja	-11.806
▁rainforest	-11.806
▁comparison	-11.806
▁evapora	-11.806
▁inesperado	-11.806
▁entretenimiento	-11.806
▁fifth	-11.806
▁fraction	-11.806
▁intervención	-11.806
▁Suecia	-11.806
▁virgin	-11.806
▁nietos	-11.806
▁macro	-11.8061
▁lanzamiento	-11.8062
▁punch	-11.8063
Alguna	-11.8065
specific	-11.8067
second	-11.8142
▁nutrition	-11.8154
sufficient	-11.8154
▁demonstration	-11.8154
▁episodio	-11.8154
▁frozen	-11.8154
▁intuición	-11.8154
▁sacrifice	-11.8154
▁sandwich	-11.8154
▁Gabby	-11.8154
▁vegetal	-11.8154
▁trabaje	-11.8154
▁victoria	-11.8154
▁baseball	-11.8154
▁agencies	-11.8154
▁charity	-11.8154
▁compromete	-11.8154
▁pasillo	-11.8154
▁oveja	-11.8154
▁annual	-11.8154
▁lejano	-11.8155
▁burst	-11.8155
▁delfines	-11.8155
▁accus	-11.8155
▁kidney	-11.8156
▁tribunal	-11.8156
▁slave	-11.8157
▁habitual	-11.8157
▁Auto	-11.8163
bric	-11.8189
¿	-11.8207
estadounidense	-11.8237
▁afortunada	-11.8249
▁1994	-11.8249
▁Church	-11.8249
▁Department	-11.8249
▁Leonardo	-11.8249
▁Mountain	-11.8249
▁Shanghai	-11.8249
▁accelerate	-11.8249
▁antepasados	-11.8249
▁competitive	-11.8249
▁comprometido	-11.8249
▁envejecimiento	-11.8249
▁extrovert	-11.8249
▁femenina	-11.8249
▁precedentes	-11.8249
▁recluta	-11.8249
▁viviente	-11.8249
▁simplific	-11.8249
▁perturba	-11.8249
▁infección	-11.8249
▁thrive	-11.8249
▁Natural	-11.8249
▁psicológica	-11.8249
▁ánimo	-11.8249
▁Nature	-11.8249
▁plain	-11.8249
▁acquire	-11.8249
▁amistad	-11.825
▁Indeed	-11.825
▁inmensa	-11.825
▁redefini	-11.825
▁Edward	-11.8251
▁chief	-11.8251
present	-11.8251
Cierto	-11.8259
▁Internacional	-11.8345
▁McDonald	-11.8345
▁afortunado	-11.8345
▁breakthrough	-11.8345
▁empodera	-11.8345
▁energética	-11.8345
▁estómago	-11.8345
▁exámenes	-11.8345
▁imagino	-11.8345
▁interconnect	-11.8345
▁reducing	-11.8345
▁Kevin	-11.8345
▁advertising	-11.8345
▁glamur	-11.8345
▁Abraham	-11.8345
▁injusticia	-11.8345
▁cuantas	-11.8345
▁immense	-11.8345
▁sensation	-11.8346
▁buried	-11.8346
▁pongo	-11.8346
▁excuse	-11.8346
▁uncertainty	-11.8346
▁Yemen	-11.8346
▁spray	-11.8347
cruz	-11.8389
▁contaba	-11.8417
▁nací	-11.842
▁equilibr	-11.8441
▁Democrat	-11.8442
▁Hawaii	-11.8442
▁Jewish	-11.8442
▁October	-11.8442
▁disconnect	-11.8442
▁happier	-11.8442
▁magnético	-11.8442
▁sketch	-11.8442
▁intersection	-11.8442
▁Jersey	-11.8442
▁maíz	-11.8442
▁cardíaca	-11.8442
▁tradiciones	-11.8442
▁Ciudad	-11.8443
▁inocente	-11.8443
▁graduado	-11.8443
▁imprimir	-11.8443
▁IBM	-11.8443
▁espectador	-11.8443
▁billete	-11.8443
▁northern	-11.8444
▁esquema	-11.8444
▁forgive	-11.8444
▁censo	-11.8445
▁choca	-11.8448
▁racist	-11.8462
Verdad	-11.849
▁ciudadano	-11.8517
resistant	-11.8532
▁circun	-11.854
▁affair	-11.8541
▁choosing	-11.8541
▁conseguimos	-11.8541
▁cricket	-11.8541
▁cráneo	-11.8541
▁español	-11.8541
▁furniture	-11.8541
▁fórmula	-11.8541
▁glaciar	-11.8541
▁griego	-11.8541
▁immigrant	-11.8541
▁magnética	-11.8541
▁ridículo	-11.8541
▁skeleton	-11.8541
▁College	-11.8541
▁leverage	-11.8541
▁primarily	-11.8541
▁electoral	-11.8541
▁pioneer	-11.8541
▁twist	-11.8541
▁derrame	-11.8541
▁inversiones	-11.8541
▁civic	-11.8541
▁expertise	-11.8542
▁petrol	-11.8544
▁diciéndo	-11.8546
▁desecha	-11.8549
▁snap	-11.8586
▁prepare	-11.8617
▁DVD	-11.864
▁Except	-11.864
▁aesthetic	-11.864
▁demostración	-11.864
▁ejecutivo	-11.864
▁facility	-11.864
▁tóxico	-11.864
▁visceral	-11.864
▁Somalia	-11.864
▁frog	-11.864
▁drum	-11.864
▁justifica	-11.864
▁kiss	-11.864
▁genital	-11.864
▁descubre	-11.8641
▁servidor	-11.865
▁sediment	-11.8653
▁perdí	-11.8682
Guau	-11.8722
atom	-11.8722
Where	-11.8727
▁anonymous	-11.874
▁autónomo	-11.874
▁certeza	-11.874
▁fragile	-11.874
▁helicóptero	-11.874
▁mágica	-11.874
▁Charlie	-11.874
▁improving	-11.874
▁shrink	-11.874
▁ácido	-11.874
▁Third	-11.874
▁infinita	-11.874
▁intimate	-11.874
▁choque	-11.874
▁paradox	-11.8741
▁render	-11.8741
▁insulin	-11.8742
▁disfrut	-11.8765
▁Columbia	-11.8841
▁TEDTalk	-11.8841
▁attribute	-11.8841
▁extremism	-11.8841
▁fortaleza	-11.8841
▁nonprofit	-11.8841
▁sobreviviente	-11.8841
▁Golfo	-11.8841
▁mysterious	-11.8841
▁strand	-11.8841
▁burden	-11.8841
▁Quisiera	-11.8841
▁relax	-11.8841
▁revés	-11.8841
▁externo	-11.8841
▁derrota	-11.8842
árselo	-11.8858
ographic	-11.8889
Entonces	-11.893
▁Supongo	-11.8943
▁caricatura	-11.8943
▁compromise	-11.8943
▁escáner	-11.8943
▁estupendo	-11.8943
▁genocidio	-11.8943
▁grandchildren	-11.8943
▁indigenous	-11.8943
▁juventud	-11.8943
▁purchase	-11.8943
▁recibimos	-11.8943
▁sospecho	-11.8943
▁stomach	-11.8943
▁terrifying	-11.8943
▁traducir	-11.8943
▁umbral	-11.8943
▁Arthur	-11.8943
▁Alaska	-11.8943
▁FDA	-11.8943
▁inyecta	-11.8943
▁desconect	-11.8943
▁criterio	-11.8943
▁optimiza	-11.8943
▁soportar	-11.8944
▁shore	-11.9001
▁restaura	-11.9026
▁impresiona	-11.9036
▁Argentina	-11.9046
▁Revolución	-11.9046
▁collaborative	-11.9046
▁constituye	-11.9046
▁descubrieron	-11.9046
▁expansion	-11.9046
▁incluir	-11.9046
▁instantánea	-11.9046
▁interconec	-11.9046
▁mechanics	-11.9046
▁pirámide	-11.9046
▁structural	-11.9046
▁avergonz	-11.9046
▁dimensión	-11.9046
▁sustentable	-11.9046
▁grandioso	-11.9046
▁woke	-11.9046
▁Bruno	-11.9046
▁abrió	-11.9046
▁decepcion	-11.9046
▁transistor	-11.9046
▁Soviet	-11.9046
▁democrática	-11.9046
▁segrega	-11.9046
▁rabbi	-11.9046
▁disparo	-11.9046
mount	-11.9056
▁1.5	-11.9065
▁1995	-11.915
▁Georgia	-11.915
▁Obviously	-11.915
▁aggressive	-11.915
▁astonishing	-11.915
▁concluir	-11.915
▁crímenes	-11.915
▁discusiones	-11.915
▁impression	-11.915
▁orgánica	-11.915
▁reflejo	-11.915
▁simplicity	-11.915
▁storytelling	-11.915
▁volvieron	-11.915
▁wheelchair	-11.915
▁diversión	-11.915
▁extensión	-11.915
▁camión	-11.915
▁wander	-11.915
▁infinito	-11.915
▁translation	-11.915
▁Quieren	-11.915
▁broadcast	-11.915
▁inherit	-11.915
▁templo	-11.915
▁sauce	-11.915
▁relaja	-11.9151
▁algae	-11.9151
ástico	-11.9152
▁soporte	-11.9152
▁beetle	-11.9152
▁converge	-11.9154
placing	-11.9155
▁atrev	-11.9162
dependent	-11.9202
▁consumidor	-11.9231
▁continuo	-11.9252
É	-11.9253
▁Atlántico	-11.9255
▁fertilize	-11.9255
▁intestino	-11.9255
▁subyacente	-11.9255
▁transmission	-11.9255
▁institucional	-11.9255
▁ideología	-11.9255
▁SMS	-11.9255
▁metabolism	-11.9255
▁perdón	-11.9255
▁indign	-11.9255
▁exceso	-11.9255
▁transcend	-11.9255
▁dilema	-11.9255
▁sequía	-11.9256
ísimo	-11.9289
▁Tasmania	-11.9361
▁automobile	-11.9361
▁clásica	-11.9361
▁democrático	-11.9361
▁drift	-11.9361
▁errónea	-11.9361
▁frequency	-11.9361
▁genocide	-11.9361
▁helicopter	-11.9361
▁invertido	-11.9361
▁movilidad	-11.9361
▁MRI	-11.9361
▁register	-11.9361
▁competir	-11.9361
▁Donald	-11.9362
▁cruce	-11.9362
▁inútil	-11.9362
▁fortune	-11.9362
▁Nepal	-11.9362
▁carpet	-11.9374
Okay	-11.9457
▁Child	-11.9469
▁drought	-11.9469
▁Feynman	-11.9469
▁Proyecto	-11.9469
▁awkward	-11.9469
▁biodiversidad	-11.9469
▁cápita	-11.9469
▁entusiasmo	-11.9469
▁extiende	-11.9469
▁hemisferio	-11.9469
▁hígado	-11.9469
▁monstruo	-11.9469
▁oculto	-11.9469
▁parásito	-11.9469
▁qualities	-11.9469
▁romántico	-11.9469
▁signature	-11.9469
▁tuviéramos	-11.9469
▁smoking	-11.9469
▁whistle	-11.9469
▁transaction	-11.9469
▁gestiona	-11.9469
▁Mozart	-11.9469
▁Sarah	-11.9469
▁altruism	-11.9469
▁siguió	-11.9469
▁cayó	-11.9469
▁favela	-11.947
▁augment	-11.947
▁hidro	-11.947
▁materna	-11.947
▁dumb	-11.9471
▁migrant	-11.9471
▁lesbian	-11.9472
rofes	-11.9473
▁adentr	-11.9497
▁És	-11.9552
Puedo	-11.9566
school	-11.9566
▁Escuela	-11.9578
▁Etiopía	-11.9578
▁Imagínense	-11.9578
▁LGBT	-11.9578
▁Should	-11.9578
▁capabilities	-11.9578
▁ceremonia	-11.9578
▁cognitivo	-11.9578
▁cristiano	-11.9578
▁fabulous	-11.9578
▁glacier	-11.9578
▁hectárea	-11.9578
▁mecánico	-11.9578
▁necesitábamos	-11.9578
▁octubre	-11.9578
▁sistemática	-11.9578
▁symmetry	-11.9578
▁teclado	-11.9578
▁vacuum	-11.9578
▁computacional	-11.9578
▁crush	-11.9578
▁inhabit	-11.9578
▁llevo	-11.9578
▁escrita	-11.9578
▁supernova	-11.9578
▁nosotras	-11.9578
▁percibe	-11.9578
▁ecological	-11.9578
▁escasez	-11.9578
▁microbial	-11.9578
▁suponía	-11.9578
▁variación	-11.9578
▁reúne	-11.9578
▁innocent	-11.9578
▁Jesus	-11.9579
▁estatua	-11.9581
▁baila	-11.9653
looking	-11.9676
lógica	-11.9683
▁Afortunadamente	-11.9688
▁Benjamin	-11.9688
▁Niño	-11.9688
▁arruina	-11.9688
▁biodiversity	-11.9688
▁category	-11.9688
▁catástrofe	-11.9688
▁centímetro	-11.9688
▁desarrolló	-11.9688
▁escarabajo	-11.9688
▁excitement	-11.9688
▁iPad	-11.9688
▁improbable	-11.9688
▁masculino	-11.9688
▁mobility	-11.9688
▁nutrients	-11.9688
▁prisionero	-11.9688
▁produciendo	-11.9688
▁récord	-11.9688
▁sanitario	-11.9688
▁unbelievable	-11.9688
▁cliff	-11.9688
▁gustó	-11.9688
▁valiosa	-11.9688
▁vuela	-11.9688
▁Business	-11.9688
▁crystal	-11.9688
▁milenio	-11.9688
▁harness	-11.9688
▁soñar	-11.9695
▁irrita	-11.9722
significa	-11.9787
▁absoluta	-11.9791
▁renov	-11.9796
ógrafo	-11.9799
▁Biblia	-11.9799
▁Kepler	-11.9799
▁SETI	-11.9799
▁Turquía	-11.9799
▁abundancia	-11.9799
▁dilemma	-11.9799
▁estigma	-11.9799
▁expedition	-11.9799
▁exposure	-11.9799
▁judicial	-11.9799
▁lápiz	-11.9799
▁mushroom	-11.9799
▁pharmaceutical	-11.9799
▁superficial	-11.9799
▁unprecedented	-11.9799
▁Ártico	-11.9799
▁shrimp	-11.9799
▁gerente	-11.9799
▁Craig	-11.9799
▁geek	-11.9799
▁Dallas	-11.9799
▁prince	-11.9799
▁Río	-11.9799
▁diablo	-11.9799
▁reliable	-11.9799
▁excusa	-11.9799
▁temple	-11.9799
▁calorías	-11.9799
▁Open	-11.98
▁torture	-11.98
cellular	-11.9805
▁Turkey	-11.9911
▁aficionado	-11.9911
▁categories	-11.9911
▁cobertura	-11.9911
▁compelling	-11.9911
▁contemporary	-11.9911
▁despierta	-11.9911
▁distinguish	-11.9911
▁dividir	-11.9911
▁enterprise	-11.9911
▁stigma	-11.9911
▁threshold	-11.9911
▁Everest	-11.9911
▁Spanish	-11.9911
▁genuine	-11.9911
▁episode	-11.9911
▁puñado	-11.9911
▁bizarre	-11.9911
▁propaganda	-11.9911
▁muestre	-11.9911
▁Tercer	-11.9911
▁seemingly	-11.9911
▁ecológica	-11.9911
▁inmenso	-11.9911
▁submit	-11.9911
▁perdida	-11.9912
▁radar	-11.9913
▁congrega	-11.9914
▁cardiac	-11.9914
▁Lyn	-11.9941
▁prescrib	-11.998
assembly	-12.0025
▁Christopher	-12.0025
▁astrónomo	-12.0025
▁currency	-12.0025
▁distinguir	-12.0025
▁facultad	-12.0025
▁fantasía	-12.0025
▁republicano	-12.0025
▁strategic	-12.0025
▁submarino	-12.0025
▁injustice	-12.0025
▁Montana	-12.0025
▁ownership	-12.0025
▁pudiese	-12.0025
▁whatsoever	-12.0025
▁deteriora	-12.0025
▁Court	-12.0025
▁corregir	-12.0025
▁asesino	-12.0025
▁emprend	-12.0138
▁Investiga	-12.014
génesis	-12.014
▁1997	-12.014
▁Although	-12.014
▁Arizona	-12.014
▁Mumbai	-12.014
▁Occidental	-12.014
▁breakfast	-12.014
▁collaborate	-12.014
▁curriculum	-12.014
▁dictionary	-12.014
▁egipcio	-12.014
▁jihad	-12.014
▁perseguir	-12.014
▁primitive	-12.014
▁primordial	-12.014
▁pánico	-12.014
▁restricciones	-12.014
▁vulnerability	-12.014
▁Encontramos	-12.014
▁recipient	-12.014
▁veterinar	-12.014
▁minimum	-12.014
▁ocasiona	-12.014
▁inodoro	-12.014
▁adicto	-12.014
▁stunt	-12.014
▁pluma	-12.014
▁absence	-12.014
▁Excel	-12.014
▁Wood	-12.0142
▁escanea	-12.0142
▁appreciat	-12.0224
efficient	-12.0244
income	-12.0244
▁imperfect	-12.0256
▁inalámbrica	-12.0256
▁Aprendí	-12.0256
▁December	-12.0256
▁Journal	-12.0256
▁Snowden	-12.0256
▁Technology	-12.0256
▁asequible	-12.0256
▁convierta	-12.0256
▁diámetro	-12.0256
▁estúpido	-12.0256
▁executive	-12.0256
▁facilities	-12.0256
▁hypothesis	-12.0256
▁simplicidad	-12.0256
▁transcurso	-12.0256
▁pixel	-12.0256
▁pulmón	-12.0256
▁rubber	-12.0256
▁architectural	-12.0256
▁volvemos	-12.0256
▁familiarizados	-12.0256
▁escoger	-12.0256
▁cheer	-12.0257
▁extingu	-12.0257
▁venture	-12.0258
▁surgir	-12.0258
Correcto	-12.0259
▁erect	-12.0294
cribimos	-12.03
alai	-12.0354
▁equivale	-12.0364
▁1996	-12.0374
▁February	-12.0374
▁Jefferson	-12.0374
▁astronomer	-12.0374
▁climática	-12.0374
▁concurso	-12.0374
▁desconocida	-12.0374
▁destreza	-12.0374
▁diciembre	-12.0374
▁magnífico	-12.0374
▁parecida	-12.0374
▁prosthetic	-12.0374
▁tránsito	-12.0374
▁zumbido	-12.0374
▁Ébola	-12.0374
▁Friday	-12.0374
▁devastador	-12.0374
▁solitario	-12.0374
▁empeora	-12.0374
▁romance	-12.0374
▁resilient	-12.0374
▁cuidadosamente	-12.0374
▁bulb	-12.0374
▁cereal	-12.0378
▁amputa	-12.0381
▁mentir	-12.0391
quarters	-12.0429
▁vivid	-12.0488
▁Antártida	-12.0493
▁beneath	-12.0493
▁convirtiendo	-12.0493
▁counsel	-12.0493
▁dramática	-12.0493
▁finanzas	-12.0493
▁hallazgo	-12.0493
▁striking	-12.0493
▁terrified	-12.0493
▁1984	-12.0493
▁gusano	-12.0493
▁intriga	-12.0493
▁recopil	-12.0493
▁viernes	-12.0493
▁camisa	-12.0493
▁statue	-12.0493
▁amplifica	-12.0494
▁mutual	-12.0494
▁barrel	-12.0494
▁jubila	-12.0496
▁variant	-12.0505
technology	-12.0601
Hola	-12.0601
prendieron	-12.0613
▁exclusiva	-12.0613
troalimentación	-12.0613
▁Normalmente	-12.0613
▁Roosevelt	-12.0613
▁Tampoco	-12.0613
▁atraviesa	-12.0613
▁collaborator	-12.0613
▁commission	-12.0613
▁desaparecido	-12.0613
▁diminuta	-12.0613
▁enforcement	-12.0613
▁evolutiva	-12.0613
▁fractura	-12.0613
▁pantalones	-12.0613
▁protegida	-12.0613
▁sapiens	-12.0613
▁Muchísim	-12.0613
▁chamber	-12.0613
▁Sistema	-12.0613
▁sombrero	-12.0613
▁intensidad	-12.0613
▁ocasión	-12.0613
▁Cairo	-12.0613
▁stability	-12.0613
▁soccer	-12.0613
▁silver	-12.0614
ologies	-12.0622
▁aparea	-12.0625
▁tremendo	-12.0732
▁Austria	-12.0735
▁Little	-12.0735
▁Orleans	-12.0735
▁accuracy	-12.0735
▁ambitious	-12.0735
▁assistance	-12.0735
▁béisbol	-12.0735
▁cafetería	-12.0735
▁eBay	-12.0735
▁energético	-12.0735
▁moviliza	-12.0735
▁ocurría	-12.0735
▁percibir	-12.0735
▁pronuncia	-12.0735
▁protegido	-12.0735
▁prótesis	-12.0735
▁silvestre	-12.0735
▁supermarket	-12.0735
▁yihad	-12.0735
▁colapso	-12.0735
▁ecuaciones	-12.0735
▁mencioné	-12.0735
▁Accord	-12.0735
▁bienvenida	-12.0735
▁España	-12.0735
▁indirect	-12.0735
▁Spain	-12.0735
▁snake	-12.0735
▁pionero	-12.0735
▁nombrar	-12.0735
▁crawl	-12.0736
▁conquista	-12.0736
▁castiga	-12.0737
Audiencia	-12.0738
▁malign	-12.0741
▁resort	-12.0741
▁especula	-12.0743
▁poliniza	-12.0747
tendrá	-12.075
iéndonos	-12.077
▁Angel	-12.0843
podemos	-12.0847
carbon	-12.0848
▁System	-12.0858
▁académica	-12.0858
▁aislamiento	-12.0858
▁conseguido	-12.0858
▁farmacéutica	-12.0858
▁grandparents	-12.0858
▁receiving	-12.0858
▁sofisticada	-12.0858
▁syndrome	-12.0858
▁sólida	-12.0858
▁Kansas	-12.0859
▁deprimido	-12.0859
▁prefrontal	-12.0859
▁spontaneous	-12.0859
▁pathogen	-12.0859
▁Termina	-12.0859
▁describing	-12.0859
▁intended	-12.0859
▁catalog	-12.0859
▁infecciones	-12.0859
▁generous	-12.0859
▁serpiente	-12.0859
▁sintetiza	-12.0859
▁geographic	-12.0859
▁competido	-12.0859
▁Food	-12.0859
▁Bosnia	-12.0859
▁fortalec	-12.0862
▁otorga	-12.0866
▁literal	-12.0964
Gracias	-12.0971
▁falsifi	-12.0983
▁Holocaust	-12.0983
▁Noruega	-12.0983
▁aburrida	-12.0983
▁accumulate	-12.0983
▁devastating	-12.0983
▁egoísta	-12.0983
▁encouraging	-12.0983
▁excellent	-12.0983
▁extraterrestre	-12.0983
▁flourish	-12.0983
▁idéntico	-12.0983
▁impressive	-12.0983
▁pandemic	-12.0983
▁precipita	-12.0983
▁recibiendo	-12.0983
▁tattoo	-12.0983
▁1945	-12.0984
▁Madison	-12.0984
▁cadáver	-12.0984
▁encantó	-12.0984
▁paciencia	-12.0984
▁pulmones	-12.0984
▁suicidio	-12.0984
▁reinforce	-12.0984
▁preparing	-12.0984
▁plaga	-12.0985
unclear	-12.1037
estabiliza	-12.1037
▁historic	-12.109
Debería	-12.1098
_	-12.111
▁Himalaya	-12.111
▁cardiovascular	-12.111
▁doméstica	-12.111
▁empecemos	-12.111
▁escucho	-12.111
▁identities	-12.111
▁musulmana	-12.111
▁pedestrian	-12.111
▁regresó	-12.111
▁síndrome	-12.111
▁trajectory	-12.111
▁viruela	-12.111
▁Public	-12.111
▁Twenty	-12.111
▁believing	-12.111
▁cariño	-12.111
▁cheese	-12.111
▁inesperada	-12.111
▁pistola	-12.111
▁sospecha	-12.111
▁virtue	-12.111
▁óptica	-12.111
▁Alabama	-12.111
▁Colombia	-12.111
▁hallucinat	-12.111
▁relief	-12.111
▁vitamin	-12.111
▁clarity	-12.111
▁mínima	-12.111
▁Cinco	-12.111
▁grip	-12.1198
keeper	-12.1213
engineer	-12.1226
Quiero	-12.1226
natural	-12.1227
▁repentina	-12.1238
sesperadamente	-12.1238
▁Bitcoin	-12.1238
▁Carnegie	-12.1238
▁Narrator	-12.1238
▁Organization	-12.1238
▁cigarette	-12.1238
▁fractal	-12.1238
▁lágrimas	-12.1238
▁paralyzed	-12.1238
▁respalda	-12.1238
▁Senegal	-12.1238
▁anatomía	-12.1238
▁muebles	-12.1238
▁agrupa	-12.1238
▁congestion	-12.1238
▁actuación	-12.1238
▁aplaud	-12.1238
▁possess	-12.1238
▁heritage	-12.1238
▁thread	-12.1238
▁jewel	-12.1238
▁backyard	-12.1238
▁Premio	-12.1238
▁Zip	-12.1238
▁pidiendo	-12.1238
▁leopard	-12.1238
▁blend	-12.1238
▁diverge	-12.1238
▁despair	-12.1238
▁arranca	-12.1239
▁Opera	-12.1249
▁alberga	-12.1257
▁Sentí	-12.1258
▁teenage	-12.1333
▁instruct	-12.1355
minute	-12.1356
▁Canadian	-12.1368
▁Crecí	-12.1368
▁Recientemente	-12.1368
▁ceguera	-12.1368
▁costumbre	-12.1368
▁dinámico	-12.1368
▁emphasize	-12.1368
▁luxury	-12.1368
▁mezquita	-12.1368
▁millennia	-12.1368
▁propietario	-12.1368
▁rethink	-12.1368
▁sponsor	-12.1368
▁susceptible	-12.1368
▁temporary	-12.1368
▁County	-12.1368
▁matrix	-12.1368
▁methane	-12.1368
▁perpetra	-12.1368
▁serotonin	-12.1368
▁theoretical	-12.1368
▁volcán	-12.1368
▁esclavos	-12.1368
▁ambition	-12.1368
prehensi	-12.1368
▁julio	-12.1368
▁puerto	-12.1368
▁bribe	-12.1368
▁tronco	-12.1368
▁medusa	-12.1368
▁descarta	-12.1372
▁sculpt	-12.1499
▁desperdicia	-12.15
▁divorce	-12.15
▁1991	-12.15
▁Council	-12.15
▁Empecemos	-12.15
▁Kosovo	-12.15
▁Linux	-12.15
▁Massachusetts	-12.15
▁Philadelphia	-12.15
▁Together	-12.15
▁Zimbabwe	-12.15
▁acontecimiento	-12.15
▁collision	-12.15
▁constraints	-12.15
▁eficaces	-12.15
▁japonés	-12.15
▁oxitocina	-12.15
▁prescription	-12.15
▁pursuit	-12.15
▁sostenibilidad	-12.15
▁straightforward	-12.15
▁terribly	-12.15
▁Cuatro	-12.15
divinen	-12.15
▁anatomy	-12.15
▁colonies	-12.15
▁adelanta	-12.15
Í	-12.1768
=	-12.3231
ã	-12.3715
ç	-12.4577
ö	-12.5133
è	-12.6786
—	-12.8485
à	-12.9045
‘	-13.0241
[	-13.0885
^	-13.0897
ì	-13.1599
@	-13.2354
─	-13.406
Ó	-13.5562
#	-13.6106
ä	-13.7331
ø	-13.7331
ā	-13.7998
ù	-13.8712
ê	-14.1224
ા	-14.2224
ō	-14.3335
ô	-14.4585
â	-14.6013
ન	-14.6013
ò	-14.6013
(	-14.7637
$	-14.7668
ل	-14.768
ا	-14.768
	-14.768
ī	-14.768
ર	-14.968
ો	-14.968
ك	-14.968
ي	-14.968
È	-15.218
ت	-15.218
ر	-15.218
ن	-15.218
ય	-15.218
•	-15.218
æ	-15.218
ી	-15.218
♫	-15.5501
ð	-15.5513
~	-15.5513
ň	-15.5513
š	-15.5513
̊	-15.5513
о	-15.5513
ં	-15.5513
જ	-15.5513
ે	-15.5513
્	-15.5513
你	-15.5513
ક	-15.5513
ુ	-15.5513
α	-15.5513
а	-15.5513
我	-15.5514
و	-16.0513
ગ	-16.0513
Å	-16.0513
Ñ	-16.0513
Č	-16.0513
κ	-16.0513
τ	-16.0513
е	-16.0513
и	-16.0513
أ	-16.0513
ب	-16.0513
د	-16.0513
ه	-16.0513
ચ	-16.0513
દ	-16.0513
―	-16.0513
啊	-16.0513
洋	-16.0513
葱	-16.0513
送	-16.0513
س	-16.0513
સ	-16.0513
妈	-16.0514
ọ	-17.0466
ẹ	-17.0467
ષ	-17.0468
વ	-17.0469
લ	-17.047
પ	-17.0471
ધ	-17.0472
ડ	-17.0473
्	-17.0474
े	-17.0475
र	-17.0476
म	-17.0477
प	-17.0478
م	-17.0479
ع	-17.048
ы	-17.0481
з	-17.0482
б	-17.0483
χ	-17.0484
υ	-17.0485
ě	-17.0486
н	-17.0487
ć	-17.0488
©	-17.0489
т	-17.049
Ö	-17.0491
Ç	-17.0492
ʾ	-17.0493
£	-17.0494
€	-17.0495
	-17.0496
	-17.0497
⁄	-17.0498
®	-17.0499
ë	-17.05
́	-17.0501
ï	-17.0502
”	-17.0502
*	-17.0503
̈	-17.0504
Ú	-17.0505
ń	-17.0506
°	-17.0507
–	-17.0508
»	-17.0509
/	-17.051
♪	-17.0511
’	-17.0512
¡	-17.0513
ખ	-17.0513
並	-17.0513
出	-17.0513
太	-17.0513
果	-17.0513
結	-17.0513
阳	-17.0513
Т	-17.0513
બ	-17.0513
{	-17.0513
}	-17.0513
	-17.0513
¢	-17.0513
¥	-17.0513
­	-17.0513
û	-17.0513
Ă	-17.0513
Ō	-17.0513
ŕ	-17.0513
Ť	-17.0513
ū	-17.0513
Μ	-17.0513
ε	-17.0513
η	-17.0513
λ	-17.0513
ν	-17.0513
ω	-17.0513
Н	-17.0513
к	-17.0513
с	-17.0513
ч	-17.0513
ؤ	-17.0513
ح	-17.0513
خ	-17.0513
ط	-17.0513
આ	-17.0513
એ	-17.0513
ણ	-17.0513
થ	-17.0513
મ	-17.0513
શ	-17.0513
િ	-17.0513
≈	-17.0513
。	-17.0513
不	-17.0513
了	-17.0513
以	-17.0513
做	-17.0513
可	-17.0513
喜	-17.0513
大	-17.0513
姐	-17.0513
完	-17.0513
曲	-17.0513
来	-17.0513
歌	-17.0513
王	-17.0513
给	-17.0513
美	-17.0513
要	-17.0513
î	-17.0513
̀	-17.0513
હ	-17.0513
Ε	-17.0514
ι	-17.0514
ρ	-17.0514
σ	-17.0514
作	-17.0514
在	-17.0514
多	-17.0514
工	-17.0514
很	-17.0514
方	-17.0514
有	-17.0514
這	-17.0514
ñ	-17.0514
一	-17.0514
下	-17.0514
唱	-17.0514
教	-17.0514
的	-17.0514
