<s>	0
<pad>	0
</s>	0
<unk>	0
,	-3.03008
.	-3.20196
s	-3.39931
▁a	-3.73379
▁the	-4.13241
▁de	-4.27774
▁que	-4.33656
▁to	-4.52938
'	-4.62892
▁of	-4.66776
▁and	-4.7121
▁e	-4.75275
▁o	-4.78297
▁that	-4.90938
▁I	-4.93672
▁in	-4.97094
-	-5.04355
▁é	-5.26899
t	-5.27294
▁is	-5.28866
▁do	-5.31433
▁it	-5.32471
▁you	-5.34195
▁we	-5.3829
▁"	-5.40651
▁um	-5.42017
▁para	-5.43597
r	-5.44287
▁uma	-5.48263
m	-5.56235
▁as	-5.64474
▁em	-5.70629
▁And	-5.7142
▁this	-5.73876
▁não	-5.74112
?	-5.75067
▁da	-5.77599
▁com	-5.80257
▁—	-5.82545
▁os	-5.85797
:	-5.86076
re	-5.86796
▁no	-5.88678
▁for	-5.94991
▁was	-5.95526
▁se	-6.01807
ing	-6.05133
a	-6.06951
u	-6.08498
▁are	-6.08582
▁have	-6.08984
d	-6.09043
o	-6.11121
▁they	-6.14372
ed	-6.15752
▁on	-6.15928
▁na	-6.17018
▁como	-6.17053
▁A	-6.18267
▁with	-6.19202
▁mais	-6.19947
▁can	-6.20373
▁be	-6.21704
▁E	-6.25856
se	-6.2867
▁por	-6.30489
▁	-6.31696
▁So	-6.31842
▁me	-6.34373
▁what	-6.35892
n	-6.36839
▁about	-6.3762
▁not	-6.43231
▁at	-6.5034
mos	-6.51351
▁my	-6.53255
▁all	-6.54575
c	-6.5511
e	-6.55225
▁so	-6.55701
▁O	-6.58521
ve	-6.58861
)	-6.5916
l	-6.59209
▁people	-6.59691
▁one	-6.60374
▁(	-6.60751
▁like	-6.61534
▁muito	-6.61982
i	-6.63705
▁from	-6.67223
do	-6.67434
▁our	-6.67502
▁there	-6.6777
▁pessoas	-6.68146
▁eu	-6.6898
▁an	-6.69702
"	-6.72184
▁It	-6.72212
▁but	-6.72848
▁mas	-6.73684
▁or	-6.75257
ar	-6.7575
ly	-6.76031
▁isso	-6.76552
es	-6.76981
me	-6.7812
▁ou	-6.78601
y	-6.79307
▁ser	-6.80431
▁just	-6.80702
▁são	-6.80906
▁Mas	-6.83273
▁We	-6.83462
▁But	-6.85182
▁fazer	-6.85654
▁out	-6.86794
▁à	-6.87122
."	-6.87893
▁if	-6.90032
er	-6.91169
p	-6.91579
▁by	-6.9207
▁The	-6.92305
▁these	-6.93633
da	-6.95562
▁ao	-6.95562
▁dos	-6.96028
▁when	-6.96048
am	-6.96864
▁up	-6.97728
▁had	-6.97804
▁he	-6.98486
▁more	-6.9875
▁them	-6.99505
▁very	-6.99533
▁nos	-7.00692
▁know	-7.008
▁who	-7.01454
▁because	-7.01649
▁their	-7.01863
al	-7.03424
▁were	-7.05389
▁us	-7.05497
▁porque	-7.06663
▁going	-7.0696
▁anos	-7.07328
▁see	-7.07764
▁quando	-7.08053
te	-7.08476
▁está	-7.08885
▁think	-7.09053
▁É	-7.09842
▁would	-7.10267
▁your	-7.1247
▁how	-7.12813
▁re	-7.13276
lo	-7.13463
em	-7.14036
▁há	-7.14934
▁das	-7.15386
g	-7.18034
▁which	-7.1903
▁get	-7.19509
▁sobre	-7.19604
▁time	-7.19613
▁really	-7.19948
▁era	-7.20085
la	-7.21415
b	-7.22146
▁esta	-7.22194
▁isto	-7.22389
ção	-7.24771
▁foi	-7.26222
▁world	-7.26263
ll	-7.28324
▁Não	-7.2939
▁has	-7.29797
▁could	-7.29974
va	-7.3152
▁mundo	-7.31701
▁minha	-7.31962
▁don	-7.33099
▁some	-7.33987
le	-7.34489
to	-7.34557
▁ver	-7.34917
▁into	-7.34966
▁way	-7.3508
ro	-7.36221
▁here	-7.36681
▁This	-7.3767
▁will	-7.37929
▁este	-7.3832
▁forma	-7.38542
▁go	-7.38599
▁other	-7.39031
os	-7.39186
▁then	-7.39459
nos	-7.39835
ce	-7.39906
▁todos	-7.40785
▁ele	-7.40829
▁years	-7.40868
▁coisas	-7.41019
▁want	-7.41471
▁actually	-7.41549
▁where	-7.4168
▁ter	-7.43025
▁You	-7.43305
▁meu	-7.44695
▁now	-7.45523
▁estão	-7.45673
▁been	-7.45974
▁coisa	-7.46011
▁Se	-7.46532
▁make	-7.47546
▁Now	-7.47843
▁nós	-7.48492
▁vida	-7.48835
▁things	-7.48981
▁They	-7.49234
in	-7.49489
▁tem	-7.49583
ra	-7.50142
ta	-7.50772
mo	-7.51584
ri	-7.52391
▁também	-7.52875
▁mesmo	-7.53505
▁Eu	-7.53969
▁temos	-7.54493
mente	-7.55387
ia	-7.56146
á	-7.56621
▁than	-7.57436
as	-7.57626
▁In	-7.57797
f	-7.58511
▁those	-7.59255
ram	-7.59453
dos	-7.59684
▁aqui	-7.59902
▁said	-7.602
▁right	-7.60999
▁s	-7.61066
▁tempo	-7.61856
▁over	-7.62096
ndo	-7.62152
▁something	-7.62227
Risos	-7.62794
▁two	-7.63517
▁nossa	-7.64598
li	-7.64636
▁first	-7.64708
▁vez	-7.65605
de	-7.65836
▁also	-7.65841
▁work	-7.66704
tion	-7.66926
▁sua	-7.67003
▁much	-7.67874
co	-7.6802
▁podemos	-7.6809
▁têm	-7.68659
▁she	-7.69521
▁even	-7.70007
?"	-7.70531
▁back	-7.70672
▁num	-7.71019
h	-7.71814
▁need	-7.7194
▁look	-7.7197
▁most	-7.72032
ou	-7.72128
▁thing	-7.72417
▁his	-7.74266
▁say	-7.74411
▁só	-7.74979
▁pode	-7.75115
▁life	-7.75173
▁eles	-7.7552
;	-7.75536
▁got	-7.75765
A	-7.75827
▁only	-7.76136
▁dizer	-7.76178
▁nosso	-7.76295
na	-7.76449
ão	-7.76783
▁apenas	-7.77647
▁disse	-7.77959
Laughter	-7.78221
das	-7.78361
▁her	-7.78855
▁many	-7.79022
▁tinha	-7.79191
en	-7.79482
▁onde	-7.79668
▁podem	-7.80399
▁little	-7.81185
▁That	-7.81719
▁Então	-7.81738
▁take	-7.81963
ci	-7.82361
▁estava	-7.82413
no	-7.8245
▁numa	-7.82761
▁depois	-7.83443
".	-7.83611
▁De	-7.83736
ion	-7.84475
ur	-7.84802
▁new	-7.85775
▁lot	-7.86095
▁até	-7.86311
▁Por	-7.86759
▁As	-7.87107
í	-7.87787
▁seu	-7.88701
or	-7.88816
▁tudo	-7.88857
▁parte	-7.89591
,"	-7.90259
▁What	-7.90892
▁did	-7.91305
ic	-7.91361
▁pela	-7.9147
▁No	-7.91842
▁come	-7.91898
ne	-7.92079
ca	-7.92131
▁S	-7.92296
ir	-7.9279
▁around	-7.93024
is	-7.93112
▁different	-7.93113
▁C	-7.93221
▁good	-7.93384
on	-7.93927
▁dia	-7.94095
ter	-7.95211
ma	-7.9537
▁bem	-7.96699
ções	-7.96795
th	-7.96832
▁He	-7.97554
▁kind	-7.98261
▁every	-7.98414
▁There	-7.98514
ga	-7.98619
▁use	-7.98705
di	-7.98926
▁Quando	-7.9903
▁já	-7.99339
▁through	-7.99566
ment	-8.00418
▁agora	-8.00428
▁Os	-8.00524
▁being	-8.00776
vi	-8.00941
▁same	-8.01082
▁falar	-8.01265
▁entre	-8.01622
▁Isto	-8.0187
▁grande	-8.01914
é	-8.02189
▁trabalho	-8.02346
go	-8.03108
▁down	-8.03844
▁melhor	-8.0391
us	-8.04013
▁sem	-8.04173
k	-8.04544
▁tipo	-8.04839
▁nas	-8.05479
▁pelo	-8.05501
▁day	-8.05541
▁tão	-8.05714
▁estamos	-8.05868
▁F	-8.06217
▁con	-8.06991
nte	-8.07212
▁qualquer	-8.07994
▁assim	-8.08026
▁pro	-8.08159
ck	-8.0822
nt	-8.08256
w	-8.08276
▁ela	-8.08357
ti	-8.09855
▁vezes	-8.10227
S	-8.10543
▁percent	-8.10901
▁human	-8.11099
▁real	-8.11191
x	-8.11427
▁Na	-8.11678
▁10	-8.11712
vos	-8.12452
▁vocês	-8.13131
tor	-8.13434
▁Há	-8.13454
ch	-8.1358
▁ainda	-8.13666
I	-8.13844
pa	-8.14824
▁three	-8.149
▁cada	-8.15037
ers	-8.15275
ation	-8.15286
▁own	-8.15563
ámos	-8.16083
ado	-8.16277
▁part	-8.16631
bo	-8.17295
ação	-8.17515
▁pre	-8.17651
▁pouco	-8.18012
▁If	-8.18046
▁todas	-8.18143
▁todo	-8.18661
▁put	-8.18873
▁história	-8.19073
▁vi	-8.19239
▁milhões	-8.19305
il	-8.19588
que	-8.19598
▁dois	-8.19658
!	-8.20359
▁vai	-8.20475
▁find	-8.20799
▁fact	-8.20872
▁tell	-8.2089
▁any	-8.20976
▁let	-8.21204
▁B	-8.21392
▁well	-8.2152
▁aos	-8.21639
▁change	-8.22023
▁made	-8.2217
▁sempre	-8.2226
▁pensar	-8.23186
ted	-8.23342
an	-8.23388
▁Em	-8.23513
it	-8.23809
▁should	-8.23878
C	-8.2393
▁problema	-8.2403
▁doing	-8.24247
▁called	-8.24456
▁ex	-8.24533
▁algo	-8.24557
▁lá	-8.2466
▁why	-8.24792
po	-8.24956
▁Esta	-8.25095
O	-8.25099
▁year	-8.25511
▁estas	-8.25532
▁maior	-8.25823
▁didn	-8.26346
ei	-8.26463
ting	-8.27033
▁co	-8.27038
ry	-8.27112
▁Well	-8.27142
est	-8.27173
▁per	-8.27312
▁ideia	-8.27319
ria	-8.2771
ul	-8.2773
▁outros	-8.27924
pe	-8.28049
▁20	-8.28433
▁três	-8.28744
▁verdade	-8.28816
z	-8.28845
▁casa	-8.29164
tic	-8.29438
▁social	-8.29559
ent	-8.29695
ba	-8.29749
...	-8.30238
be	-8.30398
▁after	-8.30484
▁ano	-8.30736
▁durante	-8.30786
▁Como	-8.30898
▁importante	-8.30993
▁man	-8.31024
ada	-8.3111
▁outra	-8.31177
▁mim	-8.31496
▁today	-8.31651
lhe	-8.32061
ó	-8.32546
▁toda	-8.32732
▁nossos	-8.3293
▁talk	-8.33166
▁ir	-8.33272
▁Este	-8.33349
▁started	-8.33481
▁hoje	-8.33554
▁menos	-8.33936
▁thought	-8.34
▁might	-8.34208
E	-8.34853
▁essa	-8.34898
▁idea	-8.34987
ity	-8.35149
▁car	-8.35729
nd	-8.36055
▁facto	-8.36321
▁before	-8.3636
fi	-8.3671
ge	-8.37183
M	-8.37261
▁never	-8.37925
▁great	-8.37949
▁primeira	-8.37955
▁better	-8.37997
ver	-8.38376
▁problem	-8.3871
▁estes	-8.38885
▁às	-8.38965
▁muitas	-8.39131
▁question	-8.39138
▁exemplo	-8.3939
▁give	-8.39635
▁last	-8.39678
▁outro	-8.39809
▁estar	-8.40104
▁lado	-8.4036
rem	-8.40396
▁seja	-8.40778
▁still	-8.40892
▁mulheres	-8.40914
ni	-8.41205
▁important	-8.4123
▁seus	-8.41314
▁Portanto	-8.41432
▁esse	-8.41535
▁end	-8.42239
▁women	-8.42268
▁start	-8.42573
▁global	-8.42815
▁c	-8.43048
▁brain	-8.43216
idade	-8.43755
▁Porque	-8.4395
▁nunca	-8.44003
▁system	-8.44137
▁duas	-8.44236
▁able	-8.44281
▁sistema	-8.44447
▁him	-8.4478
v	-8.44887
▁p	-8.44915
pi	-8.44982
▁found	-8.4514
▁together	-8.45163
▁went	-8.45164
▁neste	-8.45214
▁place	-8.45225
▁point	-8.45871
tra	-8.46217
los	-8.46266
▁few	-8.46357
▁long	-8.46416
▁pessoa	-8.46596
▁cérebro	-8.46687
ive	-8.46789
▁big	-8.46834
▁un	-8.47029
▁help	-8.47208
▁outras	-8.4726
▁came	-8.47318
▁criar	-8.47333
▁usar	-8.4755
▁Re	-8.47635
ntes	-8.47733
vo	-8.4791
▁When	-8.48242
▁tentar	-8.48277
▁another	-8.48377
▁off	-8.4839
▁story	-8.48962
▁di	-8.49032
▁love	-8.49185
▁nada	-8.4949
▁feel	-8.49855
▁each	-8.50589
at	-8.50658
▁crianças	-8.50683
▁contra	-8.50724
▁bit	-8.5085
fe	-8.50986
▁course	-8.5099
▁next	-8.51357
▁alguns	-8.5156
▁T	-8.51587
ados	-8.51921
D	-8.52047
bi	-8.5233
mento	-8.52377
he	-8.52441
P	-8.52845
ais	-8.52908
▁ago	-8.53478
▁tenho	-8.53879
▁show	-8.54129
▁diferentes	-8.54227
▁live	-8.54294
▁volta	-8.54403
▁home	-8.54431
▁água	-8.54485
▁data	-8.54548
",	-8.54759
▁primeiro	-8.55263
▁used	-8.55355
▁dar	-8.55518
ê	-8.56256
▁talvez	-8.56304
el	-8.56379
▁P	-8.56484
▁nem	-8.56517
▁again	-8.56628
▁mean	-8.567
▁vou	-8.56718
▁between	-8.56788
dor	-8.5681
▁G	-8.56838
▁Uma	-8.57026
et	-8.57097
▁local	-8.57758
▁nossas	-8.57799
▁realmente	-8.57814
ha	-8.57907
▁estou	-8.5796
▁Para	-8.58275
▁U	-8.58788
▁Agora	-8.58804
▁19	-8.58995
▁vão	-8.59058
▁example	-8.59094
▁does	-8.59223
▁call	-8.59422
las	-8.59442
▁water	-8.59717
▁faz	-8.59753
▁cerca	-8.6
▁antes	-8.60176
▁understand	-8.60361
able	-8.60855
▁vamos	-8.60909
▁suas	-8.6152
▁tecnologia	-8.61543
▁alguém	-8.61559
con	-8.61608
▁30	-8.62059
▁school	-8.6255
▁trabalhar	-8.62551
ões	-8.62782
ist	-8.63321
▁believe	-8.63389
so	-8.6357
ness	-8.63731
▁Um	-8.63806
▁momento	-8.64068
▁Ele	-8.64152
▁too	-8.64325
▁mil	-8.64452
▁children	-8.64506
io	-8.64662
▁ra	-8.65109
▁corpo	-8.65325
▁may	-8.65335
id	-8.6536
amente	-8.65601
▁g	-8.65642
▁dados	-8.65855
▁For	-8.66104
un	-8.66153
▁doesn	-8.66171
T	-8.66185
▁technology	-8.66195
▁Mo	-8.66465
▁Isso	-8.66562
▁meus	-8.66678
▁Foi	-8.66838
▁Temos	-8.66999
▁wanted	-8.67152
ido	-8.67235
▁M	-8.67338
▁poder	-8.67448
▁significa	-8.67494
▁always	-8.67537
▁muitos	-8.67541
▁person	-8.67758
▁public	-8.67768
▁sub	-8.6785
▁enquanto	-8.67862
per	-8.68201
▁light	-8.68235
ho	-8.69018
bra	-8.69187
vam	-8.692
▁Internet	-8.69392
▁ca	-8.69497
▁country	-8.69673
▁space	-8.69778
▁foram	-8.69973
▁create	-8.69998
du	-8.70024
▁ever	-8.70593
▁uns	-8.71093
qui	-8.71122
▁disso	-8.71346
▁encontrar	-8.71667
▁acontece	-8.71718
▁Ma	-8.71991
▁design	-8.72549
▁mudar	-8.72634
▁looking	-8.7289
▁começar	-8.7292
▁tra	-8.73046
▁vos	-8.73172
▁espaço	-8.73321
ng	-8.73321
▁mesma	-8.73443
sta	-8.73506
▁eram	-8.73715
▁qual	-8.73836
▁causa	-8.739
▁away	-8.7419
ço	-8.74221
▁done	-8.74229
▁po	-8.74342
▁através	-8.74374
▁diferente	-8.74441
▁novo	-8.74534
2	-8.74535
▁diz	-8.7455
▁algumas	-8.74674
▁Depois	-8.74763
▁inter	-8.74777
▁meio	-8.74964
B	-8.74965
▁high	-8.74987
man	-8.7524
▁quanto	-8.75346
▁50	-8.75673
▁país	-8.75695
▁far	-8.76027
▁ti	-8.76047
tive	-8.76206
▁second	-8.76235
▁si	-8.76291
▁million	-8.76316
▁Because	-8.76526
ine	-8.76734
▁ar	-8.77052
gue	-8.77111
▁en	-8.77146
▁trying	-8.77339
▁então	-8.77652
▁My	-8.77895
▁power	-8.77918
ty	-8.78075
▁working	-8.78428
▁four	-8.78602
▁lhe	-8.78675
▁dinheiro	-8.78733
▁whole	-8.78825
▁altura	-8.78854
▁ali	-8.79094
▁maybe	-8.79125
dores	-8.79185
Aplausos	-8.79217
▁gra	-8.79288
▁15	-8.7942
▁means	-8.79515
▁small	-8.79665
▁information	-8.79714
▁sido	-8.79717
▁quero	-8.79953
▁face	-8.8001
▁become	-8.80048
▁EUA	-8.80378
▁kids	-8.80538
▁Thank	-8.80877
▁elas	-8.81001
▁sort	-8.81017
▁dias	-8.8102
min	-8.81076
ns	-8.811
▁tinham	-8.81217
▁W	-8.81324
▁thinking	-8.81445
▁How	-8.81533
▁try	-8.81653
L	-8.81681
▁mar	-8.81796
▁future	-8.81801
▁moment	-8.81819
emos	-8.81962
▁quase	-8.81989
▁quem	-8.82296
▁using	-8.82308
ate	-8.82678
▁alguma	-8.82734
ies	-8.8284
%	-8.8286
age	-8.83055
▁She	-8.83182
▁100	-8.83313
▁problemas	-8.83416
▁number	-8.83431
▁li	-8.83571
▁hard	-8.83597
▁old	-8.83925
▁money	-8.84139
▁feito	-8.84206
▁took	-8.84822
▁países	-8.84842
amos	-8.84903
▁everything	-8.84903
▁dentro	-8.84905
▁futuro	-8.84967
um	-8.84967
▁natural	-8.85096
▁modo	-8.85136
▁energia	-8.85289
R	-8.85429
▁mãe	-8.85548
▁under	-8.85566
▁control	-8.85804
▁best	-8.85804
▁K	-8.86214
▁la	-8.8624
▁nesta	-8.86341
▁mostrar	-8.86409
▁somos	-8.86499
mi	-8.86998
▁sou	-8.8704
▁pergunta	-8.87132
▁experiência	-8.87133
▁process	-8.87168
ura	-8.87283
▁desta	-8.87309
▁base	-8.87433
▁left	-8.87442
▁fazem	-8.87677
▁ask	-8.87772
▁número	-8.88022
▁saber	-8.88057
ita	-8.88303
rá	-8.8831
▁five	-8.8846
tar	-8.88586
▁sense	-8.89181
▁essas	-8.89273
▁acontecer	-8.89319
Applause	-8.8971
1	-8.8976
▁men	-8.8977
▁One	-8.89871
▁fi	-8.90026
▁São	-8.90093
▁answer	-8.90183
ina	-8.90212
▁hand	-8.90254
▁conta	-8.90405
▁enough	-8.90458
▁lives	-8.90486
▁less	-8.90553
▁fim	-8.9058
ten	-8.90822
▁cor	-8.9093
che	-8.91028
▁Podemos	-8.91127
ente	-8.91207
▁told	-8.91208
▁parece	-8.91285
▁difícil	-8.91685
mp	-8.91701
▁dólares	-8.91765
cha	-8.91817
▁TED	-8.91823
ian	-8.92144
▁CA	-8.92145
▁bom	-8.92493
▁estavam	-8.92721
▁without	-8.92768
▁3	-8.9279
▁simples	-8.92825
▁gente	-8.92974
▁move	-8.93028
ável	-8.93063
▁possível	-8.9321
▁getting	-8.93223
5	-8.93316
8	-8.93352
▁Do	-8.9346
▁body	-8.93639
▁bring	-8.93679
▁family	-8.93701
♫	-8.93841
▁'	-8.93931
▁fe	-8.94086
▁New	-8.942
▁Ro	-8.94532
▁seria	-8.94568
▁t	-8.94572
▁form	-8.94728
▁sei	-8.9486
▁Vou	-8.94913
▁countries	-8.95259
less	-8.95458
▁head	-8.95477
▁lugar	-8.95497
▁cidade	-8.95611
▁J	-8.9577
▁D	-8.95926
ol	-8.96126
▁[	-8.96188
▁nova	-8.96283
▁young	-8.9634
▁Con	-8.9658
▁su	-8.96599
hi	-8.96616
▁vemos	-8.96735
▁super	-8.96748
▁penso	-8.96796
▁room	-8.97085
▁mo	-8.97162
▁play	-8.97264
▁food	-8.97347
▁questão	-8.97347
▁havia	-8.97496
▁reason	-8.97515
4	-8.97534
▁te	-8.97539
▁deste	-8.97566
▁side	-8.97639
▁talking	-8.97728
ência	-8.9781
ac	-8.97829
▁health	-8.98038
▁Ba	-8.98137
▁quatro	-8.98224
▁age	-8.98296
▁b	-8.98354
▁deles	-8.98426
▁ve	-8.98434
▁saúde	-8.98592
up	-8.98594
▁learn	-8.98734
▁cancer	-8.9875
gi	-8.98824
▁precisamos	-8.98854
ran	-8.98925
▁care	-8.99122
]	-8.99406
▁processo	-8.99425
▁La	-8.99438
cor	-8.99764
▁science	-8.99778
▁experience	-8.99801
▁China	-8.99863
▁These	-8.99881
▁luz	-8.99984
▁L	-9.00017
▁making	-9.00085
tos	-9.00197
▁mal	-9.00335
▁funciona	-9.00356
▁tal	-9.00526
ica	-9.00733
▁quite	-9.01018
nce	-9.01412
▁probably	-9.01433
3	-9.01517
▁escola	-9.01794
▁such	-9.01844
bu	-9.01921
com	-9.02171
▁interesting	-9.02202
▁família	-9.02226
▁maneira	-9.02239
▁ajudar	-9.02353
lha	-9.02386
▁Le	-9.02469
▁Ca	-9.02497
ling	-9.02516
▁resposta	-9.02701
▁asked	-9.02783
ke	-9.0279
tivo	-9.02827
▁across	-9.02885
fa	-9.02916
▁later	-9.02965
▁billion	-9.0297
▁bo	-9.03111
▁desde	-9.03157
7	-9.03227
▁fora	-9.03228
▁sala	-9.033
pro	-9.03387
N	-9.03459
▁art	-9.03474
▁war	-9.03838
▁happened	-9.03937
▁ficar	-9.0399
▁realidade	-9.04101
▁anything	-9.04124
▁4	-9.04172
▁olhar	-9.04173
▁dis	-9.04174
▁bu	-9.0418
▁energy	-9.0428
▁humanos	-9.04354
▁To	-9.04496
▁ponto	-9.04558
▁grupo	-9.04708
ie	-9.04766
adas	-9.04872
▁build	-9.04985
▁aquilo	-9.05013
▁community	-9.05142
6	-9.05162
▁f	-9.05394
▁building	-9.05432
▁homens	-9.05491
▁mulher	-9.05495
G	-9.05577
▁tornar	-9.05588
▁sabemos	-9.05691
▁Nós	-9.0571
▁homem	-9.05741
▁Assim	-9.05775
▁am	-9.05811
tas	-9.05899
▁saw	-9.05965
▁chegar	-9.05991
▁claro	-9.06011
▁5	-9.06054
▁often	-9.06105
▁hope	-9.06119
▁ma	-9.06133
▁Sa	-9.06237
ida	-9.06316
▁living	-9.06341
íamos	-9.06408
▁Let	-9.06651
sh	-9.06773
▁vossa	-9.06932
▁Com	-9.07225
00	-9.07256
▁comes	-9.07407
▁pretty	-9.07451
▁grandes	-9.07461
▁case	-9.07599
▁simple	-9.07753
ant	-9.07876
▁imagem	-9.07891
▁single	-9.07936
▁while	-9.07946
▁palavras	-9.08051
▁células	-9.08283
ava	-9.08428
lhes	-9.08492
▁razão	-9.08503
▁happen	-9.08624
▁tanto	-9.08673
▁capacidade	-9.08748
▁podia	-9.0877
▁half	-9.08849
▁open	-9.08886
▁viver	-9.0889
▁remember	-9.09157
ber	-9.0922
▁Co	-9.0925
▁times	-9.0935
▁Eles	-9.09434
▁passado	-9.09523
▁bad	-9.09636
▁bastante	-9.09655
▁else	-9.09752
▁project	-9.10081
▁certo	-9.10087
▁mind	-9.10217
▁having	-9.10317
▁someone	-9.1036
iz	-9.10443
▁18	-9.10531
ssem	-9.10608
▁both	-9.10654
▁informação	-9.10662
▁pi	-9.10703
▁ajuda	-9.1072
ça	-9.10802
der	-9.10989
▁ch	-9.10995
▁R	-9.11049
▁imagine	-9.11179
▁almost	-9.11311
▁cinco	-9.11394
▁longo	-9.11402
▁ciência	-9.11403
▁myself	-9.11477
tiva	-9.11514
▁test	-9.11621
if	-9.11974
▁Era	-9.11983
▁estado	-9.1203
▁aprender	-9.1217
▁j	-9.1232
▁w	-9.12325
▁Me	-9.12349
▁stuff	-9.12406
▁construir	-9.12412
nta	-9.13053
▁comunidade	-9.13074
im	-9.13186
▁sentido	-9.13247
▁dollars	-9.13589
▁matter	-9.1362
▁cells	-9.13639
za	-9.13651
▁40	-9.13688
▁keep	-9.1373
▁read	-9.13752
▁particular	-9.1386
▁Ho	-9.13931
▁mother	-9.13948
▁job	-9.14048
▁Here	-9.14107
▁Vamos	-9.14606
ações	-9.14625
▁wrong	-9.14976
lar	-9.15164
▁pequeno	-9.15212
▁meses	-9.15232
▁pe	-9.15361
▁esses	-9.15436
▁espécie	-9.15573
car	-9.15616
▁past	-9.15732
▁Earth	-9.15762
▁sabem	-9.15782
we	-9.15859
▁fez	-9.15891
▁seen	-9.16064
▁Vi	-9.16225
▁caso	-9.16275
▁perceber	-9.16317
▁torna	-9.16503
▁picture	-9.16572
▁noite	-9.16798
ph	-9.16862
▁research	-9.16873
▁Di	-9.17113
▁única	-9.17171
▁already	-9.17349
▁ge	-9.17543
▁partir	-9.17583
▁record	-9.17623
▁final	-9.17805
▁12	-9.18097
▁yet	-9.18249
▁acho	-9.18305
▁fazemos	-9.18453
▁imp	-9.18484
▁language	-9.18602
▁goes	-9.18789
▁vir	-9.18844
▁segundo	-9.19067
▁frente	-9.19244
▁nível	-9.19327
▁happens	-9.19509
▁boa	-9.19512
▁1	-9.19873
ance	-9.1992
▁nothing	-9.19965
▁material	-9.20008
▁inside	-9.20035
▁name	-9.20043
▁fosse	-9.20049
▁baixo	-9.20057
▁coming	-9.20059
▁sure	-9.20142
▁whether	-9.20144
▁planeta	-9.20147
▁city	-9.20208
▁days	-9.20222
,000	-9.20315
▁child	-9.20321
▁preciso	-9.20419
▁cancro	-9.20421
ally	-9.20527
old	-9.20544
▁normal	-9.20545
▁Pa	-9.20647
▁group	-9.20671
▁Bem	-9.20684
▁posso	-9.20696
▁passar	-9.20776
▁set	-9.20807
▁vosso	-9.20807
9	-9.2085
▁fiz	-9.20928
▁saying	-9.20976
▁looked	-9.2099
H	-9.21052
▁existe	-9.21099
▁Terra	-9.21356
ens	-9.21409
tes	-9.21412
▁pequena	-9.21435
▁Pe	-9.21573
ized	-9.21743
▁planet	-9.21789
▁words	-9.21873
▁All	-9.21874
▁Be	-9.21915
son	-9.21972
▁possible	-9.2199
▁ro	-9.22046
▁Africa	-9.2215
▁order	-9.2232
▁history	-9.22383
▁ho	-9.22497
▁Li	-9.22552
jo	-9.22577
▁arte	-9.22629
▁interessante	-9.22704
ú	-9.22738
▁Da	-9.22784
▁book	-9.22784
▁horas	-9.22972
▁caminho	-9.2301
0	-9.23019
▁filhos	-9.23093
▁será	-9.2311
▁guerra	-9.23114
ismo	-9.23243
ja	-9.23321
ence	-9.23434
▁queria	-9.2348
▁amazing	-9.23492
▁Bo	-9.23492
▁auto	-9.23533
▁education	-9.23698
K	-9.23715
ad	-9.2406
▁Ou	-9.24075
▁maioria	-9.24106
▁pai	-9.24455
▁once	-9.24465
▁run	-9.24478
▁Aqui	-9.24714
▁program	-9.24783
▁stop	-9.24868
iam	-9.24875
♪	-9.25016
▁problems	-9.25039
ful	-9.25147
▁milhares	-9.25209
▁África	-9.25305
▁video	-9.25402
xi	-9.25425
j	-9.25486
▁000	-9.25597
F	-9.25709
▁queremos	-9.2573
▁sentir	-9.2574
ble	-9.25777
▁months	-9.25779
▁Ha	-9.25874
▁ways	-9.26004
▁night	-9.26031
▁government	-9.26048
▁visual	-9.26079
▁ambiente	-9.26272
▁woman	-9.2637
lic	-9.26378
▁six	-9.26419
▁Why	-9.26515
▁learned	-9.26552
red	-9.26611
▁makes	-9.26688
▁chamado	-9.26728
▁passa	-9.26954
▁aconteceu	-9.26959
▁heart	-9.26976
▁d	-9.27076
▁model	-9.27248
▁dele	-9.27265
▁Ra	-9.27381
fer	-9.27466
▁business	-9.27523
ário	-9.27581
▁ne	-9.27594
ista	-9.27653
▁state	-9.2768
▁vo	-9.2782
▁self	-9.27941
▁Estamos	-9.27965
▁humano	-9.27967
▁fo	-9.27982
▁true	-9.28058
▁ninguém	-9.28137
▁wasn	-9.28148
▁Ela	-9.28149
▁says	-9.28167
▁within	-9.28175
▁rest	-9.28223
▁consider	-9.28327
▁turn	-9.28334
▁nome	-9.28403
▁stories	-9.28435
▁leva	-9.28466
ner	-9.2849
▁im	-9.28591
▁United	-9.28639
dy	-9.28745
▁computer	-9.28893
aram	-9.29271
▁pa	-9.29317
▁força	-9.29646
▁Todos	-9.29805
▁equipa	-9.29816
▁knew	-9.29836
▁muita	-9.29839
▁St	-9.30007
▁medo	-9.30082
ze	-9.3013
▁livro	-9.3014
▁Y	-9.30385
▁study	-9.3051
▁ba	-9.30541
▁procura	-9.30579
nder	-9.30581
▁st	-9.30612
▁Al	-9.3073
▁heard	-9.30837
▁provavelmente	-9.3095
▁fui	-9.30952
▁cabeça	-9.31053
▁histórias	-9.3116
▁beautiful	-9.31256
▁relação	-9.31257
The	-9.31318
ler	-9.31371
▁until	-9.31584
▁since	-9.31752
ite	-9.31765
ism	-9.31827
▁America	-9.31831
▁ga	-9.32126
tal	-9.32147
▁humana	-9.32253
▁animal	-9.3236
▁Podem	-9.32461
▁Também	-9.3249
▁market	-9.32675
▁decided	-9.3269
▁hospital	-9.32697
▁digital	-9.32697
▁exist	-9.32747
▁mudança	-9.32792
▁couple	-9.32905
▁friends	-9.33085
▁pais	-9.33204
▁sim	-9.33257
end	-9.3329
▁large	-9.33296
les	-9.33297
ving	-9.33305
▁sociedade	-9.33434
Não	-9.3351
▁share	-9.33618
▁deixar	-9.33684
▁governo	-9.33696
▁fa	-9.33742
cer	-9.33963
▁word	-9.33998
ras	-9.34054
ton	-9.34062
ster	-9.34199
▁Muito	-9.342
ize	-9.34202
▁result	-9.34363
▁black	-9.34378
ando	-9.34468
▁imagens	-9.346
ach	-9.34688
▁ri	-9.34739
▁enorme	-9.34848
▁conseguir	-9.34967
▁act	-9.34979
té	-9.34987
par	-9.35041
▁free	-9.35145
▁ideias	-9.35339
ante	-9.35383
▁chamada	-9.35406
ish	-9.35447
▁amigos	-9.35601
▁front	-9.35618
line	-9.35626
▁movimento	-9.35643
cas	-9.35749
▁vídeo	-9.3575
▁2	-9.35812
▁público	-9.35857
▁solar	-9.35919
▁projeto	-9.36172
▁Penso	-9.36179
▁top	-9.36193
▁against	-9.36217
▁duma	-9.36236
▁estrutura	-9.36286
▁N	-9.36306
▁bio	-9.36311
ary	-9.36337
▁guy	-9.36345
nha	-9.36407
til	-9.36515
▁environment	-9.36574
▁Su	-9.36635
▁became	-9.36718
nto	-9.36934
▁século	-9.37041
op	-9.37192
▁termos	-9.37217
▁60	-9.37254
▁medida	-9.3727
▁11	-9.37274
▁levar	-9.37338
▁certa	-9.37528
▁personal	-9.37604
▁sound	-9.37668
▁economic	-9.37693
▁close	-9.37895
▁lo	-9.38
▁empresa	-9.38079
▁media	-9.38222
▁line	-9.38449
▁culture	-9.38581
ny	-9.386
▁seguinte	-9.3861
V	-9.38638
▁criança	-9.38651
one	-9.38663
▁fundamental	-9.38672
▁sometimes	-9.3868
nas	-9.38687
ária	-9.38711
▁though	-9.38828
▁individual	-9.38874
▁disease	-9.39102
▁themselves	-9.3912
▁tive	-9.39122
ated	-9.39152
▁animais	-9.39231
▁risco	-9.39234
▁team	-9.39485
▁pelos	-9.39546
▁exactly	-9.39592
▁descobrir	-9.39621
▁aquela	-9.39796
▁hear	-9.39827
▁fácil	-9.39897
▁cima	-9.39948
▁conversa	-9.3997
▁society	-9.40008
▁States	-9.40013
▁house	-9.40043
▁empresas	-9.4006
ard	-9.40153
dia	-9.40211
▁risk	-9.40244
▁must	-9.40247
mer	-9.40278
▁melhores	-9.40366
cia	-9.40475
▁carro	-9.40553
ex	-9.40589
▁tu	-9.40591
▁Or	-9.40641
wa	-9.40672
ral	-9.40745
ito	-9.40885
▁ourselves	-9.40905
mar	-9.40924
▁color	-9.40988
ities	-9.41092
▁species	-9.4113
▁Sim	-9.41401
▁ouvir	-9.41499
▁palavra	-9.41534
▁basically	-9.41815
▁image	-9.41837
▁completely	-9.41857
▁micro	-9.41889
▁Já	-9.41891
▁cultura	-9.41913
▁novas	-9.41916
▁huge	-9.41923
▁voltar	-9.42005
▁built	-9.42493
▁comecei	-9.42494
▁cost	-9.42557
▁qu	-9.42577
▁American	-9.4277
▁contar	-9.42847
▁representa	-9.42908
▁taking	-9.42963
▁últimos	-9.42973
▁view	-9.42977
▁learning	-9.43088
▁support	-9.43185
▁At	-9.43229
ag	-9.43298
▁fazê	-9.43341
▁Go	-9.43346
▁hours	-9.4337
são	-9.43391
ste	-9.4341
▁leave	-9.43527
▁col	-9.43531
▁students	-9.43562
▁esp	-9.43565
ig	-9.43689
▁trans	-9.43709
▁company	-9.43759
▁figure	-9.43879
izar	-9.43957
▁extra	-9.44006
ização	-9.4414
▁Mar	-9.44175
ros	-9.44283
▁música	-9.44339
port	-9.44394
▁Po	-9.44399
▁conseguimos	-9.4443
▁mão	-9.44536
land	-9.44542
▁questions	-9.44567
nho	-9.44677
▁papel	-9.44694
▁land	-9.44767
▁cell	-9.44796
▁dizem	-9.44899
▁piece	-9.44989
▁ha	-9.45012
▁fear	-9.45239
▁Ga	-9.4542
the	-9.45449
▁happening	-9.45498
gar	-9.45548
pesar	-9.45585
qua	-9.45603
▁6	-9.45744
▁instead	-9.45747
▁doença	-9.45843
▁somebody	-9.45865
▁ideas	-9.45906
▁arm	-9.46059
▁quais	-9.46239
▁music	-9.4643
▁difficult	-9.46578
▁aquele	-9.46585
ning	-9.46585
▁sh	-9.46636
ores	-9.46686
▁everyone	-9.46734
▁totalmente	-9.46743
cent	-9.46744
ring	-9.46758
ff	-9.46771
▁OK	-9.46895
▁algum	-9.47012
rmos	-9.4705
▁campo	-9.47058
▁ta	-9.47112
▁Google	-9.47295
▁population	-9.47295
inha	-9.47543
▁step	-9.47603
▁early	-9.47671
▁bar	-9.47693
▁centro	-9.47776
rão	-9.47881
fo	-9.48003
▁Pro	-9.48055
▁anti	-9.48215
â	-9.4838
▁level	-9.48414
▁rede	-9.48464
▁ci	-9.48523
▁conjunto	-9.48623
▁dela	-9.48667
▁começa	-9.48742
▁minutos	-9.48747
rou	-9.4875
▁olhos	-9.48763
▁querem	-9.48824
▁entire	-9.48995
▁programa	-9.49016
agem	-9.49065
▁amor	-9.49268
▁Nova	-9.4933
▁universe	-9.49356
▁área	-9.49455
▁fr	-9.49517
▁diferença	-9.4958
▁grow	-9.49661
vis	-9.49842
▁destas	-9.49864
áveis	-9.50227
▁friend	-9.50537
▁places	-9.50595
▁economia	-9.50712
▁modelo	-9.50767
▁worked	-9.50807
▁Mu	-9.50834
▁Talvez	-9.50849
lho	-9.50854
▁feeling	-9.50861
▁An	-9.50884
▁nature	-9.5095
▁política	-9.50987
▁deixa	-9.51028
▁felt	-9.51086
▁tarde	-9.5122
rei	-9.51247
ous	-9.51256
▁trata	-9.51283
▁behavior	-9.51334
▁locais	-9.51334
▁Some	-9.51344
▁isn	-9.5141
pre	-9.51567
▁created	-9.51602
▁morte	-9.51606
▁25	-9.51617
way	-9.5162
▁Quero	-9.51643
▁thousands	-9.51708
▁mu	-9.51751
▁tri	-9.5182
▁Pode	-9.51844
cy	-9.51858
▁gave	-9.51879
▁walk	-9.5189
▁rather	-9.5198
▁online	-9.52248
▁Só	-9.52333
▁informações	-9.52606
▁início	-9.52918
▁political	-9.52972
▁looks	-9.52976
▁field	-9.52994
▁York	-9.53041
▁fundo	-9.53067
▁computador	-9.53106
▁comida	-9.53157
▁changed	-9.53177
▁destes	-9.53194
▁experiment	-9.53293
▁everybody	-9.53354
▁least	-9.53354
▁post	-9.53411
cra	-9.53522
▁quer	-9.53543
▁air	-9.53616
▁serem	-9.53632
▁full	-9.53694
▁-	-9.53745
▁seres	-9.53747
je	-9.53874
▁estudo	-9.5402
▁turns	-9.54068
▁sex	-9.54185
▁outside	-9.54215
▁fu	-9.54293
ador	-9.54415
▁especial	-9.54541
▁itself	-9.54636
▁desenvolvimento	-9.54895
▁phone	-9.54895
design	-9.54979
▁atenção	-9.55028
▁tend	-9.55076
▁mis	-9.55178
▁Te	-9.55338
▁Tem	-9.55363
des	-9.5537
▁along	-9.55375
▁seguir	-9.55425
▁jovens	-9.55544
▁série	-9.55544
tem	-9.55634
▁universo	-9.55675
▁poor	-9.55676
▁hi	-9.55782
▁works	-9.55827
▁minutes	-9.55867
▁mercado	-9.55869
▁80	-9.55889
▁parents	-9.55941
▁população	-9.56067
▁Deus	-9.56164
▁único	-9.56198
▁sabe	-9.56294
▁sal	-9.56351
▁met	-9.56362
▁red	-9.5638
▁escala	-9.56533
▁oportunidade	-9.56547
▁tínhamos	-9.56592
▁8	-9.5667
press	-9.56713
▁aí	-9.56872
▁h	-9.56886
▁última	-9.56988
▁third	-9.5701
▁Que	-9.57101
ating	-9.5725
▁pay	-9.57431
▁começou	-9.57573
▁fund	-9.57587
▁structure	-9.57659
ã	-9.57779
▁seis	-9.57838
▁week	-9.57851
▁sociais	-9.57918
▁além	-9.58059
▁Z	-9.58075
▁disto	-9.5821
▁genes	-9.58246
lin	-9.58295
▁difference	-9.58332
▁Está	-9.58345
▁al	-9.58396
▁short	-9.58454
▁delas	-9.5847
▁H	-9.58498
▁death	-9.58605
W	-9.5874
▁die	-9.58824
▁segurança	-9.58858
▁Ju	-9.58862
▁taken	-9.58917
val	-9.58922
▁powerful	-9.59108
▁Acho	-9.59192
udi	-9.59234
ima	-9.59256
▁middle	-9.59261
ther	-9.59347
▁sabia	-9.59358
▁Ne	-9.59428
▁moral	-9.59486
▁9	-9.5965
▁companies	-9.59667
▁quantidade	-9.59667
▁Then	-9.59723
▁given	-9.59744
▁terra	-9.59745
▁realized	-9.59762
▁bi	-9.59998
mas	-9.60053
▁precisa	-9.60066
▁Ao	-9.6013
!"	-9.60152
▁imaginar	-9.60274
led	-9.60353
ries	-9.60555
▁fizemos	-9.60645
▁resolver	-9.60684
▁sa	-9.60708
▁conhecimento	-9.60766
▁mor	-9.60894
▁needed	-9.60927
▁animals	-9.60932
▁formas	-9.61031
▁common	-9.61046
▁mental	-9.61065
▁won	-9.61082
▁comportamento	-9.61177
▁suficiente	-9.61265
▁va	-9.61308
▁yourself	-9.6131
▁visão	-9.61349
▁mente	-9.61349
▁fish	-9.61417
▁behind	-9.61448
▁ce	-9.61488
▁voice	-9.61593
▁reality	-9.61693
▁nisso	-9.61725
during	-9.61752
▁mostra	-9.61834
▁du	-9.61849
▁century	-9.61889
▁pu	-9.61912
year	-9.62102
▁Tenho	-9.62183
▁buy	-9.62201
▁stay	-9.62382
▁amount	-9.62422
▁cannot	-9.62427
▁cha	-9.62715
ship	-9.62786
▁alta	-9.62796
▁entrar	-9.62887
▁began	-9.63104
▁Our	-9.63197
▁break	-9.63304
▁objetivo	-9.63402
▁tamanho	-9.63402
▁rec	-9.63427
▁machine	-9.63451
▁disseram	-9.63584
▁kid	-9.63615
▁sair	-9.63668
▁pensei	-9.63685
▁secret	-9.63687
▁conseguem	-9.63869
▁simply	-9.63968
▁easy	-9.63976
▁atrás	-9.63979
▁paper	-9.63992
▁explain	-9.64251
king	-9.64261
den	-9.64283
▁scale	-9.64292
▁transform	-9.64293
▁Ti	-9.64301
▁resto	-9.64308
▁14	-9.64315
▁gene	-9.64376
▁rapidamente	-9.64397
▁ocean	-9.64409
dora	-9.64543
▁Dr	-9.6458
▁multi	-9.64615
▁esperança	-9.64683
▁speak	-9.6469
▁Estou	-9.64704
▁dá	-9.64733
cho	-9.64736
▁protect	-9.64765
▁situação	-9.64832
▁longer	-9.64835
▁escrever	-9.64991
▁sexual	-9.65014
▁favor	-9.65092
mit	-9.65096
▁cr	-9.65226
▁father	-9.65264
▁continuar	-9.65275
▁seven	-9.65282
▁solve	-9.65317
▁nuclear	-9.65395
▁low	-9.65445
▁seeing	-9.65486
▁God	-9.65536
▁manter	-9.65545
nia	-9.65635
▁crescimento	-9.65689
▁cidades	-9.65768
▁7	-9.66163
ua	-9.66166
▁valor	-9.66182
▁certain	-9.6622
iu	-9.66246
▁segunda	-9.66262
▁Vocês	-9.66264
▁aspeto	-9.66265
adores	-9.66339
by	-9.66405
▁film	-9.66434
:"	-9.66441
▁tipos	-9.66467
▁Can	-9.6647
▁total	-9.66496
▁size	-9.66604
U	-9.66658
ira	-9.66693
qu	-9.66714
▁linha	-9.6689
▁sign	-9.66958
istas	-9.67095
▁filho	-9.67185
▁present	-9.67304
eira	-9.67441
▁Per	-9.6746
▁Estas	-9.6749
▁map	-9.67494
ep	-9.67668
▁alto	-9.67694
▁200	-9.67722
▁cara	-9.67725
▁Obrigado	-9.67733
▁nessa	-9.67874
▁turned	-9.6789
iv	-9.67968
▁spend	-9.68077
▁oceano	-9.68152
▁simplesmente	-9.6828
▁access	-9.68309
▁compreender	-9.68427
▁represent	-9.68432
▁semana	-9.68518
▁motor	-9.68537
▁espera	-9.68703
▁obrigado	-9.68807
▁movement	-9.6883
▁17	-9.68871
▁maiores	-9.68962
side	-9.69084
▁systems	-9.69187
▁pesquisa	-9.69205
▁ensino	-9.69205
▁Just	-9.69251
▁lei	-9.69285
▁generation	-9.69355
▁ru	-9.6938
▁plan	-9.69423
▁blood	-9.69504
▁finally	-9.69549
▁centenas	-9.69654
▁measure	-9.69654
▁document	-9.69654
and	-9.69784
▁key	-9.69808
▁drive	-9.69894
▁cal	-9.70089
▁eight	-9.70097
▁br	-9.7014
▁John	-9.70257
▁ler	-9.70274
bre	-9.70333
▁sistemas	-9.70504
▁doenças	-9.70587
▁continue	-9.70634
▁challenge	-9.7071
▁nesse	-9.7103
▁nenhum	-9.71032
▁lost	-9.71041
▁precisam	-9.71085
▁vê	-9.71122
▁ability	-9.71132
▁rep	-9.71229
▁impacto	-9.71397
▁pass	-9.71397
▁eyes	-9.71461
▁aqueles	-9.7147
▁fall	-9.71498
▁comum	-9.71518
▁fica	-9.71667
▁longe	-9.71929
▁sucesso	-9.7193
▁photograph	-9.71932
▁cities	-9.7196
▁climate	-9.71965
▁sexo	-9.71972
▁DNA	-9.72084
▁People	-9.72084
▁center	-9.72086
▁continua	-9.72148
▁Ka	-9.72207
▁stand	-9.72223
▁obter	-9.72242
▁rate	-9.72269
▁Si	-9.72291
▁16	-9.72312
▁entra	-9.72327
▁chama	-9.72427
▁news	-9.72455
▁teve	-9.72533
▁perhaps	-9.72546
▁próprio	-9.72612
▁impact	-9.72622
form	-9.72661
▁pensamos	-9.72718
▁comigo	-9.72859
▁adapt	-9.72859
▁passo	-9.72888
▁conversation	-9.72921
▁resultado	-9.72975
▁Fi	-9.72986
▁laboratório	-9.73166
▁kinds	-9.73179
▁idade	-9.73211
▁ia	-9.73241
▁semanas	-9.73396
▁Chris	-9.73481
▁similar	-9.73633
▁Jo	-9.73764
▁white	-9.73833
▁Bu	-9.73843
▁value	-9.73898
▁fun	-9.73929
▁adult	-9.74041
▁sob	-9.74161
▁sol	-9.74181
▁conv	-9.74201
▁acesso	-9.7426
▁sta	-9.74263
▁others	-9.74277
▁pôr	-9.74298
▁controlo	-9.74369
rio	-9.74382
▁begin	-9.74412
▁exatamente	-9.74417
▁patients	-9.74464
▁happy	-9.74576
▁dessa	-9.74617
▁shape	-9.74734
▁completamente	-9.74911
Se	-9.74927
▁dessas	-9.74929
▁dark	-9.7494
rd	-9.75005
spect	-9.751
ical	-9.75169
▁app	-9.75171
▁natureza	-9.75221
▁Ar	-9.75222
ático	-9.75246
▁houve	-9.75344
▁Ve	-9.75361
▁beginning	-9.75374
▁special	-9.75385
▁ADN	-9.75525
ris	-9.75556
▁report	-9.7568
▁som	-9.75703
▁sold	-9.75753
▁via	-9.75786
Eu	-9.75807
ndi	-9.75896
▁cu	-9.75913
ger	-9.75986
▁approach	-9.76003
▁fala	-9.76049
▁hands	-9.76101
▁trust	-9.7618
for	-9.76191
ide	-9.7629
▁opportunity	-9.76323
▁guys	-9.76326
▁chance	-9.76357
▁utiliza	-9.76396
▁Estes	-9.76465
▁Hoje	-9.76497
▁site	-9.76514
ction	-9.76583
gem	-9.76598
▁fire	-9.76622
▁terms	-9.76657
▁ground	-9.76672
▁write	-9.76715
▁experiências	-9.76756
▁spent	-9.76806
▁perguntar	-9.76877
▁born	-9.77011
▁Mi	-9.77032
▁known	-9.77115
▁provide	-9.77134
▁chega	-9.77183
▁tomar	-9.77245
▁On	-9.77342
▁visto	-9.77472
▁Essa	-9.77646
▁importantes	-9.7774
▁Estão	-9.77778
▁game	-9.77785
▁i	-9.77812
▁porta	-9.7785
▁própria	-9.77861
ping	-9.7789
amento	-9.77897
▁invest	-9.77929
▁Lo	-9.78051
▁nenhuma	-9.78083
bro	-9.78139
ávamos	-9.78211
▁tried	-9.78216
▁situation	-9.78275
▁observa	-9.78308
▁clear	-9.78314
▁cientistas	-9.78315
▁investigação	-9.78317
▁complex	-9.78321
▁muda	-9.7838
▁incrível	-9.78594
▁girl	-9.78711
▁pequenos	-9.78806
▁partilhar	-9.78883
rr	-9.78883
▁th	-9.78925
▁novos	-9.79023
▁perto	-9.79059
▁70	-9.79102
▁safe	-9.79104
bal	-9.79189
▁focus	-9.79212
▁vista	-9.79381
▁jogo	-9.7939
▁realize	-9.79404
▁minhas	-9.79405
▁demasiado	-9.79418
▁embora	-9.79419
▁message	-9.79425
avam	-9.79433
▁educ	-9.79457
▁moving	-9.79604
▁senti	-9.79687
▁colocar	-9.79696
▁resultados	-9.79699
▁máquina	-9.79733
▁etc	-9.79785
▁capital	-9.79819
▁crime	-9.79836
ization	-9.79874
▁sejam	-9.79895
▁tenha	-9.79914
▁Car	-9.79971
▁consegue	-9.80031
▁visit	-9.80061
And	-9.80138
▁Ok	-9.803
▁hold	-9.80402
rica	-9.80412
You	-9.80417
▁perguntas	-9.8046
▁médicos	-9.80615
via	-9.8077
▁gone	-9.80888
▁junta	-9.81003
wi	-9.81069
▁average	-9.81088
▁Cha	-9.81212
▁palestra	-9.81255
▁truth	-9.81262
▁hit	-9.81327
nic	-9.81369
▁cut	-9.81405
▁l	-9.81435
iro	-9.81538
▁law	-9.81589
▁alone	-9.81621
▁deep	-9.81735
▁fizeram	-9.81762
▁sent	-9.8179
▁lead	-9.81905
▁based	-9.81921
cos	-9.82012
▁indústria	-9.821
▁scientists	-9.82116
eu	-9.82127
men	-9.82188
para	-9.82304
▁professor	-9.82311
▁girls	-9.82492
▁existem	-9.826
▁quickly	-9.82658
ível	-9.82659
▁African	-9.82661
▁growing	-9.82768
ward	-9.82833
▁wall	-9.82843
▁certeza	-9.82954
bia	-9.82998
por	-9.831
▁weeks	-9.83135
▁wonderful	-9.83186
ática	-9.83196
▁Not	-9.83212
▁medical	-9.83305
▁Right	-9.83306
gens	-9.83312
▁vem	-9.83339
▁hora	-9.83367
▁either	-9.83471
▁growth	-9.83518
▁class	-9.83549
▁devia	-9.83552
▁India	-9.83567
▁língua	-9.83642
Oh	-9.83675
au	-9.83689
▁voz	-9.83765
▁blue	-9.83814
▁interior	-9.83817
▁software	-9.83861
▁América	-9.83987
▁popular	-9.83989
ug	-9.84006
▁mãos	-9.84086
▁character	-9.84161
▁portanto	-9.8417
▁gr	-9.84243
▁knowledge	-9.84334
▁solução	-9.84334
▁90	-9.84344
ped	-9.84449
▁deve	-9.84501
▁interested	-9.84506
▁livros	-9.8468
▁morrer	-9.84777
▁mine	-9.84997
▁v	-9.8519
▁filme	-9.85192
▁needs	-9.85202
▁plant	-9.85213
▁veem	-9.8524
▁acaba	-9.85283
▁area	-9.85326
▁produce	-9.85331
▁Europe	-9.85355
▁Claro	-9.85383
▁tornou	-9.85444
▁crescer	-9.85541
▁familiar	-9.85614
▁strange	-9.85739
ding	-9.85757
▁pensamento	-9.85928
▁norte	-9.8593
▁whatever	-9.86067
▁tumor	-9.86096
▁metade	-9.86129
ors	-9.86304
▁win	-9.8642
ka	-9.86422
▁World	-9.86441
▁fast	-9.86453
ow	-9.86534
▁takes	-9.86569
eiro	-9.86612
▁áreas	-9.86654
▁V	-9.86665
▁u	-9.86687
▁pensam	-9.867
▁presente	-9.86874
▁issue	-9.86912
zi	-9.86937
▁coloca	-9.86983
▁separa	-9.87019
▁devemos	-9.87074
▁reach	-9.87078
▁foto	-9.87132
▁carros	-9.87152
▁Okay	-9.87179
▁urban	-9.87237
▁par	-9.87263
▁prefer	-9.8733
fin	-9.87481
▁lab	-9.87513
▁após	-9.87519
▁Precisamos	-9.87546
chi	-9.87621
▁média	-9.87691
▁Mais	-9.87707
▁sitting	-9.87714
▁lu	-9.8772
▁Tinha	-9.87734
▁sai	-9.87759
▁Oh	-9.8777
▁dream	-9.87772
▁expect	-9.87838
▁marca	-9.87856
▁linguagem	-9.87871
▁progress	-9.88015
▁likely	-9.88027
▁telling	-9.88043
▁attention	-9.88052
▁Estava	-9.88087
izada	-9.88123
▁understanding	-9.88356
▁deal	-9.88394
▁uso	-9.88425
▁tratamento	-9.88442
▁educação	-9.88444
▁plano	-9.88471
antes	-9.88475
▁physical	-9.88477
▁estranho	-9.88594
▁honest	-9.88595
use	-9.88631
▁wouldn	-9.88644
▁choice	-9.88707
▁Índia	-9.88775
▁wrote	-9.88776
What	-9.88776
▁enter	-9.88841
▁fotografia	-9.88896
▁poderia	-9.88917
▁violência	-9.88957
▁zero	-9.88958
▁non	-9.88964
▁patient	-9.89085
▁South	-9.89158
▁usando	-9.89322
▁brought	-9.89322
▁próxima	-9.89322
rial	-9.89336
▁humans	-9.89367
ários	-9.89372
▁thank	-9.89425
▁seems	-9.8946
har	-9.89496
▁aprendi	-9.89508
▁baby	-9.89517
▁falta	-9.89635
▁books	-9.89642
▁médico	-9.89652
▁pequenas	-9.89684
▁teoria	-9.89688
▁13	-9.89691
▁Ri	-9.89746
▁pick	-9.8975
▁images	-9.89752
J	-9.89874
izing	-9.89907
▁pr	-9.89951
▁stage	-9.89952
▁numbers	-9.89985
▁economy	-9.90055
▁várias	-9.90056
tei	-9.90229
▁ouvi	-9.90263
▁teach	-9.90294
▁Tudo	-9.90383
▁á	-9.90384
▁estudantes	-9.90387
▁especially	-9.90406
▁entanto	-9.90424
▁recursos	-9.90619
▁mapa	-9.90668
▁meet	-9.90694
▁doentes	-9.90766
▁Facebook	-9.90794
▁Iorque	-9.90795
▁En	-9.9083
unt	-9.90872
▁perder	-9.90934
▁hundreds	-9.90958
▁surface	-9.90979
▁aumentar	-9.91069
ang	-9.91155
▁câmara	-9.91165
▁literally	-9.91165
▁livre	-9.91165
lá	-9.91195
▁modern	-9.91268
ick	-9.91275
▁San	-9.91275
▁sleep	-9.91352
▁pat	-9.91357
▁À	-9.91358
rar	-9.91536
▁manhã	-9.91538
▁fix	-9.91634
▁listen	-9.91717
cido	-9.91762
lock	-9.91838
▁watch	-9.91839
▁preocupa	-9.91899
▁indica	-9.91937
▁possibilidade	-9.921
▁giving	-9.921
▁Most	-9.92104
▁push	-9.92122
▁direito	-9.92147
▁pain	-9.92162
▁qualidade	-9.92171
▁eat	-9.92252
▁teria	-9.92261
▁action	-9.92261
▁gets	-9.92286
▁pobres	-9.92318
▁desse	-9.92411
▁devem	-9.92413
▁eye	-9.92446
▁superfície	-9.92476
▁massa	-9.92564
▁interessa	-9.92608
▁rece	-9.92612
▁discovered	-9.92628
▁lots	-9.92669
▁vivo	-9.92694
▁connect	-9.92741
▁express	-9.9277
ier	-9.92802
▁late	-9.92808
nge	-9.929
▁m	-9.92902
▁amigo	-9.92931
▁strong	-9.92943
▁podiam	-9.93018
▁tools	-9.93043
▁developed	-9.93048
▁cultural	-9.93051
▁partilha	-9.93106
▁mau	-9.93194
▁spread	-9.93233
▁defini	-9.93274
ign	-9.93274
▁drug	-9.9332
▁carbon	-9.93392
▁anyone	-9.93471
▁tivesse	-9.93474
▁comprar	-9.93571
▁/	-9.93614
imo	-9.93627
▁grupos	-9.93714
▁asking	-9.93739
▁500	-9.93747
▁pior	-9.93781
▁mundial	-9.93804
▁desenvolver	-9.93837
ham	-9.93841
▁Enquanto	-9.93996
▁caixa	-9.93997
▁estávamos	-9.93998
▁opera	-9.94004
▁development	-9.94027
▁debate	-9.94099
▁communities	-9.94187
▁nisto	-9.94187
cal	-9.94191
▁type	-9.94229
▁network	-9.94308
▁acabar	-9.94331
zo	-9.94356
▁incredible	-9.94379
ição	-9.94384
ions	-9.94394
▁Ta	-9.94506
▁oil	-9.94555
▁morning	-9.94583
▁haver	-9.94597
▁Ex	-9.94602
▁geração	-9.94607
▁prop	-9.94635
ias	-9.9465
▁coração	-9.94653
▁allow	-9.9467
▁consegui	-9.94705
▁melhorar	-9.94708
▁starting	-9.94713
▁civil	-9.94751
▁efeito	-9.94905
▁Europa	-9.94957
cou	-9.94986
▁ice	-9.94997
mate	-9.95026
▁creating	-9.95158
▁tirar	-9.95201
▁cool	-9.95232
▁último	-9.95307
cula	-9.95331
▁princípio	-9.95344
▁errado	-9.95351
▁soon	-9.95402
▁física	-9.95539
▁sete	-9.95549
▁produto	-9.9591
▁sensor	-9.95958
▁source	-9.95976
▁shows	-9.96019
▁limit	-9.96049
▁sea	-9.96053
▁direitos	-9.96074
▁role	-9.9615
▁save	-9.96164
▁n	-9.96223
▁forward	-9.96226
▁ensinar	-9.96296
▁green	-9.96318
▁raparigas	-9.96493
▁star	-9.96494
▁worth	-9.96559
▁dead	-9.96627
▁evidence	-9.96712
▁qui	-9.96853
▁pessoal	-9.96879
▁mat	-9.96907
▁matemática	-9.96908
▁running	-9.96925
▁road	-9.96931
▁vivem	-9.96931
▁disp	-9.97054
▁recognize	-9.97106
▁acredito	-9.97117
▁nice	-9.97119
▁cre	-9.97162
gg	-9.97199
▁audience	-9.97304
pan	-9.97339
▁rua	-9.9738
ever	-9.97388
lum	-9.97396
▁fonte	-9.97446
▁industry	-9.97501
▁tiny	-9.9753
istic	-9.97538
▁boas	-9.97591
▁legal	-9.97596
▁Qual	-9.97603
▁teste	-9.97686
▁Primeiro	-9.977
▁Esse	-9.97754
▁possam	-9.97806
inho	-9.97894
▁sentimento	-9.97923
▁content	-9.97981
▁procurar	-9.98027
▁camera	-9.98055
▁Ge	-9.98059
▁branco	-9.98098
▁region	-9.98099
▁viagem	-9.98151
▁dum	-9.98181
▁capazes	-9.98203
▁estudar	-9.98205
▁pen	-9.98208
▁response	-9.98297
▁bons	-9.98364
▁gu	-9.98473
▁travel	-9.98483
▁original	-9.98524
▁nu	-9.98893
▁integra	-9.98899
▁época	-9.989
▁funcionar	-9.98958
▁pedir	-9.98971
▁observar	-9.98991
▁bottom	-9.991
vel	-9.99148
mic	-9.99241
▁success	-9.99241
▁professores	-9.99242
Well	-9.9938
▁24	-9.99412
lia	-9.99456
▁interesse	-9.99505
▁millions	-9.99598
ned	-9.99699
▁necessário	-9.99706
▁questões	-9.99707
▁forest	-9.99816
▁redes	-9.99907
▁violence	-9.99909
▁carbono	-9.99943
▁By	-9.99969
▁notícias	-10.0007
▁tenham	-10.0011
ious	-10.0011
▁cuidados	-10.0016
▁parts	-10.0021
▁pois	-10.0028
▁table	-10.0029
▁esquerda	-10.0032
▁journey	-10.0032
▁miúdos	-10.0035
▁andar	-10.0035
▁possa	-10.0039
▁invent	-10.004
▁custo	-10.004
▁relationship	-10.0045
▁treat	-10.0048
▁technologies	-10.0052
▁movie	-10.0052
▁juntos	-10.0064
her	-10.007
▁fight	-10.007
▁door	-10.0072
▁areas	-10.0072
▁período	-10.0072
▁seguro	-10.0072
▁suggest	-10.0072
▁naquela	-10.0073
▁inteiro	-10.0074
▁números	-10.0077
▁kill	-10.0089
▁goal	-10.0092
ging	-10.0093
▁attack	-10.0093
▁metros	-10.0096
▁central	-10.0096
ult	-10.0098
▁Ja	-10.0103
▁demonstra	-10.0106
▁solution	-10.0109
▁send	-10.0113
▁acerca	-10.0114
lect	-10.012
▁rich	-10.0121
▁Hu	-10.0125
▁alunos	-10.0126
▁sounds	-10.0126
▁tarefa	-10.0134
cção	-10.0136
▁escolher	-10.0139
aria	-10.0146
▁follow	-10.0151
▁forte	-10.0152
▁medicina	-10.0155
▁quarto	-10.0155
▁explicar	-10.0155
▁ferramentas	-10.0155
▁desejo	-10.0155
▁stress	-10.0164
▁usado	-10.0173
▁consciência	-10.0175
▁corre	-10.0185
▁genetic	-10.0197
▁North	-10.02
▁develop	-10.021
▁página	-10.0217
▁trás	-10.0217
▁medi	-10.0218
▁decidi	-10.0232
▁escolha	-10.0237
▁edifício	-10.0237
ile	-10.0237
▁começaram	-10.024
time	-10.025
▁luta	-10.0253
▁text	-10.0255
▁espécies	-10.0262
▁ameaça	-10.0279
▁semelhante	-10.0279
▁treatment	-10.0283
▁Imaginem	-10.0287
▁pensa	-10.0296
▁pé	-10.0296
▁memória	-10.03
put	-10.0305
▁general	-10.0311
▁confiança	-10.0322
▁terem	-10.0324
▁wonder	-10.0334
▁correr	-10.0341
▁prison	-10.0342
▁subject	-10.0342
▁’	-10.0342
▁office	-10.0343
▁comunidades	-10.0345
▁feliz	-10.0351
▁sequer	-10.0355
ker	-10.0356
▁mesmos	-10.0358
▁democracia	-10.0363
▁component	-10.0363
▁extremamente	-10.0365
rimi	-10.0366
▁plane	-10.0367
▁pedi	-10.0368
▁basic	-10.0382
▁"(	-10.0384
▁baixa	-10.0384
▁código	-10.0384
▁revolution	-10.0384
▁podíamos	-10.0384
▁percebi	-10.0393
▁ban	-10.0396
▁pal	-10.0397
▁razões	-10.0405
▁bat	-10.041
▁guess	-10.0427
▁theory	-10.043
▁confi	-10.0443
▁lived	-10.0465
▁English	-10.0469
day	-10.0471
▁showed	-10.048
▁Man	-10.0485
▁son	-10.0485
lly	-10.0486
▁email	-10.0486
▁naquele	-10.0491
▁permite	-10.0506
▁ganhar	-10.0507
▁Every	-10.0511
▁beyond	-10.0512
▁period	-10.0512
▁print	-10.0519
▁pontos	-10.0525
No	-10.0527
▁sun	-10.0532
▁code	-10.0533
▁smart	-10.0534
▁habit	-10.0534
▁agree	-10.0536
▁faço	-10.0536
▁cat	-10.0538
ue	-10.0539
▁domina	-10.0545
dade	-10.0549
▁digo	-10.0549
▁serve	-10.0551
▁practice	-10.0555
▁sit	-10.0556
▁desses	-10.0559
▁vision	-10.0564
▁War	-10.0565
▁perfect	-10.0565
▁próximo	-10.0565
▁cria	-10.0568
▁interest	-10.0569
▁tens	-10.0574
▁recently	-10.0583
▁depend	-10.0585
tory	-10.0589
rado	-10.059
light	-10.0593
▁major	-10.0595
▁increase	-10.0597
▁choose	-10.0598
▁hipótese	-10.0598
▁website	-10.0601
▁changing	-10.0601
encia	-10.0603
▁drugs	-10.0609
▁saí	-10.0615
▁lidar	-10.0618
▁Of	-10.062
▁gostaria	-10.0623
Que	-10.0624
▁incredibly	-10.0641
▁polícia	-10.0641
▁search	-10.0641
▁leg	-10.0642
▁pun	-10.0648
▁tivemos	-10.0649
▁especialmente	-10.065
▁yes	-10.0651
▁designed	-10.0657
▁responder	-10.0658
▁After	-10.0663
▁screen	-10.0665
▁Neste	-10.0665
cional	-10.0683
▁computadores	-10.0683
▁contrário	-10.0684
▁Nunca	-10.0686
▁absolutely	-10.0688
▁crise	-10.0705
▁village	-10.0706
posit	-10.0709
▁groups	-10.0712
▁tecnologias	-10.0716
low	-10.0719
▁produzir	-10.072
▁main	-10.0722
▁fly	-10.0724
▁clean	-10.0728
▁Parece	-10.0728
▁conseguia	-10.073
▁Yeah	-10.0732
▁Che	-10.0733
ight	-10.0737
▁fit	-10.0743
▁descoberta	-10.075
▁parede	-10.075
▁changes	-10.0751
▁21	-10.0753
▁revela	-10.0754
▁fazia	-10.0761
▁verde	-10.0766
▁meta	-10.0768
▁Durante	-10.0772
▁touch	-10.0775
▁TV	-10.0776
▁pena	-10.0784
▁iria	-10.079
▁police	-10.0798
▁Sou	-10.0801
ef	-10.0808
nça	-10.0811
▁você	-10.0813
▁interact	-10.0814
top	-10.0825
▁principal	-10.0833
my	-10.0835
idas	-10.0849
ey	-10.0858
▁bacteria	-10.086
▁perspetiva	-10.086
▁mensagem	-10.086
▁aumento	-10.0863
▁vossos	-10.0866
▁deliver	-10.0883
cus	-10.0883
pr	-10.0884
nts	-10.0887
ual	-10.0896
ft	-10.0904
▁available	-10.0904
▁distância	-10.0904
▁national	-10.0912
▁force	-10.0922
▁pegar	-10.0924
▁lista	-10.0925
íveis	-10.0926
▁económico	-10.0927
▁families	-10.0927
▁Maybe	-10.0928
▁actual	-10.0939
▁concentra	-10.094
▁pin	-10.0943
▁dig	-10.0943
▁cars	-10.0948
▁liberdade	-10.0949
▁First	-10.0949
▁favorite	-10.095
▁cause	-10.0953
▁With	-10.096
▁finalmente	-10.0962
▁page	-10.0969
▁list	-10.097
▁materiais	-10.0971
▁velocidade	-10.0971
▁300	-10.0972
▁sítio	-10.0974
▁hundred	-10.0974
▁died	-10.0981
▁object	-10.0982
▁seem	-10.0983
▁famílias	-10.0985
▁físico	-10.0994
▁direita	-10.0994
▁zona	-10.0994
▁relações	-10.0994
▁radical	-10.0994
▁issues	-10.101
▁medicine	-10.1016
▁aparece	-10.1021
▁Ki	-10.1022
▁context	-10.1024
▁vast	-10.1025
▁street	-10.1028
ible	-10.1029
▁talked	-10.1029
izado	-10.103
ular	-10.1039
▁assunto	-10.1039
▁Ainda	-10.1039
▁mudou	-10.1042
▁ran	-10.1049
▁alimentar	-10.1062
of	-10.1064
▁tro	-10.1073
▁aumenta	-10.1074
▁lose	-10.1079
▁jovem	-10.1084
▁Vemos	-10.1085
ology	-10.1085
▁bigger	-10.1087
▁filha	-10.1089
▁connection	-10.1095
plica	-10.1096
▁accept	-10.1107
▁artigo	-10.1107
▁engineer	-10.1113
▁desafio	-10.1114
▁capaz	-10.1119
▁dura	-10.1122
▁college	-10.1129
▁innovation	-10.1129
▁investiga	-10.1152
media	-10.1159
▁jobs	-10.1169
▁cri	-10.1173
▁threat	-10.1175
▁wait	-10.1177
mun	-10.1186
▁k	-10.1188
▁cresce	-10.119
▁resources	-10.1193
ixo	-10.1199
▁towards	-10.1203
este	-10.1203
ists	-10.1204
▁colegas	-10.1206
▁atividade	-10.1207
gui	-10.1208
▁meaning	-10.121
▁próprios	-10.1211
▁sério	-10.1221
ak	-10.1221
▁several	-10.1221
▁bal	-10.1226
▁nation	-10.1232
▁cura	-10.1232
▁Lu	-10.1247
So	-10.1252
▁potential	-10.1255
▁autor	-10.1256
▁potencial	-10.1267
▁writing	-10.1267
og	-10.1272
tado	-10.1277
▁effect	-10.1277
▁Nos	-10.128
▁male	-10.1287
▁biggest	-10.129
▁block	-10.1291
▁devido	-10.1292
▁ten	-10.1296
arem	-10.1296
indo	-10.1296
▁usam	-10.1304
▁bebé	-10.1304
▁taxa	-10.1306
▁humanidade	-10.1306
cionais	-10.1312
▁levou	-10.1313
▁produtos	-10.1315
▁account	-10.1336
▁fantástico	-10.1336
▁Quanto	-10.1338
hy	-10.1343
▁escrito	-10.1352
▁partes	-10.1354
▁path	-10.1369
olu	-10.1369
▁pagar	-10.1369
De	-10.1375
▁célula	-10.1376
▁pública	-10.1383
▁appear	-10.1383
▁pobreza	-10.1383
▁preço	-10.1394
▁logo	-10.1402
cut	-10.1403
▁padrões	-10.1406
▁encontro	-10.1406
▁olha	-10.1412
▁successful	-10.1413
▁oito	-10.1419
▁arma	-10.1419
gan	-10.142
ana	-10.1425
▁putting	-10.1425
▁colo	-10.1428
▁começámos	-10.143
▁decisões	-10.143
▁developing	-10.1456
▁afeta	-10.1468
ki	-10.1472
ability	-10.1476
▁female	-10.1477
▁respond	-10.1477
▁Wi	-10.1479
▁importa	-10.1491
▁prática	-10.1501
ice	-10.1506
▁negócio	-10.1522
▁Têm	-10.1524
▁repente	-10.1526
▁tecido	-10.1526
▁box	-10.1528
▁ficou	-10.1532
▁entender	-10.1533
▁verdadeira	-10.1547
▁gosto	-10.1552
▁boy	-10.1556
▁varia	-10.1557
▁Sul	-10.1558
▁consigo	-10.1571
▁depressa	-10.1572
▁Ni	-10.1585
▁climática	-10.1595
▁scientific	-10.1596
▁prevent	-10.1597
We	-10.1598
bilidade	-10.16
▁partner	-10.1603
▁reasons	-10.1612
▁poverty	-10.1619
bar	-10.163
▁conceito	-10.1643
▁month	-10.1648
▁irá	-10.1654
▁trip	-10.1659
▁sin	-10.1661
▁organ	-10.1664
▁finding	-10.1666
▁vírus	-10.1667
▁virtual	-10.1668
▁hot	-10.1682
▁product	-10.1688
▁aprendizagem	-10.1691
▁interpret	-10.1691
▁vários	-10.1692
▁track	-10.1705
▁miles	-10.1712
▁gelo	-10.1713
▁artificial	-10.1715
▁check	-10.1715
▁further	-10.1715
▁chamar	-10.1717
▁acordo	-10.1717
▁letter	-10.1718
▁doctor	-10.172
▁transformar	-10.1723
icos	-10.1728
▁US	-10.173
▁produção	-10.1739
▁remain	-10.174
▁feet	-10.1746
có	-10.1756
▁dog	-10.1763
▁abandon	-10.1763
▁feed	-10.1765
ativo	-10.1767
▁tratar	-10.1774
work	-10.1775
▁predict	-10.1776
▁pull	-10.178
▁escolas	-10.1782
▁bank	-10.1787
▁wish	-10.179
▁playing	-10.1794
▁emprego	-10.1795
▁decision	-10.1795
▁Acontece	-10.1812
▁conflito	-10.1812
▁fiquei	-10.1813
▁Quem	-10.1816
ified	-10.1819
▁2000	-10.1821
xa	-10.1829
▁store	-10.183
bil	-10.1837
▁function	-10.185
▁contexto	-10.1853
▁pele	-10.1857
uí	-10.186
med	-10.1863
▁verdadeiro	-10.1865
▁juntar	-10.1873
▁descobrimos	-10.1875
▁depende	-10.1878
▁perspective	-10.1885
▁standard	-10.1887
▁decide	-10.1887
almente	-10.1894
lus	-10.1901
▁lugares	-10.1902
▁higher	-10.1903
▁concept	-10.1909
▁democracy	-10.191
▁plastic	-10.191
▁Pi	-10.1912
▁supposed	-10.1915
▁líderes	-10.1916
▁involved	-10.1919
▁flu	-10.1919
▁press	-10.1929
▁receber	-10.1931
▁walking	-10.1932
▁Har	-10.1934
▁pedaço	-10.1935
▁ready	-10.1942
▁device	-10.1947
▁primeiros	-10.1951
▁motiva	-10.1951
▁encontra	-10.1954
▁irmão	-10.1954
▁add	-10.1956
▁azul	-10.196
▁draw	-10.196
▁chamamos	-10.1962
▁Even	-10.1963
▁acreditar	-10.1967
▁Tu	-10.1973
▁povo	-10.1976
▁relaciona	-10.1979
▁particularly	-10.1993
▁cru	-10.2001
▁dizia	-10.2002
▁leaders	-10.2003
riam	-10.2006
▁David	-10.201
▁comer	-10.2034
▁skin	-10.2034
▁geral	-10.204
▁moved	-10.2041
▁including	-10.2059
tório	-10.2068
▁Cor	-10.2074
▁cover	-10.2081
▁máquinas	-10.2086
▁velho	-10.2086
▁evolução	-10.2087
▁Ten	-10.2088
▁floresta	-10.2089
▁Chama	-10.2098
▁instituições	-10.2109
▁padrão	-10.2109
É	-10.2116
▁haven	-10.2123
▁improve	-10.2131
damente	-10.2133
▁industrial	-10.2134
lí	-10.2134
▁bomb	-10.2136
ake	-10.214
▁Ru	-10.2142
▁Yes	-10.2148
▁universidade	-10.2159
▁security	-10.2161
▁tendência	-10.2162
▁fuel	-10.2163
▁largest	-10.2163
▁sinto	-10.2169
▁regras	-10.2172
▁coral	-10.2173
ança	-10.2176
▁fat	-10.2177
▁Quer	-10.2178
▁career	-10.2187
fra	-10.2187
▁conhecer	-10.2198
▁petróleo	-10.221
▁carreira	-10.221
▁quality	-10.222
▁fan	-10.2229
▁pictures	-10.2229
▁rápido	-10.2235
▁cross	-10.2236
▁braço	-10.2236
▁ligação	-10.2241
▁meeting	-10.2242
▁grew	-10.226
▁nine	-10.2263
inhos	-10.2272
▁near	-10.2279
▁vidas	-10.2282
▁Ora	-10.2283
han	-10.2284
▁taught	-10.2286
▁organization	-10.2288
▁require	-10.2289
▁argument	-10.2291
▁detect	-10.2297
ez	-10.2299
▁ideal	-10.2302
▁creative	-10.2312
▁daughter	-10.2312
▁bodies	-10.2312
▁shift	-10.2312
▁devo	-10.2319
▁notice	-10.2334
▁sw	-10.2334
▁among	-10.2336
▁return	-10.2337
▁condições	-10.2337
▁loved	-10.2338
▁stick	-10.2339
ney	-10.234
▁teachers	-10.2351
▁brincar	-10.2355
▁eventually	-10.2363
▁sensação	-10.2363
▁salvar	-10.2366
ologia	-10.2368
ren	-10.2373
▁becomes	-10.2373
▁gives	-10.2373
ins	-10.2379
▁shown	-10.2379
▁pude	-10.2387
▁conflict	-10.2389
uda	-10.239
ically	-10.2398
▁bed	-10.2403
▁detail	-10.2414
▁mesa	-10.2414
▁individuals	-10.242
▁dedica	-10.2425
▁pensava	-10.2431
▁organização	-10.2436
▁crazy	-10.244
▁chemical	-10.244
▁estrada	-10.2441
rma	-10.2445
▁feita	-10.2449
▁Today	-10.245
▁led	-10.2458
▁offer	-10.2464
▁repeti	-10.2467
▁park	-10.2473
▁signal	-10.2482
▁casos	-10.2491
▁fl	-10.2491
▁estudos	-10.2494
▁ligar	-10.2495
▁watching	-10.2499
▁count	-10.2507
▁certainly	-10.2513
▁hole	-10.2514
▁affect	-10.2523
▁camp	-10.2531
▁Paul	-10.2531
▁Gu	-10.2532
atur	-10.2543
▁religion	-10.2545
▁position	-10.2545
▁worse	-10.2545
▁magic	-10.2546
▁Alguns	-10.2552
▁35	-10.2556
rate	-10.2559
▁sorte	-10.2566
sol	-10.2568
▁proteger	-10.257
▁bairro	-10.2571
▁regular	-10.2577
▁antigo	-10.2578
▁longa	-10.2584
pel	-10.2587
▁results	-10.2587
▁carta	-10.2589
▁discover	-10.2595
▁everywhere	-10.2597
▁inovação	-10.2597
▁intelligence	-10.2597
▁survive	-10.2597
▁universal	-10.2597
▁allowed	-10.26
▁train	-10.2601
▁truly	-10.2601
Como	-10.2606
▁sinal	-10.2607
▁emerge	-10.2609
▁card	-10.2612
▁vive	-10.2613
▁meant	-10.2615
▁web	-10.2621
▁artist	-10.2622
▁showing	-10.2623
▁ecrã	-10.2624
▁Pensem	-10.2624
▁West	-10.263
▁Who	-10.2631
lay	-10.2635
▁plantas	-10.2641
ativa	-10.2643
▁complexo	-10.2643
▁Am	-10.265
▁explore	-10.265
▁positive	-10.265
▁robot	-10.2656
▁parecer	-10.2657
▁y	-10.2658
ley	-10.2662
▁doente	-10.2662
▁training	-10.2674
▁técnica	-10.2677
▁address	-10.2677
▁throw	-10.2677
bb	-10.268
▁envia	-10.2685
▁tiveram	-10.2689
▁gas	-10.269
▁basicamente	-10.2705
▁mini	-10.2716
▁dance	-10.2717
▁transforma	-10.2719
bili	-10.2722
▁recebe	-10.2724
▁blind	-10.273
▁direção	-10.273
▁apoio	-10.273
rap	-10.2735
leg	-10.2746
▁Será	-10.2753
▁task	-10.2757
▁sangue	-10.2758
▁esperar	-10.2758
▁incluindo	-10.2759
▁connected	-10.276
▁estivesse	-10.2763
▁leve	-10.2767
▁pensem	-10.2775
▁slow	-10.2779
lie	-10.2779
▁speed	-10.2784
▁descobri	-10.2784
▁ataque	-10.2786
▁unique	-10.2786
▁construção	-10.2788
▁permitir	-10.2789
cip	-10.279
▁indivíduos	-10.2804
▁serviços	-10.2804
responsabilidade	-10.281
▁Washington	-10.281
▁esforço	-10.281
▁céu	-10.281
▁slide	-10.281
▁drop	-10.2811
▁join	-10.2816
▁falha	-10.2816
▁competi	-10.2817
▁X	-10.2817
icamente	-10.2819
▁aren	-10.2831
▁teacher	-10.2842
▁mom	-10.2843
▁ball	-10.2852
▁bone	-10.2854
▁robô	-10.2855
ably	-10.2858
▁schools	-10.2858
▁kept	-10.2864
▁Fui	-10.2865
▁reduzir	-10.2867
▁extremely	-10.2872
pped	-10.2873
▁conhecido	-10.2873
pen	-10.2874
▁peso	-10.2874
▁named	-10.288
▁farm	-10.2881
▁student	-10.2883
▁profunda	-10.2886
▁vale	-10.2888
ologist	-10.2889
▁sonho	-10.289
▁laugh	-10.2891
▁crisis	-10.2892
▁insect	-10.2892
▁pan	-10.2894
▁ensina	-10.2895
▁tool	-10.2895
▁antiga	-10.29
lógico	-10.2918
▁exciting	-10.2919
lan	-10.292
▁institutions	-10.292
▁hum	-10.2933
▁mon	-10.2938
▁totally	-10.2942
▁price	-10.2947
▁bird	-10.2947
▁significado	-10.2949
▁permit	-10.2953
▁ficam	-10.2954
▁lutar	-10.2956
▁respect	-10.296
▁standing	-10.296
▁km	-10.2965
ky	-10.2968
▁calcula	-10.2971
▁prisão	-10.2973
▁rendimento	-10.2973
▁reflect	-10.2973
▁sat	-10.2975
▁provoca	-10.2975
ons	-10.2977
▁grave	-10.2992
▁buraco	-10.3001
▁frase	-10.3001
▁roda	-10.3009
▁Sabemos	-10.3012
▁estrelas	-10.3014
▁regula	-10.302
▁viram	-10.3022
▁criado	-10.3023
ah	-10.3024
▁Du	-10.3026
▁felicidade	-10.3028
▁wind	-10.3029
▁aberto	-10.3031
▁conditions	-10.3032
▁Where	-10.3032
▁usamos	-10.3033
▁classe	-10.3034
▁peça	-10.3036
▁robôs	-10.3037
▁dificuldade	-10.3056
▁compra	-10.3063
▁Sabem	-10.3067
▁prove	-10.3075
▁migra	-10.3085
van	-10.3089
▁400	-10.3093
▁onto	-10.3096
▁diver	-10.3107
gent	-10.3108
var	-10.311
▁HIV	-10.3111
▁pudesse	-10.3119
▁árvores	-10.3122
can	-10.3127
▁complete	-10.3129
▁difíceis	-10.3139
▁cop	-10.3141
▁perform	-10.3142
▁pot	-10.3143
▁progresso	-10.3144
▁doctors	-10.3162
row	-10.3166
lig	-10.3167
▁veio	-10.3173
▁Fe	-10.3175
▁healthy	-10.3181
▁geo	-10.3184
▁manda	-10.3187
▁enviar	-10.3192
▁vivemos	-10.3192
▁nacional	-10.3193
▁Hi	-10.3194
▁excited	-10.3194
▁abaixo	-10.3195
▁policy	-10.3195
▁poderá	-10.3212
ámo	-10.3214
▁fine	-10.322
▁Estados	-10.3222
▁anybody	-10.3222
▁babies	-10.3222
▁brother	-10.3222
▁milhão	-10.3222
▁prazo	-10.3223
▁remind	-10.3223
rais	-10.3227
▁Bill	-10.3233
over	-10.3243
▁valores	-10.3246
▁identidade	-10.3251
▁rules	-10.3255
▁topo	-10.3265
▁próximos	-10.3265
▁uni	-10.3278
▁Mesmo	-10.3279
▁negócios	-10.3281
▁direction	-10.3285
let	-10.3287
▁drogas	-10.3288
▁Bi	-10.329
▁bebés	-10.329
▁simula	-10.3295
▁manage	-10.3296
▁nele	-10.3297
ássemos	-10.3306
▁reduce	-10.3307
▁freedom	-10.3307
▁intui	-10.3308
▁traditional	-10.331
▁passei	-10.3317
▁ja	-10.3333
▁Universidade	-10.3335
▁propriedade	-10.3335
▁plants	-10.334
▁ouvido	-10.3346
▁race	-10.3348
▁sup	-10.3356
▁sozinho	-10.3364
▁killed	-10.3365
▁percebe	-10.3368
▁rato	-10.339
▁exterior	-10.3392
▁telefone	-10.3392
▁famous	-10.3392
▁parecia	-10.3392
▁financial	-10.3393
▁verão	-10.3394
▁radio	-10.3402
▁lembrar	-10.3407
▁abordagem	-10.3421
▁nobody	-10.3421
▁comunicação	-10.3424
▁curso	-10.3425
▁participa	-10.3427
▁chão	-10.3435
quei	-10.3436
▁normalmente	-10.3437
rada	-10.3438
▁reading	-10.3442
▁passou	-10.3443
▁hour	-10.3443
▁propósito	-10.3449
▁shot	-10.345
▁edifícios	-10.345
▁indeed	-10.3452
▁daqui	-10.3457
▁Pu	-10.3466
▁waste	-10.3473
▁birth	-10.3478
▁segura	-10.3478
▁international	-10.3478
▁porquê	-10.3478
▁soluções	-10.3478
gio	-10.348
▁viola	-10.3483
▁sky	-10.3484
ee	-10.3488
▁tele	-10.3494
eiros	-10.3495
▁faster	-10.3497
▁expand	-10.3503
▁afford	-10.3507
▁criminal	-10.3507
▁plástico	-10.3507
▁aldeia	-10.3507
▁floor	-10.3507
▁massive	-10.351
▁contact	-10.3514
▁entend	-10.3515
▁leis	-10.3516
▁controlar	-10.3521
▁modelos	-10.3524
▁evolution	-10.3535
▁acabou	-10.3536
▁mês	-10.3536
▁cozinha	-10.3537
▁políticos	-10.354
▁abrir	-10.3542
▁lesson	-10.3542
▁older	-10.3553
▁trial	-10.3559
▁Twitter	-10.3565
▁extraordinary	-10.3565
▁rio	-10.3571
▁obviously	-10.3574
izados	-10.3575
▁minute	-10.358
▁worry	-10.3594
▁impossível	-10.3594
▁organizações	-10.3597
▁mudanças	-10.3598
▁serious	-10.3598
▁serão	-10.3599
▁troca	-10.3614
▁Tom	-10.3621
bit	-10.3622
▁incrivelmente	-10.3623
▁Those	-10.3623
▁peace	-10.3623
▁compassion	-10.3624
▁explorar	-10.3632
▁trade	-10.3641
▁consum	-10.3645
▁fotos	-10.3647
▁somewhere	-10.3652
▁terceiro	-10.3652
▁performance	-10.3653
▁vimos	-10.3668
▁skills	-10.3668
uma	-10.3669
nhei	-10.367
▁americanos	-10.3671
▁diria	-10.368
▁inteligência	-10.3682
▁região	-10.3682
▁connosco	-10.3682
▁wife	-10.3682
▁lie	-10.3685
▁Unidos	-10.3691
▁reconhecer	-10.3692
▁trees	-10.3708
▁aquelas	-10.371
▁algorithm	-10.3711
▁communication	-10.3711
▁principle	-10.3711
▁montanha	-10.3712
▁possamos	-10.3714
▁poderosa	-10.3715
uz	-10.3716
▁informa	-10.3718
▁disco	-10.3718
▁forem	-10.3725
▁fomos	-10.3727
▁posição	-10.3727
▁150	-10.3736
▁gráfico	-10.3742
▁apresenta	-10.3742
▁buildings	-10.375
▁flow	-10.375
▁exemplos	-10.3757
▁ocorre	-10.3763
▁humanity	-10.3763
▁Obrigada	-10.377
▁Chinese	-10.377
▁complicated	-10.377
▁target	-10.377
▁vejo	-10.3774
Porque	-10.3783
▁Mil	-10.379
▁Faz	-10.3791
▁novamente	-10.3792
▁encontrei	-10.38
▁wild	-10.38
meter	-10.3806
▁cá	-10.3807
▁allows	-10.3809
óli	-10.3814
▁carry	-10.382
▁photo	-10.3823
▁Harvard	-10.383
▁vermelho	-10.383
▁memory	-10.383
▁decisão	-10.383
▁Imagine	-10.3831
▁desenvolve	-10.3832
▁tua	-10.3836
▁aula	-10.3841
▁Qu	-10.3842
▁precisava	-10.3848
▁objects	-10.3856
▁achieve	-10.3856
▁genética	-10.3859
▁cadeira	-10.386
▁daquele	-10.386
▁examples	-10.386
▁revolução	-10.3863
▁sons	-10.3865
▁critical	-10.3866
▁range	-10.3867
▁querer	-10.3869
▁rapazes	-10.3871
▁tocar	-10.3874
ek	-10.3883
▁estive	-10.3884
▁aparelho	-10.3889
▁written	-10.3889
ploy	-10.389
▁window	-10.389
▁transfer	-10.3892
▁shared	-10.3895
▁suddenly	-10.3896
▁decades	-10.3901
▁criação	-10.3903
▁45	-10.3905
▁associa	-10.3916
▁justiça	-10.3925
▁clo	-10.3925
▁usa	-10.3929
▁despe	-10.3932
like	-10.3933
▁correct	-10.3933
▁Ver	-10.3935
▁habitua	-10.3945
▁emotional	-10.3945
▁espírito	-10.395
▁inglês	-10.395
▁dangerous	-10.395
▁pra	-10.3953
▁burn	-10.3954
▁listening	-10.3957
▁option	-10.3958
▁aparecer	-10.3961
▁materials	-10.3965
▁parent	-10.3965
▁felizes	-10.3967
▁rapaz	-10.3968
kin	-10.3971
▁sono	-10.3973
eiras	-10.3974
▁pattern	-10.3979
▁matéria	-10.398
▁desenho	-10.398
vid	-10.3981
▁Comp	-10.3982
▁specific	-10.3984
▁military	-10.3985
▁guarda	-10.3992
ook	-10.3993
ém	-10.3994
▁robots	-10.3998
▁parecem	-10.4003
▁lower	-10.4004
posto	-10.4007
Q	-10.4007
▁conteúdo	-10.401
▁earlier	-10.401
▁mosquito	-10.401
▁thousand	-10.401
▁avião	-10.4011
▁essentially	-10.4016
▁significant	-10.4018
ray	-10.4027
▁brains	-10.4029
▁workers	-10.4029
▁City	-10.4038
▁cidadãos	-10.404
▁frequentemente	-10.404
▁cadeia	-10.404
▁Like	-10.4044
▁conhecemos	-10.4054
ked	-10.4055
▁olho	-10.4067
▁link	-10.4072
▁sinais	-10.4074
eta	-10.4078
▁computers	-10.4083
▁dão	-10.4085
▁continu	-10.4089
▁machines	-10.4091
▁perde	-10.4098
▁governos	-10.41
▁physics	-10.4102
▁purpose	-10.4102
▁acima	-10.4103
▁rosto	-10.4104
▁tree	-10.4106
tim	-10.4111
▁Pre	-10.4123
▁board	-10.4123
▁except	-10.4124
ssemos	-10.413
▁economist	-10.4132
▁morto	-10.4132
▁usually	-10.4132
▁poderoso	-10.4135
▁wa	-10.4137
▁fossem	-10.4143
cada	-10.415
▁decisions	-10.4154
▁helped	-10.4157
ko	-10.4162
▁grava	-10.4163
▁happiness	-10.4163
▁impossible	-10.4163
▁sul	-10.4163
▁patterns	-10.4164
▁costa	-10.4167
▁version	-10.4168
aking	-10.417
▁rise	-10.4171
▁Todas	-10.4172
partamento	-10.4173
▁fronteira	-10.4178
▁collect	-10.4197
▁harm	-10.4198
▁formação	-10.42
▁service	-10.42
▁rock	-10.4202
▁alter	-10.4207
▁Th	-10.4207
▁cap	-10.4222
▁mountain	-10.4225
▁fase	-10.4227
▁above	-10.4228
▁mesmas	-10.4229
▁Outra	-10.4232
▁necessidade	-10.4232
▁raise	-10.4234
▁brilhante	-10.4234
▁esteja	-10.4234
▁painting	-10.4251
▁bactérias	-10.4253
▁transmit	-10.4255
▁começam	-10.4256
ium	-10.4258
▁terreno	-10.4258
▁rat	-10.4263
▁income	-10.4263
▁mi	-10.4264
aw	-10.4264
▁Gra	-10.4267
▁East	-10.4269
▁tenta	-10.4278
▁effort	-10.4287
▁private	-10.4287
▁George	-10.4287
▁Israel	-10.4287
▁errada	-10.4288
▁Elas	-10.4292
▁inteligente	-10.4297
▁armas	-10.4301
▁recente	-10.4305
▁ship	-10.4305
▁wave	-10.4308
▁Mars	-10.4316
▁anymore	-10.4318
▁okay	-10.4318
▁wide	-10.4321
▁ended	-10.4322
bling	-10.4323
gh	-10.4329
▁tornam	-10.4331
▁tido	-10.4333
▁má	-10.4339
▁Many	-10.434
▁método	-10.435
▁politics	-10.435
▁avó	-10.435
mail	-10.4353
▁matar	-10.4359
▁hair	-10.436
gun	-10.4372
▁contribu	-10.4378
▁include	-10.4381
▁becoming	-10.4381
▁objetos	-10.4387
▁Don	-10.4392
▁década	-10.4394
▁fal	-10.4403
▁song	-10.4409
▁companhia	-10.4413
▁excelente	-10.4413
▁beleza	-10.4413
▁surpreendente	-10.4413
▁emoções	-10.4414
▁weren	-10.4418
▁recebi	-10.4422
▁fotografias	-10.4423
▁professional	-10.443
▁Un	-10.4436
▁dispositivo	-10.4444
▁National	-10.4444
▁ritmo	-10.4445
▁revista	-10.4446
▁remove	-10.4448
▁larger	-10.4449
▁recentemente	-10.445
▁cases	-10.446
▁current	-10.4464
▁laws	-10.4468
▁products	-10.4472
▁75	-10.4474
▁starts	-10.4479
lidade	-10.4481
▁ponta	-10.4482
▁presidente	-10.4486
▁respostas	-10.4488
▁studies	-10.4508
▁Norte	-10.4508
▁superior	-10.4508
▁daquela	-10.4509
▁stars	-10.4513
▁sentem	-10.4519
▁poli	-10.4527
▁vote	-10.4537
▁chegou	-10.454
▁enjoy	-10.454
▁somehow	-10.454
▁divide	-10.454
▁solutions	-10.4547
▁fail	-10.4559
tel	-10.4563
▁membros	-10.4568
▁models	-10.4571
▁spot	-10.4576
▁Ber	-10.4578
▁net	-10.4579
gado	-10.458
▁fome	-10.4587
▁atual	-10.4602
▁spi	-10.4602
▁forget	-10.4605
▁calor	-10.4609
bus	-10.4613
▁impos	-10.4621
▁medicamentos	-10.4624
▁effective	-10.4631
▁bocado	-10.4632
▁University	-10.4636
▁algoritmo	-10.4636
▁Havia	-10.4638
▁esca	-10.4644
▁rever	-10.4645
▁aprendemos	-10.4647
▁bola	-10.4648
▁His	-10.4648
▁perda	-10.4649
▁Alguma	-10.4669
▁cirurgia	-10.4669
▁fantástica	-10.4669
▁bunch	-10.4669
▁Muitas	-10.4669
▁ocupa	-10.4669
▁espero	-10.4669
▁Human	-10.4672
▁ganha	-10.4679
▁demand	-10.4683
▁liga	-10.4683
ough	-10.4694
▁literalmente	-10.4701
▁architecture	-10.4701
▁rain	-10.4705
▁oportunidades	-10.4712
grade	-10.4716
▁Nem	-10.4716
▁loss	-10.4718
▁neurónios	-10.4719
▁match	-10.4719
▁term	-10.4721
ón	-10.4725
▁avança	-10.4732
▁teu	-10.4736
▁palco	-10.4742
▁envolve	-10.4747
▁peixe	-10.476
▁objeto	-10.476
▁cold	-10.4761
▁camada	-10.4763
▁contribui	-10.4765
▁vontade	-10.4766
▁biology	-10.4767
▁pernas	-10.4775
▁pesa	-10.4778
organism	-10.478
ily	-10.479
▁abri	-10.4797
▁math	-10.4799
▁Einstein	-10.4799
▁speech	-10.4799
▁ótimo	-10.4799
▁mistake	-10.4799
▁convosco	-10.4799
▁roupa	-10.4799
▁confront	-10.4801
▁diseases	-10.4804
▁contain	-10.4814
▁vindo	-10.4816
▁constitu	-10.4819
▁town	-10.4822
▁cheap	-10.4832
▁cheio	-10.4832
▁Steve	-10.4832
▁Ali	-10.4833
▁Pol	-10.4833
▁solo	-10.4835
▁loja	-10.4835
▁Part	-10.4845
▁greatest	-10.4854
▁prova	-10.4858
▁Vo	-10.4858
▁metal	-10.486
▁cedo	-10.4864
▁Mundial	-10.4865
▁interface	-10.4866
spera	-10.4866
▁admit	-10.4867
▁quiserem	-10.487
▁efeitos	-10.4874
▁projects	-10.4875
▁queriam	-10.4878
▁banco	-10.4882
▁sobreviver	-10.4882
net	-10.4885
term	-10.4896
▁neighbor	-10.4898
▁agricultura	-10.4898
▁estranha	-10.4898
▁maravilhosa	-10.4898
▁failure	-10.4898
▁neighborhood	-10.4898
▁CO	-10.4899
▁níveis	-10.4899
▁receita	-10.4901
▁sister	-10.4904
▁golf	-10.4912
▁upon	-10.492
▁políticas	-10.4924
▁artista	-10.4929
▁tissue	-10.4931
▁volume	-10.4931
▁method	-10.4931
▁glass	-10.4932
▁activity	-10.4932
▁waiting	-10.4932
▁recu	-10.4933
off	-10.4934
▁Ph	-10.4937
sum	-10.4939
▁enco	-10.494
▁arranjar	-10.494
▁citizens	-10.4942
▁vêm	-10.496
cher	-10.4962
▁challenges	-10.4965
▁telemóvel	-10.4965
▁voar	-10.4965
▁noutro	-10.4965
▁direct	-10.4966
▁cook	-10.497
▁determina	-10.4974
▁environmental	-10.4975
▁dança	-10.4979
▁chi	-10.498
wn	-10.4984
▁series	-10.4986
▁empregos	-10.4989
▁willing	-10.4996
▁compaixão	-10.4998
▁expensive	-10.4998
▁Diz	-10.4998
▁interessado	-10.4999
▁projetos	-10.5
▁tap	-10.5001
▁trauma	-10.5002
range	-10.5008
adora	-10.5011
▁aberta	-10.5011
▁décadas	-10.5018
▁clearly	-10.5022
▁encontramos	-10.5025
▁struggle	-10.5032
▁jump	-10.5032
▁electricity	-10.5033
▁trabalhadores	-10.5034
▁colleagues	-10.5035
▁paint	-10.5037
▁Americans	-10.5041
ude	-10.5043
▁cama	-10.5043
▁utilizar	-10.5047
▁joga	-10.5051
stitution	-10.5052
posição	-10.5054
▁traz	-10.5058
▁análise	-10.5065
▁drink	-10.5065
▁fábrica	-10.5065
▁cheia	-10.5066
▁rapariga	-10.5069
▁trick	-10.5074
▁teaching	-10.5075
▁programas	-10.5077
▁paz	-10.5091
▁services	-10.5092
▁neurons	-10.5093
▁usada	-10.5098
▁beauty	-10.5099
▁especialista	-10.5099
▁implement	-10.5099
▁square	-10.5099
▁Tra	-10.5101
▁ligado	-10.5101
▁amostra	-10.5102
▁graça	-10.5107
graph	-10.5113
▁sell	-10.5122
▁alive	-10.5122
▁café	-10.5133
▁janela	-10.5133
▁please	-10.5133
▁podermos	-10.5139
▁22	-10.5146
▁lack	-10.515
▁casamento	-10.5152
▁walked	-10.5157
▁estratégia	-10.5167
▁importância	-10.5167
▁maravilhoso	-10.5167
▁económica	-10.5167
▁sad	-10.5168
▁organizations	-10.5169
▁paga	-10.5175
▁custa	-10.5175
▁gostam	-10.5188
▁nove	-10.5188
▁smaller	-10.5189
▁apply	-10.5192
ged	-10.52
▁driving	-10.5201
▁interview	-10.5202
▁collective	-10.5204
▁serviço	-10.521
▁lines	-10.5216
ilha	-10.5217
▁produzi	-10.5224
pping	-10.5225
▁justice	-10.5231
present	-10.5231
▁evitar	-10.5235
▁2010	-10.5235
▁Porquê	-10.5239
▁gender	-10.5239
▁Toda	-10.524
out	-10.5251
▁jogar	-10.5251
ency	-10.5258
▁eficaz	-10.5258
▁barco	-10.5259
▁roll	-10.5262
▁atingir	-10.5266
▁tivessem	-10.5267
▁communicate	-10.527
▁manipula	-10.527
▁sobretudo	-10.527
▁belief	-10.527
▁protein	-10.527
▁administra	-10.527
▁organismo	-10.5272
▁throughout	-10.5273
▁testes	-10.5278
▁culpa	-10.5279
iana	-10.5282
▁instrumento	-10.5294
▁x	-10.5301
▁rápida	-10.5304
▁mistura	-10.5304
Video	-10.531
▁inteligentes	-10.5328
▁Los	-10.533
▁nela	-10.5334
▁proteína	-10.5339
▁respeito	-10.5339
▁spoke	-10.5339
▁estatística	-10.5339
▁terrible	-10.5339
▁terrível	-10.5339
▁afraid	-10.5339
▁mission	-10.5339
▁weight	-10.5339
▁avançar	-10.5341
▁limpa	-10.5342
▁governments	-10.5352
▁labor	-10.536
▁combina	-10.5362
▁colabora	-10.5367
Mas	-10.5372
▁Times	-10.5375
gram	-10.5377
▁tema	-10.5378
▁relationships	-10.5386
▁reduz	-10.5392
▁Muitos	-10.5397
▁Wal	-10.5402
▁Instead	-10.5408
▁understood	-10.5408
▁Two	-10.5408
▁História	-10.5409
▁fair	-10.5411
▁damage	-10.5411
▁funcionam	-10.5416
▁Sha	-10.5423
▁versão	-10.5431
▁define	-10.5433
mal	-10.5443
▁Richard	-10.5443
▁televisão	-10.5443
▁instance	-10.5443
▁separate	-10.5444
▁immediately	-10.5447
cious	-10.5453
▁pur	-10.5468
▁Col	-10.5477
▁Muslim	-10.5478
▁adolescente	-10.5478
▁religião	-10.5478
▁ciclo	-10.5479
ink	-10.548
▁violent	-10.5503
▁bear	-10.5505
▁anterior	-10.5508
▁neuro	-10.5509
▁sentado	-10.5511
▁olharmos	-10.5513
▁Comecei	-10.5514
▁apercebe	-10.5514
▁chave	-10.5514
▁London	-10.5514
▁sector	-10.5514
▁Francisco	-10.5515
▁refugiados	-10.5515
▁biologia	-10.5515
▁sum	-10.5516
▁rural	-10.5516
▁stopped	-10.5516
▁sendo	-10.5518
▁alteração	-10.5521
▁Look	-10.5522
▁Sp	-10.5523
ografia	-10.5537
▁temperatura	-10.5549
▁biological	-10.555
▁parque	-10.5555
▁pesca	-10.5555
How	-10.5569
ética	-10.5569
▁monitor	-10.5576
▁core	-10.558
▁meia	-10.5585
▁breve	-10.5585
▁Natureza	-10.5585
▁99	-10.5587
▁mix	-10.5588
▁corner	-10.559
0,000	-10.5592
▁Arab	-10.5592
▁irmã	-10.5592
▁Ter	-10.5593
▁broken	-10.5594
▁casas	-10.5594
▁decade	-10.5608
▁amp	-10.5617
▁investimento	-10.562
▁vizinho	-10.562
▁saving	-10.5622
▁dividi	-10.5623
▁wire	-10.5624
▁pré	-10.5627
▁transporte	-10.5647
▁preso	-10.565
▁landscape	-10.5656
▁profundo	-10.5656
▁diversidade	-10.5656
▁afirma	-10.5656
▁Western	-10.5656
▁pressure	-10.5656
▁random	-10.5656
▁jogos	-10.5662
▁recent	-10.5664
▁trazer	-10.5667
▁pet	-10.5675
▁speaking	-10.5679
▁types	-10.5684
▁pega	-10.5684
▁unit	-10.5685
▁sample	-10.5692
▁Frank	-10.5692
▁classroom	-10.5692
▁Pensa	-10.5694
▁triste	-10.5695
▁Somos	-10.5708
▁greater	-10.5709
▁spin	-10.5712
▁cast	-10.5713
▁Mc	-10.5716
▁hate	-10.5719
▁editor	-10.572
▁senhor	-10.5721
▁circle	-10.5728
▁himself	-10.5728
▁negra	-10.5728
▁summer	-10.5729
hand	-10.5734
▁planta	-10.5736
▁nearly	-10.5744
▁rid	-10.5753
board	-10.5755
table	-10.5756
tech	-10.5761
▁científica	-10.5764
▁generate	-10.5767
▁irão	-10.577
▁apresentar	-10.577
▁minds	-10.577
▁values	-10.5775
▁governa	-10.5778
▁obvious	-10.5788
▁breath	-10.5789
▁química	-10.58
▁Darwin	-10.58
▁Posso	-10.58
▁imediatamente	-10.5801
▁influence	-10.5821
▁cores	-10.5823
▁desempenho	-10.5836
▁enormous	-10.5836
▁faculdade	-10.5836
▁terceira	-10.5836
▁debaixo	-10.5836
dimensional	-10.5839
▁Paris	-10.584
▁mud	-10.5841
▁char	-10.5845
ological	-10.5853
▁Sun	-10.5863
▁condition	-10.5868
▁escritório	-10.5873
▁Usa	-10.5878
▁reside	-10.5886
place	-10.5894
fund	-10.5897
▁rule	-10.5899
▁scientist	-10.5906
▁Ninguém	-10.5909
▁rights	-10.591
▁wealth	-10.591
▁2008	-10.5913
▁inteira	-10.5913
▁alterar	-10.5919
▁marido	-10.592
bert	-10.5922
▁curva	-10.5926
▁pieces	-10.5926
▁humor	-10.5927
▁heat	-10.5934
▁highly	-10.5946
▁husband	-10.5946
▁probabilidade	-10.5946
▁mobile	-10.5946
▁erro	-10.5955
▁published	-10.5959
▁gun	-10.5967
▁pop	-10.5967
▁ferramenta	-10.5982
▁destroy	-10.5983
▁pedra	-10.5984
▁engineering	-10.5985
▁production	-10.5989
▁river	-10.5991
▁BG	-10.5996
▁choices	-10.5997
▁differently	-10.6003
▁certas	-10.6008
▁gain	-10.6009
▁emotions	-10.6009
▁estiver	-10.6011
▁igual	-10.6014
▁segui	-10.6019
▁molecular	-10.602
▁obviamente	-10.602
▁vítima	-10.602
▁Are	-10.6021
▁acidente	-10.6022
▁surgery	-10.6023
▁escreveu	-10.6034
night	-10.6039
▁unidade	-10.6039
vida	-10.6048
▁execut	-10.6048
▁Her	-10.6049
▁sick	-10.6051
▁momentos	-10.6053
▁accident	-10.6057
▁anywhere	-10.6057
▁straight	-10.6057
▁worst	-10.6057
▁imenso	-10.6057
▁lixo	-10.6058
▁boys	-10.6061
▁planetas	-10.6063
ev	-10.6064
▁forças	-10.6067
gene	-10.6072
▁paid	-10.6078
▁describe	-10.6089
▁Marte	-10.6091
▁guia	-10.6093
50	-10.6099
▁virus	-10.6099
▁diferenças	-10.6101
▁profundamente	-10.6102
▁rare	-10.6113
▁existir	-10.6114
▁gar	-10.6116
▁identity	-10.6132
▁surprising	-10.6132
▁Another	-10.6132
▁vesti	-10.6134
▁sermos	-10.6144
▁negros	-10.6146
az	-10.6156
▁graph	-10.6159
▁Vejam	-10.6163
▁forth	-10.6165
▁pés	-10.6168
▁Brazil	-10.617
▁VIH	-10.617
▁círculo	-10.617
▁observe	-10.617
▁genoma	-10.617
▁lava	-10.6171
▁acaso	-10.6173
▁atualmente	-10.6176
lé	-10.6178
▁replace	-10.6178
▁convida	-10.6178
▁morta	-10.618
▁gostava	-10.6191
right	-10.6195
▁medir	-10.6198
▁Have	-10.62
tória	-10.6203
▁planets	-10.6205
▁escrita	-10.6207
▁societies	-10.6207
▁registo	-10.6207
▁following	-10.6213
▁deveria	-10.6214
▁sand	-10.6214
▁solid	-10.6216
▁sentia	-10.6218
▁esqui	-10.6228
▁enc	-10.6229
▁pô	-10.6238
▁protest	-10.6239
mark	-10.6245
▁Londres	-10.6245
▁Which	-10.6245
▁partículas	-10.6245
▁diversity	-10.6245
▁determine	-10.6245
▁avoid	-10.6246
▁emprega	-10.6246
▁acham	-10.6247
▁sentence	-10.6249
▁desire	-10.625
▁função	-10.6263
▁grade	-10.6266
▁whose	-10.6268
▁Trata	-10.6272
▁II	-10.6274
▁MIT	-10.6283
▁temperature	-10.6283
▁veículo	-10.6283
▁despite	-10.6283
▁vós	-10.6283
▁expressão	-10.6292
tual	-10.6299
▁levels	-10.6303
▁pacientes	-10.6305
▁consequências	-10.6307
▁experiences	-10.6308
▁nano	-10.6312
▁encontram	-10.6315
▁noticed	-10.6318
▁campaign	-10.6321
▁criatividade	-10.6321
▁frequência	-10.6321
▁remarkable	-10.6321
▁distance	-10.6322
berg	-10.6322
▁Bom	-10.6325
▁foot	-10.633
read	-10.6338
▁disc	-10.6342
▁mostly	-10.6344
▁catch	-10.6345
▁contacto	-10.6354
▁custom	-10.6358
▁cave	-10.6358
▁êxito	-10.636
▁genome	-10.636
▁nutri	-10.636
▁border	-10.636
▁dying	-10.636
▁gostar	-10.6363
▁mover	-10.6364
▁constru	-10.6364
▁aplica	-10.6366
▁gira	-10.637
▁menor	-10.6384
ância	-10.6398
▁frequent	-10.6398
▁fantastic	-10.6398
▁tira	-10.64
▁implant	-10.64
▁regime	-10.6402
▁desenhar	-10.6407
Do	-10.6415
▁useful	-10.6419
▁King	-10.6425
20	-10.6426
▁client	-10.6427
▁filmes	-10.6432
▁gigante	-10.6437
▁Provavelmente	-10.6437
▁arquitetura	-10.6437
▁campanha	-10.6437
▁médica	-10.6437
▁opinião	-10.6437
▁opposite	-10.6437
▁audiência	-10.6437
▁promise	-10.6437
▁double	-10.6437
▁tantas	-10.6447
▁termina	-10.6448
urb	-10.6449
▁aceitar	-10.6458
▁passam	-10.646
▁liberta	-10.6467
▁decidir	-10.6468
▁substitu	-10.647
▁linhas	-10.647
▁Chicago	-10.6476
▁cerebral	-10.6476
ivity	-10.6482
▁convert	-10.6483
▁assustador	-10.6486
▁interaction	-10.6492
▁conhecem	-10.6492
▁bla	-10.6494
▁forms	-10.6498
▁equal	-10.6501
ividade	-10.6505
▁clima	-10.6506
▁members	-10.6507
▁segundos	-10.6508
▁NASA	-10.6515
▁dúvida	-10.6515
▁possibly	-10.6515
▁depressão	-10.6515
▁assume	-10.6527
▁polar	-10.6532
burg	-10.6539
▁responsibility	-10.6554
▁From	-10.6554
▁beat	-10.6556
▁vejam	-10.6557
▁raio	-10.6568
▁suffer	-10.6569
nico	-10.657
▁fé	-10.6576
▁reais	-10.6582
▁estuda	-10.6588
▁origin	-10.6588
▁complexa	-10.6588
▁causes	-10.659
▁deviam	-10.6592
▁rein	-10.6592
▁apaixona	-10.6593
▁opportunities	-10.6593
▁Guerra	-10.6593
▁graduate	-10.6593
▁ambos	-10.6594
▁façam	-10.6595
▁vender	-10.6598
▁fully	-10.6603
▁viva	-10.6605
▁effects	-10.6611
▁projecto	-10.6611
▁lembra	-10.6612
▁completa	-10.6628
▁tells	-10.6629
▁sofre	-10.6631
▁trouble	-10.6632
▁shock	-10.6632
▁ultra	-10.6632
▁depression	-10.6632
▁invented	-10.6634
▁subir	-10.6634
▁gera	-10.6636
▁pretend	-10.6636
▁23	-10.6637
▁react	-10.6643
▁engage	-10.6646
▁monte	-10.6648
▁apart	-10.6661
▁desenha	-10.6664
▁tax	-10.6666
▁sentimos	-10.6668
ô	-10.667
▁necessária	-10.6672
▁therefore	-10.6672
▁Think	-10.6672
▁James	-10.6673
▁modifica	-10.6673
▁cloud	-10.6673
▁However	-10.6675
▁devíamos	-10.6676
▁vento	-10.6677
▁costs	-10.6678
▁defend	-10.6679
▁artistas	-10.6685
▁terrorist	-10.6687
▁seemed	-10.6689
▁adultos	-10.6689
▁quis	-10.6693
▁árvore	-10.6695
▁falo	-10.6706
▁trabalha	-10.6708
▁ignora	-10.6709
▁Afeganistão	-10.6711
▁espantoso	-10.6711
▁orgulho	-10.6711
▁sequência	-10.6711
▁victim	-10.6711
▁transplant	-10.6711
Você	-10.6712
▁acelera	-10.6712
▁gather	-10.6714
▁reforma	-10.6723
▁helping	-10.6725
▁negro	-10.6737
▁ahead	-10.6737
▁cena	-10.6742
▁charge	-10.6747
▁Angeles	-10.6751
▁disappear	-10.6751
▁addition	-10.6751
▁feature	-10.6751
▁variou	-10.6752
▁alimentos	-10.6752
▁finger	-10.6752
▁escolhas	-10.6753
▁beings	-10.6757
▁conseguiu	-10.6758
▁hip	-10.6761
▁compara	-10.6761
▁active	-10.6762
▁Vai	-10.6779
▁layer	-10.6779
▁Afghanistan	-10.6791
▁YouTube	-10.6791
▁alternativa	-10.6791
▁engenharia	-10.6791
▁extraordinário	-10.6791
▁perguntei	-10.6791
▁technique	-10.6791
▁encourage	-10.6791
▁parceiro	-10.6791
▁television	-10.6791
▁held	-10.6792
▁knowing	-10.6796
▁costumava	-10.6797
▁investment	-10.6799
▁Senti	-10.6801
▁jornalista	-10.6802
▁studying	-10.6804
▁começamos	-10.681
▁perigo	-10.6814
▁dito	-10.6816
▁vossas	-10.6816
▁cientista	-10.6819
▁surge	-10.6823
▁fenómeno	-10.6831
▁precise	-10.6832
▁profound	-10.6832
▁inspira	-10.684
▁hack	-10.6843
▁directly	-10.6845
▁passion	-10.6846
▁Bar	-10.685
▁cosm	-10.6851
▁games	-10.6853
matic	-10.6856
▁olhamos	-10.6858
▁maneiras	-10.6858
▁tanta	-10.6865
▁encar	-10.6871
▁consciente	-10.6872
▁Outro	-10.6872
▁preserva	-10.6873
▁consciousness	-10.6873
credit	-10.6873
▁gap	-10.6877
▁master	-10.6883
▁aulas	-10.6886
▁Disse	-10.6888
jet	-10.6888
▁escolhe	-10.6902
▁sorts	-10.6906
▁conserv	-10.6907
▁below	-10.6909
▁americano	-10.6909
▁capacity	-10.6912
▁muscle	-10.6912
▁satellite	-10.6912
▁segredo	-10.6912
▁Street	-10.6912
▁easily	-10.6912
▁optim	-10.6913
▁elimina	-10.6916
▁cabelo	-10.6919
▁imagina	-10.6923
▁vaca	-10.6924
▁inicia	-10.6931
▁terminar	-10.6935
▁regress	-10.6937
▁continent	-10.6939
▁engine	-10.6944
▁Big	-10.6947
Sim	-10.6951
▁closer	-10.6951
▁internacional	-10.6953
▁perfeito	-10.6953
▁symbol	-10.6953
▁giant	-10.6953
▁Martin	-10.6955
▁fixe	-10.6965
▁rota	-10.6965
▁0	-10.6966
▁guard	-10.698
▁Mor	-10.6982
▁raised	-10.6983
▁jornal	-10.6983
▁Alzheimer	-10.6994
▁alternative	-10.6994
▁atmosfera	-10.6994
▁mensagens	-10.6994
▁comercial	-10.6994
▁sequence	-10.6994
ística	-10.6994
▁joy	-10.6994
▁hearing	-10.7
▁velha	-10.7001
gência	-10.7001
▁reaction	-10.7002
▁anyway	-10.7003
▁distin	-10.7022
)...	-10.7023
▁Ch	-10.7026
▁inicial	-10.7027
▁orienta	-10.7028
▁político	-10.7029
▁espantosa	-10.7035
▁creativity	-10.7035
▁principais	-10.7035
▁sustainable	-10.7036
▁equipamento	-10.7043
▁election	-10.7051
▁sobrevive	-10.7055
▁suffering	-10.7059
▁Tal	-10.7069
▁corrente	-10.7071
▁passed	-10.7071
▁organiza	-10.7074
▁faith	-10.7076
▁origem	-10.7076
▁basis	-10.7076
▁apanhar	-10.7076
▁edge	-10.7079
▁verdadeiramente	-10.7085
▁legs	-10.7093
▁argue	-10.7094
▁voo	-10.7099
▁elevado	-10.7101
▁quadro	-10.7104
▁lit	-10.7111
▁dizemos	-10.7111
▁Over	-10.7112
▁benefit	-10.7114
▁infrastructure	-10.7117
▁satélite	-10.7117
▁traffic	-10.7117
▁slightly	-10.7117
▁entrevista	-10.7117
▁saudável	-10.7118
▁firm	-10.7123
▁enfrentar	-10.7132
▁president	-10.7145
▁feitas	-10.7153
rosa	-10.7154
▁extraordinária	-10.7159
▁emocional	-10.7159
▁Começa	-10.7164
▁noise	-10.7166
▁referi	-10.717
▁fogo	-10.7173
▁Gal	-10.7173
It	-10.7174
▁vibra	-10.7181
stress	-10.7184
▁Sol	-10.7185
quer	-10.719
▁demora	-10.7193
▁lar	-10.7194
▁California	-10.72
▁eletricidade	-10.72
▁inspired	-10.72
▁crença	-10.7201
▁background	-10.7202
▁considerar	-10.7202
▁chose	-10.7204
▁experiments	-10.7208
▁hang	-10.7209
▁produced	-10.7213
▁bag	-10.7226
▁bias	-10.7226
▁parar	-10.723
▁event	-10.7236
▁matters	-10.7238
▁occur	-10.7241
▁mecanismo	-10.7242
▁macaco	-10.7242
▁cultiva	-10.7243
▁court	-10.7243
▁elementos	-10.7244
▁poderão	-10.7248
▁stem	-10.7253
▁suficientemente	-10.7258
Why	-10.7267
▁alcançar	-10.7271
▁conheci	-10.7272
▁monta	-10.7281
▁cur	-10.7283
▁conferência	-10.7284
▁facilmente	-10.7284
▁cenário	-10.7284
▁scene	-10.7284
▁imensa	-10.7284
▁diretor	-10.7289
▁folha	-10.7289
▁daquilo	-10.7296
▁Onde	-10.7304
▁certamente	-10.7305
▁quo	-10.7314
▁discuss	-10.7314
▁atingi	-10.7315
▁san	-10.7316
▁amiga	-10.7317
▁rap	-10.7318
▁Foram	-10.7318
▁ouvimos	-10.7319
hood	-10.732
dle	-10.7321
▁visita	-10.7326
▁discrimina	-10.7326
▁introduzi	-10.7326
▁plataforma	-10.7326
▁manifest	-10.7326
▁article	-10.7326
▁plate	-10.7326
▁complicado	-10.7327
▁aware	-10.7327
▁scan	-10.7336
▁belong	-10.7339
▁enable	-10.7341
▁quadrado	-10.7342
▁mercados	-10.7348
head	-10.7351
▁station	-10.7352
▁ricos	-10.7353
▁driver	-10.7363
▁adoro	-10.7365
▁grand	-10.7365
▁analisar	-10.7365
▁Chi	-10.7366
▁breast	-10.7369
▁estilo	-10.7369
▁sharing	-10.7369
▁boca	-10.7369
▁carrega	-10.7372
▁European	-10.7375
▁fabrica	-10.7379
▁brand	-10.7383
▁sonhos	-10.7383
▁custos	-10.7396
based	-10.7402
▁seat	-10.7407
▁entirely	-10.7409
▁básico	-10.7411
▁trouxe	-10.7411
▁Sometimes	-10.7411
▁easier	-10.7411
▁funny	-10.7414
▁flying	-10.7415
▁hotel	-10.7416
▁motivo	-10.7418
▁atmosphere	-10.742
▁moléculas	-10.7421
▁moderna	-10.7423
▁enormes	-10.7432
▁entrepreneur	-10.7432
▁Your	-10.7435
▁desaparece	-10.7435
hop	-10.7437
▁z	-10.7439
▁interessantes	-10.7439
▁deeply	-10.7441
▁caça	-10.7445
▁chamo	-10.7448
▁básica	-10.7454
▁género	-10.7454
▁strength	-10.7454
▁útil	-10.7454
▁claim	-10.7454
▁repeat	-10.7457
▁imagination	-10.7459
▁imaginação	-10.7461
▁instrument	-10.7467
▁molecules	-10.747
▁poderem	-10.7472
▁ativa	-10.7476
▁party	-10.7477
dding	-10.7483
▁extreme	-10.7485
▁treina	-10.7489
&	-10.7497
▁Califórnia	-10.7497
▁vehicle	-10.7497
▁interliga	-10.7498
▁27	-10.7499
▁designers	-10.7505
▁photos	-10.7507
▁evolved	-10.7509
▁focused	-10.7509
çam	-10.7519
▁mark	-10.7532
▁revi	-10.7533
▁sociedades	-10.7537
▁quick	-10.7537
▁gasta	-10.7538
▁pintura	-10.754
▁Sempre	-10.7541
▁negative	-10.7541
▁ordem	-10.7542
▁texto	-10.7547
▁ruas	-10.7551
▁culturas	-10.7554
▁bomba	-10.756
▁próprias	-10.7561
▁Sem	-10.7561
▁capture	-10.7563
▁falam	-10.7564
▁fill	-10.7564
▁gotten	-10.7568
▁trabalham	-10.7575
▁disorder	-10.7583
▁exercise	-10.7583
▁identify	-10.7583
▁yeah	-10.7583
▁supply	-10.7583
▁civilization	-10.7585
▁Va	-10.7586
▁torná	-10.7592
▁desert	-10.7599
Go	-10.7602
cum	-10.7604
▁ficaram	-10.7608
▁Mal	-10.761
▁desafios	-10.7613
▁viu	-10.7621
▁salva	-10.7622
cam	-10.7623
▁dirigi	-10.7627
▁vacina	-10.7627
▁rouba	-10.7627
▁diretamente	-10.7629
▁missing	-10.7629
▁2009	-10.763
▁tough	-10.7631
▁adopt	-10.7639
▁Num	-10.7652
..."	-10.7656
ung	-10.7666
▁author	-10.7668
ólogo	-10.767
▁Amazon	-10.767
▁bicicleta	-10.767
▁ilumina	-10.767
▁religious	-10.767
▁crowd	-10.767
▁drone	-10.767
▁bloco	-10.7671
▁hurt	-10.7671
▁enca	-10.7671
▁praticamente	-10.7676
▁farmers	-10.7676
▁viajar	-10.7677
▁partido	-10.7695
▁acontecimento	-10.7714
▁although	-10.7714
▁Great	-10.7714
▁Green	-10.7714
▁Second	-10.7714
▁dor	-10.7716
▁outcome	-10.7716
▁lança	-10.7718
▁fazerem	-10.7722
▁El	-10.7728
▁paciente	-10.7733
▁missão	-10.7733
ício	-10.7734
▁impedir	-10.7735
▁surprise	-10.7736
▁cai	-10.7741
▁boat	-10.7753
▁científico	-10.7758
▁profissionais	-10.7758
▁perceção	-10.7758
▁afasta	-10.7762
▁criou	-10.7767
▁Vão	-10.7769
▁island	-10.7774
part	-10.7776
▁estejam	-10.7781
▁tea	-10.7795
▁journalist	-10.7795
▁identifica	-10.7795
▁diagnostic	-10.7803
▁exercício	-10.7803
▁monkey	-10.7803
▁reserva	-10.7803
▁smell	-10.7803
▁Art	-10.7805
▁majority	-10.7807
▁falamos	-10.7809
▁wood	-10.7813
▁Han	-10.7813
▁networks	-10.782
▁precisar	-10.7821
▁dimension	-10.7823
▁streets	-10.7824
▁estrela	-10.7824
▁gold	-10.7826
▁faria	-10.7837
▁application	-10.7847
▁paixão	-10.7847
▁ancient	-10.7847
▁reveal	-10.7848
▁Mr	-10.7849
▁player	-10.7849
▁claramente	-10.7851
▁Grande	-10.7854
▁empower	-10.7874
▁mostram	-10.7878
▁exact	-10.7879
In	-10.788
▁fabric	-10.7881
▁continuam	-10.7882
▁poet	-10.7884
▁explica	-10.7889
▁específico	-10.7892
▁quilómetros	-10.7892
▁responsible	-10.7892
▁riqueza	-10.7892
▁GPS	-10.7892
▁fortes	-10.7892
▁mouth	-10.7892
▁Anderson	-10.7892
▁Haiti	-10.7892
▁bridge	-10.7893
▁complexidade	-10.7898
▁Queria	-10.7902
▁pack	-10.7904
▁vivia	-10.7905
cimento	-10.7905
jar	-10.7909
▁weird	-10.7915
▁chain	-10.7924
▁diga	-10.7927
▁fato	-10.7932
▁differences	-10.7932
Bem	-10.7935
▁construí	-10.7936
▁coffee	-10.7937
▁compreensão	-10.7937
▁conference	-10.7937
▁positiva	-10.7937
▁Indian	-10.7937
▁Boston	-10.7937
▁gift	-10.7937
▁Reino	-10.7937
▁balance	-10.7939
▁score	-10.7941
▁lucky	-10.7942
▁peças	-10.7942
▁cycle	-10.7949
▁conhecida	-10.7952
▁continente	-10.7952
▁dreams	-10.7962
▁orbit	-10.7962
voca	-10.7963
▁bela	-10.7968
▁características	-10.7969
▁electric	-10.7969
▁usá	-10.7978
▁necessarily	-10.7982
▁teenage	-10.7982
▁stuck	-10.7982
▁gás	-10.7983
▁earth	-10.7983
▁cresci	-10.7991
▁definição	-10.7998
▁comunicar	-10.8004
ticamente	-10.8008
▁moon	-10.8015
▁trained	-10.8018
▁feri	-10.8021
▁soube	-10.8021
▁chip	-10.8022
▁julga	-10.8025
▁Middle	-10.8027
▁discurso	-10.8027
▁espacial	-10.8027
▁twice	-10.8027
▁university	-10.8027
▁dezenas	-10.8027
▁bottle	-10.8028
▁absolutamente	-10.8028
▁conduzir	-10.8031
▁Tive	-10.8034
▁investigadores	-10.8035
▁noção	-10.8036
▁investir	-10.804
▁confirm	-10.8053
▁ilha	-10.8055
▁droga	-10.8057
▁olharem	-10.8058
▁cure	-10.8065
Music	-10.8066
igu	-10.8066
▁played	-10.8069
▁Iraq	-10.8072
▁fashion	-10.8072
▁acompanha	-10.8072
▁beneficia	-10.8072
▁perturba	-10.8072
▁óbvio	-10.8072
▁Kenya	-10.8072
▁remote	-10.8073
▁cento	-10.8075
▁repara	-10.8078
▁ultimately	-10.8078
▁curto	-10.8085
▁construímos	-10.8088
▁received	-10.8093
▁importantly	-10.8109
▁Asia	-10.811
▁descobriu	-10.8111
▁sente	-10.8117
▁poll	-10.8117
▁incríveis	-10.8118
▁lembro	-10.8118
▁marriage	-10.8118
▁Korea	-10.8119
▁flight	-10.8121
▁instala	-10.8122
▁demais	-10.8124
▁cer	-10.8125
▁compete	-10.8126
▁mega	-10.8131
▁expression	-10.8137
▁quiet	-10.8141
▁imaginem	-10.8144
▁tornaram	-10.8154
▁realizar	-10.8162
▁Sei	-10.8164
ccording	-10.8164
▁evolui	-10.8164
▁bought	-10.8164
▁platform	-10.8164
▁divertido	-10.8164
ónica	-10.8167
▁perigoso	-10.8169
▁significativa	-10.8173
▁passe	-10.8175
▁mess	-10.8183
ificação	-10.8184
▁Cal	-10.8185
americanos	-10.8191
▁más	-10.8194
▁cair	-10.8198
▁faziam	-10.8199
mine	-10.821
▁Brasil	-10.821
▁commercial	-10.821
▁garantir	-10.821
▁infraestrutura	-10.821
▁naturais	-10.821
▁jantar	-10.821
▁pertence	-10.821
▁morreu	-10.821
▁criativo	-10.8213
▁Unido	-10.8213
▁identificar	-10.8218
▁Take	-10.8219
▁mid	-10.8223
▁reuni	-10.8226
▁urge	-10.823
▁artists	-10.8242
▁ataca	-10.8249
▁trabalhado	-10.8256
▁Infelizmente	-10.8256
▁ingredient	-10.8256
▁possibility	-10.8256
▁pudéssemos	-10.8256
▁relativamente	-10.8256
▁sustentável	-10.8256
▁encoraja	-10.8256
▁Espero	-10.8256
▁regista	-10.8256
▁nurse	-10.8257
▁leadership	-10.8257
▁opção	-10.8259
▁fighting	-10.8263
▁menina	-10.8267
▁reform	-10.8267
▁Gi	-10.8267
▁fri	-10.8277
▁meters	-10.8281
▁pair	-10.8284
percebi	-10.8285
room	-10.8289
▁foca	-10.8291
▁miúdo	-10.8295
▁rádio	-10.8303
▁sofrimento	-10.8303
▁click	-10.8303
▁British	-10.8303
▁apanha	-10.8303
▁ligada	-10.8305
▁benefits	-10.8306
▁puzzle	-10.8306
▁musical	-10.831
rtu	-10.8318
▁forever	-10.8319
raça	-10.8325
▁bin	-10.8331
▁tento	-10.8335
▁necessidades	-10.8338
▁prever	-10.8339
▁sítios	-10.8345
▁pratica	-10.8345
▁competência	-10.8349
▁perception	-10.8349
▁crash	-10.835
▁surgir	-10.835
▁proud	-10.835
▁situações	-10.8351
▁2007	-10.8353
▁banho	-10.8357
▁influencia	-10.8358
▁fascinante	-10.8358
▁imita	-10.8361
▁Passa	-10.8364
▁turning	-10.8367
▁More	-10.8374
ciosa	-10.8378
▁ultrapassar	-10.8387
▁dispara	-10.8389
▁consumo	-10.8391
aging	-10.8398
▁Min	-10.8399
▁none	-10.8409
▁conduz	-10.8413
▁experimentar	-10.8421
▁imper	-10.8422
▁seriam	-10.843
▁compare	-10.8433
▁infect	-10.8434
▁due	-10.844
▁provas	-10.8443
▁Actually	-10.8444
▁liderança	-10.8444
▁iam	-10.8445
▁Apple	-10.8446
▁quinta	-10.8449
cide	-10.8451
▁Ko	-10.8457
▁agir	-10.8459
▁believed	-10.8462
▁desaparecer	-10.8464
▁devices	-10.8468
▁gosta	-10.8483
jam	-10.8484
▁May	-10.8488
▁minuto	-10.849
▁mono	-10.849
▁School	-10.8491
▁provável	-10.8491
▁secundário	-10.8491
▁prazer	-10.8491
▁cão	-10.8492
▁minor	-10.8492
▁apreci	-10.8492
▁Museu	-10.8493
▁mold	-10.8499
▁consequences	-10.8502
flex	-10.8505
ttle	-10.8516
▁terá	-10.8517
▁teriam	-10.8519
▁forces	-10.852
▁descrever	-10.8521
▁canto	-10.8524
▁critic	-10.8533
▁drawing	-10.8536
▁Segundo	-10.8539
▁Apenas	-10.8539
▁foreign	-10.8539
ístico	-10.8539
▁degree	-10.8539
▁barato	-10.8539
▁truck	-10.8541
ography	-10.8543
▁erros	-10.8544
▁construído	-10.8544
▁fornece	-10.8544
▁opt	-10.8545
▁Queremos	-10.8545
▁fila	-10.8549
▁definition	-10.855
▁operation	-10.8551
▁pronto	-10.8553
▁quisermos	-10.8553
▁ponte	-10.8557
▁acreditam	-10.8562
▁deseja	-10.8563
▁consumer	-10.8565
inc	-10.8567
▁opened	-10.8568
eci	-10.8572
▁gastar	-10.8575
▁oposto	-10.8576
▁advantage	-10.8586
▁iPhone	-10.8586
▁mechanism	-10.8586
▁dinner	-10.8586
▁bonito	-10.8586
▁married	-10.8587
▁Nobel	-10.8587
▁patente	-10.8587
▁switch	-10.8587
▁saudáveis	-10.8587
▁financeira	-10.8587
▁prima	-10.8587
▁venda	-10.8588
▁suit	-10.8595
ntei	-10.8598
▁600	-10.8598
▁novel	-10.8605
nna	-10.8606
▁limited	-10.861
▁realiza	-10.8611
▁daí	-10.8623
▁conscious	-10.8633
▁Michael	-10.8634
▁diploma	-10.8634
▁Lembro	-10.8635
▁trillion	-10.8635
▁Russia	-10.8635
▁profit	-10.8636
▁flag	-10.864
▁testar	-10.864
▁efficient	-10.8641
▁madeira	-10.8644
▁museu	-10.8645
▁americana	-10.8649
▁clientes	-10.865
▁Fica	-10.8652
▁resist	-10.8653
▁leading	-10.8653
▁cem	-10.8654
▁reward	-10.8657
▁hall	-10.8665
▁spending	-10.8666
▁Dia	-10.8667
Isto	-10.8668
list	-10.8671
▁whi	-10.8671
▁EM	-10.8673
▁reparar	-10.8677
▁Australia	-10.8683
▁studied	-10.8683
▁shark	-10.8683
▁crucial	-10.8683
▁dress	-10.8683
▁zone	-10.8684
▁tivermos	-10.8687
▁north	-10.8688
▁escape	-10.8688
▁membro	-10.8688
▁haja	-10.869
▁talento	-10.8693
zar	-10.8696
▁florestas	-10.87
▁PM	-10.8706
▁estimate	-10.8714
some	-10.8715
▁capitalism	-10.872
▁museum	-10.8721
▁terão	-10.8724
▁clínica	-10.8731
▁recompensa	-10.8731
▁tradicional	-10.8731
▁árabe	-10.8731
▁Obama	-10.8731
▁honor	-10.8732
▁pós	-10.8733
▁distribuição	-10.8734
▁faça	-10.8735
▁encontrámos	-10.8738
▁pressão	-10.874
▁levanta	-10.8745
▁See	-10.8751
▁requer	-10.8756
pot	-10.8761
▁entrada	-10.8765
▁quiser	-10.8777
▁advogado	-10.878
▁médio	-10.878
▁narrative	-10.878
▁previous	-10.878
▁responsável	-10.878
▁surpresa	-10.878
▁attempt	-10.878
▁curious	-10.8781
▁noutra	-10.8781
▁bubble	-10.8781
▁root	-10.8784
▁statistics	-10.8785
▁moderno	-10.8789
▁caro	-10.879
▁Once	-10.8791
▁empatia	-10.8792
▁químicos	-10.8793
state	-10.8794
▁10,000	-10.8798
▁discovery	-10.8801
▁counter	-10.8804
▁compared	-10.8804
▁alvo	-10.8809
ati	-10.8812
▁dormir	-10.8817
▁250	-10.8818
▁cuidado	-10.8819
▁Bang	-10.8824
Vídeo	-10.8829
▁Charles	-10.8829
▁trend	-10.8829
▁Japan	-10.883
▁Antes	-10.883
▁terço	-10.8831
▁experienced	-10.8831
▁roof	-10.8831
▁Park	-10.8833
▁ouviram	-10.8835
▁aspecto	-10.8836
▁clinic	-10.8839
▁comuns	-10.8839
▁compreende	-10.8841
tig	-10.885
▁notas	-10.8851
▁atravessar	-10.8861
▁earn	-10.8869
post	-10.8873
▁figured	-10.8876
▁degrees	-10.8878
▁brilliant	-10.8878
▁Houve	-10.8879
▁1,000	-10.8884
▁watched	-10.8885
▁lição	-10.8886
▁aplicação	-10.8888
▁peixes	-10.8889
▁retirar	-10.889
rico	-10.889
▁indivíduo	-10.8891
Y	-10.8892
▁alarm	-10.8895
▁explora	-10.8901
▁termo	-10.8902
lug	-10.8904
▁concern	-10.8907
▁failed	-10.8911
▁capita	-10.8921
town	-10.8921
▁eating	-10.8922
▁acabei	-10.8928
▁admira	-10.8928
▁apareceu	-10.8929
▁opções	-10.8929
ótico	-10.8934
He	-10.8937
▁Eis	-10.8939
▁Torn	-10.8939
▁poucas	-10.8941
▁corrida	-10.8946
▁quote	-10.895
▁receive	-10.8961
ónico	-10.8964
▁flower	-10.8965
▁areia	-10.897
passe	-10.8972
▁inclui	-10.8973
▁prior	-10.8976
▁financi	-10.8976
▁grandmother	-10.8978
▁magazine	-10.8978
▁narrativa	-10.8978
▁strategy	-10.8978
▁Japão	-10.8978
▁succeed	-10.8978
▁cartoon	-10.8978
▁proporciona	-10.8978
▁Valley	-10.8978
▁herói	-10.8979
▁Fiquei	-10.8979
▁escuta	-10.8979
▁childhood	-10.8979
▁macho	-10.8982
▁oferecer	-10.8983
▁creation	-10.8985
▁vital	-10.8995
vision	-10.8999
▁scar	-10.901
▁classifica	-10.9012
▁correta	-10.9019
▁pudessem	-10.9019
▁aproxima	-10.9019
▁tradition	-10.9023
▁pol	-10.9024
▁climb	-10.9028
▁disponível	-10.9028
▁muçulmano	-10.9028
▁chefe	-10.9028
▁financeiro	-10.9028
▁daily	-10.9028
▁illness	-10.9029
▁existia	-10.903
▁elite	-10.9032
▁recuperar	-10.9034
▁preocupar	-10.9037
▁particles	-10.9038
▁perguntou	-10.904
▁curve	-10.9045
▁diziam	-10.9045
▁Uni	-10.9049
▁chamam	-10.9051
▁entusiasma	-10.9051
▁conseguirmos	-10.9051
▁apoia	-10.9051
▁autism	-10.9056
This	-10.906
▁limites	-10.9062
▁argumento	-10.9067
▁apoiar	-10.907
▁French	-10.9078
▁algures	-10.9078
▁employee	-10.9078
▁exército	-10.9078
▁matemático	-10.9078
▁necessary	-10.9078
▁hidden	-10.9078
▁survey	-10.9078
▁treino	-10.9078
▁fragment	-10.9078
▁Again	-10.9078
▁Deixem	-10.9078
▁deixou	-10.9079
▁Robert	-10.908
▁designer	-10.9082
▁gerações	-10.9082
▁ligações	-10.9083
utu	-10.9086
▁carne	-10.9093
▁ski	-10.9095
▁grown	-10.9098
▁reação	-10.9102
▁resolve	-10.9106
▁finish	-10.9107
bly	-10.9108
▁passaram	-10.9109
▁engenheiros	-10.9111
▁concorda	-10.9112
▁decidimos	-10.9114
▁coal	-10.9116
▁events	-10.9119
ivas	-10.9121
▁oferece	-10.9123
▁chegam	-10.9124
water	-10.9126
▁cálculo	-10.9128
▁dynamic	-10.9128
▁metaphor	-10.9128
▁símbolo	-10.9128
▁volunteer	-10.9128
▁opinion	-10.9128
▁disaster	-10.9128
▁fossil	-10.9128
▁lawyer	-10.9129
▁insist	-10.9129
▁aponta	-10.9129
▁unlike	-10.9132
▁geralmente	-10.9139
▁frio	-10.9142
▁soil	-10.9144
▁junto	-10.915
▁enfrent	-10.916
▁abuse	-10.9163
▁weapons	-10.9163
win	-10.9163
ráfico	-10.9177
▁profissional	-10.9179
▁silêncio	-10.9179
▁carvão	-10.9179
▁batalha	-10.9179
▁club	-10.9179
▁deixem	-10.9179
▁infância	-10.9179
▁destino	-10.9179
▁leader	-10.9179
▁igualdade	-10.918
▁agricultores	-10.9183
▁cheguei	-10.9183
▁creatures	-10.9184
▁forced	-10.9187
▁wearing	-10.9187
▁ficamos	-10.9191
ank	-10.9196
▁researchers	-10.9198
▁participar	-10.9199
▁65	-10.9201
▁preocupado	-10.9205
versa	-10.9206
▁Fiz	-10.9208
▁moda	-10.9215
▁distante	-10.9217
▁managed	-10.922
▁adicion	-10.9225
▁alimenta	-10.9227
▁mito	-10.9227
▁Alguém	-10.923
▁Wikipedia	-10.923
▁ecosystem	-10.923
▁escuro	-10.923
▁newspaper	-10.923
▁parecido	-10.923
▁proteção	-10.923
▁smile	-10.9231
▁Dan	-10.9232
▁sugar	-10.9236
▁criámos	-10.9237
▁refer	-10.9249
cop	-10.9251
▁inspirado	-10.9256
▁continuou	-10.9259
▁astro	-10.9263
▁host	-10.928
▁quantas	-10.9281
▁tremendous	-10.9281
▁bonita	-10.9282
▁branca	-10.9282
▁fluxo	-10.9282
▁yellow	-10.9282
▁famoso	-10.9282
▁conclusão	-10.9282
▁battle	-10.9283
▁Fizemos	-10.9283
▁dozen	-10.9284
▁gay	-10.9286
▁malária	-10.9287
▁considered	-10.9289
▁constantly	-10.929
▁everyday	-10.929
▁quê	-10.929
▁holding	-10.9303
▁multiple	-10.9307
▁odd	-10.9311
missão	-10.9312
pound	-10.9314
▁36	-10.9323
▁persist	-10.9329
▁chimpanzé	-10.9333
▁leaving	-10.9333
▁worried	-10.9333
▁Pensei	-10.9333
▁abelhas	-10.9333
▁electro	-10.9333
▁comfortable	-10.9334
▁followed	-10.9335
▁bright	-10.9336
▁capable	-10.9337
▁permitem	-10.9338
▁versus	-10.9338
▁vertical	-10.934
▁benefícios	-10.9341
▁agarrar	-10.9348
▁Numa	-10.9363
▁órgãos	-10.9365
▁mama	-10.9366
▁colocá	-10.937
▁Will	-10.9384
▁alma	-10.9385
▁ecossistema	-10.9385
▁interagir	-10.9385
▁micróbios	-10.9385
▁politician	-10.9385
▁positivo	-10.9385
▁biliões	-10.9385
▁detrás	-10.9385
▁extend	-10.9385
▁desloca	-10.9387
▁blow	-10.9388
▁Estado	-10.9389
▁bater	-10.9391
▁transporta	-10.9392
▁ill	-10.9394
▁gang	-10.9399
▁Talk	-10.9412
▁espalha	-10.9417
▁rode	-10.9425
▁poderiam	-10.9426
▁exchange	-10.9437
▁fell	-10.9437
▁cumpri	-10.9437
▁Higgs	-10.9437
▁fazendo	-10.9437
▁horse	-10.9438
▁garden	-10.9438
▁projeta	-10.9438
▁translate	-10.9439
▁constantemente	-10.9442
▁associated	-10.9442
▁coragem	-10.9443
▁existência	-10.9443
▁escrevi	-10.9444
▁complexity	-10.9445
▁tiverem	-10.9448
▁poderíamos	-10.9448
▁sofrer	-10.945
fast	-10.9451
▁lua	-10.9453
shirt	-10.9457
▁highest	-10.9461
▁refugees	-10.9462
▁release	-10.9467
▁envolver	-10.9468
▁colega	-10.947
▁cul	-10.9481
estar	-10.9486
▁Consegui	-10.9489
▁Thomas	-10.9489
▁crack	-10.9489
▁diagnóstico	-10.949
▁microbes	-10.949
▁detetar	-10.949
▁Iraque	-10.949
avelmente	-10.9492
▁epidemic	-10.9493
▁Inter	-10.9494
▁lifetime	-10.95
▁patent	-10.9501
▁epidemia	-10.9503
▁Did	-10.9515
▁particularmente	-10.9522
▁líder	-10.953
▁typical	-10.953
▁retira	-10.9534
verse	-10.9534
▁Central	-10.9542
▁mathematics	-10.9542
▁survival	-10.9542
▁invisible	-10.9542
▁unfortunately	-10.9544
▁hunt	-10.9545
▁activa	-10.9546
▁safety	-10.9547
▁Latin	-10.9552
▁chair	-10.9556
▁galáxias	-10.9558
▁currently	-10.9561
▁Mary	-10.9573
▁motion	-10.9576
▁mentor	-10.9591
▁construct	-10.9593
▁stood	-10.9595
▁telemóveis	-10.9595
▁diabetes	-10.9595
▁lunch	-10.9595
▁conduct	-10.9595
▁fresh	-10.9595
▁baleia	-10.9595
▁feminist	-10.9595
▁ganho	-10.9599
▁blog	-10.9599
▁competition	-10.9604
▁talent	-10.9605
▁shop	-10.9607
pper	-10.9608
▁tenhamos	-10.9608
▁Red	-10.9611
ulation	-10.9613
▁fairly	-10.9613
▁defender	-10.9618
▁flores	-10.9629
▁writer	-10.9631
▁clinical	-10.9638
▁architect	-10.9648
▁2012	-10.9648
▁accurate	-10.9648
▁voltei	-10.9648
▁figura	-10.9648
▁location	-10.9648
▁Texas	-10.9648
▁dizendo	-10.9648
▁excess	-10.9648
▁filtr	-10.9648
▁tentativa	-10.965
▁incident	-10.9656
▁criaturas	-10.9664
▁Desd	-10.9666
▁concentrar	-10.967
▁consist	-10.9675
▁cortar	-10.9692
▁2011	-10.9701
▁Contudo	-10.9701
▁shoes	-10.9702
▁judge	-10.9702
▁caused	-10.9702
▁fascinating	-10.9703
well	-10.9705
▁capa	-10.9706
▁collection	-10.9712
▁discussion	-10.9712
▁Island	-10.9713
labor	-10.9713
▁banda	-10.9715
fully	-10.9717
▁Joe	-10.9718
▁produz	-10.9719
▁band	-10.9721
▁gato	-10.9731
▁conhece	-10.9732
▁diminui	-10.974
assem	-10.9745
▁larga	-10.9746
▁independente	-10.9747
▁baseada	-10.975
▁spirit	-10.9755
▁broad	-10.9755
▁desastre	-10.9755
▁disponíveis	-10.9755
▁oxygen	-10.9755
▁Nigeria	-10.9755
▁paradigm	-10.9755
▁fracasso	-10.9755
▁eleições	-10.9755
▁vidro	-10.9756
▁Aquele	-10.9756
▁fugir	-10.9756
▁transport	-10.9757
▁setor	-10.976
▁autoridade	-10.976
▁Jim	-10.9764
▁senhora	-10.9769
▁surprised	-10.9783
▁africanos	-10.9796
▁perfeita	-10.9804
▁experts	-10.9805
▁pobre	-10.9806
▁preste	-10.9807
ía	-10.9808
▁Alemanha	-10.9809
▁dimensão	-10.9809
▁privado	-10.9809
▁título	-10.9809
▁whale	-10.9809
▁barreira	-10.9809
gro	-10.981
▁exposição	-10.9814
▁soul	-10.9814
▁analog	-10.9816
▁ring	-10.9823
▁50%	-10.9823
▁obrigada	-10.9827
▁obriga	-10.9828
▁1000	-10.9828
▁tentamos	-10.9841
▁convince	-10.9841
▁Descobri	-10.9849
To	-10.9849
▁mate	-10.9853
▁dimensões	-10.9864
▁facial	-10.9864
▁status	-10.9864
▁inovador	-10.9864
▁éramos	-10.9869
▁killing	-10.9872
▁morrem	-10.9873
▁businesses	-10.9876
If	-10.9879
▁envolvido	-10.9884
▁director	-10.9886
▁topic	-10.9892
▁luzes	-10.9897
▁foundation	-10.99
Hey	-10.9901
▁impressão	-10.9918
▁específica	-10.9918
▁mirror	-10.9918
▁legisla	-10.9918
▁normais	-10.9918
▁prémio	-10.9918
▁desafia	-10.9918
▁Black	-10.9918
▁magia	-10.9918
▁chuva	-10.9918
▁lucro	-10.9918
▁drag	-10.9922
▁Germany	-10.9927
▁expected	-10.9928
▁autismo	-10.9943
▁credit	-10.9943
▁Pelo	-10.9947
▁harder	-10.995
▁advance	-10.995
▁metro	-10.9952
▁barra	-10.9957
▁reunir	-10.9957
▁sudden	-10.9962
▁oxigénio	-10.9973
▁technical	-10.9973
▁courage	-10.9973
▁activist	-10.9973
▁crítica	-10.9974
▁round	-10.9974
gging	-10.9976
▁malaria	-10.9977
▁limite	-10.9977
▁insight	-10.9979
▁frame	-10.9983
▁setting	-10.9991
▁operate	-10.9994
▁slowly	-10.9997
▁aceita	-11
▁bill	-11.0004
▁gesto	-11.001
That	-11.001
▁falhar	-11.0013
▁calling	-11.0019
▁permanente	-11.002
▁levantar	-11.0022
▁XX	-11.0026
▁combustível	-11.0028
▁possíveis	-11.0028
▁embrace	-11.0029
▁barata	-11.003
power	-11.0033
▁discussão	-11.0034
▁sozinha	-11.004
▁esquecer	-11.004
▁começo	-11.0041
▁restaurante	-11.0041
▁pensarmos	-11.005
▁coin	-11.0054
grama	-11.0054
▁gerar	-11.0057
▁salário	-11.0059
▁described	-11.0062
▁launch	-11.0063
▁deeper	-11.0064
Re	-11.0069
gger	-11.0073
▁pessoais	-11.008
▁privacidade	-11.0084
▁conselho	-11.0084
▁fizermos	-11.0084
▁alegria	-11.0084
▁feedback	-11.0084
▁comentário	-11.0085
▁guide	-11.0086
▁loud	-11.0087
▁stream	-11.0092
▁bolha	-11.0093
▁comparação	-11.0094
▁vá	-11.0101
▁teremos	-11.0101
▁fur	-11.0104
▁reconhece	-11.0121
▁ampli	-11.0121
▁lançar	-11.0137
▁caught	-11.014
▁galaxy	-11.014
▁privacy	-11.014
▁vergonha	-11.014
▁federal	-11.014
▁Nessa	-11.014
▁preparar	-11.014
▁desliga	-11.0143
▁wake	-11.0145
▁aspira	-11.0146
▁Canada	-11.015
▁tec	-11.0151
▁falei	-11.0155
stud	-11.016
▁mostrou	-11.0161
▁acid	-11.0168
▁emit	-11.017
▁poupar	-11.0172
▁corte	-11.0173
icial	-11.0178
▁log	-11.0181
▁warm	-11.0182
▁instant	-11.0187
▁consult	-11.0187
▁exclu	-11.0195
▁Médio	-11.0196
▁desculpa	-11.0196
▁dinossauro	-11.0196
▁ilustra	-11.0196
▁mathematical	-11.0196
▁sobrevivência	-11.0196
▁telescope	-11.0196
▁witness	-11.0196
▁Gostaria	-11.0196
▁Oriente	-11.0196
uff	-11.0197
▁criativa	-11.02
▁paisagem	-11.02
▁losing	-11.0201
▁creio	-11.0201
▁coast	-11.0202
▁responde	-11.021
▁dollar	-11.0212
▁unless	-11.0213
▁stone	-11.0215
▁sabiam	-11.022
▁consistent	-11.0228
▁myth	-11.0229
▁taste	-11.0233
▁equivalente	-11.0242
▁surpreend	-11.0249
▁Microsoft	-11.0253
▁Tínhamo	-11.0253
▁academic	-11.0253
▁galaxies	-11.0253
▁sujeito	-11.0253
▁permanece	-11.0253
▁terapia	-11.0253
▁placa	-11.0253
▁pounds	-11.0253
▁sorry	-11.0254
▁official	-11.0255
▁Since	-11.0258
▁essencialmente	-11.0258
▁merece	-11.0258
▁bra	-11.026
▁convencer	-11.0261
▁picked	-11.0262
▁prestar	-11.0264
▁estiverem	-11.0269
▁concerned	-11.0277
▁poderemos	-11.0279
▁dealing	-11.029
▁sentar	-11.0292
▁vozes	-11.0292
▁hell	-11.0293
▁lay	-11.0294
▁expo	-11.0302
▁Seria	-11.0306
▁chocolate	-11.0309
▁metáfora	-11.0309
▁phenomenon	-11.0309
▁otherwise	-11.0309
now	-11.031
▁liquid	-11.031
▁resistência	-11.0311
▁Nesta	-11.0318
▁fold	-11.0318
▁member	-11.032
▁lung	-11.0321
▁invited	-11.0325
▁transformation	-11.0331
▁pista	-11.0341
▁weak	-11.0347
▁Cap	-11.0356
▁clara	-11.0361
▁Quénia	-11.0367
▁comércio	-11.0367
▁funcionário	-11.0367
▁iguais	-11.0367
▁intelligent	-11.0367
▁telescópio	-11.0367
▁wisdom	-11.0367
▁kilometers	-11.0367
▁facing	-11.0367
▁fellow	-11.0367
▁bare	-11.0367
dina	-11.0368
▁nervous	-11.037
▁existence	-11.038
▁bateria	-11.0381
▁mentioned	-11.0385
▁notícia	-11.0388
▁finished	-11.0391
▁filled	-11.0395
nny	-11.0396
But	-11.0407
▁Tri	-11.0414
▁van	-11.0416
▁ambiental	-11.0424
▁gravidade	-11.0424
▁surgiu	-11.0424
▁vulgar	-11.0424
▁estimula	-11.0424
▁vermelha	-11.0424
▁flutua	-11.0424
▁desenvolvido	-11.0425
▁Pal	-11.0426
▁aplicar	-11.0429
▁crop	-11.0431
▁libertar	-11.0438
▁principalmente	-11.0438
▁resource	-11.0443
▁passada	-11.0446
Ok	-11.0458
American	-11.0464
▁tape	-11.0468
▁paying	-11.0469
▁deserto	-11.0469
▁assumir	-11.0476
down	-11.0477
▁afastar	-11.0478
Yes	-11.0479
▁2015	-11.0482
▁açúcar	-11.0482
▁imprensa	-11.0482
▁incentivo	-11.0482
▁PIB	-11.0482
▁consiga	-11.0482
▁perdido	-11.0482
▁cavalo	-11.0482
▁danger	-11.0483
▁Would	-11.0483
▁electronic	-11.0483
▁Além	-11.0484
▁exame	-11.0486
▁reunião	-11.0487
▁contribute	-11.0491
▁estudante	-11.0501
ologista	-11.0529
▁essencial	-11.0535
▁independent	-11.0539
▁Canadá	-11.054
▁desigualdade	-11.054
▁dinosaur	-11.054
▁preconceito	-11.054
▁pássaro	-11.054
▁symptom	-11.054
▁ótima	-11.054
▁Global	-11.054
▁airplane	-11.054
▁Gostava	-11.054
▁gerir	-11.0541
▁Trans	-11.0544
point	-11.0547
▁operating	-11.0548
▁addict	-11.0549
▁emotion	-11.057
▁Wall	-11.0575
just	-11.0586
▁olhem	-11.0591
▁trem	-11.0598
▁elephant	-11.0598
▁heavy	-11.0598
▁vulnerable	-11.0598
▁vazio	-11.0598
▁Certo	-11.0599
▁restaurant	-11.0599
▁mouse	-11.0603
▁2005	-11.0604
▁infantil	-11.0605
▁closed	-11.0605
▁laser	-11.0607
▁ignore	-11.0614
▁button	-11.0617
▁invention	-11.0619
▁pensarem	-11.0624
▁Rio	-11.0626
▁nega	-11.0629
▁hide	-11.0629
▁related	-11.0629
▁entusiasmado	-11.063
americana	-11.0639
▁constante	-11.064
▁actor	-11.0643
▁baseado	-11.0645
▁pico	-11.0652
▁tendo	-11.0652
▁nervo	-11.0652
▁row	-11.0657
▁Stanford	-11.0657
▁cognitive	-11.0657
▁individuais	-11.0657
▁valuable	-11.0657
▁incorpora	-11.0657
▁silence	-11.0657
▁doubt	-11.0657
▁maintain	-11.0657
ibility	-11.0657
▁Consider	-11.0658
▁honra	-11.0658
▁1970	-11.0658
▁ritual	-11.0659
▁reject	-11.0659
▁uniform	-11.0659
▁treated	-11.066
▁Other	-11.066
▁descobriram	-11.066
▁perfeitamente	-11.0663
▁visitar	-11.0671
▁President	-11.0696
▁pad	-11.0697
pós	-11.0701
▁emissões	-11.0702
▁essential	-11.0705
▁relative	-11.0705
Vamos	-11.0706
▁eleito	-11.0711
Música	-11.0716
▁astronaut	-11.0716
▁clínico	-11.0716
▁fundamentais	-11.0716
▁wheel	-11.0716
▁liberal	-11.0716
▁Embora	-11.0716
▁asteroid	-11.0717
▁avanço	-11.0717
▁Cria	-11.0719
▁flat	-11.0722
▁lift	-11.0723
▁tivéssemos	-11.0724
▁mosca	-11.0725
▁increasingly	-11.0726
▁tribo	-11.073
plan	-11.0732
▁Fund	-11.0734
▁organized	-11.0737
▁26	-11.0739
▁medicamento	-11.0739
▁sustenta	-11.0745
▁corri	-11.0752
friend	-11.0758
nifica	-11.076
▁shut	-11.0764
▁ethic	-11.0765
▁95	-11.0768
▁criamos	-11.0769
▁biblioteca	-11.0776
▁músculo	-11.0776
▁percurso	-11.0776
▁quantum	-11.0776
▁GDP	-11.0776
▁Ocidente	-11.0776
▁respeita	-11.0776
▁crítico	-11.0776
▁attach	-11.0777
▁William	-11.0777
▁shame	-11.0777
▁fraud	-11.0778
▁1980	-11.0778
▁iriam	-11.0778
▁condena	-11.078
▁posto	-11.0783
▁correspond	-11.0784
▁assina	-11.0798
▁regressar	-11.08
▁Bob	-11.08
▁Lei	-11.0803
mont	-11.0822
▁Their	-11.0831
▁alien	-11.0834
▁criada	-11.0834
▁Felizmente	-11.0836
▁armazena	-11.0836
▁domínio	-11.0836
▁tradicionais	-11.0836
▁obtemos	-11.0836
▁sabedoria	-11.0836
▁church	-11.0836
▁escura	-11.0836
▁extinct	-11.0836
▁Christian	-11.0836
▁elefante	-11.0836
▁mad	-11.0837
▁biológico	-11.0838
▁truque	-11.0838
▁fatores	-11.0839
▁distribution	-11.084
▁label	-11.0843
▁Last	-11.085
▁festa	-11.0854
▁terrorismo	-11.0855
▁Natal	-11.0859
▁espalhar	-11.0859
▁Peter	-11.086
▁protection	-11.086
▁logic	-11.0862
ibilidade	-11.0864
▁gostamos	-11.0867
back	-11.0869
▁recebem	-11.0869
▁publish	-11.0875
▁Does	-11.0879
▁Far	-11.0882
▁organic	-11.0886
▁celebr	-11.0891
▁impression	-11.0891
ológica	-11.0895
▁encounter	-11.0896
▁mergulha	-11.0896
▁ordinary	-11.0896
▁toneladas	-11.0896
▁property	-11.0896
▁negoci	-11.0896
▁filter	-11.0896
▁bandeira	-11.09
▁navio	-11.0901
▁wondering	-11.0904
▁designing	-11.0906
▁queríamos	-11.0906
▁militares	-11.0908
▁servir	-11.0909
▁Life	-11.0909
▁sight	-11.0912
▁marketing	-11.0912
▁trabalhava	-11.0914
▁habitat	-11.0914
▁Tivemos	-11.0916
▁copy	-11.0921
▁cow	-11.0922
▁caminh	-11.0924
▁escolar	-11.0925
▁põe	-11.0927
▁Very	-11.0929
▁raça	-11.0932
▁skill	-11.0933
▁estaria	-11.0937
▁relevante	-11.0948
▁infant	-11.0951
▁Islam	-11.0954
▁Manhattan	-11.0957
▁budget	-11.0957
▁categoria	-11.0957
▁fêmea	-11.0957
▁intellectual	-11.0957
▁Women	-11.0957
▁esquerdo	-11.0957
▁Three	-11.0957
▁variedade	-11.0957
▁pensámos	-11.0957
▁utilizadores	-11.0962
▁agarra	-11.0964
▁celebra	-11.0967
▁tribe	-11.0969
▁contract	-11.0973
ridge	-11.0975
▁lago	-11.0988
▁percebemos	-11.0988
▁gases	-11.0991
▁curta	-11.0993
▁mode	-11.0994
▁beber	-11.0995
Sabe	-11.1
izações	-11.1009
▁AIDS	-11.1018
▁igreja	-11.1018
▁illegal	-11.1018
▁protótipo	-11.1018
▁Ásia	-11.1018
▁refleti	-11.1018
▁vessel	-11.1018
▁Acredito	-11.1018
▁equation	-11.1018
▁quaisquer	-11.1019
▁cujo	-11.1022
▁impressionante	-11.1023
▁jail	-11.1024
ppy	-11.1027
▁saved	-11.1028
▁fake	-11.1029
▁32	-11.1034
pur	-11.1036
▁comporta	-11.104
▁altamente	-11.1041
põe	-11.1042
▁perfectly	-11.1051
face	-11.1051
▁fluid	-11.1056
Esta	-11.1057
▁Mark	-11.106
▁citizen	-11.106
▁bond	-11.1062
tron	-11.1067
▁peer	-11.1067
▁seguida	-11.1071
▁Star	-11.1074
▁Começámo	-11.1079
▁adquiri	-11.1079
▁genético	-11.1079
▁practical	-11.1079
▁relatório	-11.1079
▁insetos	-11.108
▁1950	-11.1082
▁descreve	-11.1082
▁XXI	-11.1082
▁planning	-11.1082
▁review	-11.1085
▁substituir	-11.1085
▁80%	-11.1086
▁prediction	-11.1108
▁aprende	-11.1108
▁tail	-11.1117
▁acredita	-11.1119
▁mata	-11.1123
▁buscar	-11.1124
▁analysis	-11.1141
▁establish	-11.1141
▁obstáculo	-11.1141
▁empresário	-11.1141
▁pocket	-11.1141
▁estaminais	-11.1141
▁fruit	-11.1141
▁murder	-11.1141
▁comboio	-11.1141
▁desporto	-11.1141
▁sabíamos	-11.1142
▁prioridade	-11.1143
▁Good	-11.1144
▁preto	-11.1145
▁exploração	-11.115
▁tar	-11.1151
▁error	-11.1152
▁provar	-11.1152
▁equivalent	-11.1152
▁significativo	-11.1155
pica	-11.1155
▁atitude	-11.1155
▁criam	-11.1171
▁altera	-11.1174
Por	-11.1174
▁molecule	-11.118
roso	-11.1183
▁28	-11.1199
▁arquiteto	-11.1203
▁comprimento	-11.1203
▁destruí	-11.1203
▁equilíbrio	-11.1203
▁1990	-11.1203
▁conheço	-11.1203
▁esconder	-11.1203
▁inferior	-11.1203
▁condutor	-11.1203
▁idosos	-11.1203
▁rejeit	-11.1203
▁Center	-11.1203
▁completo	-11.1203
▁“	-11.1207
▁cuja	-11.1207
▁grass	-11.1209
▁Ben	-11.1211
▁Super	-11.1214
▁contrast	-11.1221
▁participate	-11.1222
80	-11.1226
▁ocorrer	-11.1227
▁seriously	-11.1228
▁scared	-11.123
▁viaja	-11.123
▁interação	-11.1234
Ele	-11.1239
▁Jane	-11.1243
▁involve	-11.1243
cultura	-11.1245
▁testing	-11.1255
▁escreve	-11.1257
▁pulled	-11.1258
▁pó	-11.1265
▁abstract	-11.1265
▁brinquedo	-11.1265
▁ensaio	-11.1265
▁garrafa	-11.1265
▁tomorrow	-11.1265
▁louco	-11.1266
▁hire	-11.1266
▁passionate	-11.1268
▁contamina	-11.127
ficar	-11.1271
▁apartment	-11.1271
break	-11.128
▁theater	-11.1285
▁traduzi	-11.1288
▁tip	-11.129
▁pedido	-11.1291
▁fourth	-11.1302
▁Men	-11.1303
▁surround	-11.1307
▁galáxia	-11.1309
▁assusta	-11.1311
▁pares	-11.1314
▁tornei	-11.1321
▁considerado	-11.1323
sexual	-11.1327
▁Austrália	-11.1328
▁autocarro	-11.1328
▁chegámos	-11.1328
▁gestão	-11.1328
▁regard	-11.1329
▁certifica	-11.1329
▁agenda	-11.1329
▁internal	-11.133
▁levá	-11.133
▁internet	-11.1332
▁alterações	-11.1334
▁manual	-11.134
60	-11.1351
▁falava	-11.1351
▁command	-11.1351
▁advanced	-11.1354
▁released	-11.1356
▁Dois	-11.1365
▁pilot	-11.1367
▁added	-11.1383
▁achava	-11.1388
▁sheet	-11.139
▁empathy	-11.1392
▁técnico	-11.1392
▁voluntário	-11.1392
▁England	-11.1392
▁ativista	-11.1392
▁chorar	-11.1392
▁robust	-11.1392
▁referência	-11.1393
▁specifically	-11.1394
▁importance	-11.1395
▁officer	-11.1395
▁decidiu	-11.1398
▁surgeon	-11.1403
▁tirada	-11.1404
▁dita	-11.1409
▁dry	-11.1409
▁circula	-11.1411
▁meaningful	-11.1415
▁pray	-11.142
▁10%	-11.1422
▁regenera	-11.1427
▁estarem	-11.1428
ification	-11.143
▁militar	-11.1432
▁molécula	-11.144
▁necessita	-11.1446
▁pure	-11.1452
▁antepassado	-11.1455
▁cardíaco	-11.1455
▁compromisso	-11.1455
▁dinâmica	-11.1455
▁vaccine	-11.1455
▁brutal	-11.1455
▁escolhi	-11.1455
▁vantagem	-11.1455
▁transition	-11.1455
▁mantém	-11.1455
▁stock	-11.1455
▁variety	-11.1456
▁resistente	-11.1457
▁civilização	-11.1458
▁Jenn	-11.1458
▁Podia	-11.1462
Con	-11.1467
▁Yet	-11.1468
▁confiar	-11.147
▁busca	-11.1474
▁launched	-11.148
▁Fala	-11.1486
▁Matt	-11.1493
▁democratic	-11.1504
▁evoluí	-11.1519
▁agriculture	-11.1519
▁hospitais	-11.1519
▁immune	-11.1519
▁manufacturing	-11.1519
▁avô	-11.1519
▁disrupt	-11.152
▁empty	-11.152
▁negativo	-11.1521
▁2006	-11.1524
▁fiction	-11.1525
▁panel	-11.1526
▁sombra	-11.1527
▁Gene	-11.1535
▁tubo	-11.1536
▁mentira	-11.154
▁conhecia	-11.1556
box	-11.1566
▁broke	-11.1567
▁torno	-11.1574
▁opening	-11.1577
▁voto	-11.1581
▁amanhã	-11.1584
▁ligeiramente	-11.1584
▁núcleo	-11.1584
▁privilege	-11.1584
▁responsáveis	-11.1584
▁acrescenta	-11.1584
▁initial	-11.1584
▁complicada	-11.1584
▁increased	-11.1587
▁90%	-11.1589
▁2004	-11.1589
▁construction	-11.1591
▁pill	-11.1592
lhámos	-11.1593
▁Jack	-11.1594
▁normally	-11.1601
▁speaker	-11.1601
▁exception	-11.1601
ifying	-11.1607
▁distinct	-11.1611
▁severe	-11.1612
iça	-11.1618
▁resid	-11.163
▁saída	-11.1636
▁deficiência	-11.1649
▁influência	-11.1649
▁psycho	-11.1649
▁vigilância	-11.1649
▁FBI	-11.1649
▁espelho	-11.1649
▁worldwide	-11.1649
▁deserve	-11.1649
▁kick	-11.165
feira	-11.165
▁clip	-11.1651
▁Nesse	-11.1652
▁Bank	-11.1652
▁fundamentally	-11.1653
▁combination	-11.1658
▁igualmente	-11.1658
long	-11.166
▁relatively	-11.1662
▁arrived	-11.1663
▁Descobrimos	-11.1667
rrow	-11.1672
▁limitado	-11.1678
▁transformação	-11.1679
▁captur	-11.1681
▁engaged	-11.1686
▁evento	-11.1693
▁corresponde	-11.1706
▁Olhem	-11.1708
▁statistic	-11.1708
rata	-11.1708
▁celebrate	-11.1709
▁SIDA	-11.1714
▁aconteça	-11.1714
▁mistério	-11.1714
▁sapatos	-11.1714
▁NSA	-11.1714
▁Uganda	-11.1714
▁bolsa	-11.1714
▁Syria	-11.1714
▁France	-11.1714
▁paradox	-11.1715
▁Adoro	-11.1716
▁fizesse	-11.1716
▁Could	-11.1717
▁saco	-11.1717
▁linda	-11.172
▁inspiration	-11.1722
▁flip	-11.1724
▁gut	-11.1725
print	-11.1727
▁competição	-11.1731
▁20%	-11.1741
▁factory	-11.1758
▁rica	-11.1759
▁keeping	-11.1764
víamos	-11.1766
▁eliminar	-11.1775
▁Trump	-11.178
▁channel	-11.178
▁phrase	-11.178
▁perceive	-11.178
▁presença	-11.178
▁incentive	-11.178
▁aquecimento	-11.178
▁arrisca	-11.178
▁plot	-11.1781
▁chemistry	-11.1781
▁exactamente	-11.1783
online	-11.1783
▁equality	-11.1784
▁cutting	-11.1791
▁publicado	-11.1802
▁State	-11.1803
▁tiro	-11.1803
▁acreditamos	-11.1806
uthern	-11.1809
▁piada	-11.1811
cycle	-11.183
▁mina	-11.1831
▁affected	-11.1834
▁processes	-11.1835
▁relation	-11.1846
▁activities	-11.1846
▁brief	-11.1846
▁mínimo	-11.1846
▁Smith	-11.1846
▁repair	-11.1846
▁joke	-11.1847
▁vieram	-11.1847
▁nasceu	-11.1847
faz	-11.1848
▁escultura	-11.1849
▁exige	-11.1852
▁Adam	-11.1855
▁rapidly	-11.1856
▁posse	-11.1856
▁personalidade	-11.1859
▁criaram	-11.1876
▁Existem	-11.1884
▁leite	-11.1888
▁conclu	-11.1888
org	-11.1891
▁familiares	-11.1892
▁passava	-11.1893
gged	-11.1894
software	-11.1895
▁acabaram	-11.1899
▁Aquilo	-11.1902
▁inventor	-11.1911
▁announce	-11.1913
▁microscópio	-11.1913
▁properties	-11.1913
▁parecida	-11.1913
▁orçamento	-11.1913
▁conquista	-11.1913
▁secure	-11.1913
▁urso	-11.1913
▁install	-11.1914
▁esperamos	-11.1914
▁Number	-11.1915
▁attract	-11.1916
▁falsa	-11.1921
▁transmitir	-11.1922
▁icon	-11.1922
▁relevant	-11.1923
▁lida	-11.1929
▁cruza	-11.1932
▁saiu	-11.1933
▁kg	-11.1935
scale	-11.1937
▁mention	-11.194
▁however	-11.194
▁respondeu	-11.1941
▁cabo	-11.1948
Pode	-11.1962
▁olhou	-11.1964
▁classic	-11.1967
▁covered	-11.197
▁ficava	-11.1971
▁nascer	-11.1973
▁assumption	-11.198
▁circumstance	-11.198
▁collapse	-11.198
▁globais	-11.198
▁physician	-11.198
▁physicist	-11.198
▁technological	-11.198
▁vagina	-11.198
▁cinema	-11.198
▁entrou	-11.198
▁weather	-11.1981
▁diversas	-11.1981
▁1960	-11.1982
▁bread	-11.1982
▁title	-11.1983
▁tentei	-11.1983
▁flor	-11.1989
▁refere	-11.1991
▁grab	-11.1991
▁electrical	-11.1995
stand	-11.2001
▁Existe	-11.2009
▁potentially	-11.2014
▁vêem	-11.2016
bout	-11.2018
▁recolher	-11.2022
logia	-11.2027
▁ride	-11.2032
▁horizon	-11.2046
▁Institute	-11.2048
▁Obviamente	-11.2048
▁Professor	-11.2048
▁Vietnam	-11.2048
▁microscope	-11.2048
▁Finalmente	-11.2048
▁coletiva	-11.2048
▁mecânica	-11.2048
▁definitely	-11.2048
▁neural	-11.2048
▁delibera	-11.2048
ótica	-11.2048
posições	-11.2049
▁toilet	-11.205
▁correto	-11.2066
▁observation	-11.2067
▁vinha	-11.207
gradua	-11.2079
40	-11.2088
▁historical	-11.2095
urgi	-11.2097
Então	-11.2097
▁German	-11.2104
▁poema	-11.2107
▁2014	-11.2116
▁México	-11.2116
▁chimpanzee	-11.2116
▁emissions	-11.2116
▁kitchen	-11.2116
▁máximo	-11.2116
▁underneath	-11.2116
▁precisão	-11.2116
▁gravity	-11.2116
▁reinvent	-11.2116
▁proposta	-11.2116
▁esperava	-11.2116
▁flash	-11.2117
▁viagens	-11.2118
▁aplicações	-11.2122
▁basta	-11.2126
▁aproximar	-11.2127
▁robotic	-11.2128
▁infection	-11.2129
▁sorri	-11.2141
▁younger	-11.2144
▁estu	-11.2144
▁avaliar	-11.2151
▁desk	-11.2158
X	-11.2166
itude	-11.2169
▁gasto	-11.2178
▁bocadinho	-11.2184
▁cerebrais	-11.2184
▁equipment	-11.2184
▁explanation	-11.2184
▁Science	-11.2184
▁telhado	-11.2184
▁therapy	-11.2185
▁empurra	-11.2185
▁compensa	-11.2185
▁hopefully	-11.2186
▁float	-11.2187
▁infelizmente	-11.2187
▁retire	-11.2188
▁professora	-11.2188
▁primo	-11.2189
▁roughly	-11.2191
bble	-11.2192
▁Alex	-11.2192
▁sending	-11.2196
▁excitante	-11.2196
▁eficiente	-11.2198
▁100,000	-11.2201
▁quarter	-11.2222
▁pensado	-11.2222
rich	-11.2235
▁selling	-11.2235
▁120	-11.224
▁fornecer	-11.2246
▁formula	-11.225
▁focar	-11.2251
▁Inglaterra	-11.2253
▁Mexico	-11.2253
▁Project	-11.2253
▁ajudou	-11.2253
▁chinês	-11.2253
▁curiosidade	-11.2253
▁internacionais	-11.2253
▁lógica	-11.2253
▁mundiais	-11.2253
▁pregnant	-11.2253
▁advice	-11.2253
▁altitude	-11.2253
▁Estávamos	-11.2253
▁psico	-11.2253
▁slave	-11.2254
▁sintomas	-11.2255
▁primary	-11.2257
▁acabado	-11.2257
▁presa	-11.2259
▁carefully	-11.2263
▁peak	-11.227
▁fale	-11.227
▁praia	-11.2273
éis	-11.2277
▁mostrei	-11.2279
die	-11.2297
▁assistir	-11.23
▁teríamos	-11.2305
▁atua	-11.2309
▁Ouvi	-11.231
▁vende	-11.2311
▁anúncio	-11.2322
▁destruir	-11.2322
▁possibilities	-11.2322
▁resolução	-11.2322
▁While	-11.2322
▁Decidi	-11.2322
▁awesome	-11.2322
▁contém	-11.2323
▁Coreia	-11.2323
▁Ocean	-11.2323
▁mortalidade	-11.2323
▁destina	-11.2323
▁chart	-11.2325
▁season	-11.2328
zinha	-11.2328
▁milk	-11.2334
▁prime	-11.2336
▁reached	-11.2336
▁colaboração	-11.2337
▁sab	-11.2342
▁comunica	-11.2347
▁effectively	-11.2348
lguns	-11.2351
▁section	-11.236
▁verificar	-11.2363
▁relate	-11.2371
▁Dur	-11.2375
▁neuron	-11.2378
▁diante	-11.238
▁absolute	-11.2381
▁aniversário	-11.2392
▁combustíveis	-11.2392
▁impulso	-11.2392
▁regiões	-11.2392
▁clothes	-11.2392
▁sweet	-11.2392
▁cuidar	-11.2392
▁display	-11.2394
▁reconhecimento	-11.2394
▁decline	-11.2394
▁govern	-11.2396
▁rocket	-11.2397
▁limb	-11.2397
▁construída	-11.2399
▁script	-11.24
▁tall	-11.2401
▁conseguiram	-11.2404
▁salto	-11.2413
▁eficazes	-11.2417
▁convinced	-11.2422
▁piores	-11.2443
tail	-11.2444
itz	-11.2448
▁soft	-11.2457
▁inventar	-11.2457
▁aprendem	-11.246
▁elétrico	-11.2463
▁mamífero	-11.2463
▁necessariamente	-11.2463
▁ocidental	-11.2463
▁prototype	-11.2463
▁digitais	-11.2463
▁Reparem	-11.2463
▁tradição	-11.2463
▁extremo	-11.2463
▁Japanese	-11.2463
▁poesia	-11.2463
▁silk	-11.2463
▁Brown	-11.2463
▁renov	-11.2464
▁implica	-11.2464
▁moeda	-11.2465
house	-11.2465
▁dançar	-11.2466
▁retro	-11.2466
▁string	-11.2469
illa	-11.2469
▁determinado	-11.2494
▁zoom	-11.2494
▁poem	-11.25
▁acreditava	-11.25
▁urbano	-11.2501
▁caí	-11.2509
▁funding	-11.2521
▁tratado	-11.2523
▁recover	-11.2524
▁académico	-11.2534
▁grandfather	-11.2534
▁inimigo	-11.2534
▁length	-11.2534
▁producing	-11.2534
▁mammal	-11.2534
▁domestic	-11.2534
▁mystery	-11.2534
▁ambas	-11.2535
▁2,000	-11.254
▁grid	-11.2541
▁journal	-11.2546
▁pilha	-11.2549
▁loan	-11.2552
▁instante	-11.2554
▁perigosa	-11.2556
▁settle	-11.2575
▁convenc	-11.258
▁associado	-11.2582
▁presta	-11.2582
▁terrorism	-11.2584
▁encontrado	-11.2585
▁painful	-11.2587
▁representação	-11.2591
▁tomada	-11.2593
▁distribut	-11.2601
▁Come	-11.2602
▁edit	-11.2604
▁Everybody	-11.2605
▁psychological	-11.2605
▁cães	-11.2605
▁attitude	-11.2605
▁High	-11.2606
▁combate	-11.2608
▁Gates	-11.2614
▁improvement	-11.2615
▁Entre	-11.2615
▁handle	-11.2623
▁height	-11.2636
▁pig	-11.2649
▁physically	-11.2651
born	-11.2652
▁defined	-11.2653
▁introduce	-11.2654
▁increasing	-11.2665
front	-11.2677
▁occasion	-11.2677
▁chicken	-11.2677
▁desperdício	-11.2677
▁persegui	-11.2677
▁balloon	-11.2677
ómica	-11.2677
▁botão	-11.2677
▁declara	-11.2678
▁storm	-11.2678
▁quisesse	-11.2678
▁unknown	-11.2678
▁constant	-11.268
▁swim	-11.268
▁lidera	-11.2681
▁racism	-11.2682
▁duro	-11.2682
▁prepared	-11.2693
▁SW	-11.2697
▁consequência	-11.2705
▁aluno	-11.2706
▁dólar	-11.2738
▁dramatic	-11.2743
lândia	-11.275
▁criminoso	-11.275
▁destruição	-11.275
▁improvisa	-11.275
▁inequality	-11.275
▁stupid	-11.275
▁privada	-11.275
▁Jesus	-11.275
▁exceto	-11.275
▁veteran	-11.275
▁hábito	-11.275
▁nervoso	-11.2754
▁remov	-11.2757
plet	-11.2768
▁digamos	-11.2779
▁avalia	-11.2785
▁crescente	-11.2785
▁sementes	-11.2786
▁trabalhamos	-11.2789
▁file	-11.279
▁lições	-11.279
▁descer	-11.2799
▁collected	-11.28
▁Conseguem	-11.2823
▁acontecido	-11.2823
▁conservative	-11.2823
▁desconhecido	-11.2823
▁divulg	-11.2823
▁especiais	-11.2823
▁futebol	-11.2823
▁fósseis	-11.2823
▁instituição	-11.2823
▁procedimento	-11.2823
▁religiosa	-11.2823
▁spectrum	-11.2823
▁Britain	-11.2823
▁providing	-11.2823
▁clever	-11.2823
▁romance	-11.2823
▁teatro	-11.2823
▁esfera	-11.2823
▁degrada	-11.2823
▁steal	-11.2823
▁biológica	-11.2823
▁nariz	-11.2825
▁attend	-11.2826
▁concert	-11.2826
▁2050	-11.2828
▁emoção	-11.2829
▁empenh	-11.2832
▁Nacional	-11.2833
▁tentam	-11.2833
▁terroristas	-11.2834
▁irrita	-11.2837
▁relacionado	-11.2838
▁bolo	-11.2838
▁rico	-11.284
▁corta	-11.284
▁statement	-11.2848
▁respira	-11.285
▁iremos	-11.2852
hold	-11.2853
▁700	-11.2855
▁terror	-11.2857
▁toxic	-11.2863
Fi	-11.2873
▁levado	-11.2887
▁finance	-11.2895
▁Oxford	-11.2896
▁cardíaca	-11.2896
▁cluster	-11.2896
▁invenção	-11.2896
▁wound	-11.2896
▁CEO	-11.2896
▁policies	-11.2896
▁radiation	-11.2896
▁Everything	-11.2896
▁sculpture	-11.2896
▁proibi	-11.2896
▁fraca	-11.2896
▁sugere	-11.2897
▁financiamento	-11.2897
▁spider	-11.2899
▁sabor	-11.2906
▁personagem	-11.2907
▁traveling	-11.2909
▁introduced	-11.2919
▁reef	-11.2923
▁estima	-11.2923
▁corais	-11.2925
▁fins	-11.2926
▁south	-11.2928
▁Yorker	-11.293
▁regra	-11.2933
▁objecto	-11.2937
▁circuito	-11.294
▁false	-11.2942
▁caminhar	-11.2947
half	-11.2952
▁ansiedade	-11.297
▁collaboration	-11.297
▁hormona	-11.297
▁horrível	-11.297
▁smartphone	-11.297
▁personagens	-11.297
▁rescue	-11.297
▁memories	-11.297
▁recife	-11.297
Precis	-11.2971
▁cartão	-11.2971
▁angry	-11.2971
▁2001	-11.2977
▁propose	-11.2985
▁diminuir	-11.2991
▁cup	-11.3
▁puser	-11.3005
▁appreciate	-11.3006
▁refugee	-11.3009
▁morreram	-11.3011
lash	-11.3018
▁thin	-11.3033
▁offered	-11.3033
▁extrema	-11.304
▁Egypt	-11.3043
Á	-11.3045
▁pleasure	-11.3045
▁surveillance	-11.3045
▁leitura	-11.3045
▁visible	-11.3045
ville	-11.3045
▁kilo	-11.3045
▁suposto	-11.3048
▁conservation	-11.305
▁rocha	-11.3056
▁inspiração	-11.3058
▁Day	-11.306
▁perante	-11.3063
▁achamos	-11.3063
▁Plan	-11.3064
▁narrow	-11.3069
▁viruses	-11.3069
▁melt	-11.3072
▁piloto	-11.3076
▁tru	-11.3096
fun	-11.31
▁organize	-11.3101
▁800	-11.312
▁circunstâncias	-11.312
▁introvert	-11.312
▁refrigera	-11.312
▁tempestade	-11.312
▁accomplish	-11.312
▁Health	-11.312
▁barrier	-11.312
▁conclusion	-11.312
▁Turk	-11.312
▁transcend	-11.312
▁password	-11.312
▁staff	-11.3124
▁lens	-11.3126
▁expandir	-11.313
▁wrap	-11.3136
▁typically	-11.3137
screvi	-11.3137
▁tensão	-11.3138
▁intimida	-11.3146
▁Fazemo	-11.3149
▁decidiram	-11.3157
itch	-11.3159
▁chamou	-11.316
source	-11.317
▁Observ	-11.3172
volução	-11.3177
wood	-11.3178
▁brincadeira	-11.3196
▁encaixa	-11.3196
▁expetativa	-11.3196
▁funcionou	-11.3196
▁relógio	-11.3196
▁struck	-11.3196
▁SMS	-11.3196
íssimo	-11.3196
▁Basicamente	-11.3196
▁Quase	-11.3196
▁redução	-11.3196
▁medula	-11.3197
▁House	-11.3201
▁plus	-11.3202
▁treinar	-11.321
▁ampla	-11.3222
▁warming	-11.3229
▁respirar	-11.3237
▁required	-11.3264
▁calcul	-11.3266
▁anger	-11.3267
▁Hollywood	-11.3272
▁agrícola	-11.3272
▁sophisticated	-11.3272
▁Significa	-11.3272
▁França	-11.3272
▁bolso	-11.3272
▁refuse	-11.3272
▁choque	-11.3272
▁dispostos	-11.3272
▁objectivo	-11.3272
▁nuvem	-11.3272
▁poupança	-11.3272
▁naquilo	-11.3272
▁Encontra	-11.3273
▁ombro	-11.3274
▁enfrentamos	-11.3274
▁poetry	-11.3277
▁cruel	-11.3278
▁linear	-11.3279
▁load	-11.328
▁tentando	-11.3284
▁combater	-11.3286
▁breathe	-11.3296
ficámos	-11.3296
▁circuit	-11.3304
▁shoot	-11.3325
▁Congress	-11.3327
▁joined	-11.3333
▁atravessa	-11.3333
▁apaga	-11.3335
▁afro	-11.3343
▁XIX	-11.3349
▁cópia	-11.3349
▁elétrica	-11.3349
▁jardim	-11.3349
▁lecture	-11.3349
▁líquido	-11.3349
▁Prince	-11.3349
▁Silicon	-11.3349
▁confidence	-11.3349
▁testemunha	-11.3349
▁studio	-11.3349
▁Ebola	-11.3349
▁Design	-11.335
▁mexer	-11.335
▁Four	-11.335
▁aviões	-11.335
▁negativa	-11.335
▁lentamente	-11.3352
▁ficção	-11.3354
▁tinta	-11.3364
▁envolvida	-11.337
▁cheiro	-11.337
▁Also	-11.3374
▁Pois	-11.3376
▁pago	-11.3377
▁bate	-11.3382
▁perdemos	-11.3387
▁garage	-11.3397
▁cega	-11.3402
▁brave	-11.3403
▁seguido	-11.3409
▁rapid	-11.3419
▁pão	-11.3426
▁CRISPR	-11.3427
▁africana	-11.3427
▁compreendi	-11.3427
▁engraçado	-11.3427
▁illusion	-11.3427
▁mechanical	-11.3427
▁sanguíneo	-11.3427
▁trabalhei	-11.3427
▁tubarões	-11.3427
▁universitário	-11.3427
▁voltou	-11.3427
▁adequada	-11.3427
▁shadow	-11.3427
▁setembro	-11.3427
▁piano	-11.3427
▁intention	-11.3427
▁rational	-11.3427
▁comfort	-11.3428
▁cortex	-11.3431
▁favorito	-11.3431
▁hoping	-11.3432
▁Tony	-11.3435
▁management	-11.3436
▁produzem	-11.3438
▁combinação	-11.3442
▁Congresso	-11.3449
▁equally	-11.345
▁kit	-11.346
▁comparar	-11.3468
▁ética	-11.3476
▁pouca	-11.3484
▁fascina	-11.3484
Quando	-11.3486
▁prosper	-11.3494
▁capta	-11.3496
icular	-11.3502
▁Olympic	-11.3505
▁aventura	-11.3505
▁maravilha	-11.3505
▁procedure	-11.3505
▁tópico	-11.3505
▁mágico	-11.3505
▁reagir	-11.3505
Please	-11.3505
▁relax	-11.3505
▁retrato	-11.3505
▁afinal	-11.3506
▁exigi	-11.3506
▁transição	-11.3508
▁evil	-11.3508
▁route	-11.3508
▁recuperação	-11.3509
▁captar	-11.3509
▁flies	-11.3509
▁Republican	-11.351
▁Act	-11.351
▁alemã	-11.3514
▁rebel	-11.3521
▁surrounded	-11.3531
stone	-11.3546
▁Val	-11.3557
▁circular	-11.3559
▁boss	-11.3563
control	-11.3565
▁sugerir	-11.3568
▁lindo	-11.357
▁apple	-11.3581
▁azuis	-11.3583
▁challenging	-11.3583
▁crédito	-11.3583
▁produtividade	-11.3583
▁candidate	-11.3583
▁battery	-11.3583
▁teeth	-11.3583
▁Afinal	-11.3583
▁horror	-11.3583
▁raiva	-11.3584
▁penetra	-11.3584
▁birthday	-11.3585
▁aranha	-11.3585
▁cobri	-11.3585
▁elevada	-11.3585
▁dense	-11.3586
▁civis	-11.3589
▁Mike	-11.3589
▁saltar	-11.3595
▁abrigo	-11.36
▁organizar	-11.3604
▁preocupação	-11.3613
▁bike	-11.3614
▁concord	-11.3614
▁extract	-11.3622
▁generally	-11.3627
▁bow	-11.3628
▁pede	-11.3632
▁diverse	-11.3641
▁Only	-11.3643
▁Precisa	-11.3651
▁tube	-11.3652
▁bloquea	-11.3663
▁escuridão	-11.3663
▁estúdio	-11.3663
▁fortunate	-11.3663
▁disciplina	-11.3663
▁livrar	-11.3663
▁idiot	-11.3663
▁hyper	-11.3663
▁medication	-11.3663
▁jamais	-11.3663
▁pareça	-11.3663
▁precede	-11.3663
▁framework	-11.3663
▁lembrem	-11.3664
▁dropped	-11.3664
▁reuniões	-11.3666
▁Everyone	-11.3666
▁olhei	-11.3666
▁29	-11.367
▁snow	-11.3671
▁preferido	-11.3671
▁venha	-11.3673
▁chamava	-11.3684
▁Fomo	-11.369
▁demonstrate	-11.369
Can	-11.3712
▁partida	-11.3718
▁vivid	-11.3725
▁Industrial	-11.3743
▁Pakistan	-11.3743
▁anxiety	-11.3743
▁dúzia	-11.3743
▁estrangeiro	-11.3743
▁flood	-11.3743
▁poluição	-11.3743
▁prisioneiro	-11.3743
▁unexpected	-11.3743
▁Atlanta	-11.3743
▁Três	-11.3743
▁divisão	-11.3743
▁especificamente	-11.3743
▁explodi	-11.3743
▁license	-11.3743
▁dancing	-11.3743
▁pollution	-11.3743
▁engaging	-11.3743
▁invisível	-11.3743
óxido	-11.3743
▁legitim	-11.3743
▁Space	-11.3743
sucedido	-11.3743
▁interroga	-11.3743
▁nerve	-11.3743
▁recorre	-11.3743
▁trigger	-11.3744
▁aceite	-11.3744
▁intense	-11.3744
▁busy	-11.3747
▁lying	-11.3747
▁participantes	-11.3749
▁pintar	-11.3749
▁2003	-11.3749
▁contest	-11.3752
▁impedi	-11.3753
▁transportation	-11.3754
▁debt	-11.3755
▁explicação	-11.3756
Uau	-11.376
▁export	-11.3766
▁85	-11.3786
▁combine	-11.3801
▁pour	-11.3809
▁Cambridge	-11.3823
▁analyze	-11.3823
▁intervention	-11.3823
▁laboratory	-11.3823
▁privilégio	-11.3823
▁psychologist	-11.3823
▁stretch	-11.3823
▁library	-11.3823
▁ilegal	-11.3823
▁Volta	-11.3823
▁spring	-11.3823
▁silent	-11.3823
▁codifica	-11.3825
▁atoms	-11.3826
▁awareness	-11.3827
▁pale	-11.3827
▁solving	-11.3828
▁consumidores	-11.3829
▁Bush	-11.383
▁exploration	-11.3831
▁giro	-11.3834
▁permanent	-11.3836
▁Pan	-11.3837
▁apresentação	-11.3843
▁votar	-11.3846
▁aproveitar	-11.385
▁mapea	-11.385
▁recolhe	-11.3854
▁experimental	-11.3886
worth	-11.3887
▁CD	-11.3887
▁percorrer	-11.3889
▁dieta	-11.3897
▁colleague	-11.3897
▁Bronx	-11.3905
▁Nigéria	-11.3905
▁Scott	-11.3905
▁britânico	-11.3905
▁córtex	-11.3905
▁desempenha	-11.3905
▁dívida	-11.3905
▁expansão	-11.3905
▁intelectual	-11.3905
▁sphere	-11.3905
▁alcance	-11.3905
▁scholar	-11.3905
▁housing	-11.3905
▁bound	-11.3905
▁acumula	-11.3906
▁fechar	-11.3906
▁senão	-11.3906
▁discutir	-11.3908
▁appropriate	-11.3909
▁hardware	-11.391
▁queiram	-11.3911
▁almoço	-11.3914
▁pump	-11.3915
▁Grand	-11.3917
▁lady	-11.3917
▁33	-11.3919
▁campus	-11.3922
digit	-11.3931
▁fico	-11.3939
▁stronger	-11.3948
▁Ken	-11.3949
▁prato	-11.3952
▁tais	-11.3958
▁estabelecer	-11.3962
▁ignor	-11.3966
▁recurso	-11.3982
▁2013	-11.3987
▁International	-11.3987
▁abordar	-11.3987
▁candidato	-11.3987
▁curioso	-11.3987
▁europeu	-11.3987
▁hormone	-11.3987
▁instruction	-11.3987
▁músico	-11.3987
▁download	-11.3987
▁genius	-11.3987
▁infinite	-11.3987
▁Grã	-11.3987
▁abertura	-11.3987
▁condição	-11.3987
▁Ébola	-11.3987
▁behave	-11.3987
▁famosa	-11.3988
ministro	-11.3988
▁pudermos	-11.3989
▁boring	-11.3996
▁houvesse	-11.4001
▁adoram	-11.4001
Vou	-11.4002
▁boxes	-11.4029
▁invite	-11.4049
▁querido	-11.4061
Bretanha	-11.4069
▁Perhaps	-11.4069
▁antibióticos	-11.4069
▁capítulo	-11.4069
▁destruction	-11.4069
▁economies	-11.4069
▁promessa	-11.4069
▁LED	-11.4069
▁complain	-11.4069
▁nalgum	-11.4069
▁Before	-11.4069
▁phase	-11.4069
▁department	-11.4069
▁swimming	-11.4069
▁emerging	-11.4069
▁férias	-11.4069
▁promote	-11.4073
▁protege	-11.4074
▁awful	-11.4075
▁deixá	-11.408
▁criando	-11.4092
▁adicionar	-11.4092
▁lion	-11.4099
▁dependent	-11.4102
▁publicidade	-11.4103
actic	-11.4114
view	-11.4125
▁Eric	-11.413
Isso	-11.4137
dependentemente	-11.4141
▁sustain	-11.415
▁ancestors	-11.4153
▁concrete	-11.4153
▁envelhece	-11.4153
▁fotografa	-11.4153
▁gentlemen	-11.4153
▁literatura	-11.4153
▁literature	-11.4153
▁scenario	-11.4153
▁survivor	-11.4153
▁tunnel	-11.4153
▁órbita	-11.4153
▁chapter	-11.4153
▁applied	-11.4153
▁promover	-11.4153
▁liceu	-11.4153
▁defesa	-11.4153
▁spiritual	-11.4154
▁permitiu	-11.4155
▁biologist	-11.4155
clam	-11.4159
▁productive	-11.416
▁diagnosed	-11.4162
▁inject	-11.4169
▁scary	-11.4172
▁determinada	-11.4177
▁shooting	-11.4178
▁corredor	-11.4184
▁assumi	-11.4187
▁Congo	-11.4191
▁evolve	-11.4214
Qual	-11.422
gula	-11.4221
▁verifica	-11.4223
▁September	-11.4237
▁efficiency	-11.4237
▁espetáculo	-11.4237
▁innovative	-11.4237
▁committed	-11.4237
▁louca	-11.4237
▁ought	-11.4237
▁obtive	-11.4238
▁retina	-11.4238
▁Saturn	-11.4238
▁Brian	-11.4238
▁biólogo	-11.4238
▁resistance	-11.4238
▁strip	-11.4244
▁nascimento	-11.4244
▁objective	-11.4245
▁bala	-11.4246
▁criei	-11.4246
cionista	-11.4248
▁passámos	-11.4253
▁protesto	-11.4255
▁decora	-11.4255
▁operação	-11.4268
▁pura	-11.4275
ícia	-11.4291
▁sonda	-11.4305
▁consulta	-11.4307
▁Remember	-11.4321
▁distribuí	-11.4321
▁dolphin	-11.4321
▁enfermeira	-11.4321
▁judgment	-11.4321
▁quântica	-11.4321
▁laptop	-11.4321
▁sexuais	-11.4321
▁terríveis	-11.4321
▁conforme	-11.4322
▁Aquela	-11.4323
▁overall	-11.4323
▁reference	-11.4325
▁medium	-11.4328
▁expert	-11.4328
▁winter	-11.4339
▁combined	-11.4345
▁deriva	-11.4353
▁Coca	-11.4377
▁Pedi	-11.4403
▁Foundation	-11.4407
▁Pessoas	-11.4407
▁histórico	-11.4407
▁jornais	-11.4407
▁knock	-11.4407
▁maçã	-11.4407
▁simetria	-11.4407
▁somewhat	-11.4407
▁vulneráveis	-11.4407
▁ódio	-11.4407
▁Nobody	-11.4407
▁constrain	-11.4407
▁espetro	-11.4407
▁confess	-11.4407
▁grateful	-11.4407
▁causing	-11.4407
▁overcome	-11.4408
▁duplica	-11.4409
▁julgamento	-11.4411
▁casca	-11.4411
▁pipe	-11.4411
▁rising	-11.4414
▁regulation	-11.4422
▁olhando	-11.4425
▁100%	-11.4427
▁Querem	-11.4443
▁salvo	-11.4446
▁assisti	-11.4448
▁diagrama	-11.4459
▁march	-11.4466
▁valoriza	-11.447
▁tê	-11.448
▁quadr	-11.449
▁recommend	-11.4493
▁centuries	-11.4493
▁colónia	-11.4493
▁corrupção	-11.4493
▁religiões	-11.4493
▁suicide	-11.4493
▁evidência	-11.4493
▁globe	-11.4493
▁ruído	-11.4493
▁examina	-11.4493
▁implications	-11.4493
▁mentais	-11.4494
▁expectations	-11.4494
▁favela	-11.4494
▁smoke	-11.4494
▁costume	-11.4494
▁blogue	-11.4495
▁implicações	-11.4497
▁sanita	-11.4498
▁conservação	-11.4499
origami	-11.45
▁peito	-11.4501
▁cabin	-11.4502
▁motivation	-11.451
▁fibra	-11.4515
▁MT	-11.4521
▁escada	-11.4528
▁functional	-11.4535
▁Sabe	-11.4541
▁saem	-11.4545
▁sentada	-11.4545
▁excita	-11.4566
▁aborrecido	-11.458
▁etiqueta	-11.458
▁hunger	-11.458
▁psicólogo	-11.458
▁trânsito	-11.458
▁unusual	-11.458
▁yesterday	-11.458
▁Aprendi	-11.458
▁romantic	-11.458
▁Podíamos	-11.458
▁Finally	-11.458
▁afternoon	-11.458
▁welcome	-11.458
▁steel	-11.458
▁gritar	-11.458
word	-11.4581
▁underwater	-11.4583
▁pitch	-11.4584
▁luck	-11.4584
▁sorriso	-11.4585
▁suspect	-11.4587
▁blame	-11.4587
▁weigh	-11.4588
▁cents	-11.459
▁shall	-11.4596
▁diária	-11.4596
▁marcha	-11.4597
▁Howard	-11.4598
▁pessoalmente	-11.4604
▁tentado	-11.4616
▁estiveram	-11.4618
▁interno	-11.4651
▁curiosa	-11.4658
▁germ	-11.4665
▁dicionário	-11.4668
▁explode	-11.4668
▁explosão	-11.4668
▁lucrativo	-11.4668
▁obsessed	-11.4668
▁populações	-11.4668
▁profundidade	-11.4668
▁split	-11.4668
▁substância	-11.4668
▁úteis	-11.4668
▁regret	-11.4668
▁gripe	-11.4668
▁havido	-11.4668
▁Direito	-11.4668
▁afecta	-11.4668
▁branch	-11.4668
▁fisicamente	-11.4668
▁lento	-11.4668
▁absorve	-11.4668
▁confident	-11.4668
▁visível	-11.4668
▁intenção	-11.4668
▁evolutionary	-11.467
llowing	-11.4671
▁audit	-11.4671
▁alimentação	-11.468
Este	-11.468
▁infeta	-11.4682
▁Nick	-11.4683
▁Vejamos	-11.4684
ained	-11.4703
▁violenta	-11.4709
▁hiper	-11.4715
▁37	-11.472
▁trait	-11.4728
▁recusa	-11.4729
normal	-11.4741
human	-11.4746
▁valid	-11.4752
ânica	-11.4756
ómetro	-11.4756
▁Detroit	-11.4756
▁Normalmente	-11.4756
▁grávida	-11.4756
▁lâmpada	-11.4756
▁mathematician	-11.4756
▁ajudá	-11.4756
▁productivity	-11.4757
▁predator	-11.4759
▁funções	-11.4776
▁africano	-11.4778
▁chest	-11.4784
▁agita	-11.479
▁pergunto	-11.4823
▁agradável	-11.4846
▁descoberto	-11.4846
▁espetacular	-11.4846
▁horrible	-11.4846
▁leap	-11.4846
▁struggling	-11.4846
▁tecnológica	-11.4846
▁telephone	-11.4846
▁tribunal	-11.4846
▁perspectiva	-11.4846
▁dignidade	-11.4846
▁ajude	-11.4846
▁commitment	-11.4846
▁blank	-11.4846
▁Disney	-11.4846
▁ensure	-11.4846
▁essência	-11.4847
OK	-11.4852
▁respiração	-11.4854
▁lente	-11.4858
▁mentalidade	-11.486
▁ultrapassa	-11.4864
▁característica	-11.4871
▁preferida	-11.4874
▁acerta	-11.4878
prime	-11.4878
.000	-11.4879
▁dust	-11.4886
▁respondi	-11.4894
▁fiber	-11.4915
▁esquece	-11.4917
▁combat	-11.4932
▁Bangladesh	-11.4936
▁curiosity	-11.4936
▁diálogo	-11.4936
▁emergency	-11.4936
▁faixa	-11.4936
▁génio	-11.4936
▁harvest	-11.4936
▁identical	-11.4936
▁philosopher	-11.4936
▁revenue	-11.4936
▁tropical	-11.4936
▁insurance	-11.4936
▁mortality	-11.4936
▁brown	-11.4936
▁White	-11.4936
▁futura	-11.4936
▁isolated	-11.4936
▁appeal	-11.4936
▁Louis	-11.4936
▁presence	-11.4937
▁vasos	-11.4938
▁resumi	-11.4938
▁lançamento	-11.494
▁loop	-11.4943
▁70%	-11.4944
▁musician	-11.4946
▁3,000	-11.4949
▁1%	-11.495
▁Union	-11.4954
▁Logo	-11.4954
▁hostil	-11.4955
▁weapon	-11.4965
▁manufacture	-11.5027
▁recruit	-11.5027
▁Instituto	-11.5027
▁Research	-11.5027
▁aparentemente	-11.5027
▁estacionamento	-11.5027
▁filósofo	-11.5027
▁ilusão	-11.5027
▁religioso	-11.5027
▁flew	-11.5027
▁database	-11.5027
▁fechado	-11.5027
▁nowhere	-11.5027
▁extent	-11.5027
▁sweat	-11.5027
▁bicycle	-11.5027
▁radar	-11.5029
▁corruption	-11.503
▁rush	-11.5035
parece	-11.5036
▁Newton	-11.5038
▁31	-11.5045
▁variation	-11.5045
▁Hill	-11.505
▁cash	-11.5054
Sahara	-11.5054
▁engenheiro	-11.5059
▁riso	-11.5063
▁Long	-11.5066
▁nascem	-11.5085
▁cabe	-11.5085
▁limitada	-11.5097
foot	-11.5101
▁ultimate	-11.5107
▁reconheci	-11.5116
▁fáceis	-11.5118
▁recognition	-11.5118
▁selvagem	-11.5118
▁extremist	-11.5118
▁dignity	-11.5118
▁radiação	-11.5118
▁portrait	-11.5118
▁Next	-11.5118
▁uncle	-11.5119
▁recém	-11.512
▁multiplica	-11.5121
book	-11.5122
related	-11.5124
▁localização	-11.5133
▁pool	-11.514
▁distant	-11.5143
▁deitar	-11.5146
▁Presidente	-11.515
▁órgão	-11.5154
Está	-11.5159
▁external	-11.5178
eficiente	-11.5194
called	-11.5197
▁2030	-11.5211
▁Carolina	-11.5211
▁Gabby	-11.5211
▁concebido	-11.5211
▁doutoramento	-11.5211
▁envelhecimento	-11.5211
▁movimenta	-11.5211
▁consumption	-11.5211
▁amarelo	-11.5211
▁estufa	-11.5213
▁esqueci	-11.5213
▁iniciativa	-11.5213
▁avaliação	-11.522
▁tragic	-11.5222
▁recovery	-11.5226
▁mice	-11.5232
▁motivação	-11.5238
▁torne	-11.5248
sustentabilidade	-11.5259
▁incluí	-11.527
Wow	-11.5274
Look	-11.5291
▁ajusta	-11.5302
▁Rússia	-11.5304
▁Stephen	-11.5304
▁Unfortunately	-11.5304
▁Watson	-11.5304
▁ambientais	-11.5304
▁cognitiva	-11.5304
▁eficácia	-11.5304
▁filosofia	-11.5304
▁fluorescent	-11.5304
▁frankly	-11.5304
▁funcione	-11.5304
▁herself	-11.5304
▁ridiculous	-11.5304
▁instinct	-11.5304
▁neither	-11.5304
▁parceria	-11.5304
▁Passei	-11.5304
▁drove	-11.5304
▁Henry	-11.5304
▁shelter	-11.5305
▁retorno	-11.5305
,500	-11.5305
▁Brit	-11.5305
▁Gosto	-11.5306
▁Albert	-11.5308
▁menino	-11.5309
▁Quais	-11.5311
▁discut	-11.5311
70	-11.5352
▁magnetic	-11.5358
▁wage	-11.5377
▁exploit	-11.5399
▁2016	-11.5399
▁January	-11.5399
▁automóvel	-11.5399
▁cromossoma	-11.5399
▁fotógrafo	-11.5399
▁guarantee	-11.5399
▁incerteza	-11.5399
▁reconstruir	-11.5399
▁universities	-11.5399
▁Virgin	-11.5399
▁Christmas	-11.5399
▁Mandela	-11.5399
▁previsão	-11.5399
▁perfura	-11.5399
▁carried	-11.5399
▁coluna	-11.5399
▁queixa	-11.54
▁rurais	-11.5401
▁gross	-11.5401
▁controlled	-11.5409
▁pró	-11.5411
▁40%	-11.5415
▁orientação	-11.5415
▁personality	-11.5419
▁alcanç	-11.5429
scribe	-11.5438
▁Casa	-11.5456
▁brilha	-11.5469
Nós	-11.5477
▁extraordinari	-11.5494
▁bathroom	-11.5494
▁conventional	-11.5494
▁injustiça	-11.5494
▁magnitude	-11.5494
▁philosophy	-11.5494
▁scream	-11.5494
▁recruta	-11.5494
▁singular	-11.5494
▁mutation	-11.5494
▁considerada	-11.5495
▁careful	-11.5495
▁diversos	-11.5495
▁vencer	-11.5495
▁gangue	-11.5495
▁monument	-11.5495
▁inverno	-11.5497
▁concluir	-11.5499
▁Islamic	-11.55
▁atuais	-11.55
▁cheat	-11.5502
▁magoa	-11.5502
▁Saudi	-11.5502
▁abuso	-11.5503
▁conclude	-11.551
▁coach	-11.5518
▁aposta	-11.5566
▁rodeia	-11.5581
▁corrupt	-11.5586
▁district	-11.559
▁esqueleto	-11.559
▁extinção	-11.559
▁feminina	-11.559
▁possivelmente	-11.559
▁uncomfortable	-11.559
▁Parkinson	-11.559
▁adivinh	-11.559
▁receptor	-11.559
▁stroke	-11.559
▁reforça	-11.559
▁Islão	-11.559
▁cousin	-11.559
▁arquivo	-11.559
▁navegar	-11.559
▁greenhouse	-11.5591
▁Tesla	-11.5592
▁authority	-11.5595
▁situa	-11.5596
▁tight	-11.5596
▁mindset	-11.5597
▁analisa	-11.5598
▁angle	-11.56
▁2002	-11.5601
▁Porém	-11.5603
▁ironic	-11.5606
▁modest	-11.5612
passageiro	-11.5612
▁bump	-11.5615
▁Revolution	-11.5687
▁chromosome	-11.5687
▁cobertura	-11.5687
▁colapso	-11.5687
▁instruções	-11.5687
▁neutral	-11.5687
▁obstacle	-11.5687
▁precisávamos	-11.5687
▁óbvia	-11.5687
▁drill	-11.5687
▁Something	-11.5687
▁multidão	-11.5687
▁healthcare	-11.5687
▁Edward	-11.5687
▁esposa	-11.5687
▁spark	-11.5687
▁raising	-11.5687
▁congela	-11.5688
▁optimistic	-11.5688
▁preserve	-11.5689
▁planeamento	-11.569
▁transparente	-11.5692
▁corporate	-11.5694
▁adorava	-11.5708
Cola	-11.5713
ould	-11.5784
▁Número	-11.5785
▁adventure	-11.5785
▁automaticamente	-11.5785
▁escondida	-11.5785
▁sensitive	-11.5785
▁extrovert	-11.5785
▁informática	-11.5785
▁obesidade	-11.5785
▁protocol	-11.5785
▁absurd	-11.5785
▁Creio	-11.5785
▁sustainability	-11.5786
▁ferro	-11.5786
▁esgota	-11.5786
▁dramatically	-11.5787
▁borrow	-11.5787
▁banana	-11.5788
▁suporta	-11.5788
▁tank	-11.5788
▁thick	-11.5788
▁intensa	-11.579
▁achei	-11.5792
▁falámos	-11.5794
▁Unidas	-11.5796
▁anteriormente	-11.58
▁resp	-11.5863
▁Philip	-11.5884
▁assistência	-11.5884
▁dioxide	-11.5884
▁exploring	-11.5884
▁fígado	-11.5884
▁inclusive	-11.5884
▁marginal	-11.5884
procrastin	-11.5884
▁Anyway	-11.5884
▁ONG	-11.5884
▁FDA	-11.5884
▁Jeff	-11.5884
▁conceber	-11.5884
▁hydrogen	-11.5884
▁selection	-11.5884
▁request	-11.5884
▁otimista	-11.5884
▁equação	-11.5885
▁depressed	-11.5886
▁boom	-11.5887
▁senior	-11.5887
▁twin	-11.5888
▁atleta	-11.5888
▁vapor	-11.5888
▁minister	-11.5889
▁Sinto	-11.589
▁calculate	-11.5904
▁atinge	-11.5936
▁diagram	-11.594
▁72	-11.5949
century	-11.5966
q	-11.5976
Para	-11.5978
▁Leonardo	-11.5984
▁aeroporto	-11.5984
▁earthquake	-11.5984
▁espiritual	-11.5984
▁francês	-11.5984
▁hungry	-11.5984
▁licença	-11.5984
▁miracle	-11.5984
▁opposed	-11.5984
▁scratch	-11.5984
▁visuais	-11.5984
▁Seattle	-11.5984
▁judeu	-11.5984
▁absorb	-11.5984
▁emergência	-11.5984
▁citação	-11.5984
▁gruta	-11.5985
▁aproximadamente	-11.5985
▁exposed	-11.5986
▁ouvem	-11.5991
▁instalações	-11.5992
▁mentir	-11.5993
dependent	-11.5997
logicamente	-11.6023
▁criatura	-11.6055
▁lend	-11.6058
▁suppose	-11.6062
Yeah	-11.6067
▁Clinton	-11.6085
▁Feynman	-11.6085
▁Florida	-11.6085
▁Ocidental	-11.6085
▁mantêm	-11.6085
▁opiniões	-11.6085
▁permission	-11.6085
▁raízes	-11.6085
▁ténis	-11.6085
▁óleo	-11.6085
▁champion	-11.6085
▁fantasma	-11.6085
▁evidente	-11.6085
▁milagre	-11.6085
equilibra	-11.6085
▁diariamente	-11.6085
▁Stasi	-11.6085
▁pausa	-11.6086
▁knee	-11.6086
▁distract	-11.6086
▁experiencing	-11.6086
▁occurred	-11.6088
▁engagement	-11.6094
▁geneticamente	-11.6095
▁pause	-11.6097
▁criadores	-11.6099
▁zoo	-11.6151
▁químico	-11.616
▁prepare	-11.6167
Estou	-11.6169
specific	-11.6169
field	-11.617
▁empreendedor	-11.618
▁$1	-11.6187
▁Lembrem	-11.6187
▁Suécia	-11.6187
▁Sweden	-11.6187
▁automatically	-11.6187
▁cirurgião	-11.6187
▁comerciais	-11.6187
▁companheiro	-11.6187
▁profissão	-11.6187
▁transparência	-11.6187
▁disappoint	-11.6187
▁disgust	-11.6187
▁barulho	-11.6187
▁pólen	-11.6187
▁Atualmente	-11.6187
▁proportion	-11.6187
▁suporte	-11.6187
▁ignorância	-11.6188
▁granted	-11.6188
▁computing	-11.6188
▁densidade	-11.6188
▁policia	-11.6188
▁vencedor	-11.6189
▁Moore	-11.6189
▁processamento	-11.6196
▁25%	-11.6199
▁Disseram	-11.62
▁animado	-11.6203
▁alerta	-11.6208
NH	-11.6215
▁detector	-11.6225
▁predador	-11.6237
▁consequence	-11.6266
Z	-11.6272
▁1999	-11.629
▁Kennedy	-11.629
▁NGO	-11.629
▁Paquistão	-11.629
▁TEDTalk	-11.629
▁acessível	-11.629
▁assassina	-11.629
▁authentic	-11.629
▁cooperação	-11.629
▁discipline	-11.629
▁facilita	-11.629
▁imigrante	-11.629
▁orgânico	-11.629
▁robótica	-11.629
▁reputação	-11.629
▁obesity	-11.629
▁clue	-11.629
▁interrupt	-11.629
▁ladies	-11.6291
▁coleção	-11.6291
▁Egito	-11.6291
▁condiciona	-11.6291
▁prosperidade	-11.6293
▁fascinated	-11.6294
▁potência	-11.6295
▁Titan	-11.6295
▁disability	-11.6296
▁sonhar	-11.6301
▁passagem	-11.6302
▁achievement	-11.6302
▁vendedor	-11.631
▁stake	-11.6311
▁sugeri	-11.6312
▁tower	-11.6313
▁drama	-11.6331
través	-11.6364
▁arrive	-11.6373
▁particle	-11.6374
▁pigment	-11.6378
▁currículo	-11.6395
▁illustrate	-11.6395
▁jornada	-11.6395
▁marijuana	-11.6395
▁plenty	-11.6395
▁portátil	-11.6395
▁rebuild	-11.6395
▁routine	-11.6395
▁tecnológico	-11.6395
▁ângulo	-11.6395
▁Nelson	-11.6395
▁decrease	-11.6395
▁reconstruct	-11.6395
▁reduction	-11.6395
▁sequencia	-11.6395
▁spray	-11.6395
▁invisíveis	-11.6395
▁Ghana	-11.6395
▁Síria	-11.6395
▁Jean	-11.6395
▁enganado	-11.6395
▁inclina	-11.6395
▁enemy	-11.6395
▁fraco	-11.6395
▁shake	-11.6398
Escolh	-11.6399
▁wise	-11.6401
▁impressora	-11.6402
▁racional	-11.6403
▁brinca	-11.6426
▁historic	-11.6438
▁aviso	-11.6453
▁benefício	-11.6483
▁acknowledge	-11.65
▁automóveis	-11.65
▁confused	-11.65
▁diagnosis	-11.65
▁diapositivo	-11.65
▁distúrbio	-11.65
▁inspiring	-11.65
▁ocidentais	-11.65
▁peculiar	-11.65
▁ultraviolet	-11.65
▁contempla	-11.65
▁convenient	-11.65
▁lifestyle	-11.65
▁passenger	-11.65
▁suicida	-11.65
▁craft	-11.65
▁Ciência	-11.65
▁precoce	-11.65
▁exceção	-11.65
▁Banco	-11.65
▁painéis	-11.6501
▁empréstimos	-11.6501
▁entidade	-11.6501
▁coberto	-11.6501
▁intact	-11.6501
▁reproduzir	-11.6502
▁surpreendido	-11.6503
▁turma	-11.6504
▁singing	-11.6506
▁estrag	-11.6507
▁pollen	-11.6509
▁falso	-11.6515
▁dormi	-11.6551
▁investigador	-11.6559
resistant	-11.6564
ground	-11.6582
Tenho	-11.6588
▁quebrar	-11.6591
▁Hospital	-11.6606
▁cerveja	-11.6606
▁extensão	-11.6606
▁tragédia	-11.6606
▁complement	-11.6606
▁ceiling	-11.6606
▁Centro	-11.6606
▁Quanta	-11.6606
▁divertida	-11.6606
▁deveríamos	-11.6607
▁àquele	-11.6607
▁restrict	-11.6608
▁subtle	-11.6608
▁horizontal	-11.6609
▁acres	-11.661
▁leak	-11.661
▁ignorance	-11.6611
▁prolong	-11.6611
▁limitações	-11.6612
▁amongst	-11.6613
▁magnet	-11.6653
▁aperta	-11.6666
▁creature	-11.6704
▁confusão	-11.6714
▁distinguir	-11.6714
▁eficiência	-11.6714
▁forgotten	-11.6714
▁gabinete	-11.6714
▁intervenção	-11.6714
▁measuring	-11.6714
▁neurociência	-11.6714
▁synthetic	-11.6714
▁tubarão	-11.6714
▁August	-11.6714
▁esforça	-11.6714
▁Greek	-11.6714
▁convencional	-11.6714
▁agradecer	-11.6714
▁Escola	-11.6714
▁recipe	-11.6714
▁parallel	-11.6714
▁resume	-11.6715
▁Egyptian	-11.6716
▁propaga	-11.6716
▁Luther	-11.6717
▁genetically	-11.6719
▁hetero	-11.672
▁correio	-11.6723
▁rigor	-11.678
▁prize	-11.6787
free	-11.6816
▁Brooklyn	-11.6822
▁acontecia	-11.6822
▁affair	-11.6822
▁chineses	-11.6822
▁hidrogénio	-11.6822
▁identified	-11.6822
▁inevitable	-11.6822
▁injury	-11.6822
▁muscular	-11.6822
▁prejudica	-11.6822
▁strategies	-11.6822
▁colheita	-11.6822
▁investidores	-11.6822
▁skeptic	-11.6822
▁advocate	-11.6822
▁informático	-11.6822
▁menciona	-11.6822
▁suspens	-11.6822
▁Prize	-11.6822
▁thrive	-11.6822
▁Basically	-11.6823
▁arrasta	-11.6823
▁racial	-11.6823
▁backwards	-11.6823
▁centrais	-11.6825
▁prosperity	-11.6826
▁comunicações	-11.6828
▁vocal	-11.6829
▁Record	-11.6829
conspira	-11.683
▁isolado	-11.6832
▁monitoriza	-11.6849
class	-11.6857
▁profession	-11.6872
third	-11.6915
▁direto	-11.692
▁cooperation	-11.6932
▁embedded	-11.6932
▁fôssemos	-11.6932
▁inevitável	-11.6932
▁valioso	-11.6932
▁ONU	-11.6932
▁Saúde	-11.6932
▁intersection	-11.6932
▁sacred	-11.6932
▁galinha	-11.6932
▁luxo	-11.6932
▁imprimir	-11.6932
▁imaginá	-11.6932
▁atraente	-11.6933
▁soap	-11.6936
▁Turn	-11.6937
▁depth	-11.6938
▁propens	-11.6941
When	-11.7025
americano	-11.7026
Qaeda	-11.7043
▁Jewish	-11.7043
▁Kepler	-11.7043
▁Pacífico	-11.7043
▁escondido	-11.7043
▁psychology	-11.7043
▁vegetable	-11.7043
▁enquadra	-11.7043
▁fulfill	-11.7043
▁previsões	-11.7043
▁reputation	-11.7043
▁strike	-11.7043
▁terramoto	-11.7043
▁intriga	-11.7044
▁disposta	-11.7044
▁Girl	-11.7044
▁limpo	-11.7044
▁uncertainty	-11.7044
▁domain	-11.7045
▁imaging	-11.7046
▁humilh	-11.7047
▁Suprem	-11.7048
▁arranja	-11.7126
▁revolucion	-11.7143
makers	-11.7143
▁Gandhi	-11.7156
▁Pacific	-11.7156
▁Through	-11.7156
▁acabámos	-11.7156
▁elsewhere	-11.7156
▁loucura	-11.7156
▁microfone	-11.7156
▁phenomena	-11.7156
▁pânico	-11.7156
▁substance	-11.7156
▁transparency	-11.7156
▁football	-11.7156
▁segrega	-11.7156
▁trivial	-11.7156
▁quarta	-11.7156
▁Percebe	-11.7156
▁profile	-11.7156
▁Vivemos	-11.7156
▁Nothing	-11.7156
▁pursue	-11.7156
▁glad	-11.7157
▁transmissão	-11.7157
▁participants	-11.7158
▁convencido	-11.7159
▁leste	-11.7159
▁Nike	-11.7162
▁adotar	-11.7167
missões	-11.7254
▁compass	-11.7263
Desculpe	-11.7269
▁Ethiopia	-11.7269
▁eletrónico	-11.7269
▁entusiasmo	-11.7269
▁espaciais	-11.7269
▁explicit	-11.7269
▁iPod	-11.7269
▁masculino	-11.7269
▁obcecado	-11.7269
▁renewable	-11.7269
▁ressonância	-11.7269
▁wheelchair	-11.7269
▁camiões	-11.7269
▁sagrado	-11.7269
▁abundant	-11.7269
▁coletivo	-11.7269
▁arroz	-11.7269
▁dialogue	-11.7269
▁violin	-11.727
▁Cerca	-11.727
▁fruta	-11.727
▁cartões	-11.727
▁textbook	-11.727
▁elected	-11.7271
▁scanner	-11.7272
▁accessible	-11.7273
▁attractive	-11.7273
▁Kong	-11.7274
▁exhibition	-11.7275
▁bactéria	-11.7279
▁130	-11.7282
▁impede	-11.7286
▁evita	-11.7291
▁Medica	-11.7292
▁confiante	-11.7311
▁Agarr	-11.732
udge	-11.7326
ssociação	-11.7326
▁invadi	-11.7352
violent	-11.7366
▁encontrá	-11.7369
▁immediate	-11.7373
▁rough	-11.7373
▁gratuita	-11.7384
▁Geographic	-11.7384
▁Trabalha	-11.7384
▁desespero	-11.7384
▁gesture	-11.7384
▁imediato	-11.7384
▁inesperada	-11.7384
▁intestino	-11.7384
▁mergulho	-11.7384
▁neuroscience	-11.7384
▁recomenda	-11.7384
▁adequado	-11.7384
▁extremism	-11.7384
▁bullet	-11.7384
▁computation	-11.7384
▁Naquela	-11.7384
▁Square	-11.7384
▁acquire	-11.7385
▁ugly	-11.7385
▁psicologia	-11.7385
▁underground	-11.7386
▁Jones	-11.7386
▁estimativa	-11.7386
▁exibi	-11.7386
▁package	-11.7389
▁Nations	-11.7391
▁escapar	-11.7397
▁acreditem	-11.7398
▁redefini	-11.7402
▁slip	-11.7456
▁costuma	-11.749
▁corajosa	-11.7501
▁amizade	-11.7501
▁anonymous	-11.7501
▁disagree	-11.7501
▁eletrónica	-11.7501
▁frustrated	-11.7501
▁gravidez	-11.7501
▁minúsculo	-11.7501
▁múltipla	-11.7501
▁preocupe	-11.7501
▁rainforest	-11.7501
▁skeleton	-11.7501
▁skull	-11.7501
▁Daniel	-11.7501
▁Lembram	-11.7501
▁paisagens	-11.7501
▁simpático	-11.7501
▁Conhece	-11.7501
▁evapora	-11.7501
▁utter	-11.7501
Acabei	-11.7501
▁household	-11.7502
▁mood	-11.7502
▁freak	-11.7503
▁mutila	-11.7503
▁pathway	-11.7504
▁eterna	-11.7506
▁slice	-11.7515
▁adorar	-11.7568
▁restaura	-11.759
▁direta	-11.7614
▁inconsciente	-11.7618
▁Apollo	-11.7618
▁Física	-11.7618
▁Jordan	-11.7618
▁agencies	-11.7618
▁chapéu	-11.7618
▁critério	-11.7618
▁disconnect	-11.7618
▁diâmetro	-11.7618
▁figuring	-11.7618
▁grátis	-11.7618
▁secundária	-11.7618
▁vulnerabilidade	-11.7618
▁gordura	-11.7618
▁Arthur	-11.7618
▁Joseph	-11.7618
▁conforto	-11.7618
▁magnific	-11.7618
▁Arctic	-11.7618
▁athlete	-11.7618
▁defense	-11.7618
▁pioneer	-11.7618
▁percebo	-11.7618
▁reserve	-11.7618
▁Church	-11.7618
▁description	-11.7618
▁infinita	-11.7618
▁tackle	-11.7618
▁civic	-11.7618
▁calças	-11.7619
▁tremenda	-11.7619
▁Children	-11.7619
▁footprint	-11.7619
▁Hubble	-11.7619
▁beetle	-11.7619
▁lean	-11.7619
▁envolvimento	-11.7619
▁cristã	-11.7619
▁fosso	-11.7619
▁Social	-11.762
▁wipe	-11.7622
▁frog	-11.7623
▁censo	-11.7623
▁indiano	-11.7625
changing	-11.7719
▁1995	-11.7737
▁1998	-11.7737
▁Alexander	-11.7737
▁Bíblia	-11.7737
▁Snowden	-11.7737
▁Universo	-11.7737
▁chocante	-11.7737
▁choosing	-11.7737
▁clássico	-11.7737
▁confuso	-11.7737
▁diferencia	-11.7737
▁frozen	-11.7737
▁grandchildren	-11.7737
▁histórica	-11.7737
▁industries	-11.7737
▁resolvido	-11.7737
▁óculos	-11.7737
▁estatuto	-11.7737
▁injustice	-11.7737
▁instinto	-11.7737
▁nuvens	-11.7737
▁aguentar	-11.7737
▁chronic	-11.7737
▁cyber	-11.7737
▁abilities	-11.7737
▁animation	-11.7737
▁sneak	-11.7737
▁defeito	-11.7738
▁agency	-11.7738
▁capability	-11.7739
▁conceptual	-11.7741
▁angari	-11.7742
▁shout	-11.7743
▁Auto	-11.7802
website	-11.784
—	-11.784
Onde	-11.784
▁distribui	-11.7851
▁LGBT	-11.7858
▁awkward	-11.7858
▁boundaries	-11.7858
▁exponential	-11.7858
▁festival	-11.7858
▁humanitarian	-11.7858
▁County	-11.7858
▁Democrat	-11.7858
▁register	-11.7858
▁território	-11.7858
▁engenho	-11.7858
▁séria	-11.7858
▁drum	-11.7858
▁tentámos	-11.7858
▁excuse	-11.7858
▁Indeed	-11.7858
▁Italian	-11.7859
▁forgive	-11.7859
▁breed	-11.7859
▁accus	-11.786
▁insulin	-11.786
▁flee	-11.7861
▁tortura	-11.7862
▁hook	-11.7863
▁concorr	-11.7863
pending	-11.7865
▁executa	-11.7888
habitat	-11.7915
▁aproveita	-11.7939
astro	-11.7952
Where	-11.7962
▁transparent	-11.7973
▁Nature	-11.7979
▁fertilize	-11.798
▁Berkeley	-11.798
▁Rwanda	-11.798
▁chinesa	-11.798
▁concretiz	-11.798
▁explosion	-11.798
▁garbage	-11.798
▁interconnect	-11.798
▁jazz	-11.798
▁laranja	-11.798
▁overwhelming	-11.798
▁romântico	-11.798
▁whistle	-11.798
▁inocente	-11.798
▁translation	-11.798
▁Dentro	-11.798
▁Cuba	-11.798
▁dirige	-11.798
▁audição	-11.7981
▁ausência	-11.7981
▁sunlight	-11.7982
▁aceder	-11.7982
▁soubesse	-11.8001
plex	-11.8038
▁Encontrei	-11.8103
▁accelerate	-11.8103
▁assistente	-11.8103
▁attribute	-11.8103
▁centímetro	-11.8103
▁collaborative	-11.8103
▁confortável	-11.8103
▁desperdiça	-11.8103
▁drought	-11.8103
▁immigrant	-11.8103
▁magnético	-11.8103
▁mechanics	-11.8103
▁supermercado	-11.8103
▁típico	-11.8103
▁abrandar	-11.8103
▁ideologia	-11.8103
▁immense	-11.8103
▁tragedy	-11.8103
▁heaven	-11.8103
▁direcção	-11.8103
▁burden	-11.8103
▁pacote	-11.8103
sucedida	-11.8103
íssima	-11.8104
▁arranca	-11.8104
▁density	-11.8104
▁peritos	-11.8104
▁shopping	-11.8105
▁General	-11.8106
▁bombarde	-11.8107
▁borda	-11.8107
▁etnia	-11.8107
▁comecem	-11.8108
▁justifica	-11.8168
_	-11.8228
utonomous	-11.8228
voluntari	-11.8228
▁Prémio	-11.8228
▁crânio	-11.8228
▁desperately	-11.8228
▁episódio	-11.8228
▁fórmula	-11.8228
▁papéis	-11.8228
▁sandwich	-11.8228
▁janeiro	-11.8228
▁prisões	-11.8228
▁reflete	-11.8228
▁signature	-11.8228
▁twist	-11.8228
▁annual	-11.8228
▁adjust	-11.8229
▁sólido	-11.8231
▁Things	-11.8231
▁desenvolvida	-11.8234
▁consent	-11.8249
stream	-11.8266
▁App	-11.8297
▁saud	-11.8335
▁infeliz	-11.8349
▁Atlantic	-11.8355
▁Etiópia	-11.8355
▁Nairobi	-11.8355
▁Obviously	-11.8355
▁aggressive	-11.8355
▁alcohol	-11.8355
▁desconhecida	-11.8355
▁symmetry	-11.8355
▁Civil	-11.8355
▁aconselha	-11.8355
▁refeição	-11.8355
▁fought	-11.8355
▁woke	-11.8355
▁Criámos	-11.8355
▁Secret	-11.8355
▁Sarah	-11.8355
▁enhance	-11.8355
▁plain	-11.8355
▁burst	-11.8355
▁worm	-11.8356
▁embarc	-11.8365
▁coloniz	-11.8369
▁varie	-11.8405
Without	-11.8442
▁anuncia	-11.8455
Okay	-11.8465
found	-11.8471
▁lenta	-11.8478
scrito	-11.8479
▁Continua	-11.8483
▁comunitário	-11.8483
▁helicóptero	-11.8483
▁lágrimas	-11.8483
▁nonprofit	-11.8483
▁rhythm	-11.8483
▁sofisticada	-11.8483
▁subjacente	-11.8483
▁Ártico	-11.8483
▁ícone	-11.8483
▁Charlie	-11.8483
▁celular	-11.8483
▁legacy	-11.8483
▁clothing	-11.8483
▁fifth	-11.8483
▁intimate	-11.8483
▁aérea	-11.8483
▁sensation	-11.8483
▁hidro	-11.8483
▁Pouco	-11.8483
▁novidade	-11.8483
▁spell	-11.8484
▁Devemos	-11.8484
▁Voice	-11.8485
▁assets	-11.8486
▁atraí	-11.8488
▁paralisa	-11.8509
▁compose	-11.851
school	-11.8595
second	-11.8596
▁recolhi	-11.8613
▁smooth	-11.8613
sufficient	-11.8613
▁Kevin	-11.8613
▁contêm	-11.8613
▁declínio	-11.8613
▁energética	-11.8613
▁enforcement	-11.8613
▁estigma	-11.8613
▁estímulo	-11.8613
▁facility	-11.8613
▁frigorífico	-11.8613
▁inovações	-11.8613
▁joelho	-11.8613
▁psicológica	-11.8613
▁reproducti	-11.8613
▁sacrifice	-11.8613
▁sofisticado	-11.8613
▁terrestre	-11.8613
▁trajetória	-11.8613
▁tsunami	-11.8613
▁Ruanda	-11.8613
▁descobre	-11.8613
▁exigência	-11.8613
▁fraction	-11.8613
▁Natural	-11.8613
▁macro	-11.8613
▁inherit	-11.8613
placing	-11.8613
▁informed	-11.8614
▁surf	-11.8622
▁pulse	-11.8623
▁vigia	-11.8625
▁neurónio	-11.8673
dollar	-11.8728
cientific	-11.8739
▁exponencial	-11.8744
▁aleatória	-11.8744
▁Business	-11.8744
▁ISIS	-11.8744
▁Michigan	-11.8744
▁Recentemente	-11.8744
▁abundância	-11.8744
▁aesthetic	-11.8744
▁assassino	-11.8744
▁categories	-11.8744
▁distrito	-11.8744
▁happier	-11.8744
▁indigenous	-11.8744
▁minúscula	-11.8744
▁penguin	-11.8744
▁Começou	-11.8744
▁automática	-11.8744
▁propriamente	-11.8744
▁microbial	-11.8744
▁clicar	-11.8744
▁Donald	-11.8745
▁doloroso	-11.8745
▁column	-11.8745
▁Norden	-11.8745
▁buried	-11.8745
▁ecológica	-11.8745
▁innocent	-11.8745
▁autista	-11.8745
▁assemble	-11.8745
▁empresta	-11.8745
▁intervalo	-11.8745
▁casual	-11.8745
▁divertir	-11.8745
▁laços	-11.8746
▁compromete	-11.8746
▁seleção	-11.8746
▁session	-11.8747
▁racist	-11.8762
▁socio	-11.8782
rganização	-11.8792
▁desenvolv	-11.8835
▁Shakespeare	-11.8878
▁Spanish	-11.8878
▁currency	-11.8878
▁dictionary	-11.8878
▁envelope	-11.8878
▁facilities	-11.8878
▁indígena	-11.8878
▁initiative	-11.8878
▁móveis	-11.8878
▁provém	-11.8878
▁pulmão	-11.8878
▁rituais	-11.8878
▁simplific	-11.8878
▁spectacular	-11.8878
▁stomach	-11.8878
▁yield	-11.8878
▁zumbido	-11.8878
▁probability	-11.8878
desesperadamente	-11.8878
▁Blue	-11.8878
▁propaganda	-11.8878
▁urgência	-11.8878
▁prótese	-11.8878
▁terrifying	-11.8878
▁espinal	-11.8878
▁amarela	-11.8878
▁morrido	-11.8878
▁Soviet	-11.8878
▁nutrientes	-11.8878
▁seemingly	-11.8878
▁aparência	-11.8878
▁esperto	-11.8878
▁maluco	-11.8878
▁afterwards	-11.8878
▁parcial	-11.8879
▁despesas	-11.8879
▁rabbi	-11.8879
▁Acaba	-11.8879
▁gelado	-11.8879
▁flaw	-11.8879
▁secular	-11.888
▁sharp	-11.8882
▁Passo	-11.8897
ítica	-11.8909
atomic	-11.8965
tecnologia	-11.8995
▁unconscious	-11.9013
▁1984	-11.9013
▁1996	-11.9013
▁Arizona	-11.9013
▁Entretanto	-11.9013
▁Internacional	-11.9013
▁advertising	-11.9013
▁astrónomo	-11.9013
▁breakthrough	-11.9013
▁carácter	-11.9013
▁flexible	-11.9013
▁hemisfério	-11.9013
▁recipient	-11.9013
▁resíduos	-11.9013
▁structural	-11.9013
▁Pergunta	-11.9013
▁encrypt	-11.9013
▁possui	-11.9013
▁Third	-11.9013
▁creator	-11.9013
▁Cinco	-11.9013
▁direções	-11.9013
▁ethnic	-11.9013
▁mainstream	-11.9013
▁kiss	-11.9014
▁barrel	-11.9014
▁derrete	-11.9025
patia	-11.9037
▁recupera	-11.9128
▁October	-11.915
▁astronomer	-11.915
▁descrição	-11.915
▁diminuí	-11.915
▁doméstica	-11.915
▁drasticamente	-11.915
▁esqueçam	-11.915
▁excitement	-11.915
▁hypothesis	-11.915
▁improvável	-11.915
▁juventude	-11.915
▁pixel	-11.915
▁protegida	-11.915
▁subúrbio	-11.915
▁típica	-11.915
▁CMU	-11.915
▁crystal	-11.915
▁incomoda	-11.915
▁mysterious	-11.915
▁pizza	-11.915
▁shrink	-11.915
▁utilizá	-11.915
▁primarily	-11.915
▁tradução	-11.915
▁Funciona	-11.915
▁Diego	-11.915
▁funeral	-11.915
▁upload	-11.915
▁increment	-11.915
▁inúmer	-11.915
▁leões	-11.915
▁Coloca	-11.9151
▁Nepal	-11.9151
▁skate	-11.9151
▁remota	-11.9151
▁torture	-11.9157
▁reator	-11.9158
▁acende	-11.9186
ministra	-11.9209
▁astonishing	-11.9289
▁autónomo	-11.9289
▁confortáveis	-11.9289
▁flourish	-11.9289
▁helicopter	-11.9289
▁invulgar	-11.9289
▁túnel	-11.9289
▁vulnerability	-11.9289
▁índice	-11.9289
▁College	-11.9289
▁Dylan	-11.9289
▁LHC	-11.9289
▁cartune	-11.9289
▁inglesa	-11.9289
▁intensidade	-11.9289
▁liberais	-11.9289
▁stigma	-11.9289
▁camião	-11.9289
▁consoante	-11.9289
▁subitamente	-11.9289
▁sensíveis	-11.9289
▁mutações	-11.9289
▁Eastern	-11.9289
▁basebol	-11.9289
▁carrinha	-11.9289
▁terrified	-11.9289
▁broadcast	-11.9289
▁reflexo	-11.9289
▁dilema	-11.9289
▁copyright	-11.9289
▁relva	-11.929
▁russo	-11.9291
▁orgasm	-11.9293
Listen	-11.9309
mayor	-11.9311
efficient	-11.9411
Ó	-11.943
▁DVD	-11.943
▁Mountain	-11.943
▁aterroriza	-11.943
▁catástrofe	-11.943
▁clássica	-11.943
▁counsel	-11.943
▁desencade	-11.943
▁egípcio	-11.943
▁estereótipo	-11.943
▁extension	-11.943
▁glaciar	-11.943
▁incapacidade	-11.943
▁menstrua	-11.943
▁pulmões	-11.943
▁reducing	-11.943
▁Friday	-11.943
▁agulha	-11.943
▁ficheiro	-11.943
▁smoking	-11.943
▁transaction	-11.943
▁corrigir	-11.943
▁infinito	-11.943
▁globo	-11.943
▁purchase	-11.943
▁tanque	-11.943
▁leverage	-11.943
▁metric	-11.943
▁horário	-11.943
▁sync	-11.943
▁àquela	-11.943
▁pressiona	-11.9435
▁shore	-11.9506
known	-11.9552
income	-11.9555
▁absoluta	-11.9567
▁experienci	-11.9571
▁McDonald	-11.9572
+	-11.9572
▁Antártida	-11.9572
▁Bruno	-11.9572
▁Carnegie	-11.9572
▁December	-11.9572
▁Journal	-11.9572
▁académica	-11.9572
▁ansioso	-11.9572
▁arquitectura	-11.9572
▁autoestrada	-11.9572
▁cognitivo	-11.9572
▁curriculum	-11.9572
▁democrático	-11.9572
▁enterprise	-11.9572
▁envergonha	-11.9572
▁essenciais	-11.9572
▁estômago	-11.9572
▁feminino	-11.9572
▁gasolina	-11.9572
▁magnética	-11.9572
▁muçulmana	-11.9572
▁pescoço	-11.9572
▁possuem	-11.9572
▁semelhança	-11.9572
▁simultaneously	-11.9572
▁Kansas	-11.9572
▁improving	-11.9572
▁Minister	-11.9572
▁Parecia	-11.9573
▁anticipate	-11.9573
▁bizarre	-11.9573
▁expertise	-11.9573
▁isolamento	-11.9573
▁harness	-11.9573
▁awake	-11.9573
morph	-11.963
▁atravess	-11.9654
nunciar	-11.9704
▁1994	-11.9717
▁Although	-11.9717
▁Argentina	-11.9717
▁Bitcoin	-11.9717
▁anatomia	-11.9717
▁aptidões	-11.9717
▁category	-11.9717
▁collaborator	-11.9717
▁comparison	-11.9717
▁compromise	-11.9717
▁disabilities	-11.9717
▁endereço	-11.9717
▁escravatura	-11.9717
▁expansion	-11.9717
▁fabulous	-11.9717
▁genuine	-11.9717
▁glucose	-11.9717
▁lacuna	-11.9717
▁masculina	-11.9717
▁syndrome	-11.9717
▁vegetais	-11.9717
▁escaravelho	-11.9717
▁especula	-11.9717
▁Brother	-11.9717
▁indícios	-11.9717
▁prolifera	-11.9717
▁monstro	-11.9717
▁serotonin	-11.9717
▁contigo	-11.9717
▁Venus	-11.9717
▁esquema	-11.9718
▁vendido	-11.9718
▁engoli	-11.9718
▁animação	-11.9718
▁Conheci	-11.9718
▁rigid	-11.9718
▁fruto	-11.9718
▁temple	-11.9719
▁declare	-11.972
Encontr	-11.9722
cellular	-11.9733
ítico	-11.9764
Espere	-11.9771
▁estreita	-11.9864
▁Public	-11.9864
▁Should	-11.9864
▁accuracy	-11.9864
▁cegueira	-11.9864
▁concebida	-11.9864
▁constroem	-11.9864
▁contemporary	-11.9864
▁deprimido	-11.9864
▁describing	-11.9864
▁dictator	-11.9864
▁egoísta	-11.9864
▁erradic	-11.9864
▁frequency	-11.9864
▁furniture	-11.9864
▁grandparents	-11.9864
▁imunitário	-11.9864
▁juvenil	-11.9864
▁limpeza	-11.9864
▁maciça	-11.9864
▁primitive	-11.9864
▁prosthetic	-11.9864
▁proveniente	-11.9864
▁razoável	-11.9864
▁sketch	-11.9864
▁telefónica	-11.9864
▁threshold	-11.9864
▁tóxico	-11.9864
▁visceral	-11.9864
▁clarity	-11.9864
▁collaborate	-11.9864
▁entendimento	-11.9864
▁garantia	-11.9864
▁thumb	-11.9864
▁Miguel	-11.9864
▁assinatura	-11.9864
▁orgânica	-11.9864
▁unfold	-11.9864
▁Conselho	-11.9864
▁assault	-11.9864
▁heritage	-11.9864
▁levantou	-11.9864
▁employment	-11.9865
▁Explo	-11.9865
▁default	-11.9865
▁ELA	-11.9865
▁grego	-11.9865
▁fechada	-11.9865
▁conheça	-11.9865
▁Victor	-11.9865
▁sauce	-11.9865
▁texture	-11.9866
▁espanta	-11.9869
▁Tibet	-11.9871
▁percorre	-11.9893
screvemos	-11.9931
▁Child	-12.0013
Jeopardy	-12.0014
▁anatomy	-12.0014
▁biodiversidade	-12.0014
▁capabilities	-12.0014
▁distinguish	-12.0014
▁espanhol	-12.0014
▁fragile	-12.0014
▁francamente	-12.0014
▁gradually	-12.0014
▁iPad	-12.0014
▁metabolism	-12.0014
▁móvel	-12.0014
▁pirâmide	-12.0014
▁quimioterapia	-12.0014
▁resilient	-12.0014
▁screw	-12.0014
▁simultaneamente	-12.0014
▁suicídio	-12.0014
▁Quatro	-12.0014
▁compelling	-12.0014
▁receiving	-12.0014
▁Mozart	-12.0014
▁esclarec	-12.0014
▁tradições	-12.0014
▁workforce	-12.0014
▁máscara	-12.0014
▁primavera	-12.0014
▁tijolo	-12.0014
▁conceção	-12.0014
▁generous	-12.0014
▁engano	-12.0014
▁gigantesca	-12.0015
▁cheer	-12.0015
▁meteor	-12.0015
▁surto	-12.0016
▁partilhá	-12.0016
blockchain	-12.0016
▁dissolve	-12.0018
▁exerce	-12.0018
▁vinda	-12.002
▁pusemo	-12.0036
special	-12.0061
▁externa	-12.0066
keeper	-12.0118
▁centra	-12.0144
tivéssemos	-12.0147
▁lembre	-12.0163
préstimo	-12.0164
▁Academy	-12.0165
▁Turquia	-12.0165
▁aircraft	-12.0165
▁ambitious	-12.0165
▁conseguíssemos	-12.0165
▁entretenimento	-12.0165
▁estúpida	-12.0165
▁estúpido	-12.0165
▁inquérito	-12.0165
▁pregnancy	-12.0165
▁primária	-12.0165
▁pyramid	-12.0165
▁reprodução	-12.0165
▁resilience	-12.0165
▁ridículo	-12.0165
▁superficial	-12.0165
▁vantagens	-12.0165
▁Canadian	-12.0165
▁Percebi	-12.0165
▁demographic	-12.0165
▁minimum	-12.0165
▁Fizeram	-12.0165
▁despair	-12.0165
▁warrior	-12.0165
▁pensávamos	-12.0165
▁virtue	-12.0165
▁denomina	-12.0166
▁derrota	-12.0166
ésimo	-12.0166
▁poliniza	-12.017
▁reclama	-12.017
duzimos	-12.0287
looking	-12.0301
▁promete	-12.0303
▁exhibit	-12.0312
▁Department	-12.0319
▁Holocaust	-12.0319
▁Taliban	-12.0319
▁Vancouver	-12.0319
▁confusa	-12.0319
▁heroína	-12.0319
▁japonês	-12.0319
▁milénio	-12.0319
▁mobility	-12.0319
▁reinforce	-12.0319
▁stereotype	-12.0319
▁storytelling	-12.0319
▁suspeito	-12.0319
▁reimagin	-12.0319
▁sintética	-12.0319
▁tattoo	-12.0319
▁miúda	-12.0319
▁intended	-12.0319
▁whatsoever	-12.0319
▁limiar	-12.0319
▁sensível	-12.0319
▁exclusiva	-12.0319
▁bilhete	-12.0319
▁dolorosa	-12.0319
▁manuais	-12.0319
▁IBM	-12.032
▁clique	-12.032
▁Imagin	-12.0352
abrigo	-12.0457
Agora	-12.0457
write	-12.0472
#	-12.0475
▁1989	-12.0475
▁Indonesia	-12.0475
▁Oklahoma	-12.0475
▁absoluto	-12.0475
▁acessíveis	-12.0475
▁commission	-12.0475
▁enfermeiro	-12.0475
▁episode	-12.0475
▁imigração	-12.0475
▁immigration	-12.0475
▁jeans	-12.0475
▁persuade	-12.0475
▁tuberculose	-12.0475
▁unprecedented	-12.0475
▁Elizabeth	-12.0475
▁circun	-12.0475
▁homicídio	-12.0475
▁sintetiza	-12.0475
▁cocaine	-12.0475
▁galeria	-12.0475
▁otimismo	-12.0475
▁archive	-12.0475
▁Deixa	-12.0475
▁namorada	-12.0475
▁inhabit	-12.0475
eanwhile	-12.0475
▁preparing	-12.0475
▁grelha	-12.0475
destruct	-12.0475
▁finais	-12.0476
▁enviá	-12.0476
▁perpetua	-12.0476
▁carrinho	-12.0476
▁suspend	-12.0477
▁copiar	-12.0479
script	-12.0482
invasive	-12.0492
grand	-12.0562
world	-12.0616
culture	-12.0616
almoço	-12.0616
▁chegue	-12.0621
▁Tribunal	-12.0634
▁assistance	-12.0634
▁automobile	-12.0634
▁autonomia	-12.0634
▁coordinate	-12.0634
▁devastating	-12.0634
▁dilemma	-12.0634
▁extraterrestre	-12.0634
▁farmacêutica	-12.0634
▁glacier	-12.0634
▁identities	-12.0634
▁idêntico	-12.0634
▁protegido	-12.0634
▁satisfeito	-12.0634
▁solucionar	-12.0634
▁supostamente	-12.0634
▁tropicais	-12.0634
▁alavanca	-12.0634
▁aparecia	-12.0634
▁disponibiliz	-12.0634
▁censura	-12.0634
▁descarreg	-12.0634
▁drift	-12.0634
▁inspirou	-12.0634
▁tambor	-12.0634
▁located	-12.0634
▁medicação	-12.0634
▁junho	-12.0634
▁absence	-12.0634
▁pioneiro	-12.0634
▁reparei	-12.0634
▁exclusive	-12.0634
▁memoriza	-12.0634
▁lesão	-12.0634
▁mobiliza	-12.0634
▁Work	-12.0635
quarters	-12.0707
▁poupa	-12.0711
▁yell	-12.0795
▁Alabama	-12.0795
▁February	-12.0795
▁Special	-12.0795
▁arrependimento	-12.0795
▁beneath	-12.0795
▁collision	-12.0795
▁cooperate	-12.0795
▁genocídio	-12.0795
▁industriais	-12.0795
▁injured	-12.0795
▁mecânico	-12.0795
▁mínima	-12.0795
▁orfanato	-12.0795
▁oxitocina	-12.0795
▁pharmaceutical	-12.0795
▁raciocínio	-12.0795
▁satisfação	-12.0795
▁seleciona	-12.0795
▁testemunho	-12.0795
▁unbelievable	-12.0795
▁inesperado	-12.0795
▁Abraham	-12.0795
▁statue	-12.0795
▁Façam	-12.0795
▁swallow	-12.0795
▁reliable	-12.0795
▁silver	-12.0795
▁strand	-12.0795
▁prédio	-12.0796
▁Water	-12.0796
antropo	-12.0802
absor	-12.0813
▁aplicá	-12.0831
Wait	-12.0857
▁agricultor	-12.0947
▁refugia	-12.0954
▁Perguntei	-12.0959
▁1997	-12.0959
▁Jersey	-12.0959
▁Lincoln	-12.0959
▁SETI	-12.0959
▁Stewart	-12.0959
▁abrangente	-12.0959
▁aglomerado	-12.0959
▁cigarette	-12.0959
▁encouraging	-12.0959
▁fizéssemos	-12.0959
▁hambúrguer	-12.0959
▁impulsiona	-12.0959
▁leopard	-12.0959
▁maratona	-12.0959
▁metropolitan	-12.0959
▁oxytocin	-12.0959
▁straightforward	-12.0959
▁surgical	-12.0959
▁venture	-12.0959
▁álcool	-12.0959
▁contradiction	-12.0959
▁eBay	-12.0959
▁rubber	-12.0959
▁licencia	-12.0959
▁Aprendemos	-12.0959
▁activism	-12.0959
▁slogan	-12.0959
▁suburban	-12.0959
▁esperma	-12.0959
▁tronco	-12.0959
▁Naquele	-12.0959
▁harsh	-12.0959
▁Oliver	-12.096
▁neutro	-12.096
▁espetador	-12.096
▁confundi	-12.096
▁isolada	-12.0961
▁blend	-12.0964
▁generic	-12.0991
=	-12.1126
▁Amazónia	-12.1126
▁Connecticut	-12.1126
▁Shanghai	-12.1126
▁Simplesmente	-12.1126
▁Sydney	-12.1126
▁Teszler	-12.1126
▁abastecimento	-12.1126
▁aleatório	-12.1126
▁biodiversity	-12.1126
▁desflorestação	-12.1126
▁earliest	-12.1126
▁embarrassing	-12.1126
▁impressive	-12.1126
▁introduction	-12.1126
▁millennia	-12.1126
▁phantom	-12.1126
▁precision	-12.1126
▁primitivo	-12.1126
▁suspeita	-12.1126
▁humilde	-12.1126
▁produtiva	-12.1126
▁striking	-12.1126
▁unfair	-12.1126
▁camisa	-12.1126
▁mamografia	-12.1126
▁Segunda	-12.1126
▁barriga	-12.1126
▁incentiva	-12.1126
▁volcan	-12.1126
▁deteriora	-12.1126
prehensi	-12.1126
▁lonely	-12.1126
▁estética	-12.1126
▁antecipa	-12.1126
▁comédia	-12.1126
▁virgin	-12.1126
▁hub	-12.1126
▁mutação	-12.1126
▁Larry	-12.1126
▁caverna	-12.1126
▁therapist	-12.1126
▁feminism	-12.1127
Escreve	-12.1127
▁enrola	-12.1127
▁denuncia	-12.1128
▁procurá	-12.1129
▁juntá	-12.1135
▁esperem	-12.1149
▁hydro	-12.1194
Aprende	-12.1228
effective	-12.1277
▁consumidor	-12.1284
▁Cambodia	-12.1295
▁Certamente	-12.1295
▁Council	-12.1295
▁Flórida	-12.1295
▁Magazine	-12.1295
▁Organization	-12.1295
▁Portugal	-12.1295
▁Saturday	-12.1295
▁Setembro	-12.1295
▁Terceiro	-12.1295
▁assignment	-12.1295
▁chemotherapy	-12.1295
▁cirurgiões	-12.1295
▁constrói	-12.1295
▁dezembro	-12.1295
▁dopamina	-12.1295
▁energético	-12.1295
▁esquizofrenia	-12.1295
▁genocide	-12.1295
▁gratuito	-12.1295
▁hallucination	-12.1295
▁jewel	-12.1295
▁lançou	-12.1295
▁quotidiana	-12.1295
▁recognizing	-12.1295
▁rígido	-12.1295
▁sujeita	-12.1295
▁trajectory	-12.1295
▁valiosa	-12.1295
▁1975	-12.1295
▁believing	-12.1295
▁ideology	-12.1295
▁irregular	-12.1295
▁reflexão	-12.1295
▁terribly	-12.1295
▁vacuum	-12.1295
▁Natasha	-12.1295
▁lenço	-12.1295
▁cheese	-12.1295
▁percebam	-12.1295
▁restrições	-12.1295
▁fornecimento	-12.1295
▁revelou	-12.1295
▁previsto	-12.1295
▁sincroni	-12.1295
▁tolerância	-12.1295
▁Itália	-12.1295
▁computação	-12.1295
▁crawl	-12.1296
▁memorial	-12.1296
▁humanitário	-12.1296
▁pathogen	-12.1296
▁executivo	-12.1296
▁Julian	-12.1296
▁veneno	-12.1296
▁rigorosa	-12.1296
▁Estudo	-12.1296
▁compact	-12.13
métrico	-12.1304
ilhões	-12.1308
scrições	-12.1323
grafia	-12.1353
flui	-12.1411
▁Constitu	-12.143
engineer	-12.145
social	-12.145
▁Francis	-12.1463
▁silenciosa	-12.1468
▁Atlântico	-12.1468
▁Babbage	-12.1468
▁Joshua	-12.1468
▁Kosovo	-12.1468
▁Oriental	-12.1468
▁Palestinian	-12.1468
▁Samuel	-12.1468
▁Suddenly	-12.1468
▁Sylvia	-12.1468
▁clareza	-12.1468
▁conseguíamos	-12.1468
▁deforestation	-12.1468
▁dígitos	-12.1468
▁exoplanet	-12.1468
▁expedition	-12.1468
▁fogueira	-12.1468
▁fármaco	-12.1468
▁horríveis	-12.1468
▁incluem	-12.1468
▁intelectuais	-12.1468
▁leaf	-12.1468
▁recycling	-12.1468
▁spontaneous	-12.1468
▁transmission	-12.1468
▁voltámos	-12.1468
▁Encontrámos	-12.1468
▁Oakland	-12.1468
▁exposure	-12.1468
▁paciência	-12.1468
▁pressuposto	-12.1468
▁produtivo	-12.1468
▁strict	-12.1468
▁zangado	-12.1468
áculo	-12.1468
▁destiny	-12.1468
▁Craig	-12.1468
▁fortune	-12.1468
▁mesquita	-12.1468
▁repensar	-12.1468
▁dopamine	-12.1468
▁juiz	-12.1468
▁defensor	-12.1468
▁condução	-12.1468
▁Dutch	-12.1468
▁dupla	-12.1468
▁roubo	-12.1468
▁admire	-12.1468
▁estabiliza	-12.1469
▁externo	-12.147
▁refine	-12.1499
sistimos	-12.1501
▁democrat	-12.1534
driven	-12.1562
Porquê	-12.1625
Talvez	-12.1625
▁imediata	-12.1638
▁Baltimore	-12.1643
▁Espanha	-12.1643
▁Hawking	-12.1643
▁Primeira	-12.1643
▁System	-12.1643
▁Xangai	-12.1643
▁acampamento	-12.1643
▁aperfeiçoa	-12.1643
▁apropriada	-12.1643
▁drunk	-12.1643
▁engraçada	-12.1643
▁excellent	-12.1643
▁finanças	-12.1643
▁incapaz	-12.1643
▁instrução	-12.1643
▁luxury	-12.1643
▁obtém	-12.1643
▁posterior	-12.1643
▁prescription	-12.1643
▁satisfazer	-12.1643
▁schizophrenia	-12.1643
▁submarino	-12.1643
▁supermarket	-12.1643
▁tráfego	-12.1643
▁ubiquitous	-12.1643
▁óssea	-12.1643
▁1945	-12.1643
▁1991	-12.1643
▁Twenty	-12.1643
▁cadáver	-12.1643
▁millimeter	-12.1643
▁valley	-12.1643
▁brilho	-12.1643
▁criteria	-12.1643
▁esboço	-12.1643
▁ambition	-12.1643
▁architectural	-12.1643
▁colonial	-12.1643
▁virtude	-12.1643
▁Sierra	-12.1643
▁disabled	-12.1643
▁linguist	-12.1643
▁crater	-12.1647
eastern	-12.1648
▁Comecem	-12.1672
▁estabelece	-12.1698
▁traduz	-12.1803
screen	-12.1804
▁impresso	-12.1809
▁'90	-12.1822
▁Guatemala	-12.1822
▁Medicina	-12.1822
▁Starbucks	-12.1822
▁Together	-12.1822
▁accumulate	-12.1822
▁apropriado	-12.1822
▁arranje	-12.1822
▁britânica	-12.1822
▁cerimónia	-12.1822
▁cocaína	-12.1822
▁estrangeira	-12.1822
▁fertilizante	-12.1822
▁genital	-12.1822
▁introdução	-12.1822
▁membrana	-12.1822
▁prateleira	-12.1822
▁primordial	-12.1822
▁radicais	-12.1822
▁sustentáveis	-12.1822
▁vestígio	-12.1822
▁vulnerável	-12.1822
▁yourselves	-12.1822
▁mágica	-12.1822
▁reutiliza	-12.1822
▁subsequent	-12.1822
▁desconfia	-12.1822
▁acoustic	-12.1822
▁candidata	-12.1822
▁historiador	-12.1822
▁historian	-12.1822
▁proposal	-12.1822
▁Kelly	-12.1822
▁enganar	-12.1822
▁vazia	-12.1822
▁teclado	-12.1822
▁drown	-12.1822
▁Spain	-12.1822
▁duplo	-12.1822
▁Permite	-12.1822
▁irriga	-12.1822
▁sublinh	-12.1828
▁amputa	-12.1829
▁appreciat	-12.1917
▁objetiva	-12.2004
▁Catholic	-12.2004
▁Government	-12.2004
▁Grécia	-12.2004
▁Linux	-12.2004
▁November	-12.2004
▁Technology	-12.2004
▁alucinações	-12.2004
▁approved	-12.2004
▁basketball	-12.2004
▁borracha	-12.2004
▁bronze	-12.2004
▁consentimento	-12.2004
▁embracing	-12.2004
▁endangered	-12.2004
▁entropia	-12.2004
▁expectancy	-12.2004
▁flexível	-12.2004
▁independência	-12.2004
▁milímetro	-12.2004
▁mushroom	-12.2004
▁obtêm	-12.2004
▁orchestra	-12.2004
▁pinguins	-12.2004
▁reciclagem	-12.2004
▁rótulo	-12.2004
▁sanduíche	-12.2004
▁sapiens	-12.2004
▁simplicidade	-12.2004
▁Georgia	-12.2004
▁Hawaii	-12.2004
▁embryo	-12.2004
▁manuscrito	-12.2004
▁triangle	-12.2004
▁Colorado	-12.2004
▁ativismo	-12.2004
▁possuí	-12.2004
▁reclaim	-12.2004
▁smiling	-12.2004
▁amazed	-12.2004
▁Holanda	-12.2004
▁julho	-12.2004
inistério	-12.2004
▁Passámos	-12.2004
▁paralisia	-12.2004
▁oculta	-12.2004
▁obtain	-12.2004
▁snake	-12.2004
▁Melhor	-12.2005
▁drain	-12.2005
▁presumi	-12.2009
generating	-12.202
▁sculpt	-12.2189
▁Afghan	-12.2189
▁Eventually	-12.2189
▁Fortune	-12.2189
▁Indonésia	-12.2189
▁aptidão	-12.2189
▁cardiovascular	-12.2189
▁contínuo	-12.2189
▁corajoso	-12.2189
▁dinâmico	-12.2189
▁enriquece	-12.2189
▁enzyme	-12.2189
▁evolutiva	-12.2189
▁frustration	-12.2189
▁frágil	-12.2189
▁institucional	-12.2189
▁jungle	-12.2189
▁marathon	-12.2189
^	-12.6012
à	-12.6272
è	-12.687
“	-12.7155
Í	-12.7173
ö	-12.7173
õ	-12.7631
ü	-12.7808
ā	-13.085
À	-13.2262
@	-13.2807
ï	-13.2807
	-13.3951
‘	-13.4576
€	-13.5957
ù	-13.7559
ë	-13.9468
	-14.0579
ä	-14.0579
Ã	-14.3258
ø	-14.4925
̋	-14.4925
ī	-14.6925
ì	-14.6925
Ê	-14.9425
ő	-14.9425
	-15.2758
š	-15.7758
}	-15.7758
«	-15.7758
»	-15.7758
È	-15.7758
î	-15.7758
Č	-15.7758
Ō	-15.7758
ū	-15.7758
⁄	-15.7758
ě	-15.7758
送	-16.7735
葱	-16.7736
你	-16.7737
ẽ	-16.7738
	-16.7739
°	-16.774
£	-16.7741
/	-16.7741
Ö	-16.7742
Ç	-16.7743
ʾ	-16.7744
ō	-16.7745
*	-16.7746
́	-16.7747
	-16.7748
Ú	-16.7749
Â	-16.775
ñ	-16.7751
–	-16.7752
”	-16.7753
$	-16.7754
’	-16.7755
[	-16.7756
(	-16.7757
û	-16.7758
{	-16.7758
	-16.7758
	-16.7758
¡	-16.7758
©	-16.7758
®	-16.7758
Ë	-16.7758
æ	-16.7758
ç	-16.7758
Ă	-16.7758
ă	-16.7758
ć	-16.7758
Ť	-16.7758
‚	-16.7758
