<s>	0
<pad>	0
</s>	0
<unk>	0
.	-3.12485
,	-3.16292
s	-3.72285
▁the	-4.09195
▁de	-4.33345
▁in	-4.36667
▁is	-4.4706
▁to	-4.50075
▁of	-4.50489
'	-4.52543
▁a	-4.62373
▁een	-4.69554
▁and	-4.69861
▁we	-4.73256
▁het	-4.7719
▁van	-4.86453
▁en	-4.87133
▁that	-4.87855
▁I	-4.9266
t	-4.98476
▁dat	-5.09416
en	-5.13453
▁you	-5.27198
▁it	-5.28817
e	-5.33482
▁te	-5.34033
▁je	-5.40282
▁was	-5.42395
▁ik	-5.51297
▁die	-5.54447
d	-5.61021
▁op	-5.61885
-	-5.63439
▁And	-5.64908
▁zijn	-5.66925
▁this	-5.67655
?	-5.71072
▁—	-5.73737
:	-5.73775
▁niet	-5.76134
ing	-5.76867
▁"	-5.79923
▁om	-5.84928
▁met	-5.8985
re	-5.90266
▁be	-5.9028
▁on	-5.90462
▁ze	-5.92397
▁voor	-5.93334
▁	-5.93762
▁for	-5.97461
▁We	-5.98676
ed	-6.0067
▁are	-6.04298
▁have	-6.0714
▁Ik	-6.07912
n	-6.08384
▁over	-6.10078
▁they	-6.11722
▁aan	-6.14498
▁als	-6.15193
▁with	-6.17401
er	-6.17686
▁er	-6.18927
▁me	-6.20009
▁can	-6.21395
▁So	-6.26834
▁Het	-6.29599
m	-6.30611
▁what	-6.31237
▁about	-6.32872
▁do	-6.40457
▁wat	-6.41178
▁not	-6.41945
▁all	-6.45409
▁at	-6.47165
▁maar	-6.48928
▁hebben	-6.49899
▁had	-6.51404
▁naar	-6.51674
▁dit	-6.52053
▁deze	-6.5294
de	-6.53816
▁as	-6.54881
)	-6.55349
▁dan	-6.55702
▁my	-6.56275
▁so	-6.57166
▁people	-6.5735
▁(	-6.59066
▁one	-6.59998
▁there	-6.60164
▁like	-6.60424
▁uit	-6.61507
ve	-6.62673
▁mijn	-6.634
▁from	-6.642
▁mensen	-6.64624
▁'	-6.65998
▁It	-6.66614
▁an	-6.67222
▁our	-6.69782
▁De	-6.70241
▁but	-6.70638
▁door	-6.70779
▁or	-6.70895
▁kunnen	-6.73409
▁En	-6.75359
y	-6.76356
▁just	-6.77733
ly	-6.77781
▁But	-6.82397
▁out	-6.83574
▁zo	-6.84377
r	-6.84843
▁if	-6.85744
▁these	-6.86888
▁ver	-6.87155
▁Maar	-6.87867
▁In	-6.88086
▁The	-6.88148
▁ons	-6.88283
▁kan	-6.88684
▁he	-6.89242
al	-6.89553
▁know	-6.90227
▁up	-6.91115
▁by	-6.91672
▁very	-6.92204
▁them	-6.94078
▁when	-6.94318
▁ook	-6.95357
▁more	-6.955
▁Ze	-6.96936
▁going	-6.97965
▁because	-6.98406
▁want	-6.98874
."	-6.99618
▁see	-7.01194
▁waar	-7.01942
▁who	-7.02912
▁their	-7.03669
▁think	-7.04668
▁your	-7.05956
▁hun	-7.0597
▁Dat	-7.06868
p	-7.06879
▁onze	-7.06924
▁were	-7.07367
a	-7.08078
▁Dit	-7.08087
▁doen	-7.08466
▁get	-7.08606
▁meer	-7.08857
▁how	-7.09025
▁us	-7.09704
▁bij	-7.09722
"	-7.10543
▁would	-7.10642
g	-7.11013
▁which	-7.12325
▁really	-7.13001
▁hoe	-7.13075
▁hij	-7.14097
▁zou	-7.15583
▁time	-7.15778
▁jaar	-7.16103
▁ge	-7.16163
▁geen	-7.16332
▁s	-7.16689
▁nog	-7.17753
k	-7.1859
▁zien	-7.18965
c	-7.19148
▁al	-7.21982
▁world	-7.2232
▁has	-7.24089
ll	-7.24228
▁nu	-7.24323
in	-7.25748
▁Als	-7.25993
te	-7.26119
le	-7.2639
▁don	-7.28447
▁Je	-7.2874
▁worden	-7.28828
▁here	-7.29004
▁This	-7.29245
▁wereld	-7.29461
▁some	-7.2989
f	-7.30328
▁into	-7.30897
▁way	-7.31511
▁veel	-7.32078
▁then	-7.33382
▁will	-7.33521
▁go	-7.35021
▁You	-7.35049
▁actually	-7.35443
▁where	-7.36038
ie	-7.36132
▁years	-7.36401
▁heeft	-7.36452
▁other	-7.37067
l	-7.37327
▁even	-7.38308
es	-7.38349
▁leven	-7.38366
o	-7.38559
▁hier	-7.39933
▁now	-7.39987
▁could	-7.40231
ers	-7.40492
▁make	-7.40526
▁things	-7.40994
▁gaan	-7.41161
▁maken	-7.41925
▁andere	-7.42095
▁tot	-7.42469
▁Now	-7.43007
▁iets	-7.43696
den	-7.44078
▁been	-7.44143
▁heb	-7.44428
▁They	-7.45023
u	-7.45962
st	-7.46236
▁no	-7.47015
▁re	-7.47298
▁moeten	-7.48838
ge	-7.49752
b	-7.49836
▁A	-7.50608
ten	-7.51168
or	-7.53793
▁Dus	-7.55191
▁said	-7.5586
▁than	-7.55924
▁right	-7.56203
▁jullie	-7.56833
▁something	-7.57481
;	-7.57989
▁those	-7.58629
▁her	-7.5867
ro	-7.58684
▁kind	-7.58697
▁af	-7.58969
it	-7.59567
w	-7.60335
▁two	-7.60362
ig	-7.60418
ar	-7.60676
▁first	-7.61032
▁dingen	-7.61352
el	-7.62166
h	-7.62168
▁much	-7.62327
▁ben	-7.62365
▁work	-7.63311
▁also	-7.63703
▁omdat	-7.63933
▁Hij	-7.64352
▁zoals	-7.64839
▁twee	-7.65109
i	-7.65255
▁thing	-7.66522
▁back	-7.666
▁gaat	-7.66857
▁Er	-7.67155
▁zich	-7.67968
▁look	-7.68191
▁wordt	-7.68307
▁echt	-7.68957
▁dus	-7.69238
▁zal	-7.6962
▁heel	-7.7019
ri	-7.70229
ken	-7.70627
▁say	-7.70729
▁got	-7.70854
▁she	-7.7086
▁need	-7.70999
▁little	-7.71576
▁wil	-7.71579
▁goed	-7.71751
Laughter	-7.71833
▁life	-7.71913
ic	-7.72189
ra	-7.72353
la	-7.72396
▁moet	-7.72498
▁waren	-7.7267
▁most	-7.73981
Gelach	-7.74203
▁only	-7.74244
▁S	-7.74369
▁Een	-7.74743
▁Wat	-7.74834
▁his	-7.7535
▁That	-7.7632
▁alleen	-7.76926
▁lot	-7.7747
an	-7.77721
▁many	-7.7871
▁take	-7.79265
▁tijd	-7.80431
▁werd	-7.80795
▁één	-7.80912
▁na	-7.81303
▁daar	-7.81386
▁wel	-7.81395
▁zei	-7.81416
ur	-7.81434
▁onder	-7.8182
▁haar	-7.81855
▁eerste	-7.83711
eren	-7.83989
▁new	-7.84191
▁water	-7.84799
ste	-7.84833
▁He	-7.85033
on	-7.85228
lo	-7.85365
ation	-7.85505
be	-7.86192
▁did	-7.86699
▁good	-7.87112
▁mij	-7.87524
▁around	-7.87664
▁-	-7.88322
▁different	-7.89088
▁What	-7.90268
▁alle	-7.91021
us	-7.92589
ver	-7.932
▁down	-7.93318
▁There	-7.93873
▁man	-7.9496
ion	-7.95011
th	-7.95238
▁every	-7.96285
heid	-7.97018
▁k	-7.97031
▁use	-7.9772
▁through	-7.97858
▁same	-7.98467
▁denk	-7.99093
▁come	-7.99693
ch	-8.00628
S	-8.00797
?"	-8.00839
▁werk	-8.01717
▁being	-8.01879
▁zeggen	-8.02143
▁laten	-8.02545
▁per	-8.03112
▁manier	-8.03462
▁day	-8.04453
▁school	-8.04579
▁land	-8.0604
▁komen	-8.06216
▁moment	-8.06324
▁allemaal	-8.06469
▁10	-8.06758
▁tegen	-8.074
▁terug	-8.07523
▁put	-8.07937
▁weten	-8.0844
▁hele	-8.09031
▁data	-8.09598
se	-8.09606
▁wij	-8.10231
il	-8.10262
▁E	-8.10301
▁weet	-8.1056
▁doing	-8.10672
▁grote	-8.10959
▁three	-8.11264
▁hand	-8.11394
gen	-8.11543
▁soort	-8.11558
▁kinderen	-8.12454
v	-8.12586
▁C	-8.12712
ren	-8.12827
li	-8.12936
▁hem	-8.12974
▁human	-8.1338
ter	-8.13579
▁nieuwe	-8.13624
▁If	-8.13677
ment	-8.14517
at	-8.14542
▁toen	-8.15082
▁kon	-8.15238
▁percent	-8.15267
A	-8.15601
▁dag	-8.15923
ce	-8.16083
▁nodig	-8.16113
▁B	-8.16159
▁20	-8.1644
op	-8.16484
▁any	-8.16614
▁tell	-8.16836
▁denken	-8.16983
▁T	-8.17284
▁called	-8.17489
ive	-8.17804
▁zouden	-8.18028
▁well	-8.18064
▁start	-8.18544
▁talk	-8.18568
ne	-8.19073
I	-8.19307
▁own	-8.1994
▁made	-8.20245
▁fact	-8.20297
▁hadden	-8.20865
▁find	-8.21033
▁willen	-8.21734
▁change	-8.21769
▁zelfs	-8.22202
ma	-8.22231
▁drie	-8.22263
▁should	-8.22489
▁Well	-8.22939
▁year	-8.23735
▁let	-8.24016
▁why	-8.24053
▁part	-8.24531
▁erg	-8.25382
▁mee	-8.25706
▁samen	-8.26035
▁didn	-8.26196
▁idea	-8.26358
▁last	-8.27838
▁toe	-8.27874
me	-8.28407
▁komt	-8.28467
▁net	-8.28539
▁gebruiken	-8.28677
▁geven	-8.28699
ol	-8.28969
je	-8.29098
▁elkaar	-8.29219
▁staat	-8.29317
▁today	-8.29345
is	-8.2942
▁misschien	-8.2983
!	-8.29945
▁after	-8.30189
▁ga	-8.30464
▁weg	-8.3048
▁thought	-8.30597
atie	-8.30602
pen	-8.30774
ul	-8.30987
▁started	-8.31197
▁Deze	-8.31217
▁great	-8.31249
der	-8.31275
▁open	-8.31954
▁alles	-8.32085
C	-8.32318
▁idee	-8.32606
na	-8.33318
▁g	-8.33469
▁e	-8.33503
▁might	-8.33597
▁paar	-8.33689
▁problem	-8.33766
▁later	-8.33877
▁iemand	-8.34756
▁ziet	-8.3486
▁werken	-8.34926
▁better	-8.35099
est	-8.35123
bo	-8.35153
▁zullen	-8.35242
▁krijgen	-8.35615
▁vinden	-8.35765
▁before	-8.35827
ven	-8.36109
▁kleine	-8.36401
▁gewoon	-8.36638
▁give	-8.37029
▁still	-8.37043
▁never	-8.37298
▁hebt	-8.37371
▁un	-8.37486
▁long	-8.37782
▁eigen	-8.38127
▁bit	-8.38226
▁zelf	-8.38262
▁brain	-8.38359
▁ging	-8.38485
▁important	-8.386
▁nooit	-8.38608
able	-8.38861
▁off	-8.38892
▁big	-8.39134
ity	-8.39594
ling	-8.39708
▁went	-8.39723
▁kunt	-8.39751
D	-8.39818
▁tussen	-8.39868
▁system	-8.39874
▁plaats	-8.39934
▁P	-8.40033
to	-8.40551
▁weer	-8.40556
▁vraag	-8.40853
id	-8.4105
▁place	-8.41255
▁hen	-8.41294
▁deel	-8.41646
▁real	-8.41661
▁keer	-8.41897
▁kijken	-8.41946
▁show	-8.42085
▁together	-8.42316
▁able	-8.42407
x	-8.42543
▁another	-8.42992
▁few	-8.43155
no	-8.43385
▁Hier	-8.43762
▁probleem	-8.44055
▁course	-8.44154
▁hard	-8.44182
ci	-8.4465
▁help	-8.44743
ad	-8.44768
om	-8.44917
▁Toen	-8.45052
ta	-8.45116
▁binnen	-8.45299
▁him	-8.4556
▁altijd	-8.45883
▁project	-8.45902
nen	-8.46041
▁Hoe	-8.46218
▁story	-8.46287
mo	-8.464
▁zeer	-8.46563
▁Op	-8.46593
▁best	-8.46697
▁steeds	-8.46863
ha	-8.46898
▁New	-8.46923
▁came	-8.46976
▁ago	-8.47414
▁next	-8.47642
▁v	-8.47657
▁geleden	-8.47659
age	-8.4775
man	-8.47901
ke	-8.48087
▁b	-8.48128
▁computer	-8.4822
im	-8.48239
ist	-8.48301
▁live	-8.48664
▁G	-8.48832
▁jaren	-8.48838
▁found	-8.48864
▁When	-8.49466
▁love	-8.49637
▁each	-8.49989
▁pro	-8.50041
▁anders	-8.50067
nt	-8.50344
▁men	-8.50349
▁too	-8.50696
▁Nu	-8.50977
▁zonder	-8.51132
▁question	-8.51163
▁mean	-8.51278
len	-8.5143
▁elke	-8.51543
▁zij	-8.51624
▁verhaal	-8.52019
▁c	-8.52348
▁auto	-8.52593
▁does	-8.52636
ische	-8.53254
▁used	-8.53336
M	-8.53656
▁verschillende	-8.5376
▁vrouwen	-8.53775
▁women	-8.53806
▁again	-8.53858
▁U	-8.53987
▁point	-8.54062
▁call	-8.54354
▁Zo	-8.54643
ir	-8.54656
▁beter	-8.54684
...	-8.54931
ek	-8.55093
ies	-8.55286
ze	-8.56258
ting	-8.56409
▁between	-8.56416
▁end	-8.56566
▁technology	-8.57272
▁19	-8.57486
ck	-8.57563
z	-8.57568
▁home	-8.57673
▁ongeveer	-8.57791
▁u	-8.57873
▁example	-8.58297
ag	-8.58393
▁Mijn	-8.58464
▁understand	-8.58483
ingen	-8.58495
▁person	-8.58941
▁design	-8.58996
2	-8.59605
▁waarom	-8.5964
▁st	-8.59708
▁30	-8.60072
am	-8.60114
men	-8.60167
ru	-8.603
▁F	-8.60538
▁procent	-8.60604
▁kwam	-8.60733
▁Die	-8.61517
▁achter	-8.61791
ho	-8.61829
▁feel	-8.62005
▁belangrijk	-8.62221
▁foto	-8.62515
co	-8.62621
ry	-8.62681
▁♫	-8.62937
▁car	-8.6306
as	-8.63212
▁zie	-8.6327
▁iedereen	-8.63319
▁doesn	-8.63652
▁zit	-8.63673
ate	-8.63836
we	-8.63889
▁50	-8.64074
▁eigenlijk	-8.64118
▁leren	-8.64275
af	-8.64687
elijk	-8.64737
P	-8.6488
he	-8.65071
▁wanneer	-8.65426
mp	-8.65485
▁O	-8.65562
▁wanted	-8.658
▁high	-8.65832
▁looking	-8.65875
▁M	-8.65906
▁vertellen	-8.66226
▁bent	-8.66314
▁geld	-8.66362
▁believe	-8.66377
▁co	-8.67065
▁may	-8.67169
▁light	-8.6738
▁vragen	-8.67417
▁done	-8.67535
▁ever	-8.67624
▁Ma	-8.67749
▁K	-8.67765
▁con	-8.67892
▁groot	-8.6825
ige	-8.68383
E	-8.68387
ant	-8.684
ia	-8.68683
▁V	-8.68797
▁Be	-8.6899
▁meest	-8.69111
▁video	-8.69483
▁Mo	-8.69521
▁children	-8.69589
ot	-8.6965
▁create	-8.69652
sch	-8.6967
▁begin	-8.69678
▁always	-8.69718
▁sort	-8.69855
▁wie	-8.69995
▁veranderen	-8.7001
▁away	-8.70146
▁space	-8.70272
▁vast	-8.70331
▁technologie	-8.70383
▁Because	-8.70409
▁power	-8.7071
▁country	-8.7075
▁million	-8.70752
▁doet	-8.70803
ij	-8.70864
wa	-8.71302
▁whole	-8.71452
▁minder	-8.71645
▁lang	-8.71657
▁vandaag	-8.71685
▁working	-8.7171
▁maakt	-8.72025
▁nemen	-8.72152
po	-8.72991
▁ruimte	-8.72992
▁aantal	-8.73112
▁trying	-8.73241
ine	-8.73687
▁rond	-8.73738
tra	-8.73913
▁ooit	-8.73947
land	-8.74134
▁wilde	-8.74216
▁miljoen	-8.74277
▁four	-8.74337
▁For	-8.74878
▁try	-8.74933
▁India	-8.74987
O	-8.75074
um	-8.75503
▁p	-8.75715
aan	-8.76084
▁konden	-8.76113
▁zodat	-8.76143
ni	-8.76245
▁half	-8.76402
T	-8.76417
▁D	-8.76545
ness	-8.76557
▁goede	-8.7673
▁hoop	-8.76848
ster	-8.76916
▁betekent	-8.77201
Applaus	-8.7756
▁informatie	-8.77733
▁Thank	-8.77948
▁using	-8.77982
uit	-8.78376
▁small	-8.78475
em	-8.78518
▁werden	-8.7865
▁money	-8.78898
▁maybe	-8.78939
▁kids	-8.78966
▁social	-8.78996
▁15	-8.79068
min	-8.79073
▁100	-8.7911
▁laat	-8.79201
▁Al	-8.79224
▁thinking	-8.79231
▁How	-8.79322
▁genoeg	-8.79915
Applause	-8.80033
▁vier	-8.80112
▁team	-8.8016
▁less	-8.80252
▁information	-8.80302
ep	-8.80384
va	-8.80389
▁begon	-8.80424
nd	-8.80623
▁begrijpen	-8.80626
▁t	-8.80754
▁means	-8.80837
▁five	-8.80904
▁old	-8.81349
▁sch	-8.81577
ba	-8.81639
L	-8.81713
▁w	-8.81716
di	-8.81856
▁become	-8.82119
▁laatste	-8.82154
▁dollar	-8.82303
▁gebeurt	-8.82816
▁took	-8.82885
B	-8.82893
▁My	-8.82897
▁everything	-8.82928
▁volgende	-8.82944
▁model	-8.83053
▁second	-8.83226
pe	-8.83461
vi	-8.83557
eerd	-8.83603
R	-8.83669
do	-8.83781
▁huis	-8.83803
▁licht	-8.83815
▁number	-8.83942
▁toch	-8.84008
▁energie	-8.84087
▁beetje	-8.8416
ak	-8.84181
▁snel	-8.84227
▁gemaakt	-8.8425
▁sense	-8.84329
▁3	-8.84361
up	-8.84455
▁la	-8.84553
▁vaak	-8.84558
▁am	-8.84574
5	-8.84884
▁dacht	-8.85022
▁enough	-8.85118
▁onderzoek	-8.85121
▁zitten	-8.85219
▁One	-8.85238
1	-8.85267
jes	-8.85308
▁mis	-8.85627
▁future	-8.85633
▁She	-8.85731
▁left	-8.85811
K	-8.85906
▁TED	-8.85976
7	-8.86184
▁dis	-8.86204
ger	-8.8621
▁houden	-8.86467
▁zegt	-8.86737
8	-8.8698
sh	-8.87076
▁Voor	-8.8708
cht	-8.87177
▁No	-8.87354
ut	-8.87403
▁York	-8.87478
per	-8.87826
▁ask	-8.88149
▁bo	-8.88157
▁staan	-8.88254
▁public	-8.88296
▁1	-8.88335
▁Of	-8.88406
▁top	-8.8843
▁process	-8.88467
▁getting	-8.88603
▁L	-8.88716
bi	-8.88925
▁moest	-8.88977
▁’	-8.8912
▁under	-8.89218
▁Dan	-8.89535
▁werkt	-8.89795
6	-8.89822
▁Na	-8.90117
▁Daar	-8.90398
Ik	-8.90439
▁bring	-8.90468
ende	-8.90792
▁slechts	-8.90815
end	-8.9095
▁global	-8.90966
uw	-8.90982
cu	-8.91032
▁As	-8.91641
▁food	-8.9171
4	-8.91931
▁These	-8.91956
▁without	-8.91978
▁rest	-8.92074
▁China	-8.9225
▁dezelfde	-8.92322
▁elk	-8.9242
tje	-8.92441
rs	-8.92676
▁making	-8.92776
▁play	-8.92807
▁sp	-8.92824
▁body	-8.92931
N	-8.92962
▁enkele	-8.9314
kken	-8.93145
▁energy	-8.93226
ure	-8.93237
▁interesting	-8.93268
ga	-8.93286
▁gedaan	-8.93305
▁bad	-8.93509
▁Do	-8.93542
▁face	-8.93581
lu	-8.9363
▁talking	-8.93638
▁landen	-8.93657
▁mogelijk	-8.93673
▁bijna	-8.93763
▁beginnen	-8.94122
▁quite	-8.94129
▁probably	-8.94155
▁ma	-8.94192
▁lives	-8.94224
▁Ja	-8.94615
tie	-8.94678
ker	-8.94689
▁buiten	-8.94708
▁praten	-8.94717
▁lichaam	-8.94916
▁beste	-8.9493
▁told	-8.95
▁mo	-8.95052
ko	-8.95065
▁science	-8.95155
ti	-8.95276
▁vorm	-8.95361
▁Ro	-8.95534
▁R	-8.95636
▁vol	-8.95913
▁problemen	-8.9596
▁dollars	-8.96013
▁happened	-8.96019
▁vijf	-8.96039
▁moeder	-8.96066
▁media	-8.96121
▁room	-8.96237
ard	-8.96245
▁vrouw	-8.9638
▁hoofd	-8.96543
aal	-8.96555
▁pre	-8.96586
▁zag	-8.9665
▁comes	-8.96707
▁moeilijk	-8.96769
▁young	-8.96783
▁ha	-8.96793
▁proberen	-8.96802
▁volgen	-8.96943
▁countries	-8.96996
ca	-8.97031
zen	-8.97046
▁set	-8.97327
baar	-8.97339
▁test	-8.97421
0	-8.97449
▁stad	-8.97566
▁machine	-8.97616
▁side	-8.97643
▁build	-8.97712
▁meeste	-8.97833
▁keep	-8.97849
▁family	-8.97894
▁form	-8.98041
▁care	-8.98056
▁Re	-8.9815
▁helemaal	-8.98226
elijke	-8.98254
ving	-8.98404
▁matter	-8.98489
wel	-8.98533
▁head	-8.98557
▁film	-8.98785
▁toekomst	-8.98916
▁reason	-8.9894
▁Co	-8.99297
▁Let	-8.9937
▁ten	-8.99383
un	-8.99712
ton	-8.99749
▁tweede	-8.99843
▁God	-8.99881
▁experience	-8.99981
ber	-8.99995
king	-9.00009
▁week	-9.00338
▁move	-9.00372
▁terwijl	-9.00511
▁billion	-9.00525
G	-9.00634
▁health	-9.00662
▁ander	-9.00699
▁simple	-9.00777
▁basis	-9.01116
▁CA	-9.01313
▁klein	-9.01363
▁such	-9.01386
▁happen	-9.01419
▁verder	-9.0148
▁across	-9.01645
▁hope	-9.01706
▁pretty	-9.01779
ap	-9.01877
▁gebruikt	-9.0197
ier	-9.02001
▁times	-9.0224
▁anything	-9.02318
▁coming	-9.02319
H	-9.0247
▁war	-9.0264
▁enige	-9.02821
▁hetzelfde	-9.0291
▁natuurlijk	-9.03011
tic	-9.03016
▁helpen	-9.03035
ach	-9.03038
lijk	-9.03077
▁18	-9.03184
▁stuff	-9.03203
▁40	-9.03208
ning	-9.03367
ty	-9.03407
▁gezien	-9.0343
▁Waarom	-9.03469
.000	-9.03478
▁Le	-9.03545
isch	-9.03635
▁St	-9.03676
▁word	-9.03794
▁learn	-9.03803
▁Earth	-9.03882
tor	-9.039
▁building	-9.03925
ated	-9.03954
▁delen	-9.03989
3	-9.04112
▁lijkt	-9.04296
▁Ha	-9.04449
▁far	-9.04492
▁4	-9.04591
▁waarin	-9.04898
hi	-9.04911
less	-9.04951
▁Here	-9.05014
vo	-9.0524
▁gebruik	-9.05258
go	-9.05302
▁ch	-9.05376
▁grootste	-9.05393
▁saw	-9.05425
▁zeker	-9.05435
▁experiment	-9.05488
▁planet	-9.05635
▁its	-9.05736
▁arm	-9.06014
▁ja	-9.06084
▁brengen	-9.0624
▁li	-9.06248
▁asked	-9.0626
9	-9.06361
da	-9.06392
▁mannen	-9.06521
▁else	-9.06523
▁living	-9.06746
▁having	-9.06959
▁Bo	-9.07018
▁du	-9.07051
ow	-9.07249
▁stop	-9.07275
▁systeem	-9.07437
▁waarschijnlijk	-9.07894
val	-9.08018
▁di	-9.08041
▁name	-9.08098
ring	-9.08184
▁run	-9.08186
▁control	-9.08262
ous	-9.0832
▁ex	-9.08529
▁answer	-9.08696
▁mind	-9.08727
ary	-9.08767
▁single	-9.08874
▁dood	-9.08877
▁case	-9.08913
ance	-9.09147
▁past	-9.09223
▁baby	-9.09451
▁remember	-9.09451
▁zoveel	-9.09451
▁geeft	-9.09478
▁blijven	-9.09556
▁menselijke	-9.0962
▁while	-9.09626
ator	-9.09644
mer	-9.09663
▁picture	-9.09881
▁job	-9.10117
▁le	-9.10259
▁vroeg	-9.10456
▁read	-9.10526
▁eerst	-9.1058
▁La	-9.10717
dy	-9.10804
▁community	-9.10838
son	-9.1095
▁waarop	-9.10993
▁seen	-9.11066
▁art	-9.11292
ik	-9.11362
▁both	-9.11473
▁All	-9.11558
▁vele	-9.11588
▁bouwen	-9.11835
ast	-9.11983
▁Met	-9.1207
bel	-9.12307
▁almost	-9.12618
▁2	-9.12754
▁ter	-9.12893
▁happens	-9.13299
▁To	-9.13374
gaan	-9.13456
the	-9.13563
▁goes	-9.13585
pt	-9.13614
ating	-9.13698
▁inside	-9.13821
▁sociale	-9.13868
▁N	-9.13921
▁Wij	-9.13921
▁ervan	-9.14066
▁uur	-9.14132
ally	-9.14139
▁days	-9.14271
▁city	-9.14473
▁imagine	-9.14735
%	-9.15271
nce	-9.15496
▁someone	-9.15618
▁sta	-9.15619
▁r	-9.15641
▁often	-9.15672
▁already	-9.15733
▁wrong	-9.15733
▁sure	-9.15778
▁W	-9.15794
▁Om	-9.15817
werk	-9.15949
▁cancer	-9.15971
▁deed	-9.1605
▁vrij	-9.16249
▁brein	-9.16278
▁DNA	-9.16353
▁research	-9.16442
ka	-9.16469
▁beeld	-9.1665
▁5	-9.1672
▁makes	-9.16745
rij	-9.16753
▁groep	-9.1679
ert	-9.16847
▁persoon	-9.16896
▁Africa	-9.16929
00	-9.17019
▁On	-9.17104
over	-9.17131
]	-9.17211
▁kreeg	-9.17211
▁business	-9.17294
door	-9.17375
▁myself	-9.17446
▁yet	-9.17684
▁ways	-9.17918
▁boven	-9.18198
▁12	-9.18208
ized	-9.18215
▁[	-9.18237
▁antwoord	-9.18272
W	-9.18294
▁jij	-9.18314
▁six	-9.18314
▁saying	-9.18327
▁bijvoorbeeld	-9.18472
▁whether	-9.18551
bu	-9.18708
▁problems	-9.18849
▁o	-9.19197
The	-9.19277
com	-9.19325
▁familie	-9.19425
▁order	-9.19457
komen	-9.19463
▁says	-9.19488
▁mother	-9.19518
▁miljard	-9.19725
▁nothing	-9.19805
ize	-9.19854
▁stellen	-9.19854
pl	-9.19869
▁tijdens	-9.19887
▁amazing	-9.19991
▁line	-9.20034
▁super	-9.20122
▁culture	-9.20164
▁Want	-9.20176
▁possible	-9.20233
▁Ge	-9.20305
▁once	-9.20369
▁music	-9.20411
aar	-9.205
dra	-9.20525
,000	-9.20527
▁vind	-9.208
▁OK	-9.20851
▁looked	-9.21043
▁book	-9.21173
ner	-9.21373
iteit	-9.21398
▁age	-9.21726
▁duidelijk	-9.21861
und	-9.21861
▁won	-9.21932
ën	-9.22077
▁woorden	-9.22155
▁Why	-9.22173
▁voorbeeld	-9.22266
▁language	-9.22272
▁self	-9.22443
▁months	-9.22531
ted	-9.226
▁zorgen	-9.22647
eert	-9.22647
▁child	-9.22791
▁maanden	-9.22888
con	-9.22904
▁vond	-9.23188
ex	-9.23247
▁mag	-9.23345
▁beautiful	-9.23516
▁gemeenschap	-9.23583
▁history	-9.23683
ian	-9.23884
lic	-9.2396
▁front	-9.24121
▁internet	-9.24265
uur	-9.24321
▁noemen	-9.24357
▁camera	-9.24401
▁true	-9.24438
▁plan	-9.24642
▁po	-9.24678
▁couple	-9.24691
mi	-9.24712
▁graag	-9.24775
▁words	-9.24873
eerde	-9.24985
mon	-9.25044
▁group	-9.25084
▁hersenen	-9.25336
old	-9.25356
▁ideeën	-9.25479
▁night	-9.25544
▁gevoel	-9.25665
▁anderen	-9.25678
▁reden	-9.25702
▁Or	-9.25767
▁universe	-9.25794
fi	-9.26038
▁education	-9.26051
▁echte	-9.26141
▁within	-9.26224
ff	-9.26328
▁gegevens	-9.26559
▁precies	-9.26741
ism	-9.26743
lie	-9.26821
ac	-9.26941
▁bedoel	-9.27248
▁government	-9.27277
and	-9.27427
▁heart	-9.27494
▁Ba	-9.27625
ler	-9.27641
▁boek	-9.27761
▁Niet	-9.27804
▁guy	-9.27807
bare	-9.27865
▁heard	-9.27899
▁wetenschap	-9.28
▁geweest	-9.28126
▁heen	-9.28399
os	-9.28405
▁United	-9.28476
▁geloof	-9.28629
ful	-9.28947
▁jonge	-9.28971
▁basically	-9.2901
▁dieren	-9.29016
▁kunst	-9.29106
▁large	-9.29266
▁cells	-9.29276
▁Misschien	-9.29278
▁learned	-9.29322
▁effect	-9.29397
▁kant	-9.2954
ding	-9.29559
eel	-9.29639
▁plek	-9.30074
▁bedrijf	-9.30123
ging	-9.30795
▁zichzelf	-9.31069
▁gek	-9.31176
▁punt	-9.31365
▁until	-9.31424
ron	-9.31455
▁turn	-9.31506
▁gingen	-9.3151
ial	-9.31541
ord	-9.31567
▁close	-9.31693
▁America	-9.31791
▁stories	-9.31956
▁voedsel	-9.31956
ud	-9.32124
▁dagen	-9.32488
▁share	-9.32502
▁aarde	-9.32504
▁levens	-9.3253
▁Afrika	-9.33004
▁free	-9.33094
▁study	-9.33107
▁welke	-9.33114
▁ideas	-9.33248
ng	-9.33292
▁woman	-9.33327
▁species	-9.33333
▁lab	-9.33457
▁bio	-9.33462
▁must	-9.33537
▁figure	-9.33622
▁mens	-9.33632
▁maakte	-9.3366
▁Pa	-9.33769
▁built	-9.3379
▁environment	-9.33794
▁lo	-9.33873
▁Omdat	-9.33887
▁eerder	-9.33899
▁25	-9.34107
▁zetten	-9.34186
▁decided	-9.34192
ja	-9.3426
▁verhalen	-9.34296
▁robot	-9.34404
▁though	-9.345
▁Laten	-9.34512
▁knew	-9.34531
▁d	-9.3456
▁soms	-9.34606
▁ro	-9.34648
▁Mensen	-9.34816
▁eten	-9.3489
▁spelen	-9.34909
▁impact	-9.3491
cy	-9.34957
red	-9.35064
au	-9.35071
ef	-9.35167
▁hart	-9.35184
▁house	-9.35266
▁eeuw	-9.35273
▁sound	-9.3528
▁app	-9.35347
▁hulp	-9.35399
▁stem	-9.35506
eld	-9.35522
▁view	-9.35523
iek	-9.35611
qu	-9.35737
▁planeet	-9.35943
ide	-9.36006
▁pa	-9.36231
▁air	-9.36339
▁ourselves	-9.36411
▁ogen	-9.36648
▁friends	-9.36654
▁ding	-9.36746
▁online	-9.36778
▁vader	-9.36913
geven	-9.37058
▁became	-9.37078
▁doe	-9.37084
▁zin	-9.37119
▁sommige	-9.37231
▁lucht	-9.37314
▁enkel	-9.37325
F	-9.37353
▁begonnen	-9.37405
▁ziekte	-9.37419
▁creëren	-9.37461
▁doel	-9.37594
line	-9.37693
▁Ga	-9.37703
▁heet	-9.37726
▁6	-9.3778
▁thuis	-9.37852
▁60	-9.37917
▁wasn	-9.38084
▁exactly	-9.3828
houden	-9.38297
ië	-9.38297
▁hear	-9.3833
ble	-9.38511
▁Zij	-9.38514
▁since	-9.38522
▁zeiden	-9.38563
▁leave	-9.38716
▁uiteindelijk	-9.38813
ui	-9.38842
▁against	-9.38885
▁disease	-9.38935
▁zeg	-9.3897
▁11	-9.39129
▁themselves	-9.39202
▁H	-9.39343
▁Ra	-9.39406
▁grond	-9.39465
▁n	-9.39477
tal	-9.39562
▁krijgt	-9.39565
▁geweldig	-9.39642
▁soorten	-9.39687
▁Internet	-9.39693
▁nature	-9.3979
▁phone	-9.39836
▁wist	-9.3989
▁sometimes	-9.39987
▁step	-9.40062
▁se	-9.40064
▁taking	-9.40096
▁sub	-9.40122
recht	-9.40142
▁kijkt	-9.40164
ief	-9.40228
▁gedrag	-9.40295
▁completely	-9.40339
▁geval	-9.40369
▁looks	-9.40384
▁fe	-9.40529
We	-9.40559
▁Mars	-9.40569
ijn	-9.40597
dig	-9.40636
pro	-9.4064
▁places	-9.40647
▁States	-9.40654
▁J	-9.40863
▁kwamen	-9.40944
▁vrienden	-9.40987
▁micro	-9.40992
▁nieuws	-9.41028
▁stand	-9.41055
▁zaken	-9.41083
kt	-9.41145
▁cell	-9.41463
▁nieuw	-9.4152
▁horen	-9.41602
▁somebody	-9.41773
way	-9.41774
▁huge	-9.41816
▁happening	-9.41838
▁gebeuren	-9.41873
▁ocean	-9.41891
▁economic	-9.42074
▁society	-9.42074
▁piece	-9.42094
▁product	-9.42124
▁kijk	-9.42134
▁black	-9.42182
▁geschiedenis	-9.42298
▁level	-9.42315
▁alsof	-9.42452
act	-9.42474
▁risk	-9.42483
▁everybody	-9.42577
▁gr	-9.42771
▁company	-9.4278
▁f	-9.42785
V	-9.42791
▁Y	-9.43063
▁works	-9.43079
▁niemand	-9.43083
lang	-9.43114
▁fish	-9.43148
vol	-9.43222
▁vooral	-9.43234
▁hours	-9.43246
▁feite	-9.43276
io	-9.43355
▁overal	-9.4348
▁lange	-9.43481
▁interessant	-9.435
▁deden	-9.43576
▁questions	-9.43743
▁bestaat	-9.44096
▁itself	-9.44206
ab	-9.44265
tion	-9.44298
▁taken	-9.44308
ities	-9.44344
▁state	-9.44424
▁Google	-9.44514
du	-9.44578
▁80	-9.4463
▁geluid	-9.4466
▁bezig	-9.44723
▁enorme	-9.44769
sten	-9.44853
vers	-9.44928
▁kennen	-9.44937
oo	-9.45042
▁gelijk	-9.45056
▁ervaring	-9.45093
▁perfect	-9.45178
▁m	-9.4522
▁walk	-9.45223
▁image	-9.45229
▁difficult	-9.45237
▁derde	-9.45242
▁bi	-9.4526
dien	-9.45304
▁opnieuw	-9.4547
▁concept	-9.45574
ish	-9.45652
▁game	-9.45846
▁instead	-9.45967
▁woord	-9.46006
les	-9.46105
▁animals	-9.46178
▁American	-9.46186
▁kun	-9.46405
▁kanker	-9.46409
▁natuur	-9.46471
▁bedrijven	-9.46518
▁ontwikkeling	-9.46715
▁act	-9.46751
▁students	-9.46767
▁kans	-9.4683
▁learning	-9.46862
▁everyone	-9.46938
▁support	-9.47016
▁ti	-9.47045
▁gezicht	-9.4706
▁spel	-9.47149
▁ontwerp	-9.47221
▁niets	-9.47435
▁local	-9.47444
pa	-9.47522
▁turns	-9.47523
▁behavior	-9.47545
▁population	-9.47546
▁red	-9.47588
▁Te	-9.47593
▁complex	-9.47606
▁computers	-9.47724
▁paper	-9.47907
▁oude	-9.48066
ric	-9.48081
▁worked	-9.48257
▁zat	-9.48374
▁manieren	-9.48433
▁At	-9.48448
▁voelen	-9.48518
▁bar	-9.48616
▁Ten	-9.48788
▁thousands	-9.48815
▁rather	-9.48936
▁str	-9.49093
▁minutes	-9.49102
▁along	-9.49145
▁non	-9.4922
▁Some	-9.49264
vis	-9.49316
▁comp	-9.49332
▁least	-9.49382
ai	-9.49419
aire	-9.49433
▁via	-9.49435
oor	-9.49475
▁early	-9.49504
▁created	-9.49533
▁taal	-9.49751
▁wind	-9.49804
stand	-9.49856
erd	-9.49871
▁eruit	-9.49899
▁full	-9.49931
▁Daarom	-9.49946
ele	-9.50023
▁object	-9.50039
ï	-9.50046
lui	-9.50167
kant	-9.50197
▁muziek	-9.50249
▁Dank	-9.50276
▁gave	-9.50341
▁structure	-9.50369
▁8	-9.50457
▁post	-9.50534
▁verschil	-9.5054
▁couldn	-9.50577
unt	-9.50704
▁gebeurde	-9.50716
zi	-9.50798
▁record	-9.50897
nk	-9.50919
▁telefoon	-9.51023
▁oorlog	-9.51035
▁slecht	-9.51062
ale	-9.51087
▁9	-9.51095
▁Van	-9.51181
▁color	-9.5133
▁entire	-9.51331
▁minuten	-9.51429
▁outside	-9.51433
ei	-9.51503
▁exist	-9.51553
▁pay	-9.51596
▁oud	-9.51767
▁grow	-9.51784
dag	-9.5188
tjes	-9.52075
nemen	-9.52099
▁lopen	-9.52115
And	-9.52138
▁leg	-9.52189
elen	-9.52199
▁moesten	-9.52207
▁mooi	-9.52258
za	-9.52265
▁cool	-9.52284
▁pi	-9.52312
▁ho	-9.52415
▁third	-9.52549
▁vanuit	-9.52629
erde	-9.52666
▁type	-9.52818
▁7	-9.52861
▁feeling	-9.52985
▁gebied	-9.5304
▁focus	-9.53071
▁kracht	-9.53282
iden	-9.53402
ical	-9.53455
gel	-9.53558
▁short	-9.53673
▁fear	-9.53728
▁field	-9.54051
▁anti	-9.54123
▁Ka	-9.54133
▁vormen	-9.54174
▁gaf	-9.54188
▁onderwijs	-9.54261
▁kom	-9.54262
▁Ver	-9.54307
▁common	-9.54463
▁fo	-9.54878
▁cost	-9.54974
▁VS	-9.54998
▁omgeving	-9.55051
▁ta	-9.5509
▁buy	-9.55148
▁Then	-9.55176
ft	-9.55182
▁onge	-9.55274
▁opge	-9.55319
▁pu	-9.55368
ering	-9.55582
▁steden	-9.55613
▁changed	-9.55618
▁friend	-9.55719
▁political	-9.55722
▁jou	-9.55846
▁scale	-9.55921
▁amount	-9.56183
▁pl	-9.56188
▁macht	-9.56203
▁Waar	-9.56593
▁particular	-9.56649
▁stap	-9.56791
▁market	-9.56863
▁Amerikaanse	-9.57042
▁spend	-9.5707
▁sh	-9.57182
rit	-9.5727
▁difference	-9.57276
▁volledig	-9.57285
▁win	-9.57387
▁leuk	-9.57411
▁death	-9.57472
▁powerful	-9.57492
▁present	-9.57552
▁bank	-9.57561
▁publiek	-9.5757
▁stuk	-9.5759
▁halen	-9.5764
▁wonder	-9.57731
▁geest	-9.57766
▁reality	-9.57889
que	-9.57902
▁yourself	-9.57934
▁zoeken	-9.57999
▁middle	-9.58051
▁begint	-9.58061
▁seven	-9.58141
▁map	-9.58161
▁software	-9.58188
▁zon	-9.58296
▁mu	-9.58341
▁imp	-9.58438
▁einde	-9.58511
▁Zoals	-9.58531
▁Ho	-9.58546
heden	-9.58547
▁plaatsen	-9.58785
▁felt	-9.58888
▁naam	-9.59063
lin	-9.5924
▁weinig	-9.59259
▁meter	-9.59302
▁recht	-9.59326
▁behind	-9.59356
▁natural	-9.59376
▁angst	-9.5938
▁pr	-9.59485
wij	-9.59637
▁krijg	-9.59643
▁Jo	-9.59665
▁poor	-9.59685
▁represent	-9.59843
▁easy	-9.59955
▁wilden	-9.60032
▁200	-9.60104
ny	-9.60115
▁size	-9.60116
▁systems	-9.60139
▁fa	-9.60328
▁Z	-9.60496
of	-9.60562
▁kinds	-9.60566
tische	-9.60822
▁code	-9.60844
ative	-9.60907
▁zoek	-9.60936
▁needed	-9.60995
▁cities	-9.61066
▁bepaalde	-9.61088
▁uitge	-9.61094
oc	-9.61146
▁14	-9.61227
side	-9.61262
▁given	-9.61286
ther	-9.61323
▁connect	-9.61409
▁sea	-9.61499
▁Chris	-9.61529
▁personal	-9.61618
▁conflict	-9.61674
▁context	-9.61773
▁belangrijkste	-9.61776
▁low	-9.61812
▁meet	-9.61829
so	-9.6183
stelling	-9.61882
▁news	-9.61891
▁happy	-9.61896
▁century	-9.61932
▁90	-9.6199
oud	-9.62082
▁hit	-9.62117
▁Da	-9.62133
▁sc	-9.62161
gro	-9.62168
▁ouders	-9.62206
▁geloven	-9.62264
▁hoeveel	-9.62346
year	-9.62374
iet	-9.62374
▁area	-9.62399
▁16	-9.62416
▁produce	-9.62498
▁companies	-9.6251
▁kennis	-9.6251
▁eyes	-9.62586
▁juiste	-9.62586
▁plant	-9.62605
▁voice	-9.62639
▁Onze	-9.62663
▁Me	-9.62678
▁geluk	-9.6288
▁measure	-9.62881
▁bed	-9.62901
▁beginning	-9.62912
▁extra	-9.6293
een	-9.62986
▁began	-9.63159
ain	-9.63205
ult	-9.6323
♪	-9.63376
▁z	-9.63383
▁seeing	-9.63426
ang	-9.63432
▁San	-9.6346
tijd	-9.63516
▁cannot	-9.63631
▁denkt	-9.63657
▁studenten	-9.63662
spel	-9.63672
▁fall	-9.63709
▁Go	-9.63857
▁/	-9.63875
schap	-9.63914
▁Amerika	-9.64035
▁Bij	-9.64052
▁aandacht	-9.64095
▁realized	-9.64096
▁sche	-9.64096
loos	-9.64106
staan	-9.64116
▁markt	-9.6423
og	-9.64271
▁parents	-9.64377
led	-9.6441
▁guys	-9.64458
▁longer	-9.64476
if	-9.64691
▁proces	-9.64717
▁Mar	-9.64726
▁challenge	-9.64738
▁liefde	-9.64807
▁stay	-9.64821
by	-9.6495
cent	-9.64968
▁Verenigd	-9.65005
▁turned	-9.65098
▁economie	-9.6517
▁center	-9.65252
ped	-9.65345
▁explain	-9.65639
▁certain	-9.65652
▁others	-9.65807
▁bestaan	-9.6595
▁program	-9.66012
tten	-9.66031
▁stond	-9.66074
▁pas	-9.66081
▁father	-9.66159
▁solve	-9.66163
ug	-9.664
▁simply	-9.66405
▁shape	-9.66408
▁An	-9.66433
ors	-9.66464
▁Over	-9.66633
▁belangrijke	-9.66661
▁protect	-9.66989
▁Europe	-9.67
▁groter	-9.6709
▁jouw	-9.67115
▁fr	-9.67145
out	-9.67205
▁midden	-9.67211
ping	-9.67391
met	-9.67463
during	-9.67473
ward	-9.67477
▁da	-9.67524
▁contact	-9.676
▁People	-9.67694
▁Door	-9.67701
▁eight	-9.67719
▁finally	-9.67752
▁17	-9.67986
▁movement	-9.68012
▁blind	-9.68113
▁zorg	-9.68146
▁im	-9.68186
▁Chinese	-9.68215
▁climate	-9.68215
▁lost	-9.68238
▁br	-9.68252
▁neer	-9.68483
▁stress	-9.68494
▁nam	-9.68594
▁blood	-9.68607
▁flow	-9.68655
▁drugs	-9.68772
▁moving	-9.68896
▁website	-9.69001
▁hu	-9.69007
llerlei	-9.69133
▁photograph	-9.69265
▁Si	-9.69445
eer	-9.69525
▁Sa	-9.69537
▁hoog	-9.69591
▁Vi	-9.69607
▁70	-9.69633
▁isn	-9.69672
▁overheid	-9.69731
air	-9.69767
▁verandering	-9.70045
▁afgelopen	-9.70063
▁eind	-9.7011
▁Dr	-9.70143
ight	-9.7023
▁cut	-9.70252
▁Eén	-9.70325
▁machines	-9.7038
▁fun	-9.70389
▁access	-9.70453
▁plastic	-9.70461
▁vo	-9.70474
▁gets	-9.70518
▁terms	-9.70539
▁voordat	-9.70571
▁result	-9.70582
▁Can	-9.70672
ps	-9.7071
cle	-9.70713
▁perhaps	-9.70725
▁rate	-9.70742
▁stoppen	-9.7078
▁break	-9.70785
▁speak	-9.70791
▁pass	-9.70868
▁ground	-9.70871
▁direct	-9.70906
▁klaar	-9.71001
komt	-9.71068
fe	-9.71179
▁Just	-9.71188
▁daarvan	-9.71294
sel	-9.71342
▁pick	-9.71387
▁ligt	-9.71397
lt	-9.71412
▁strong	-9.71536
▁schrijven	-9.71583
▁attention	-9.71666
▁Po	-9.71731
ris	-9.71749
▁Our	-9.71782
▁special	-9.71787
▁Kijk	-9.71808
▁Ook	-9.71812
▁blue	-9.71962
oe	-9.72036
▁surface	-9.72072
ious	-9.72085
▁vertelde	-9.7212
▁oil	-9.72186
▁Li	-9.72221
▁lots	-9.7223
▁waarde	-9.72339
systeem	-9.72409
▁Wanneer	-9.72497
▁generation	-9.72504
▁waarvan	-9.72552
bouw	-9.72565
▁beelden	-9.72574
hand	-9.72594
igheid	-9.72615
▁lezen	-9.72639
▁deal	-9.72685
▁spent	-9.72764
▁rol	-9.72764
▁individual	-9.72788
▁student	-9.72811
▁wonderful	-9.72834
isme	-9.73026
ium	-9.73039
▁value	-9.73087
▁mezelf	-9.73138
▁kaart	-9.7323
▁ervoor	-9.73364
ib	-9.73462
▁21	-9.73463
▁waarmee	-9.73576
▁geleerd	-9.73592
▁menselijk	-9.73598
chten	-9.7362
▁mooie	-9.73671
▁cultuur	-9.73769
ction	-9.73793
▁quickly	-9.73899
licht	-9.73979
▁Ca	-9.73991
▁oog	-9.74032
▁ju	-9.74138
▁rec	-9.7417
▁white	-9.74187
ase	-9.74267
▁nacht	-9.7436
▁onszelf	-9.74465
gg	-9.7453
▁inter	-9.74581
▁conversation	-9.74682
▁kid	-9.74774
▁pe	-9.74819
▁generatie	-9.74821
▁druk	-9.74881
one	-9.74928
▁bang	-9.75004
▁ability	-9.75047
▁feit	-9.75083
▁enorm	-9.75177
▁deep	-9.75273
▁werkte	-9.75333
▁path	-9.75431
rk	-9.7552
iseren	-9.75544
▁write	-9.75633
▁zagen	-9.75689
voor	-9.75735
▁whatever	-9.75848
▁tried	-9.75854
▁approach	-9.75942
▁gezegd	-9.76083
▁fl	-9.76137
▁travel	-9.76225
▁gelukkig	-9.76225
ever	-9.76288
log	-9.76289
▁needs	-9.76392
▁stage	-9.76399
▁girl	-9.76508
port	-9.76537
▁key	-9.76594
▁veilig	-9.76615
é	-9.76644
▁diep	-9.76694
▁visual	-9.76797
▁vonden	-9.768
▁situatie	-9.7683
▁vriend	-9.76852
▁aange	-9.76856
▁takes	-9.76894
▁message	-9.76944
▁lead	-9.76969
▁interested	-9.76981
▁ieder	-9.77049
▁gone	-9.77068
▁risico	-9.77076
▁rich	-9.77366
▁allow	-9.7737
▁herinner	-9.7747
▁World	-9.77505
▁situation	-9.77505
ual	-9.77556
▁niveau	-9.779
▁erop	-9.77958
▁Stel	-9.78026
▁zee	-9.78027
▁Facebook	-9.78079
▁sign	-9.78115
lopen	-9.78191
▁brand	-9.78322
▁tools	-9.78323
ice	-9.78329
lijke	-9.78333
▁fire	-9.78356
▁patients	-9.78432
lijkheid	-9.78602
▁fast	-9.78629
▁Right	-9.78671
▁Okay	-9.78695
ki	-9.78733
▁drive	-9.78777
▁blijkt	-9.7881
▁meestal	-9.78813
▁politieke	-9.78819
You	-9.78872
▁eat	-9.78925
mmer	-9.78949
tter	-9.78997
▁bereiken	-9.79074
▁radio	-9.79154
▁Di	-9.7918
ization	-9.79217
▁either	-9.7924
win	-9.79257
▁respect	-9.79274
▁hands	-9.79302
▁Su	-9.79361
▁opportunity	-9.79384
leg	-9.79437
▁13	-9.79445
▁hoge	-9.79454
▁langer	-9.79545
▁collect	-9.79577
▁voelde	-9.79647
▁gas	-9.79721
▁groeien	-9.7974
▁known	-9.79882
▁bloed	-9.79964
▁hold	-9.79989
rt	-9.80002
▁invest	-9.80021
▁belang	-9.80067
▁realize	-9.80085
time	-9.80098
▁sitting	-9.80133
▁continue	-9.80389
ica	-9.80417
▁Man	-9.80527
▁material	-9.80556
▁average	-9.80707
▁trust	-9.80721
let	-9.80834
▁ouder	-9.80878
▁crisis	-9.80914
▁John	-9.80989
che	-9.81038
▁Mi	-9.81102
▁les	-9.81129
ick	-9.81212
▁reis	-9.81253
weg	-9.81255
▁cellen	-9.81344
▁waarbij	-9.81352
▁vertrouwen	-9.81369
▁parts	-9.81374
▁noem	-9.81474
▁clear	-9.81482
▁provide	-9.81598
De	-9.81676
▁train	-9.81714
water	-9.81745
▁ontwikkelen	-9.81745
▁born	-9.81802
▁shows	-9.81902
▁reach	-9.81927
▁bekijken	-9.81984
▁based	-9.82042
▁mental	-9.82042
▁document	-9.82045
dat	-9.82103
▁safe	-9.82113
▁sex	-9.82116
art	-9.82174
eur	-9.82342
ties	-9.82342
▁Not	-9.82423
▁economische	-9.82456
▁growing	-9.82467
▁chance	-9.82519
▁families	-9.82521
▁patiënten	-9.82566
▁weeks	-9.82577
voer	-9.82634
▁sterren	-9.82664
ans	-9.82703
▁olie	-9.82714
▁duizenden	-9.82721
▁factor	-9.8274
▁economy	-9.82796
▁geweldige	-9.82804
▁growth	-9.82845
▁scientists	-9.82853
▁groei	-9.8286
hy	-9.82877
ile	-9.82929
▁multi	-9.82963
▁betere	-9.83003
▁action	-9.83099
slag	-9.83136
vat	-9.83154
▁eenvoudig	-9.8318
▁humans	-9.83201
▁thank	-9.83223
▁truth	-9.8325
ions	-9.8326
druk	-9.83364
dom	-9.8338
J	-9.83406
aat	-9.83472
▁beweging	-9.83531
▁kregen	-9.83555
▁hundreds	-9.83624
▁tonen	-9.83659
▁character	-9.83706
▁geweld	-9.8393
▁class	-9.8409
iv	-9.84091
istic	-9.84101
▁network	-9.84221
▁fi	-9.84313
▁web	-9.84317
▁dr	-9.84331
▁oceaan	-9.84471
▁genetic	-9.84524
izing	-9.84557
▁hi	-9.84618
▁understanding	-9.84647
bil	-9.8466
▁veranderd	-9.84769
hal	-9.84784
▁nogal	-9.84832
▁lie	-9.84839
▁screen	-9.84969
▁zeven	-9.85093
▁fout	-9.85111
▁jezelf	-9.85213
:"	-9.85326
▁transform	-9.85337
ship	-9.85409
▁Staten	-9.85497
▁issue	-9.85505
▁normal	-9.85514
▁suggest	-9.85551
▁function	-9.85565
▁sterk	-9.85636
▁ice	-9.85706
▁report	-9.85769
mor	-9.85788
▁weken	-9.85856
▁min	-9.85856
▁girls	-9.85862
▁sinds	-9.85862
icht	-9.8588
onder	-9.85909
▁alone	-9.85955
▁robots	-9.85999
▁South	-9.86023
▁bus	-9.86159
▁wouldn	-9.86179
▁oplossing	-9.86235
▁afge	-9.86242
▁late	-9.86267
▁praat	-9.86346
▁development	-9.86356
▁sleep	-9.86377
▁ergens	-9.8643
Wat	-9.86438
▁lijken	-9.86491
▁instrument	-9.8651
What	-9.86537
▁artist	-9.86566
▁feet	-9.86654
uil	-9.86713
▁bottom	-9.868
▁wrote	-9.868
▁kr	-9.86818
▁physical	-9.86843
▁telling	-9.87001
ned	-9.87007
▁kosten	-9.87125
▁star	-9.87126
▁nice	-9.87151
▁expect	-9.87182
▁literally	-9.87276
▁sla	-9.87295
▁park	-9.87317
bra	-9.87481
▁knowledge	-9.87589
▁va	-9.87626
▁digital	-9.87693
▁bekend	-9.87744
for	-9.87914
▁Oh	-9.87943
▁slechte	-9.88068
▁revolution	-9.88071
▁seems	-9.88099
!"	-9.88146
▁brought	-9.88224
all	-9.88241
loo	-9.8827
▁areas	-9.883
▁source	-9.88344
▁numbers	-9.88361
rust	-9.88413
▁spreken	-9.88481
pre	-9.88581
▁schaal	-9.88649
▁incredible	-9.88703
▁leer	-9.88764
▁meisjes	-9.88849
▁dark	-9.88856
▁animal	-9.8886
▁spread	-9.88864
teken	-9.88882
oom	-9.88893
her	-9.88912
even	-9.88932
▁miljoenen	-9.88944
gram	-9.89014
▁milieu	-9.89024
▁green	-9.89045
▁Con	-9.89159
▁kiezen	-9.89185
▁movie	-9.89185
▁morning	-9.8919
▁modern	-9.89226
uren	-9.89268
▁giving	-9.89346
▁val	-9.8939
▁West	-9.89422
▁Laat	-9.89424
▁changes	-9.89453
war	-9.89469
▁baan	-9.89501
▁Fi	-9.89545
▁road	-9.89546
U	-9.89568
▁bewegen	-9.89791
▁gehad	-9.89832
▁stel	-9.89861
▁dream	-9.90016
▁training	-9.90083
▁president	-9.9016
▁hersen	-9.9021
mal	-9.90315
▁audience	-9.90318
ability	-9.90335
▁naast	-9.90413
▁law	-9.9043
▁similar	-9.9048
▁motor	-9.90514
▁Nee	-9.90651
▁actie	-9.90662
▁wi	-9.90779
off	-9.90809
kracht	-9.90815
▁leiden	-9.90823
▁gene	-9.90943
▁Hu	-9.90986
Well	-9.90991
rr	-9.91027
▁period	-9.91036
▁maakten	-9.91065
▁wilt	-9.91095
▁likely	-9.91132
punt	-9.91295
▁leggen	-9.91308
▁running	-9.91492
▁region	-9.91581
▁innovatie	-9.91628
▁schreef	-9.91628
▁trans	-9.91654
▁images	-9.91668
▁relatie	-9.91673
▁goal	-9.91772
▁straat	-9.91813
bb	-9.91817
▁para	-9.91843
Oh	-9.91852
▁developed	-9.91861
▁forward	-9.91952
▁watch	-9.91971
▁eye	-9.9203
▁Even	-9.92107
toe	-9.92202
bal	-9.9224
▁books	-9.92282
▁Pro	-9.92296
ible	-9.92308
▁warm	-9.92372
▁verbonden	-9.92456
▁Oké	-9.92512
▁text	-9.92522
▁geef	-9.92657
▁Wi	-9.92704
▁gang	-9.9279
▁keek	-9.92802
▁discovered	-9.92809
▁Nou	-9.9284
▁boeken	-9.92915
▁push	-9.92988
▁24	-9.93093
ook	-9.93103
▁blij	-9.93107
▁dicht	-9.93165
j	-9.93248
▁starting	-9.9325
deel	-9.93427
ue	-9.93431
▁send	-9.93476
▁worth	-9.93513
cha	-9.93522
▁voorstellen	-9.93823
▁toegang	-9.93824
▁Veel	-9.93827
▁bouw	-9.93846
ute	-9.93862
handel	-9.93866
▁teach	-9.93941
▁universum	-9.93963
▁bevolking	-9.93963
▁vindt	-9.94033
▁programma	-9.94042
▁handen	-9.94059
▁national	-9.94133
▁sun	-9.94164
▁rechts	-9.9426
▁hospital	-9.94301
▁anyone	-9.94338
▁gezondheid	-9.94349
▁werkelijk	-9.9444
▁guess	-9.94471
mate	-9.94488
▁voelt	-9.94516
▁War	-9.94557
▁vliegen	-9.94636
▁touch	-9.94726
▁soon	-9.94758
zetten	-9.94765
▁"(	-9.94811
▁verandert	-9.94811
▁main	-9.94844
▁rot	-9.94894
▁neemt	-9.94924
mat	-9.94928
▁millions	-9.94961
▁subject	-9.94981
▁kost	-9.94982
▁qua	-9.95012
van	-9.95054
gesteld	-9.95091
▁controle	-9.9515
▁listen	-9.95209
▁kern	-9.95333
▁table	-9.95418
▁massa	-9.95426
▁tiny	-9.95506
▁gehoord	-9.95581
▁kopen	-9.95606
qui	-9.95656
▁choice	-9.95658
form	-9.95688
▁miles	-9.95689
low	-9.95752
▁virus	-9.95822
▁pijn	-9.95827
▁recognize	-9.95837
hel	-9.96106
▁dead	-9.96123
▁kill	-9.96173
▁organ	-9.96333
▁samenleving	-9.96355
▁success	-9.96405
▁links	-9.96412
▁band	-9.96508
▁especially	-9.96528
▁Ne	-9.96597
waar	-9.96655
▁Lo	-9.96671
▁save	-9.96691
▁forest	-9.96823
▁medical	-9.96883
▁carbon	-9.96885
delen	-9.96922
▁vis	-9.96958
▁namen	-9.9699
▁sprak	-9.97062
▁reactie	-9.97091
ussen	-9.97147
▁African	-9.97171
▁accept	-9.97182
▁relationship	-9.97256
ieve	-9.9737
▁gebouw	-9.97375
▁cars	-9.97387
▁progress	-9.97397
gang	-9.97422
▁geboren	-9.97443
▁Yeah	-9.97447
▁develop	-9.97509
▁wetenschappers	-9.97575
▁recent	-9.97622
▁mar	-9.97833
▁offer	-9.979
zon	-9.97926
▁studies	-9.97974
▁houdt	-9.98002
▁richting	-9.98007
▁em	-9.98007
▁bewust	-9.98022
▁seem	-9.98057
▁ijs	-9.98071
▁smart	-9.981
▁middel	-9.98198
▁iedere	-9.9824
tel	-9.98264
▁maak	-9.98271
▁With	-9.98313
lijn	-9.9835
loze	-9.98359
▁element	-9.98398
▁collega	-9.98451
▁erin	-9.9859
▁verst	-9.98605
▁kamer	-9.98636
▁zwarte	-9.98765
▁theorie	-9.98767
lock	-9.98773
▁interview	-9.98807
▁dorp	-9.98869
▁mass	-9.98878
▁ontwerpen	-9.98902
ah	-9.98936
lon	-9.98952
▁blijft	-9.98965
‘	-9.98982
▁gebaseerd	-9.98984
▁add	-9.99063
▁dier	-9.99117
▁succes	-9.99155
▁mi	-9.99199
▁son	-9.99361
▁gen	-9.99502
▁term	-9.99507
▁fly	-9.99547
▁loop	-9.99561
▁500	-9.99564
▁absolutely	-9.99565
▁force	-9.99655
▁asking	-9.99678
▁Zuid	-9.99695
▁universiteit	-9.99711
▁recently	-9.99811
▁maand	-9.99821
del	-9.99852
▁patient	-9.99972
▁journey	-10.0005
▁sit	-10.0006
▁tien	-10.0013
▁solution	-10.0016
▁bewijs	-10.0024
▁dachten	-10.003
▁Ki	-10.0045
▁moral	-10.0053
▁creating	-10.006
fen	-10.0061
▁liet	-10.0061
▁basic	-10.0061
▁tri	-10.007
▁Iedereen	-10.0077
▁clean	-10.0077
▁changing	-10.0083
press	-10.0083
▁materiaal	-10.0086
▁office	-10.0086
▁sport	-10.0088
▁geworden	-10.0095
▁Zijn	-10.01
▁follow	-10.0112
▁helft	-10.0113
day	-10.0115
▁namelijk	-10.0119
▁ca	-10.0125
isten	-10.0128
lij	-10.0128
▁major	-10.0129
zing	-10.0139
▁issues	-10.0141
▁theory	-10.0146
▁buurt	-10.0168
▁held	-10.017
light	-10.0176
loop	-10.0178
▁page	-10.0179
▁drug	-10.0183
▁Afghanistan	-10.0186
▁North	-10.0186
▁account	-10.0186
fo	-10.0192
▁vision	-10.0192
▁dia	-10.0195
▁showed	-10.0199
▁City	-10.0201
▁box	-10.0212
▁gemakkelijk	-10.0223
▁industry	-10.0223
▁innovation	-10.0223
▁regering	-10.0223
▁agree	-10.0224
▁eraan	-10.0224
nie	-10.023
▁interessante	-10.0239
▁talked	-10.025
▁acht	-10.0251
▁uitdaging	-10.0256
▁among	-10.0261
▁response	-10.0261
▁technologies	-10.0261
rry	-10.0262
ries	-10.0272
zicht	-10.0276
▁gebieden	-10.0277
▁evidence	-10.0278
▁productie	-10.0281
▁join	-10.0281
▁Ju	-10.0288
▁Wie	-10.0296
&	-10.0296
▁leeftijd	-10.0297
ists	-10.0306
▁track	-10.0315
▁Aarde	-10.0315
taal	-10.032
▁los	-10.0329
ien	-10.033
▁village	-10.0333
▁Zelfs	-10.0336
▁ball	-10.0339
▁treat	-10.0344
▁sounds	-10.0347
▁increase	-10.0352
▁interest	-10.0355
set	-10.0368
▁English	-10.0371
▁communities	-10.0371
▁ones	-10.038
lam	-10.0397
▁college	-10.0408
▁Europa	-10.0411
▁keuze	-10.0411
▁meisje	-10.0412
▁kort	-10.0415
brengen	-10.0419
net	-10.042
▁check	-10.0427
pan	-10.044
▁voorkomen	-10.0451
▁vermogen	-10.0455
▁haven	-10.0457
fin	-10.0461
▁tumor	-10.0465
▁By	-10.0466
▁sterven	-10.0466
si	-10.0483
▁Jullie	-10.0483
▁search	-10.0483
▁flu	-10.0485
▁yes	-10.0491
▁role	-10.0493
nder	-10.0502
▁incredibly	-10.0502
▁Engels	-10.0502
sis	-10.0507
▁leerde	-10.0518
▁lu	-10.0519
▁besloot	-10.0521
▁psycho	-10.0528
▁CO	-10.0531
▁developing	-10.0535
▁store	-10.0538
jarige	-10.0541
▁towards	-10.0543
▁groups	-10.0547
▁amp	-10.0555
▁continent	-10.0558
▁seks	-10.0559
▁predict	-10.0562
ria	-10.0563
Het	-10.0566
▁gevolg	-10.0576
▁th	-10.0577
▁solar	-10.0578
▁playing	-10.0579
▁mogelijkheden	-10.0582
▁y	-10.0582
gegeven	-10.0587
▁gras	-10.0599
▁zak	-10.0603
▁Japan	-10.0612
▁National	-10.0615
▁interact	-10.0616
▁Denk	-10.062
▁street	-10.0631
▁journalist	-10.0632
▁slow	-10.0632
▁makkelijk	-10.0633
▁Every	-10.0634
▁pen	-10.0641
top	-10.0653
▁genaamd	-10.0654
▁First	-10.0654
bed	-10.0666
▁resources	-10.067
▁beyond	-10.0673
til	-10.0675
ham	-10.0679
▁fight	-10.0681
▁fit	-10.0689
▁Maybe	-10.0692
▁letterlijk	-10.0697
zin	-10.0698
▁handel	-10.0715
▁prop	-10.0719
kom	-10.0722
▁cur	-10.0723
▁300	-10.0731
kel	-10.0732
▁hou	-10.0732
▁block	-10.0733
▁spin	-10.0734
▁Geen	-10.074
▁gebeurd	-10.0742
▁reflect	-10.075
▁middelen	-10.075
▁treatment	-10.0753
▁sneller	-10.0754
▁doctor	-10.0758
▁hundred	-10.076
leven	-10.0761
▁visit	-10.0775
ari	-10.0776
raak	-10.0779
▁Terwijl	-10.0788
▁available	-10.0788
▁honderden	-10.0789
▁lived	-10.0794
▁ontwikkeld	-10.0795
▁bijzonder	-10.0798
▁l	-10.0802
▁prison	-10.0808
▁netwerk	-10.0839
▁nation	-10.0844
▁onderwerp	-10.0847
▁vallen	-10.0853
trekken	-10.0854
rijk	-10.086
▁dog	-10.0863
▁violence	-10.0866
▁attack	-10.0866
▁bigger	-10.0874
▁lever	-10.0877
▁feed	-10.0878
▁beide	-10.0885
▁wachten	-10.0885
▁Aan	-10.0886
▁worst	-10.0886
▁studie	-10.09
ify	-10.0905
▁practice	-10.0906
▁prevent	-10.0906
▁huidige	-10.0907
▁hot	-10.0913
▁kilometer	-10.092
▁fix	-10.0928
▁nee	-10.0931
▁kl	-10.0931
▁Car	-10.0936
▁designed	-10.0938
▁list	-10.094
▁secret	-10.0945
▁langs	-10.0951
rate	-10.0952
▁mogelijkheid	-10.0956
▁consider	-10.096
▁dank	-10.0965
▁complete	-10.0973
ooi	-10.0977
▁writing	-10.0984
▁achieve	-10.0984
▁deliver	-10.0985
▁voort	-10.0985
ray	-10.0998
▁redenen	-10.1003
▁HIV	-10.1004
roep	-10.1004
▁luisteren	-10.1009
chi	-10.101
▁tend	-10.101
▁cat	-10.1012
▁wait	-10.1018
par	-10.102
▁month	-10.1021
▁several	-10.1024
▁Bu	-10.1036
▁putting	-10.104
▁betekenis	-10.1044
▁stick	-10.1047
▁papier	-10.1047
▁Cha	-10.1049
▁card	-10.1052
▁daarna	-10.1057
▁politiek	-10.1059
▁waarheid	-10.106
▁reasons	-10.1062
▁verspreid	-10.1064
▁appear	-10.1064
No	-10.1068
▁kleur	-10.107
▁eerlijk	-10.1072
▁juist	-10.1076
ey	-10.1076
pers	-10.1079
▁voorbij	-10.1086
▁resultaat	-10.1087
▁Se	-10.109
ition	-10.1092
▁Net	-10.1098
xi	-10.1105
▁Br	-10.1106
▁Ta	-10.1109
cel	-10.111
▁cre	-10.1116
▁behandeling	-10.1124
med	-10.1125
▁invloed	-10.1127
▁afstand	-10.1133
car	-10.1136
▁involved	-10.1138
▁betrokken	-10.1144
▁beschermen	-10.1144
▁vliegtuig	-10.1147
hor	-10.1157
▁mine	-10.1159
▁omhoog	-10.1164
▁cover	-10.1177
▁tro	-10.1177
▁successful	-10.1178
▁connection	-10.1183
▁partner	-10.1188
eerden	-10.1196
▁site	-10.1196
▁ongelooflijk	-10.1196
zien	-10.1207
▁led	-10.1216
cal	-10.1224
▁lokale	-10.1225
▁ontdekken	-10.1225
▁verbeteren	-10.1225
gaat	-10.124
hou	-10.1245
▁favorite	-10.1245
▁gegeven	-10.1251
▁democratie	-10.1265
▁verwacht	-10.1265
▁liggen	-10.1267
▁veiligheid	-10.127
▁potential	-10.1274
▁voorbeelden	-10.1278
▁cor	-10.1279
▁hole	-10.1282
▁race	-10.1286
▁beneden	-10.1288
▁scientific	-10.1307
▁print	-10.131
▁meaning	-10.1313
▁general	-10.1315
▁Sch	-10.1326
▁argument	-10.1326
▁jongens	-10.1328
▁blog	-10.133
▁nine	-10.1333
▁gives	-10.1335
So	-10.1343
▁male	-10.1345
ins	-10.1345
▁oplossen	-10.1347
▁biggest	-10.1347
▁dokter	-10.1348
▁drink	-10.1349
▁laag	-10.1353
▁bepaald	-10.136
cellen	-10.1366
▁cel	-10.1367
▁cause	-10.1378
▁brengt	-10.1381
▁choose	-10.1388
▁medicine	-10.1388
▁sensor	-10.1388
▁betalen	-10.1389
▁planten	-10.1398
▁Who	-10.14
zorg	-10.1404
▁speed	-10.1409
▁vlak	-10.1409
▁bot	-10.141
▁zul	-10.1412
▁Sommige	-10.1427
▁cross	-10.1429
▁Yes	-10.1436
▁erover	-10.1442
▁Mu	-10.1448
▁gedurende	-10.1451
▁meeting	-10.1455
▁maatschappij	-10.1457
heen	-10.1458
▁near	-10.1459
▁tu	-10.146
▁systemen	-10.1467
▁liep	-10.1468
▁ran	-10.147
▁Tot	-10.1475
▁detect	-10.1479
▁wish	-10.1497
ified	-10.1498
▁sturen	-10.1507
▁gevonden	-10.1512
▁pictures	-10.1514
▁poverty	-10.1533
bs	-10.1533
▁apart	-10.1534
▁overleven	-10.1537
▁further	-10.1554
▁voel	-10.156
▁farm	-10.1565
▁remain	-10.1575
maken	-10.1589
▁Ex	-10.1592
ran	-10.1596
▁prijs	-10.1596
▁bal	-10.162
▁wild	-10.1624
▁pull	-10.1627
▁bracht	-10.1629
▁becomes	-10.1631
▁roll	-10.1634
ley	-10.1636
▁Kun	-10.1641
iger	-10.1647
▁scherm	-10.1656
▁particularly	-10.1659
▁politie	-10.1662
▁drop	-10.1664
▁higher	-10.1667
▁device	-10.1673
oog	-10.1677
▁onto	-10.168
▁evolution	-10.1682
▁wall	-10.169
▁korte	-10.1694
▁grotere	-10.1696
lit	-10.1701
▁After	-10.1704
▁lose	-10.1705
▁persoonlijke	-10.1707
▁extreme	-10.1712
▁Ri	-10.172
▁interactie	-10.1721
▁walking	-10.1724
▁boy	-10.1735
▁skin	-10.1742
▁compassion	-10.1744
▁teken	-10.1748
▁fundamental	-10.1754
▁armoede	-10.1766
▁geheim	-10.1766
▁shift	-10.1766
▁regels	-10.1767
▁Ru	-10.1781
mis	-10.1784
▁onmogelijk	-10.1787
▁jobs	-10.1787
kwam	-10.1788
▁finding	-10.1796
fer	-10.1796
meter	-10.1797
boek	-10.1802
▁Noord	-10.1812
zo	-10.1815
▁realiteit	-10.1817
▁moved	-10.182
▁perspective	-10.183
gin	-10.1854
▁hoorde	-10.1862
▁wellicht	-10.1862
▁rode	-10.1867
ders	-10.188
▁Hun	-10.1882
▁showing	-10.1882
▁redden	-10.1886
▁bepalen	-10.1895
▁slaap	-10.1898
▁Don	-10.1898
▁quality	-10.1898
▁plekken	-10.1906
▁draw	-10.1908
▁Bi	-10.1912
▁affect	-10.1914
▁natuurlijke	-10.1915
▁positive	-10.1917
▁throw	-10.1917
▁sent	-10.1917
▁sector	-10.1923
▁position	-10.1928
▁count	-10.1929
zaa	-10.1936
▁strijd	-10.1936
▁bro	-10.1951
▁normaal	-10.1961
lan	-10.1965
▁sky	-10.1968
genomen	-10.1969
▁Fa	-10.198
▁boom	-10.198
▁anybody	-10.1982
▁private	-10.1982
▁police	-10.1982
▁worse	-10.1982
▁dochter	-10.1983
▁vandaan	-10.1983
eet	-10.1993
▁notice	-10.1993
work	-10.1997
genen	-10.1999
▁”	-10.2004
▁games	-10.2006
laat	-10.2012
▁supposed	-10.2013
▁Ar	-10.2015
ina	-10.2019
▁trend	-10.2026
▁resultaten	-10.2029
get	-10.2032
▁gro	-10.204
▁evolutie	-10.2048
▁Twee	-10.2062
▁malaria	-10.207
▁jongen	-10.207
▁platform	-10.2073
▁TV	-10.2076
▁Elke	-10.2081
▁discover	-10.2082
▁pain	-10.2084
vallen	-10.209
▁mountain	-10.2092
▁David	-10.2092
▁zoiets	-10.2092
▁creative	-10.2093
▁gemiddelde	-10.2095
▁Ni	-10.2104
ok	-10.2105
▁Pe	-10.2113
▁everywhere	-10.2114
▁decision	-10.2117
▁standard	-10.2117
name	-10.2135
▁security	-10.2136
▁reduce	-10.2137
▁structuur	-10.2146
▁vanaf	-10.2155
halen	-10.2155
▁gebouwd	-10.2166
ology	-10.2174
▁hoeft	-10.2176
▁Kan	-10.2177
▁kop	-10.2182
▁daarom	-10.2182
▁totally	-10.2186
▁digitale	-10.2188
▁certainly	-10.2201
▁content	-10.2203
gene	-10.2204
▁price	-10.2204
▁ready	-10.2216
▁vertelt	-10.2219
▁lijn	-10.2223
▁wiskunde	-10.2225
▁rock	-10.223
gan	-10.2231
ically	-10.2237
heer	-10.2244
▁Vandaag	-10.2248
▁Washington	-10.2248
▁Volgen	-10.2249
▁rij	-10.2259
▁groepen	-10.226
▁zoon	-10.2261
▁Natuurlijk	-10.227
▁exciting	-10.227
▁grew	-10.227
▁aard	-10.2271
▁wisten	-10.2273
▁Where	-10.2276
▁verleden	-10.228
Video	-10.2289
▁architect	-10.2292
▁spa	-10.2293
▁Soms	-10.2294
actie	-10.2302
▁pakken	-10.2307
▁leaders	-10.2307
▁geïnteresseerd	-10.2315
▁droom	-10.2317
berg	-10.232
▁god	-10.2321
▁require	-10.2324
▁dad	-10.2328
▁daughter	-10.2338
▁female	-10.2338
▁peace	-10.2338
▁vooruit	-10.2339
▁named	-10.2344
▁Most	-10.2351
▁allowed	-10.2355
▁largest	-10.2357
▁crazy	-10.2361
▁significant	-10.2361
▁symbol	-10.2361
▁University	-10.2361
▁fuel	-10.2365
▁tool	-10.2374
▁dance	-10.2375
rak	-10.2376
sche	-10.2376
▁direction	-10.2377
▁chemical	-10.2383
▁democracy	-10.2383
▁Nigeria	-10.2384
▁steun	-10.2384
▁shot	-10.2395
▁exact	-10.2397
▁return	-10.2406
▁results	-10.2407
▁Paul	-10.2414
▁mid	-10.2418
▁terecht	-10.2427
▁including	-10.2429
▁nuclear	-10.2429
▁shown	-10.2433
▁zonne	-10.2437
fu	-10.2437
slagen	-10.2438
▁individuals	-10.2445
▁echter	-10.2446
tisch	-10.2452
▁eventually	-10.2452
▁taught	-10.2452
▁kent	-10.2457
gezet	-10.2458
ister	-10.2458
▁rules	-10.2463
▁hour	-10.2467
▁prima	-10.2476
▁X	-10.2486
▁method	-10.2494
▁watching	-10.2496
ass	-10.2499
▁religion	-10.2521
▁ermee	-10.2522
▁email	-10.2523
▁bos	-10.2528
▁improve	-10.2541
▁temperature	-10.2544
▁nobody	-10.2544
▁vergeten	-10.2544
▁grootte	-10.2556
▁extremely	-10.258
▁ni	-10.2586
stelsel	-10.2588
▁mix	-10.2593
▁hero	-10.2599
▁mogen	-10.2602
▁prachtige	-10.2608
jo	-10.2611
▁scholen	-10.2614
▁connected	-10.2614
▁Nog	-10.2625
aars	-10.2627
▁probeerde	-10.2627
▁international	-10.2635
▁extraordinary	-10.2639
▁jong	-10.2656
▁techniek	-10.2666
▁afval	-10.2672
zw	-10.2672
▁professor	-10.2684
▁Am	-10.2696
▁mom	-10.2704
▁ervaren	-10.2707
spraak	-10.2708
▁detail	-10.2708
spect	-10.2708
▁bomb	-10.2709
▁versie	-10.2713
▁version	-10.2713
▁pak	-10.2716
▁Weet	-10.272
bro	-10.2729
▁gevangenis	-10.273
▁genoemd	-10.2731
pping	-10.2744
▁klimaat	-10.2747
▁veroorzaakt	-10.2754
▁depend	-10.2757
▁perform	-10.2758
stellen	-10.2759
▁aren	-10.2768
▁spot	-10.2768
▁Twitter	-10.2778
▁aid	-10.2785
▁organization	-10.2798
▁nou	-10.2799
ana	-10.2806
▁werkelijkheid	-10.2807
▁East	-10.2812
▁bereikt	-10.2813
▁El	-10.2819
▁pattern	-10.2822
machine	-10.2823
▁genomen	-10.2824
▁address	-10.2825
hang	-10.2827
▁standing	-10.2829
app	-10.283
merk	-10.2833
▁patiënt	-10.2843
▁Th	-10.2845
▁boodschap	-10.2849
▁religie	-10.2849
▁bacteria	-10.2849
▁tree	-10.285
▁traditional	-10.2851
▁excited	-10.2873
▁slide	-10.2873
▁meant	-10.2874
▁rare	-10.2875
▁gevallen	-10.2876
▁su	-10.2878
▁kat	-10.2879
▁US	-10.2892
▁professional	-10.2893
plaats	-10.29
▁waste	-10.2902
▁fantastisch	-10.2905
▁gevaarlijk	-10.292
▁career	-10.292
▁Today	-10.2922
▁letter	-10.2929
▁rat	-10.2931
▁vreemd	-10.2931
test	-10.2935
▁active	-10.2937
▁bas	-10.2939
▁plants	-10.2939
▁technologieën	-10.295
▁revolutie	-10.295
▁scan	-10.2951
veld	-10.2952
▁regel	-10.2952
▁wave	-10.2958
▁vroegen	-10.2961
▁wa	-10.2962
▁verb	-10.2965
▁service	-10.2969
▁task	-10.2969
▁nano	-10.2972
lingen	-10.2978
▁obviously	-10.2978
▁Bill	-10.298
▁bedacht	-10.2982
▁bla	-10.2983
pper	-10.2983
tin	-10.2989
▁survive	-10.2993
▁lower	-10.3007
wo	-10.3011
▁fine	-10.3014
lus	-10.3015
arm	-10.3015
▁poll	-10.3015
▁respond	-10.3017
▁vooruitgang	-10.3018
▁trees	-10.302
▁board	-10.3021
▁produceren	-10.3024
▁hoeveelheid	-10.3024
▁medische	-10.3032
▁avond	-10.3032
▁onderzoeken	-10.3033
▁fantastische	-10.3034
▁teachers	-10.3038
▁restaurant	-10.3042
▁cloud	-10.3042
like	-10.3043
▁principe	-10.3046
▁reading	-10.3048
ory	-10.3063
▁explore	-10.3066
▁laugh	-10.3066
▁principle	-10.3066
▁hond	-10.3067
▁thousand	-10.3069
▁simpel	-10.3074
▁link	-10.3081
▁Ben	-10.3082
▁intelligent	-10.3087
▁wife	-10.3091
▁dragen	-10.3107
▁famous	-10.3115
▁negen	-10.3115
▁performance	-10.3116
▁gesprek	-10.3116
▁killed	-10.3126
▁fan	-10.3128
leden	-10.313
▁Those	-10.3139
▁taak	-10.3142
▁hield	-10.3143
▁lossen	-10.3143
ppen	-10.3146
▁wereldwijd	-10.3165
▁kept	-10.3165
▁cent	-10.3167
▁floor	-10.317
▁suddenly	-10.317
wissel	-10.3174
▁Iran	-10.3179
▁ontdekt	-10.318
▁magic	-10.3182
▁neuro	-10.3182
▁aspect	-10.3184
▁spring	-10.3185
▁verkeerd	-10.3186
vang	-10.3188
lly	-10.3189
school	-10.3201
▁toont	-10.3202
naar	-10.3206
▁genes	-10.321
▁intelligence	-10.3213
▁bunch	-10.3213
▁nadenken	-10.3213
▁huid	-10.3219
zz	-10.3221
▁examples	-10.3221
▁fat	-10.3221
▁wonen	-10.3222
isatie	-10.3226
▁Per	-10.3232
wereld	-10.3237
▁urban	-10.3238
zelf	-10.3243
▁favoriete	-10.3246
▁gemeenschappen	-10.3246
▁conditions	-10.3252
▁gaven	-10.3259
▁truly	-10.3263
▁loved	-10.3267
ogen	-10.327
▁passen	-10.3279
▁moderne	-10.3281
bij	-10.3284
▁ship	-10.3285
uring	-10.3287
▁bodies	-10.3288
▁400	-10.3303
trop	-10.3303
ney	-10.3304
▁lesson	-10.3308
▁somewhere	-10.3313
elde	-10.3331
In	-10.3331
▁films	-10.3331
mar	-10.3333
▁specific	-10.3337
▁museum	-10.3338
▁above	-10.3339
▁ontdekte	-10.3339
hop	-10.334
ack	-10.3344
▁hoort	-10.3349
▁log	-10.3355
beeld	-10.3357
▁besloten	-10.3359
▁unique	-10.3363
▁ken	-10.337
▁kwaliteit	-10.337
nam	-10.3374
▁faster	-10.3377
▁klas	-10.338
ologist	-10.338
▁45	-10.338
▁gedachten	-10.3385
▁complicated	-10.3388
▁verloren	-10.3388
▁materials	-10.3396
▁hoogte	-10.3398
▁Arab	-10.3402
▁minute	-10.3402
▁rijk	-10.341
▁mechanism	-10.341
▁allows	-10.3411
▁critical	-10.3416
▁objects	-10.3416
▁kwestie	-10.3417
▁genen	-10.3419
▁cold	-10.342
▁rise	-10.3421
▁score	-10.3421
▁winkel	-10.3423
▁regen	-10.3424
tenschappelijke	-10.3426
▁serious	-10.3427
▁trial	-10.3427
plan	-10.3432
▁happiness	-10.3438
▁ontworpen	-10.3438
▁bleef	-10.3439
▁essentially	-10.3444
▁match	-10.3449
▁stroom	-10.3453
▁koe	-10.3455
▁raken	-10.3464
▁eenvoudige	-10.3476
▁vertel	-10.3481
▁vanwege	-10.3482
sum	-10.3483
▁decisions	-10.3486
▁target	-10.3489
▁hate	-10.3496
▁beleid	-10.3498
▁krachtig	-10.3498
▁inform	-10.3509
▁pan	-10.3513
▁policy	-10.3514
▁klinkt	-10.3514
ju	-10.3515
▁totaal	-10.3518
kamer	-10.3523
▁passie	-10.353
▁teacher	-10.3534
gebruik	-10.3539
▁bezoek	-10.3539
▁impossible	-10.354
▁trade	-10.3543
▁correct	-10.3544
▁Lu	-10.3549
▁ster	-10.3549
▁doden	-10.355
▁35	-10.355
ons	-10.3558
▁humanity	-10.3561
▁fund	-10.3567
▁gevolgen	-10.3568
use	-10.3572
kan	-10.3576
▁ontmoet	-10.3578
▁probeer	-10.3579
▁indeed	-10.358
weer	-10.359
▁dangerous	-10.3592
▁burn	-10.3592
He	-10.3592
▁gun	-10.3593
▁verlies	-10.3594
▁verschillen	-10.3598
▁geo	-10.3606
▁schools	-10.3609
▁ingewikkeld	-10.3617
▁veranderde	-10.3618
state	-10.3631
▁doctors	-10.3632
▁probeert	-10.3634
▁Du	-10.3638
wet	-10.364
▁ontdekking	-10.3643
▁bedenken	-10.3644
▁freedom	-10.3644
▁150	-10.3644
▁neem	-10.3646
▁cijfers	-10.3649
▁Heel	-10.3654
hing	-10.3659
ough	-10.366
▁Ko	-10.3662
ake	-10.3665
▁blad	-10.3665
▁fu	-10.3667
▁kilo	-10.3668
▁snap	-10.3673
maal	-10.368
▁insect	-10.3688
▁financial	-10.3694
▁communication	-10.3694
▁afford	-10.3694
▁anymore	-10.3695
erende	-10.3695
▁larger	-10.37
▁ob	-10.3701
▁final	-10.3709
mming	-10.3716
▁purpose	-10.372
▁usually	-10.372
▁radical	-10.372
▁onderdeel	-10.3727
▁velen	-10.3728
▁Tu	-10.3731
▁cru	-10.3733
▁oplossingen	-10.374
▁bieden	-10.3747
▁activity	-10.3747
▁capital	-10.3748
▁Amerikanen	-10.3751
▁bereid	-10.3751
▁fail	-10.3753
▁song	-10.3756
zak	-10.3762
aw	-10.3763
▁healthy	-10.3765
▁okay	-10.3773
huis	-10.3778
▁ended	-10.3778
▁organisatie	-10.378
▁ontstaan	-10.3799
▁brief	-10.38
▁ban	-10.381
▁vrijheid	-10.381
kte	-10.3817
▁vroeger	-10.3819
▁skills	-10.3824
woord	-10.3826
▁bestuur	-10.3832
stig	-10.3835
▁2000	-10.3837
▁loopt	-10.3838
▁gender	-10.384
ably	-10.384
zu	-10.3844
▁square	-10.3851
▁pressure	-10.3853
▁roof	-10.3853
▁window	-10.3854
▁massive	-10.3855
assen	-10.3856
mic	-10.3857
dan	-10.3859
▁alive	-10.3867
▁starts	-10.387
org	-10.3871
▁vreemde	-10.3871
▁cases	-10.3873
aren	-10.3887
▁constant	-10.3893
▁pad	-10.3899
▁London	-10.3904
▁babies	-10.3904
▁meesten	-10.3904
programma	-10.3904
▁serve	-10.3914
▁town	-10.3914
▁sell	-10.3921
▁realiseerde	-10.3925
▁groen	-10.3928
▁oppervlak	-10.3931
▁ziekenhuis	-10.3931
▁verkopen	-10.3931
▁lunch	-10.3931
▁sold	-10.3932
▁waard	-10.3932
▁hiervan	-10.394
▁Are	-10.3942
▁Wel	-10.3943
▁foot	-10.3946
iseerd	-10.3954
▁diagnose	-10.3957
▁effort	-10.3957
▁speech	-10.3957
▁remind	-10.3958
▁trip	-10.3959
vorm	-10.3962
▁details	-10.3966
▁trekken	-10.397
ians	-10.3974
▁tegenwoordig	-10.3984
▁contain	-10.3984
▁series	-10.3989
▁cra	-10.3995
▁emotional	-10.3997
▁enjoy	-10.4011
▁Men	-10.4012
0,000	-10.4012
▁jump	-10.4014
▁leek	-10.4018
▁Wal	-10.4018
▁strange	-10.4025
▁Mc	-10.4026
▁stars	-10.4027
▁express	-10.4029
▁decide	-10.4029
▁bone	-10.4036
tech	-10.4037
▁bestuderen	-10.4037
▁George	-10.4037
▁leidt	-10.4038
▁Islam	-10.4041
▁range	-10.4054
doen	-10.4059
▁talent	-10.4059
▁algorithm	-10.4064
▁somehow	-10.4064
▁memory	-10.4064
term	-10.4066
▁rain	-10.4067
▁cook	-10.407
▁hum	-10.4077
uk	-10.4078
ement	-10.4083
▁older	-10.4085
▁types	-10.4088
▁communicatie	-10.4091
▁enzovoort	-10.4091
▁verdienen	-10.4091
▁beschikbaar	-10.4092
▁port	-10.4094
▁models	-10.4098
▁veranderingen	-10.4103
▁lijst	-10.4104
▁daarmee	-10.4118
▁Che	-10.4121
▁depressie	-10.4125
▁solutions	-10.413
▁hemel	-10.4131
▁besefte	-10.4145
▁Canada	-10.4145
▁worry	-10.4145
▁biology	-10.4146
han	-10.4147
▁slim	-10.4149
▁gep	-10.4149
▁station	-10.4161
▁volk	-10.4162
▁veld	-10.4162
▁Ke	-10.4167
▁cap	-10.4169
▁institutions	-10.417
▁koolstof	-10.4173
▁privacy	-10.4173
▁verliezen	-10.4173
▁gezin	-10.4181
▁leiders	-10.4191
▁workers	-10.4198
▁lines	-10.4199
▁military	-10.42
▁gezondheidszorg	-10.42
▁Steve	-10.4201
▁Like	-10.4204
▁photo	-10.4204
▁terrorist	-10.4205
erden	-10.4207
▁Look	-10.4211
▁actual	-10.4217
▁fysieke	-10.4224
▁snelheid	-10.4225
▁Ph	-10.4227
▁patterns	-10.4231
▁ontmoette	-10.4234
▁verzamelen	-10.4234
▁sat	-10.4237
▁schuld	-10.4237
Je	-10.424
leiding	-10.4247
raat	-10.4248
▁periode	-10.425
▁Brazil	-10.4254
▁component	-10.4255
▁dromen	-10.4255
▁bron	-10.4256
Hoe	-10.4258
▁pop	-10.4268
▁antwoorden	-10.4269
▁projects	-10.427
ches	-10.4275
▁products	-10.4282
▁earlier	-10.4282
▁moeite	-10.4282
▁vervolgens	-10.4282
▁Times	-10.4287
▁gevangen	-10.4289
▁demand	-10.429
reden	-10.4291
ologie	-10.4298
▁rug	-10.4299
▁nummer	-10.4302
▁testen	-10.4306
▁pieces	-10.4309
▁enormous	-10.4312
▁trick	-10.4313
▁meteen	-10.4315
▁electricity	-10.4339
▁threat	-10.434
▁Un	-10.4341
mie	-10.4343
▁press	-10.4347
laag	-10.4348
▁sommigen	-10.4348
▁gezond	-10.4349
groep	-10.4352
▁waiting	-10.4353
▁Her	-10.4356
▁Ti	-10.4356
▁smaller	-10.4362
▁neighborhood	-10.4365
▁current	-10.4381
goed	-10.4382
ó	-10.4393
▁Niemand	-10.4393
▁bewustzijn	-10.4393
▁Mil	-10.4398
▁hoor	-10.4401
laten	-10.4402
achtig	-10.4407
▁bat	-10.4419
▁wereldwijde	-10.442
▁zone	-10.442
▁algemeen	-10.4421
▁cheap	-10.4421
▁beperkt	-10.4421
▁original	-10.4424
▁stemmen	-10.4426
▁decades	-10.4427
▁geschreven	-10.4429
▁Alles	-10.4439
▁75	-10.4442
▁clearly	-10.4442
ong	-10.4446
▁brother	-10.445
▁math	-10.445
zoek	-10.4451
middel	-10.4455
▁gekomen	-10.4464
my	-10.4465
▁base	-10.4467
▁raise	-10.4468
▁draaien	-10.447
▁interesse	-10.4477
En	-10.4478
▁omstandigheden	-10.448
▁sad	-10.4483
▁Fe	-10.4484
▁prachtig	-10.4485
▁ke	-10.4492
▁discussie	-10.4494
▁listening	-10.45
▁sexual	-10.4506
▁cartoon	-10.4506
▁vote	-10.451
vin	-10.4519
▁effective	-10.453
▁elektriciteit	-10.4533
▁expensive	-10.4533
▁separate	-10.4533
▁lijden	-10.4533
won	-10.4533
▁vrede	-10.4533
inter	-10.4535
▁vraagt	-10.4549
▁industrie	-10.4553
▁greatest	-10.4554
▁daadwerkelijk	-10.4561
▁please	-10.4561
▁bleek	-10.4561
▁afhankelijk	-10.4561
▁mogelijke	-10.4563
ssie	-10.4564
dimensional	-10.4566
▁toilet	-10.4567
▁Neem	-10.4567
▁zaak	-10.4572
▁loss	-10.4583
Ja	-10.4585
▁written	-10.4589
▁observe	-10.4589
▁becoming	-10.459
▁stil	-10.4602
ografie	-10.4607
▁paint	-10.4608
▁upon	-10.4609
lief	-10.4611
▁Alle	-10.4613
▁iron	-10.4619
▁gewerkt	-10.4626
▁legal	-10.4626
▁openbare	-10.4627
▁wijze	-10.4627
nne	-10.4633
▁rule	-10.4637
Ge	-10.4638
▁politics	-10.4646
technologie	-10.4648
pas	-10.4649
▁strategie	-10.4652
▁forget	-10.4655
▁glass	-10.4658
board	-10.4659
ool	-10.4662
stel	-10.4665
▁MIT	-10.4675
▁driving	-10.4675
▁sociaal	-10.4675
▁Pol	-10.4675
▁wacht	-10.4678
nu	-10.468
▁wide	-10.4681
zel	-10.4685
▁walked	-10.4686
▁tells	-10.469
cijfer	-10.4696
▁adem	-10.4699
rang	-10.47
▁environmental	-10.4702
▁helpt	-10.4703
▁laptop	-10.4703
▁plot	-10.4708
▁landbouw	-10.471
bben	-10.4711
▁klimaatverander	-10.4712
▁operatie	-10.4716
▁Toch	-10.4718
▁unit	-10.4721
▁luister	-10.4726
▁rijden	-10.4726
▁kinder	-10.4727
▁slimme	-10.4732
▁arme	-10.4732
▁Harvard	-10.4732
▁shared	-10.4732
▁breath	-10.4733
▁Qu	-10.4733
▁challenges	-10.4736
▁throughout	-10.474
▁Sha	-10.474
put	-10.474
▁muur	-10.4745
▁hoger	-10.4749
▁birth	-10.4761
▁fiets	-10.4761
▁instance	-10.4761
▁Americans	-10.4764
cial	-10.4769
▁hair	-10.477
▁mocht	-10.4771
▁vlucht	-10.4772
ille	-10.4775
▁values	-10.4778
▁vaardigheden	-10.479
▁grenzen	-10.479
▁Gra	-10.479
▁slot	-10.4801
▁zero	-10.481
▁rivier	-10.4819
▁honest	-10.4819
▁adapt	-10.4819
▁protest	-10.4822
centra	-10.4824
▁honderd	-10.4826
▁ervaringen	-10.4838
path	-10.484
▁producten	-10.4843
uff	-10.4851
▁brains	-10.4852
▁buildings	-10.4854
pose	-10.4859
▁chip	-10.4862
▁simpele	-10.4867
▁citizens	-10.4874
▁bedankt	-10.4877
ay	-10.4879
az	-10.4881
▁Chi	-10.4883
verbazingwekkend	-10.4888
▁heat	-10.4891
cc	-10.4893
▁decade	-10.4901
▁NASA	-10.4906
▁charge	-10.4906
▁income	-10.491
▁efficiënt	-10.4913
▁gebouwen	-10.4917
▁km	-10.493
nieuw	-10.4935
▁Wa	-10.4935
ese	-10.4953
▁trap	-10.4957
▁teaching	-10.4961
rist	-10.4963
▁gewone	-10.4965
▁status	-10.4966
▁beslissingen	-10.4978
▁verantwoorde	-10.4978
▁Imagine	-10.4995
▁failure	-10.4996
proces	-10.4998
▁apply	-10.5001
▁valt	-10.5002
▁tafel	-10.5003
▁atmosphere	-10.5005
▁22	-10.5005
▁pagina	-10.5006
▁pin	-10.5011
▁draait	-10.502
▁verwachten	-10.5021
link	-10.5022
▁welk	-10.5022
▁budget	-10.5024
▁heleboel	-10.5024
▁complexe	-10.5028
▁Two	-10.5028
▁painting	-10.503
▁vlieg	-10.5032
▁normale	-10.5033
▁sister	-10.5036
▁helped	-10.5039
▁broer	-10.5045
pet	-10.5052
▁rid	-10.5052
▁Mexico	-10.5054
▁mistake	-10.5054
▁greater	-10.5059
▁diseases	-10.5076
▁spec	-10.5077
▁Many	-10.508
▁engineering	-10.508
wit	-10.5081
▁Han	-10.5082
▁identiteit	-10.5084
▁include	-10.5084
▁influence	-10.5084
▁cultural	-10.5087
▁koud	-10.5092
▁mission	-10.5094
▁boot	-10.5095
eft	-10.5098
achtige	-10.5099
▁leeft	-10.5099
▁Egypt	-10.5107
▁terrible	-10.5113
▁biological	-10.5114
▁river	-10.5114
groei	-10.512
▁patroon	-10.512
▁banen	-10.5121
place	-10.5126
▁mate	-10.5128
maker	-10.5138
▁stelt	-10.5139
▁dinosaur	-10.5143
▁neighbor	-10.5143
▁fundamentele	-10.5143
▁himself	-10.5143
▁mobiele	-10.5143
▁prototype	-10.5143
▁kunstenaar	-10.5144
▁Francisco	-10.5144
▁promot	-10.5146
▁crash	-10.5146
▁bericht	-10.5147
project	-10.5147
▁begrip	-10.5148
▁aanpak	-10.5153
▁neurons	-10.5153
rap	-10.5162
▁option	-10.5171
▁levels	-10.5171
▁virtual	-10.5173
▁corner	-10.5175
tell	-10.5178
▁hoewel	-10.518
▁hoeven	-10.5186
ates	-10.5189
▁wens	-10.5193
▁belangrijker	-10.5197
▁concentr	-10.5202
▁anywhere	-10.5204
▁fantastic	-10.5204
▁protein	-10.5204
▁internationale	-10.5206
lden	-10.5206
waardig	-10.5209
▁zwart	-10.521
▁mensheid	-10.5216
▁toon	-10.522
▁merk	-10.5221
trok	-10.5222
▁hoek	-10.523
▁inzicht	-10.5232
▁Sun	-10.5233
▁spirit	-10.5233
▁services	-10.5234
▁relevant	-10.5234
▁Another	-10.5234
▁interface	-10.5234
▁medicijnen	-10.5235
▁herinneren	-10.5237
▁immediately	-10.5237
▁projecten	-10.5241
▁Los	-10.5244
zame	-10.5245
loof	-10.5245
bui	-10.5261
Q	-10.5263
▁biologie	-10.5265
▁continu	-10.5267
print	-10.527
▁Indian	-10.5272
▁useful	-10.5276
hoo	-10.5277
▁emoties	-10.5278
▁points	-10.5285
▁weight	-10.5288
▁governments	-10.5288
▁Sta	-10.5288
▁laws	-10.5289
▁generate	-10.5296
▁Sh	-10.5304
▁verband	-10.5306
▁gest	-10.5319
issen	-10.5322
▁bear	-10.5322
▁naartoe	-10.5323
▁Darwin	-10.5325
▁infrastructure	-10.5325
▁communicate	-10.5325
▁wealth	-10.5326
▁Goed	-10.5331
▁gat	-10.5335
▁bomen	-10.5335
neem	-10.5338
▁myth	-10.5344
▁blauwe	-10.5351
▁transport	-10.5353
▁Einstein	-10.5356
▁accident	-10.5356
▁gratis	-10.5356
▁consumer	-10.5359
▁letters	-10.5361
Dat	-10.5361
▁Gi	-10.5365
▁broken	-10.5375
▁arts	-10.5382
▁Uiteindelijk	-10.5386
▁symptom	-10.5386
▁afraid	-10.5386
▁interpret	-10.5386
▁comment	-10.5386
▁breed	-10.5387
▁seconden	-10.5388
▁krant	-10.5394
▁coral	-10.5401
right	-10.5402
▁Pi	-10.5402
▁heelal	-10.5403
▁labor	-10.5405
wn	-10.5415
▁Richard	-10.5417
▁familiar	-10.5417
▁afbeelding	-10.5417
▁feedback	-10.5417
▁emerge	-10.5417
zelfde	-10.5422
▁vuur	-10.5424
▁leger	-10.543
▁zaten	-10.5432
dding	-10.5433
▁gedachte	-10.5433
▁planeten	-10.5434
▁died	-10.5444
▁civil	-10.5447
▁voortdurend	-10.5448
▁mobile	-10.5448
▁ecosystem	-10.5448
▁Eerst	-10.5455
▁except	-10.5468
trek	-10.5471
raad	-10.5472
▁absoluut	-10.5479
▁financiële	-10.5479
▁popular	-10.5479
▁behandelen	-10.5479
▁patent	-10.5479
▁claim	-10.5481
▁specifieke	-10.5482
▁Sommigen	-10.5482
Als	-10.5485
▁lastig	-10.5488
mark	-10.5492
▁disc	-10.5493
▁relationships	-10.5504
▁wou	-10.5505
▁carrière	-10.551
▁trouble	-10.551
▁Pri	-10.551
▁ondanks	-10.551
▁traditionele	-10.5511
▁summer	-10.5512
▁Park	-10.5513
waarde	-10.5514
▁zomer	-10.5516
bar	-10.5517
▁berg	-10.5522
▁speelt	-10.5522
▁Ons	-10.5524
▁lieten	-10.553
▁YouTube	-10.5541
▁bacteriën	-10.5541
▁physics	-10.5541
▁functie	-10.555
▁prove	-10.5553
code	-10.5553
▁catch	-10.5554
het	-10.5557
▁California	-10.5572
▁Which	-10.5572
▁verschrikkelijk	-10.5572
▁experts	-10.5573
▁willing	-10.5574
▁voet	-10.5575
▁99	-10.5576
▁spoke	-10.558
▁gain	-10.5582
kundig	-10.5583
▁homo	-10.5584
▁colleagues	-10.5584
▁production	-10.5584
▁whose	-10.5589
▁circle	-10.5604
▁landscape	-10.5604
▁beauty	-10.5604
▁huizen	-10.5604
chan	-10.5604
▁trots	-10.5607
ijk	-10.5608
▁daarvoor	-10.5613
▁sorts	-10.5613
▁Instead	-10.5635
▁kantoor	-10.5638
▁collective	-10.5641
▁genome	-10.5644
aai	-10.5644
craft	-10.5658
▁tech	-10.5658
▁percentage	-10.5659
ologisch	-10.5663
▁custom	-10.5667
▁besluit	-10.5667
▁random	-10.5669
▁costs	-10.567
▁forms	-10.5673
▁speaking	-10.5677
▁voeren	-10.5678
▁Wil	-10.5681
▁oh	-10.5687
▁Daarna	-10.5687
▁groene	-10.5693
▁mess	-10.5693
▁Congres	-10.5698
▁struggle	-10.5698
▁tissue	-10.5698
▁therefore	-10.5698
▁Western	-10.5699
▁finger	-10.57
▁samenwerken	-10.5701
▁forth	-10.5702
▁profit	-10.5712
▁waarden	-10.5724
▁dak	-10.5726
▁tradition	-10.5726
▁Amazon	-10.573
▁refugee	-10.573
▁communiceren	-10.573
▁distance	-10.573
lkens	-10.5735
▁ochtend	-10.5736
▁deur	-10.5738
▁master	-10.5739
▁opleiding	-10.574
▁layer	-10.5743
▁condition	-10.5744
▁minds	-10.5746
It	-10.575
▁stukje	-10.575
▁obvious	-10.575
▁inkomen	-10.5753
▁following	-10.5753
▁visie	-10.5754
▁atmosfeer	-10.5762
▁spectrum	-10.5762
▁Think	-10.5762
▁samenwerking	-10.5762
▁volgt	-10.5762
▁“	-10.5766
rant	-10.5767
istische	-10.5769
mail	-10.577
▁Korea	-10.5778
deling	-10.5778
▁mode	-10.5778
▁harder	-10.5779
50	-10.5782
matig	-10.5783
▁His	-10.5784
▁curve	-10.5794
▁satellite	-10.5794
▁societies	-10.5794
▁grafiek	-10.5794
▁School	-10.5794
▁middelbare	-10.5796
gebracht	-10.5796
▁2008	-10.5798
▁neuronen	-10.5798
▁volwassen	-10.5799
▁emotions	-10.58
lay	-10.5801
▁pet	-10.5803
▁zwaar	-10.5804
▁burgers	-10.5806
Do	-10.581
band	-10.5823
ire	-10.5825
▁AIDS	-10.5826
▁sequence	-10.5826
▁ernstig	-10.5826
▁kerel	-10.5826
▁damage	-10.5828
▁mostly	-10.5829
▁limit	-10.5833
▁golf	-10.5834
tuig	-10.5834
▁cla	-10.5837
bank	-10.584
▁dienst	-10.5844
▁tv	-10.5846
▁0	-10.5853
▁slachtoffer	-10.5858
▁yeah	-10.5858
▁straight	-10.5858
▁double	-10.5858
▁reageren	-10.5858
▁behalve	-10.5858
▁leidde	-10.5858
▁minister	-10.586
▁arch	-10.5862
▁artikel	-10.5864
▁wezen	-10.5868
model	-10.5888
▁contract	-10.589
▁shop	-10.5892
▁vissen	-10.5895
▁hout	-10.5908
▁interaction	-10.5911
▁quick	-10.5911
▁vervoer	-10.5914
▁engage	-10.5916
▁ring	-10.5919
olk	-10.592
▁zekere	-10.5922
▁Street	-10.5923
▁perspectief	-10.5927
bon	-10.5928
▁streets	-10.5929
▁winter	-10.5935
kkel	-10.5937
part	-10.5942
▁burger	-10.5942
▁relaties	-10.5943
▁Hi	-10.5944
sloten	-10.5945
▁describe	-10.5951
▁2010	-10.5955
▁expand	-10.5955
▁mond	-10.5955
▁zuid	-10.5955
▁stopped	-10.5958
zijn	-10.5964
ification	-10.5968
wezen	-10.5971
▁experiences	-10.5971
▁genetische	-10.598
room	-10.5984
▁plezier	-10.5988
▁crime	-10.5988
stad	-10.5988
▁reizen	-10.5988
▁spannend	-10.5989
▁zaal	-10.5991
▁sterke	-10.5993
▁etc	-10.5996
▁ahead	-10.6002
▁par	-10.6002
ram	-10.6004
▁scientist	-10.6008
▁fair	-10.6016
roo	-10.6019
▁architecture	-10.6023
pot	-10.6029
▁lack	-10.6032
ya	-10.6032
▁gebruikte	-10.6038
▁below	-10.604
▁vorige	-10.6049
ily	-10.605
▁belief	-10.6052
▁Muslim	-10.6053
▁abstract	-10.6053
▁television	-10.6053
▁verteld	-10.6059
▁Asia	-10.6059
▁standaard	-10.606
▁weren	-10.6061
▁apparaat	-10.6061
▁paid	-10.6062
last	-10.6065
▁tap	-10.6068
▁storm	-10.6068
ellen	-10.607
▁keuzes	-10.6083
▁destroy	-10.6086
▁feature	-10.6086
▁various	-10.6086
▁vehicle	-10.6086
▁vergelijking	-10.6086
▁capture	-10.6086
▁gap	-10.6086
▁vaccin	-10.6088
0.000	-10.6093
▁combine	-10.6093
▁grap	-10.6096
▁theater	-10.6097
nadat	-10.6102
▁mening	-10.6109
▁lage	-10.6109
▁traffic	-10.6119
▁vertegenwoordig	-10.6119
▁shock	-10.612
▁rights	-10.612
▁choices	-10.612
vraag	-10.6126
maat	-10.6127
▁stelde	-10.6129
▁highly	-10.6133
▁sick	-10.6137
▁centrum	-10.614
▁ware	-10.614
▁geneeskunde	-10.6152
▁understood	-10.6152
▁wakker	-10.6152
▁Frank	-10.6153
▁intelligentie	-10.6161
rand	-10.6173
vorming	-10.6178
toon	-10.6179
▁climb	-10.6185
▁campaign	-10.6185
▁avoid	-10.6185
▁driver	-10.6187
▁pot	-10.6202
▁bag	-10.6204
▁flying	-10.621
▁saving	-10.6219
▁sentence	-10.6219
leggen	-10.622
▁Meer	-10.6224
▁draag	-10.6237
▁hang	-10.6238
iseerde	-10.624
▁host	-10.6242
gelegd	-10.6244
▁justice	-10.6246
nor	-10.6248
▁lag	-10.625
▁ideal	-10.6252
▁Bedankt	-10.6252
▁partners	-10.6256
grade	-10.6256
▁activist	-10.6257
▁vinger	-10.6258
▁designers	-10.6259
▁ruim	-10.627
▁directly	-10.6281
▁install	-10.6281
Ma	-10.6283
▁Chicago	-10.6286
▁sample	-10.6286
▁harm	-10.6287
▁balance	-10.6288
▁beïnvloed	-10.629
▁differently	-10.6294
▁ontdekten	-10.6296
How	-10.6299
▁rand	-10.6301
▁beings	-10.6302
verantwoordelijk	-10.6304
▁vent	-10.6308
▁although	-10.6319
▁surgery	-10.6319
▁kleuren	-10.6322
scherm	-10.6325
▁organizations	-10.6325
▁geldt	-10.6326
effect	-10.6327
▁rechter	-10.6329
▁ski	-10.633
Go	-10.6331
wan	-10.6331
▁gebracht	-10.635
▁creativity	-10.6353
▁remarkable	-10.6353
▁husband	-10.6353
▁klopt	-10.6353
▁achtergrond	-10.6355
▁sum	-10.6357
▁gezet	-10.636
▁blauw	-10.636
▁haalde	-10.6361
gh	-10.6369
▁central	-10.6374
▁gaten	-10.6379
▁hell	-10.6381
▁identity	-10.6387
▁filter	-10.6387
▁promise	-10.6388
▁scene	-10.6389
▁replace	-10.6394
▁Tom	-10.6398
▁boys	-10.6399
gie	-10.6403
▁European	-10.6404
ringen	-10.6407
▁tiener	-10.6411
▁party	-10.6412
▁Bar	-10.6421
▁easier	-10.6421
▁geheel	-10.6421
▁vervangen	-10.6421
▁edge	-10.6423
▁geheugen	-10.6425
▁route	-10.6425
▁tekst	-10.6428
▁sleutel	-10.6428
Waarom	-10.643
▁stappen	-10.643
▁seat	-10.643
▁roman	-10.6433
▁planets	-10.6439
▁disappear	-10.6455
▁behoorlijk	-10.6455
▁pers	-10.6456
▁23	-10.6456
▁addition	-10.6456
▁besteden	-10.6456
▁earth	-10.6458
tegen	-10.646
▁weefsel	-10.6464
▁camp	-10.6465
▁crowd	-10.6466
bot	-10.6471
▁published	-10.6471
▁noticed	-10.6479
ua	-10.6479
▁materialen	-10.6489
ieten	-10.6489
▁overtuigen	-10.649
▁dying	-10.649
▁accu	-10.6491
▁attract	-10.6491
▁From	-10.6491
▁orde	-10.6496
▁closer	-10.6496
▁winnen	-10.6496
▁gather	-10.6498
▁reken	-10.6503
▁minst	-10.6505
▁maan	-10.6517
▁gold	-10.6523
▁capacity	-10.6524
▁telescope	-10.6524
▁duur	-10.6525
▁trouw	-10.6526
drijven	-10.6527
▁lief	-10.6528
▁lift	-10.6528
▁invent	-10.6528
▁helping	-10.653
ologen	-10.6535
▁Elk	-10.6538
ë	-10.6538
▁richten	-10.6538
kaart	-10.6547
▁Ok	-10.6552
▁graduate	-10.6558
▁Gu	-10.6558
▁eiland	-10.656
radi	-10.656
▁biologische	-10.6563
▁arbeid	-10.6566
▁trek	-10.6572
gon	-10.6572
▁Your	-10.6576
gebied	-10.6577
▁event	-10.6581
▁causes	-10.6583
staat	-10.6593
▁geboorte	-10.6593
▁surprising	-10.6593
▁podium	-10.6593
▁donkere	-10.6599
Afrika	-10.6601
▁kansen	-10.6607
▁BG	-10.6608
▁leert	-10.6609
▁nearly	-10.6612
▁raakt	-10.662
▁werkten	-10.6623
▁aanwezig	-10.6624
▁Au	-10.6624
▁positieve	-10.6626
▁responsibility	-10.6628
▁sand	-10.6628
▁shoot	-10.6628
▁reeks	-10.6629
▁missing	-10.6632
▁armen	-10.6632
Z	-10.6635
▁truck	-10.6635
▁anyway	-10.6638
▁Zie	-10.6642
houdt	-10.6646
▁fully	-10.665
uele	-10.6652
▁toepassing	-10.6662
▁slightly	-10.6662
▁voorspellen	-10.6662
▁kwijt	-10.6663
▁James	-10.6663
ueel	-10.6663
▁epi	-10.6667
▁tele	-10.6671
▁dozen	-10.6682
▁gift	-10.6682
▁invented	-10.6688
▁nationale	-10.6694
▁wezens	-10.6695
▁criminal	-10.6697
▁commercial	-10.6697
▁easily	-10.6697
▁magazine	-10.6697
▁skelet	-10.6697
▁Tijden	-10.6697
▁determine	-10.6698
▁diversity	-10.6698
▁recover	-10.67
product	-10.6701
▁seconds	-10.6701
niveau	-10.6707
▁norm	-10.6707
▁behulp	-10.6708
moedig	-10.6712
▁volledige	-10.6716
▁Big	-10.672
regel	-10.6732
▁argue	-10.6733
▁creativiteit	-10.6733
▁possibly	-10.6733
▁profound	-10.6733
▁technique	-10.6733
source	-10.6736
geving	-10.6739
▁institution	-10.674
Ze	-10.6742
▁legs	-10.6744
▁individu	-10.6746
iën	-10.6753
▁gericht	-10.6753
tak	-10.6765
▁seemed	-10.6765
▁vroege	-10.6766
▁despite	-10.6768
▁supply	-10.6768
▁goud	-10.677
▁desire	-10.6774
cop	-10.6774
▁hotel	-10.6778
▁border	-10.6785
▁equal	-10.6789
▁members	-10.6793
▁dichter	-10.6798
▁ras	-10.6802
▁conference	-10.6803
▁industrial	-10.6803
▁Boston	-10.6803
▁Center	-10.6803
▁schoonheid	-10.6806
▁circuit	-10.6808
▁zulke	-10.6816
▁beat	-10.6819
▁King	-10.6821
▁total	-10.6824
▁hyper	-10.6827
▁programs	-10.6835
▁persoonlijk	-10.6835
▁introduce	-10.6837
▁inderdaad	-10.6839
▁Great	-10.6839
▁nuttig	-10.6839
▁bak	-10.6848
hoek	-10.6851
our	-10.6858
▁hack	-10.6873
▁iPhone	-10.6874
▁satelliet	-10.6874
▁remove	-10.6874
▁tough	-10.6877
▁suffer	-10.6879
▁investment	-10.6881
▁election	-10.6882
▁logic	-10.6884
▁suit	-10.6908
▁debat	-10.6909
▁Alzheimer	-10.691
▁victim	-10.691
▁Afrikaanse	-10.6911
▁played	-10.6911
▁keken	-10.6916
Amerika	-10.6919
▁joy	-10.6919
▁kilometers	-10.6919
▁passion	-10.6925
start	-10.693
werken	-10.6944
▁imagination	-10.6946
▁divide	-10.6946
▁smell	-10.6946
▁boat	-10.6946
▁bridge	-10.6947
▁player	-10.695
▁hearing	-10.6954
▁stuur	-10.6955
▁gebruikten	-10.6955
▁core	-10.6964
▁beschaving	-10.6982
▁cycle	-10.6982
▁strip	-10.6985
▁grens	-10.6988
▁gesproken	-10.699
▁Heb	-10.6998
▁quote	-10.7002
iff	-10.7004
Dit	-10.7005
▁winst	-10.7007
▁effects	-10.701
▁occur	-10.7017
▁woon	-10.7017
▁Bijvoorbeeld	-10.7018
▁Charles	-10.7018
▁Pakistan	-10.7018
▁shark	-10.7018
▁switch	-10.7018
▁tegelijk	-10.7018
▁outcome	-10.7019
▁morgen	-10.7021
atic	-10.7022
erend	-10.7027
▁engineer	-10.7033
▁gemeen	-10.7054
▁encourage	-10.7054
▁equivalent	-10.7054
▁zuurstof	-10.7054
▁Angeles	-10.7054
▁ancient	-10.7054
▁sharing	-10.7054
▁depression	-10.7054
aging	-10.7056
▁operation	-10.7056
point	-10.7056
▁zocht	-10.7057
▁versus	-10.7058
▁finish	-10.7066
▁zus	-10.7068
stuk	-10.7069
▁stof	-10.7074
▁doorgaan	-10.7077
▁degrees	-10.7078
Music	-10.7086
▁oxygen	-10.709
▁vijand	-10.709
▁aware	-10.7092
kijk	-10.7093
▁reaction	-10.7097
lever	-10.7098
▁liever	-10.7102
Why	-10.7103
▁objecten	-10.7105
▁fill	-10.712
▁opposite	-10.7127
▁tegelijkertijd	-10.7127
▁verkocht	-10.7127
▁empower	-10.7127
▁duik	-10.7134
energie	-10.7137
▁kust	-10.7139
▁stam	-10.7143
▁states	-10.7147
▁kal	-10.7152
▁gotten	-10.7155
▁erbij	-10.7157
▁suffering	-10.7159
▁background	-10.7163
▁ongelofelijk	-10.7163
▁opening	-10.7164
▁classroom	-10.7164
▁meerdere	-10.717
oppen	-10.7171
▁vak	-10.7174
pul	-10.7177
▁studying	-10.7178
▁rap	-10.7179
▁answers	-10.718
▁stoel	-10.7181
▁evolved	-10.7184
▁inspired	-10.7191
▁moon	-10.7194
▁manage	-10.7197
▁religious	-10.72
▁Second	-10.72
▁noise	-10.7201
keer	-10.7202
▁blik	-10.7202
zij	-10.7207
▁mor	-10.7209
▁erachter	-10.7211
▁benefit	-10.7217
▁plane	-10.7217
▁totdat	-10.7218
▁begrijp	-10.7218
▁Ya	-10.7232
▁article	-10.7237
▁erger	-10.7238
▁sustainable	-10.724
ivity	-10.7241
dia	-10.7244
▁27	-10.7244
▁feels	-10.7246
mijn	-10.7249
▁viel	-10.7251
▁levende	-10.7258
▁creatieve	-10.7266
▁Cl	-10.7266
▁uw	-10.727
▁muscle	-10.7274
▁adopt	-10.7275
▁engine	-10.7281
▁deeltjes	-10.7282
industrie	-10.7285
beweging	-10.7285
roll	-10.7299
▁gebrek	-10.7301
uizen	-10.7301
▁Bra	-10.7305
▁schoon	-10.7308
▁giant	-10.7311
▁lachen	-10.7312
▁bestond	-10.7312
▁betaald	-10.7316
▁clo	-10.7328
▁experiments	-10.733
▁zette	-10.7332
nodig	-10.7333
▁molecules	-10.734
▁passed	-10.7345
▁besef	-10.7345
▁infrastructuur	-10.7349
▁oké	-10.7349
▁definitie	-10.7349
▁individuele	-10.7349
▁speel	-10.7352
▁algoritme	-10.7355
▁lucky	-10.7355
▁focused	-10.7356
▁experimenten	-10.7364
▁carry	-10.7371
▁sorry	-10.7377
▁verspreiden	-10.7386
▁populair	-10.7386
▁zenuw	-10.7387
▁efficient	-10.7393
▁weird	-10.7394
▁investeren	-10.7397
▁nest	-10.7398
▁zorgt	-10.74
well	-10.7407
▁schade	-10.7414
▁wetten	-10.7422
▁Vele	-10.7422
▁prior	-10.7423
▁cortex	-10.7424
▁volume	-10.7424
▁Green	-10.7425
▁punten	-10.7429
▁motion	-10.7429
▁vet	-10.743
oloog	-10.7436
▁beroep	-10.7437
▁Pat	-10.7439
▁none	-10.744
ani	-10.7454
▁diverse	-10.7454
▁coffee	-10.7461
▁kwetsbaar	-10.7461
▁bought	-10.7461
▁Hoeveel	-10.7461
▁British	-10.7462
▁Anderson	-10.7462
▁funny	-10.7463
▁hurt	-10.7463
▁fruit	-10.7466
▁boos	-10.747
▁ziek	-10.7475
▁10,000	-10.7478
▁wood	-10.7482
▁cirkel	-10.7499
▁jeugd	-10.75
▁consciousness	-10.7501
▁strength	-10.7501
▁Min	-10.7502
plant	-10.7506
▁uitdagingen	-10.7507
arc	-10.7515
▁rijke	-10.7521
wegen	-10.7522
educ	-10.7522
▁duurde	-10.7524
▁dagelijks	-10.7527
▁produced	-10.7536
▁Eigenlijk	-10.7537
▁monitor	-10.7537
▁twice	-10.7537
▁gevraagd	-10.7537
▁Iemand	-10.7537
▁hielp	-10.7538
▁mini	-10.7538
tz	-10.7538
▁chair	-10.7541
▁regular	-10.7542
▁blow	-10.7542
▁chose	-10.7544
▁Ad	-10.7547
▁patronen	-10.7548
▁devices	-10.7552
Be	-10.7559
cies	-10.7559
▁boeren	-10.7565
▁scenario	-10.7575
▁vluchtelingen	-10.7575
▁verbinden	-10.7576
▁bottle	-10.7576
ette	-10.7577
kker	-10.7581
▁grand	-10.7582
▁raakte	-10.7585
▁cop	-10.7588
onderzoek	-10.7588
▁uitleggen	-10.7591
▁modellen	-10.7604
mine	-10.7611
▁author	-10.7612
▁hopen	-10.7613
▁Obama	-10.7614
▁President	-10.7614
▁dynamic	-10.7614
▁visuele	-10.7614
▁ei	-10.7619
▁strand	-10.762
▁organisaties	-10.7623
▁tekenen	-10.7625
This	-10.7626
kind	-10.7627
anse	-10.7628
▁tegenover	-10.7629
▁blok	-10.7631
▁Gro	-10.7643
burg	-10.7647
jaar	-10.7647
▁employ	-10.7652
▁plaatje	-10.7652
▁Again	-10.7652
▁Sometimes	-10.7652
▁genoom	-10.7654
▁bezorgd	-10.7654
pje	-10.766
▁More	-10.7661
▁eating	-10.7671
▁Take	-10.7677
ijd	-10.7681
▁networks	-10.7681
▁omgaan	-10.7684
▁Iraq	-10.7691
▁vechten	-10.7691
▁civilization	-10.7692
▁hol	-10.7695
▁keren	-10.7696
▁geleid	-10.7724
▁infect	-10.7727
▁controleren	-10.7728
▁Michael	-10.773
▁compleet	-10.773
▁opportunities	-10.773
▁tremendous	-10.773
ock	-10.7732
▁2009	-10.7733
▁planning	-10.7735
▁temperatuur	-10.7737
▁trauma	-10.7739
Nee	-10.774
▁select	-10.7745
▁forces	-10.7759
▁schiet	-10.7763
è	-10.7769
▁Australia	-10.7769
▁negative	-10.7769
▁Londen	-10.7769
▁grappig	-10.7769
▁remote	-10.7769
lip	-10.7769
▁entirely	-10.777
▁eigenschappen	-10.7772
gelaten	-10.7772
▁chirurg	-10.7775
▁Pu	-10.7775
▁oppervlakte	-10.7778
▁elektrische	-10.7781
▁Any	-10.7782
▁maat	-10.7788
tering	-10.7797
▁duizend	-10.7799
▁deeply	-10.7802
▁plus	-10.7805
▁verdwijnen	-10.7808
▁mondiale	-10.7808
▁ramp	-10.7808
▁Russia	-10.7809
▁Tim	-10.7811
▁raised	-10.782
stijl	-10.782
▁tax	-10.7821
child	-10.7822
▁verlaten	-10.7822
ziekte	-10.7824
▁wire	-10.7826
▁ontwikkelde	-10.7834
▁kleiner	-10.7835
matic	-10.7842
illa	-10.7843
▁morele	-10.7843
▁Wikipedia	-10.7847
▁diploma	-10.7847
▁definition	-10.7847
▁prestatie	-10.7847
▁architectuur	-10.7849
▁vaccine	-10.7849
▁surprise	-10.785
▁label	-10.7853
istisch	-10.7854
▁cry	-10.7855
▁twijfel	-10.7857
▁farmers	-10.7859
▁exam	-10.7861
▁positie	-10.7865
▁methode	-10.787
▁kende	-10.7871
▁landschap	-10.7883
▁moslim	-10.7886
▁permanent	-10.7886
▁faith	-10.7886
▁mouth	-10.7886
▁liberal	-10.7886
▁gekregen	-10.7886
▁steek	-10.7886
▁manager	-10.7891
▁complexity	-10.7895
▁eindelijk	-10.7895
kun	-10.7906
▁slag	-10.7918
▁forever	-10.792
▁See	-10.7921
schrift	-10.7922
▁adult	-10.7923
▁estimate	-10.7926
▁illegal	-10.7926
▁ondernemer	-10.7926
▁However	-10.793
▁ultimately	-10.7932
▁probeerden	-10.7935
▁herstellen	-10.7936
euze	-10.7938
▁stream	-10.7939
▁ongelooflijke	-10.7941
ama	-10.7947
▁uitzien	-10.7953
▁flat	-10.7953
▁i	-10.7954
▁spending	-10.7956
▁bees	-10.7962
▁chemische	-10.7965
▁ear	-10.7968
▁chain	-10.7969
▁poging	-10.797
▁root	-10.7974
▁eet	-10.7979
▁agent	-10.7979
▁rechten	-10.798
▁bewijzen	-10.798
zag	-10.7981
▁stonden	-10.7989
▁individuen	-10.7992
▁verrassend	-10.8005
▁stuck	-10.8005
ifice	-10.8008
pped	-10.8017
▁Bur	-10.8017
oei	-10.8019
▁Art	-10.8028
▁termen	-10.8028
▁organism	-10.8029
isering	-10.8032
▁fell	-10.8035
▁succesvol	-10.8036
▁dreams	-10.804
▁expert	-10.8045
▁necessarily	-10.8045
▁herkennen	-10.8045
▁breast	-10.8045
▁borst	-10.8046
▁parent	-10.8047
▁flight	-10.8049
type	-10.8049
▁bright	-10.805
▁herstel	-10.8052
▁signal	-10.8053
▁netwerken	-10.8055
▁frame	-10.8056
▁dimension	-10.8056
▁gal	-10.8056
▁halve	-10.8059
▁perfecte	-10.8064
rrow	-10.8077
▁culturele	-10.808
▁regul	-10.8081
▁cave	-10.8081
wapen	-10.8083
▁Middle	-10.8085
▁alternative	-10.8085
▁application	-10.8085
▁gereedschap	-10.8085
▁opmerkelijk	-10.8086
▁complexiteit	-10.8089
ruis	-10.8091
▁Uit	-10.8094
▁creëer	-10.8097
▁coal	-10.8101
head	-10.8101
▁drawing	-10.8103
▁voordeel	-10.8112
▁pack	-10.8113
▁nul	-10.8121
person	-10.8123
▁termijn	-10.8129
▁solid	-10.8133
▁birds	-10.8134
▁importantly	-10.8134
sturen	-10.8141
▁enable	-10.8144
▁wetenschapper	-10.8146
▁differences	-10.815
▁momenten	-10.815
nee	-10.8155
▁fouten	-10.8158
▁lamp	-10.8159
▁consume	-10.8163
▁enthousiast	-10.8166
▁onderscheid	-10.8166
▁Midden	-10.8166
▁credit	-10.8166
▁responsible	-10.8166
▁majority	-10.8171
▁vorig	-10.8172
▁1,000	-10.8173
▁tijdperk	-10.8175
▁houd	-10.8176
▁miljarden	-10.8179
ruimte	-10.8181
based	-10.8181
▁speciale	-10.8184
▁reward	-10.8184
▁belong	-10.8186
stap	-10.8187
▁speelde	-10.8193
▁seconde	-10.8196
▁habitat	-10.8197
▁notion	-10.8203
▁stom	-10.8205
▁figured	-10.8205
▁huwelijk	-10.8207
▁identify	-10.8207
▁televisie	-10.8207
▁leraren	-10.8207
▁monster	-10.8207
▁onderdelen	-10.8217
vaart	-10.822
▁lens	-10.8221
▁inhoud	-10.8221
▁onderste	-10.8228
▁ziekten	-10.8229
keten	-10.8232
▁absolute	-10.8236
▁Actually	-10.8248
▁Valley	-10.8248
▁decennia	-10.8248
▁exercise	-10.8248
▁koffie	-10.8248
▁studio	-10.8248
▁bloem	-10.8248
▁Af	-10.8248
▁duurzame	-10.8248
▁leveren	-10.8248
▁fabriek	-10.8255
boven	-10.8255
sistent	-10.826
▁refer	-10.8264
▁actief	-10.8265
middelen	-10.8269
▁pure	-10.8272
▁witte	-10.8276
Y	-10.8281
▁engineers	-10.8282
▁betreft	-10.8289
▁locatie	-10.8289
▁honger	-10.8289
▁multiple	-10.8289
▁gevaar	-10.8291
paar	-10.8293
▁36	-10.8299
▁verkeerde	-10.8303
centrum	-10.8303
systemen	-10.8303
▁metal	-10.8307
▁benefits	-10.8311
▁steken	-10.8311
▁beslissing	-10.8312
mulat	-10.8314
▁Fr	-10.8314
▁graph	-10.8315
▁partij	-10.8323
▁mat	-10.8327
▁donker	-10.8329
▁exo	-10.8329
▁metaphor	-10.833
▁niks	-10.833
▁crucial	-10.833
▁gegaan	-10.8331
▁Martin	-10.8332
▁instellingen	-10.8332
▁universal	-10.8337
▁Apple	-10.8338
▁proud	-10.8342
▁gewicht	-10.8343
▁Oost	-10.8355
▁previous	-10.8371
▁Israel	-10.8371
▁brood	-10.8371
▁overtuigd	-10.8372
▁Kenya	-10.8372
▁Drie	-10.8375
ball	-10.838
▁entrepreneur	-10.8387
▁onafhankelijk	-10.8388
▁moeilijke	-10.8391
▁sites	-10.8394
▁mark	-10.8396
▁degene	-10.8401
atuur	-10.8403
▁fles	-10.8405
ung	-10.8408
▁elektro	-10.8412
▁advantage	-10.8413
▁attempt	-10.8413
▁marriage	-10.8413
▁possibility	-10.8413
▁regime	-10.8413
▁gedeelte	-10.8413
▁whale	-10.8413
▁reveal	-10.8413
▁nood	-10.8413
▁instant	-10.842
▁particles	-10.8431
▁600	-10.8436
▁vaker	-10.844
▁missie	-10.844
ppel	-10.8445
▁astro	-10.8453
▁voorbereid	-10.8454
▁zogenaamd	-10.8454
▁Mr	-10.8456
▁clip	-10.8457
oven	-10.8467
▁May	-10.8471
cut	-10.8471
▁island	-10.8474
▁II	-10.8477
▁vul	-10.8479
gging	-10.8492
▁molecule	-10.8494
▁academic	-10.8496
▁illustrat	-10.8496
▁location	-10.8496
▁vermoord	-10.8496
▁repeat	-10.8497
▁dig	-10.8497
▁fold	-10.8501
▁2007	-10.8501
▁coast	-10.8507
▁regio	-10.8508
▁vogel	-10.8511
bedrijf	-10.8512
▁construct	-10.8513
80	-10.8526
▁activiteit	-10.8537
▁foreign	-10.8538
▁disorder	-10.8538
▁debate	-10.8541
▁getal	-10.8543
▁creation	-10.8546
▁earn	-10.8555
▁noemde	-10.8556
▁turning	-10.8557
vind	-10.8558
▁markets	-10.8559
kr	-10.8559
▁doos	-10.856
▁jongeren	-10.856
▁PM	-10.8561
▁Zou	-10.8562
▁voordelen	-10.8562
▁monkey	-10.858
▁survey	-10.858
▁verborgen	-10.858
▁bloot	-10.858
▁technical	-10.8581
▁beseffen	-10.8581
▁nerve	-10.8581
life	-10.8584
▁opened	-10.8585
Wow	-10.8601
cket	-10.8602
pil	-10.8605
ography	-10.8606
▁leerden	-10.8609
▁ernaar	-10.8615
▁designer	-10.8617
▁dinner	-10.8623
Muziek	-10.8623
▁verbeelding	-10.8623
▁serieus	-10.8625
▁crack	-10.8626
Hey	-10.8628
finite	-10.8635
▁bord	-10.8638
▁haat	-10.8642
▁consequences	-10.8647
▁behoefte	-10.865
▁trained	-10.8651
▁grade	-10.8657
▁politici	-10.8665
▁compassie	-10.8665
▁tenminste	-10.8665
▁verminderen	-10.8665
▁Thomas	-10.8665
▁langzaam	-10.8665
▁analog	-10.8667
▁schrijf	-10.8669
▁due	-10.8672
▁gevoelens	-10.8672
than	-10.8672
▁leading	-10.8673
20	-10.8677
▁degree	-10.868
wijk	-10.8681
ancy	-10.8681
▁Will	-10.8683
▁stranger	-10.8686
▁dergelijke	-10.8692
vrij	-10.8697
▁photos	-10.8701
▁tempo	-10.8702
▁geslacht	-10.8708
▁airplane	-10.8708
▁leraar	-10.8708
▁childhood	-10.8709
▁trouwens	-10.871
▁Adam	-10.871
▁behandeld	-10.8711
▁bill	-10.8712
▁holding	-10.8715
▁luid	-10.8719
▁conscious	-10.872
▁laser	-10.8721
▁voorzien	-10.8722
▁bond	-10.8722
▁Island	-10.8723
avond	-10.8725
▁publieke	-10.8725
▁bui	-10.8731
arian	-10.8734
▁fighting	-10.8735
▁marketing	-10.8737
naam	-10.8743
▁failed	-10.8749
▁command	-10.8751
▁perception	-10.8751
▁strategy	-10.8751
▁Wereld	-10.8751
▁Good	-10.8751
▁voorspelling	-10.8751
▁bodem	-10.8751
▁extend	-10.8751
▁pill	-10.8757
punten	-10.876
▁humor	-10.8761
▁kamp	-10.8765
▁expression	-10.8767
That	-10.8768
rige	-10.8768
▁feiten	-10.877
▁uren	-10.8772
▁10.000	-10.8772
▁waarvoor	-10.8778
▁wegen	-10.8781
▁believed	-10.8783
▁meters	-10.8784
spier	-10.8789
▁succeed	-10.8794
▁university	-10.8794
▁yellow	-10.8794
▁piano	-10.8794
▁zand	-10.8797
▁artsen	-10.8799
baarheid	-10.88
spreken	-10.8808
▁flo	-10.8815
▁desert	-10.8815
▁leuke	-10.8816
▁Frans	-10.8817
scale	-10.8829
▁Cor	-10.883
▁electronic	-10.8836
▁begrepen	-10.8837
▁fashion	-10.8837
▁trillion	-10.8837
▁French	-10.8837
▁diversiteit	-10.8838
▁kocht	-10.8838
▁release	-10.8844
▁Did	-10.8849
▁ontmoeten	-10.885
▁Red	-10.8856
stof	-10.8861
▁stopt	-10.8862
breken	-10.8869
▁helder	-10.8871
half	-10.8872
▁specifiek	-10.8877
▁click	-10.8881
verbruik	-10.8881
▁paradigm	-10.8881
▁combinatie	-10.8882
▁schilderij	-10.8882
▁inject	-10.8883
▁dieper	-10.8884
▁dam	-10.8891
▁ill	-10.8896
▁voeding	-10.8897
▁writer	-10.8898
▁krachtige	-10.8903
▁origin	-10.8908
▁gemiddeld	-10.8919
▁cluster	-10.8924
▁narrative	-10.8924
▁toepassen	-10.8925
▁voorwerp	-10.8925
▁novel	-10.8925
▁Talk	-10.8925
▁leadership	-10.8925
▁accurate	-10.8925
▁honor	-10.8926
▁afvragen	-10.8927
▁gezondheids	-10.8928
▁brug	-10.8928
▁compared	-10.893
▁everyday	-10.8933
view	-10.8936
▁diepe	-10.8942
▁lukt	-10.8946
town	-10.8948
▁recente	-10.8949
▁verzamel	-10.8957
▁verbinding	-10.896
oordeel	-10.8964
▁CEO	-10.8968
▁caught	-10.8968
▁uiteraard	-10.8968
▁toevallig	-10.8968
ites	-10.897
▁adults	-10.8973
▁enz	-10.8976
▁scar	-10.8976
shirt	-10.8979
▁openbaar	-10.8985
▁highest	-10.8991
grond	-10.8993
▁ingenieurs	-10.9
▁zover	-10.9004
▁Fo	-10.9004
▁comfort	-10.901
▁brilliant	-10.9012
▁competition	-10.9012
▁rood	-10.9013
▁battle	-10.9013
▁lees	-10.9023
▁events	-10.9025
▁Sam	-10.9026
▁fairly	-10.9028
gekomen	-10.9028
geld	-10.903
▁vertelden	-10.9044
▁beïnvloeden	-10.905
▁Pan	-10.9053
▁tientallen	-10.9057
▁tunnel	-10.9057
▁dress	-10.9057
▁confront	-10.9057
▁management	-10.906
▁Daardoor	-10.9064
▁insecten	-10.9068
▁beweegt	-10.9075
▁Mark	-10.9076
positie	-10.9078
▁vriendin	-10.9079
iviteit	-10.9083
▁wan	-10.9092
▁bewegingen	-10.9095
▁x	-10.9098
▁duurt	-10.9101
▁beslissen	-10.9101
▁fossil	-10.9101
▁neus	-10.9101
▁moeilijker	-10.9103
▁besmet	-10.9104
▁conduct	-10.9107
▁campagne	-10.9109
▁vrouwelijke	-10.911
▁analyse	-10.9111
30	-10.912
▁jo	-10.9122
iaanse	-10.9124
▁oceanen	-10.9138
ura	-10.914
▁Lib	-10.9142
▁bubble	-10.9146
▁extreem	-10.9146
▁worried	-10.9146
▁download	-10.9146
▁smile	-10.9146
▁mysterie	-10.9146
▁Congo	-10.9149
▁tank	-10.9149
▁pig	-10.9149
▁investering	-10.915
▁Web	-10.9156
▁krachten	-10.9156
hood	-10.9158
slanden	-10.9159
▁Irak	-10.9162
▁hiv	-10.9166
▁bol	-10.9168
voeg	-10.9169
▁watched	-10.9169
▁bias	-10.9178
zie	-10.9179
▁sudden	-10.9179
▁researchers	-10.9184
▁independent	-10.9191
▁hidden	-10.9191
▁disaster	-10.9191
▁zomaar	-10.9191
▁odd	-10.9191
▁unfortunately	-10.9193
▁verkeer	-10.9196
▁discuss	-10.9198
▁slapen	-10.9198
▁kerk	-10.9199
▁natie	-10.9199
▁poly	-10.9206
▁walls	-10.9207
▁gezonde	-10.9212
ological	-10.9213
▁Echt	-10.9216
missie	-10.9216
▁straf	-10.9217
▁operate	-10.922
▁redelijk	-10.922
▁vierde	-10.9221
▁begrijpt	-10.9229
▁flag	-10.9236
▁procedure	-10.9236
▁puzzle	-10.9236
▁geraakt	-10.9236
▁court	-10.9237
▁hoogste	-10.9245
▁gesch	-10.9249
bewust	-10.9254
down	-10.9256
▁discovery	-10.9259
▁moleculen	-10.926
drukken	-10.9268
gericht	-10.9269
▁limited	-10.927
▁tuin	-10.9276
▁Hartelijk	-10.9281
▁volunteer	-10.9281
▁married	-10.9281
▁materie	-10.9281
▁emotionele	-10.9282
Sahara	-10.9282
▁north	-10.9283
▁broad	-10.9286
▁assume	-10.9287
ër	-10.9293
▁begreep	-10.9294
▁rondom	-10.93
▁zacht	-10.9301
▁Once	-10.9308
volle	-10.9325
▁Californië	-10.9326
▁speciaal	-10.9326
▁chaos	-10.9326
▁koop	-10.9327
▁Robert	-10.9328
▁opinion	-10.9328
▁icon	-10.9328
▁drone	-10.9328
▁unlike	-10.9331
▁insight	-10.9337
▁Inter	-10.9349
▁Lab	-10.9352
racy	-10.9353
▁leef	-10.9354
▁creatures	-10.9358
▁electric	-10.9363
▁phenomenon	-10.9372
▁verlangen	-10.9372
▁daily	-10.9373
▁Brazilië	-10.9373
▁realiseren	-10.9379
▁studied	-10.9383
▁copy	-10.9386
▁rust	-10.9391
▁constantly	-10.9392
hoe	-10.9396
▁stak	-10.9399
▁weapons	-10.9401
▁vogels	-10.9404
▁tip	-10.9407
▁bird	-10.9409
▁toonde	-10.9411
▁managed	-10.9418
▁necessary	-10.9418
▁potentieel	-10.9418
▁verzeker	-10.9418
▁parallel	-10.9418
▁nurse	-10.942
▁comfortable	-10.942
▁safety	-10.9422
gebieden	-10.9423
▁kaarten	-10.9431
vormen	-10.9433
▁pair	-10.9433
kijken	-10.9434
atory	-10.9436
▁Grote	-10.9442
▁cure	-10.9448
▁poster	-10.9448
▁chi	-10.9449
▁stukken	-10.9453
▁raad	-10.9457
haal	-10.9459
▁verzameld	-10.9461
▁foundation	-10.9463
▁Institute	-10.9464
▁newspaper	-10.9464
▁grab	-10.9469
▁schrijver	-10.9471
team	-10.948
▁Onder	-10.9484
▁statistics	-10.9484
▁topic	-10.9485
▁groeide	-10.9486
▁personage	-10.9486
mid	-10.9488
▁schat	-10.9491
▁eenmaal	-10.9492
kin	-10.9496
▁stukjes	-10.9496
▁vrije	-10.95
▁volwassenen	-10.9503
▁Gene	-10.9505
▁International	-10.951
▁voeden	-10.9511
▁onderzocht	-10.9512
▁pal	-10.9513
tenschappelijk	-10.952
▁transformation	-10.9522
▁considered	-10.9522
▁emotion	-10.9525
rich	-10.9542
▁EM	-10.9544
▁65	-10.9546
vatten	-10.9553
▁economist	-10.9557
▁Life	-10.9559
▁operating	-10.9559
▁capable	-10.9561
▁leader	-10.9567
▁robotic	-10.958
▁graden	-10.9581
▁spiegel	-10.9581
▁lay	-10.9585
▁groeit	-10.9586
▁bevat	-10.9591
▁typ	-10.9592
▁caused	-10.9593
fully	-10.9594
▁Haar	-10.9595
▁wake	-10.96
▁Project	-10.9603
▁artificial	-10.9603
▁discipline	-10.9603
▁instinct	-10.9603
▁mirror	-10.9603
▁traditie	-10.9603
▁leaving	-10.9603
▁brandstof	-10.9604
▁pounds	-10.9604
▁elite	-10.9604
▁compare	-10.9608
▁otherwise	-10.9608
▁opzichte	-10.9609
▁onderzoekers	-10.9611
▁soil	-10.9613
▁concern	-10.9626
▁launch	-10.9626
▁counter	-10.9628
▁finished	-10.9635
▁creëert	-10.9636
▁received	-10.9639
▁typical	-10.964
▁wapens	-10.9642
gedrag	-10.9647
▁businesses	-10.9648
▁Stanford	-10.965
▁fabric	-10.965
▁vergelijken	-10.965
▁admit	-10.965
▁horse	-10.9651
▁Sinds	-10.9651
▁belasting	-10.9651
▁buitengewoon	-10.9651
▁replica	-10.9651
▁grown	-10.9655
▁forced	-10.9657
ulation	-10.966
▁Cap	-10.966
▁mentor	-10.9667
pad	-10.9668
▁hall	-10.9671
▁liter	-10.9672
▁gay	-10.9677
▁brachten	-10.9688
▁era	-10.9689
▁woonde	-10.9692
▁surprised	-10.9694
▁Manhattan	-10.9698
▁survival	-10.9698
▁medium	-10.9698
▁smartphone	-10.9698
▁cow	-10.9699
▁illness	-10.9699
▁veronderstel	-10.9701
▁2005	-10.9703
▁wearing	-10.9706
▁gesprekken	-10.9706
▁lifetime	-10.9712
▁mentioned	-10.9717
gevallen	-10.972
▁deeper	-10.9728
▁lijnen	-10.9728
draag	-10.973
▁Was	-10.9736
▁button	-10.9742
▁autism	-10.9744
baan	-10.9745
▁kenmerken	-10.9745
▁bread	-10.9745
▁onmiddellijk	-10.9745
▁agenda	-10.9745
▁organisms	-10.9747
▁described	-10.9751
▁Human	-10.9752
▁Alleen	-10.9755
gar	-10.9755
▁glas	-10.9756
▁rekening	-10.9759
▁Medic	-10.9759
▁gede	-10.9761
▁Rome	-10.9765
hoofd	-10.9767
▁overeen	-10.977
▁experienced	-10.9771
▁opera	-10.9773
▁slowly	-10.9773
▁stone	-10.9774
pak	-10.9776
▁demonstr	-10.9782
▁clinic	-10.9786
markt	-10.9787
cap	-10.9788
▁initiat	-10.9792
▁geprobeerd	-10.9793
▁rural	-10.9793
▁arrest	-10.9793
▁diagram	-10.9794
▁closed	-10.9795
▁intense	-10.9804
ulate	-10.9811
wood	-10.9814
control	-10.9815
▁row	-10.9827
▁geï	-10.9827
▁manipulat	-10.984
▁fundamenteel	-10.984
▁polar	-10.9841
▁besteed	-10.9841
▁signals	-10.9842
▁inspireren	-10.9844
▁database	-10.9845
▁volgde	-10.9847
▁toekomstige	-10.9853
▁Comp	-10.9861
▁ride	-10.9875
▁250	-10.9878
ji	-10.9878
▁95	-10.9888
▁karakter	-10.9889
▁oorzaak	-10.9889
▁quiet	-10.9889
▁England	-10.9889
▁bevinden	-10.9889
▁translate	-10.9889
▁display	-10.9889
▁curious	-10.989
▁betekende	-10.989
▁ziel	-10.9892
▁lung	-10.9892
▁abuse	-10.9893
▁effectief	-10.9893
▁Jij	-10.9896
▁inspire	-10.9896
▁32	-10.9897
rink	-10.9897
▁Za	-10.9904
▁aanpakken	-10.9907
▁taste	-10.9908
▁Mary	-10.9914
▁duren	-10.9915
▁gesp	-10.9917
▁favor	-10.9921
▁Hollywood	-10.9937
▁briljant	-10.9937
▁collapse	-10.9937
▁exchange	-10.9937
▁woestijn	-10.9937
▁Ghana	-10.9937
▁gedicht	-10.9937
▁Very	-10.9938
▁kies	-10.9938
politi	-10.9938
▁doelen	-10.994
▁hip	-10.994
▁orbit	-10.994
▁verschillend	-10.9944
waarts	-10.9944
▁receive	-10.9949
▁plate	-10.995
▁organismen	-10.9965
▁logisch	-10.9967
film	-10.9967
▁grave	-10.9975
▁doordat	-10.9978
iness	-10.9979
▁panel	-10.9984
▁staten	-10.9985
▁Global	-10.9985
▁Science	-10.9985
▁olifant	-10.9985
▁privilege	-10.9985
▁Texas	-10.9985
▁fresh	-10.9985
▁lager	-10.9986
▁bekende	-10.9991
▁populatie	-10.9994
▁discussion	-10.9997
▁momenteel	-11.0003
verse	-11.0009
Hij	-11.002
40	-11.0025
pple	-11.0025
▁dealing	-11.0028
▁blanke	-11.0032
▁Australië	-11.0034
▁algemene	-11.0034
▁cognitive	-11.0034
▁Nieuw	-11.0034
▁ignore	-11.0034
▁implement	-11.0034
▁kwaad	-11.0034
▁folks	-11.0034
▁invisible	-11.0034
▁wisdom	-11.0034
▁straten	-11.0034
▁garden	-11.0034
▁betekenen	-11.0035
▁verstand	-11.0036
word	-11.0037
gooi	-11.0039
▁chart	-11.004
▁peer	-11.0041
rug	-11.0054
▁unieke	-11.0056
theorie	-11.0057
▁Star	-11.0061
▁expected	-11.0062
▁round	-11.0064
But	-11.007
omb	-11.0071
Maar	-11.0076
▁bind	-11.0079
▁gedeeld	-11.008
▁Israël	-11.0083
▁categorie	-11.0083
▁equation	-11.0083
▁wolken	-11.0083
▁guide	-11.0083
▁stood	-11.0083
▁intellectual	-11.0083
graaf	-11.0084
voudig	-11.009
wal	-11.0092
▁Germany	-11.0093
▁followed	-11.0101
▁beschrijven	-11.0103
▁currently	-11.0103
probleem	-11.0106
▁beantwoorden	-11.0108
If	-11.0119
▁Bob	-11.0124
▁kar	-11.013
▁lagen	-11.0132
▁channel	-11.0132
▁elephant	-11.0132
▁centimeter	-11.0132
▁mathematics	-11.0132
▁veroorzaken	-11.0132
▁shoes	-11.0133
▁pocket	-11.0134
▁split	-11.0136
▁perfectly	-11.0138
▁related	-11.0138
▁tegenstelling	-11.0145
oma	-11.0145
▁vertical	-11.0151
▁define	-11.0151
▁hielden	-11.0152
▁concerned	-11.0159
▁Cal	-11.0163
▁mono	-11.0166
▁losing	-11.0171
▁Ken	-11.0172
▁voorstel	-11.0179
▁tail	-11.0181
▁schilder	-11.0181
station	-11.0181
▁contribute	-11.0182
▁establish	-11.0182
▁fascinating	-11.0182
▁ondersteunen	-11.0182
▁spijt	-11.0182
▁rational	-11.0183
▁implant	-11.0183
▁attach	-11.0183
▁fellow	-11.0183
tuin	-11.0183
▁flip	-11.0186
▁shut	-11.0188
rische	-11.019
▁falen	-11.0192
▁soul	-11.0193
▁tape	-11.0195
▁resource	-11.0197
friend	-11.0205
vermogen	-11.0205
▁invited	-11.0207
▁bedoeling	-11.0209
▁hogere	-11.021
▁pool	-11.0215
ett	-11.0217
▁killing	-11.0222
▁paying	-11.0223
▁picked	-11.0224
▁warming	-11.0225
▁Microsoft	-11.0232
▁official	-11.0232
▁Three	-11.0232
▁genezen	-11.0236
▁clinical	-11.0239
▁associated	-11.0241
▁advance	-11.0245
▁unless	-11.0249
▁talen	-11.0252
▁hyp	-11.0257
power	-11.026
▁typisch	-11.0267
▁actor	-11.0269
▁waardevol	-11.027
▁Binnen	-11.0282
▁autisme	-11.0283
▁Britse	-11.0285
▁kruis	-11.0286
▁Jim	-11.0292
▁tijdje	-11.0295
▁koppel	-11.0297
▁treated	-11.0299
cular	-11.0299
problemen	-11.0306
▁knop	-11.0306
▁gelooft	-11.0321
▁extract	-11.0323
brand	-11.0329
▁nervous	-11.0332
▁voertuig	-11.0332
▁error	-11.0336
▁heilig	-11.0338
▁26	-11.0341
▁member	-11.0346
▁centrale	-11.0351
▁fase	-11.0352
▁seriously	-11.0355
spiegel	-11.0356
kanker	-11.0359
▁Mor	-11.0367
position	-11.0372
▁overheden	-11.0378
▁Rwanda	-11.0382
▁verwoest	-11.0382
▁simpelweg	-11.0384
▁hangt	-11.0385
▁sluiten	-11.0389
▁Have	-11.0391
genoten	-11.0391
▁script	-11.0391
▁opdracht	-11.0392
▁moedig	-11.0392
▁increasingly	-11.0392
▁voldoende	-11.0393
Oosten	-11.0402
ridge	-11.0403
▁therapie	-11.0404
▁input	-11.0407
▁Mac	-11.0414
▁prediction	-11.0424
▁analysis	-11.0433
▁hiermee	-11.0434
▁walvis	-11.0434
dragen	-11.0443
▁feitelijk	-11.0448
▁involve	-11.0448
▁calling	-11.0456
rijden	-11.0463
▁filled	-11.0468
▁horizon	-11.0482
▁beperkingen	-11.0484
▁intuïtie	-11.0484
▁technologische	-11.0484
▁courage	-11.0484
▁empty	-11.0484
▁fossiele	-11.0484
▁oudere	-11.0485
▁sheet	-11.0496
▁Hoewel	-11.0501
▁State	-11.0502
west	-11.0503
▁oefen	-11.0516
▁opgenomen	-11.0518
▁whi	-11.052
▁wit	-11.0527
▁minuut	-11.0536
▁vulnerable	-11.0536
▁stijgen	-11.0536
▁1980	-11.0538
▁signaal	-11.054
▁woede	-11.054
▁relation	-11.0543
gif	-11.0544
▁Air	-11.0546
▁poem	-11.0546
kwamen	-11.0547
▁dubbel	-11.0554
▁mega	-11.0556
vrucht	-11.0557
▁snelle	-11.0561
▁tons	-11.0572
▁relative	-11.0577
aries	-11.0581
liep	-11.0581
▁zoom	-11.0583
▁wapen	-11.0584
hesi	-11.0586
▁Museum	-11.0587
▁diabetes	-11.0587
á	-11.0587
▁maintain	-11.0587
▁Black	-11.0587
▁dominant	-11.0587
▁droog	-11.0588
▁Iets	-11.0591
▁Other	-11.0595
▁vlees	-11.0597
▁conferentie	-11.0598
▁load	-11.0599
▁schok	-11.06
▁plannen	-11.0601
beelden	-11.0604
▁setting	-11.0605
▁reform	-11.0605
▁Part	-11.0612
▁leider	-11.0623
▁gedacht	-11.0626
▁hide	-11.0635
▁doubt	-11.0639
▁epidemic	-11.0639
▁fascinerend	-11.0639
▁goedkoop	-11.0639
▁wheel	-11.0639
▁judge	-11.0639
▁existence	-11.0639
▁schoenen	-11.0639
▁raam	-11.0639
▁feminist	-11.0639
▁bekijkt	-11.0639
▁fiction	-11.0641
▁structuren	-11.0644
▁season	-11.0644
▁Zonder	-11.0646
▁verwijderd	-11.0647
▁club	-11.0648
▁coach	-11.0653
▁Tegen	-11.0654
▁slaan	-11.0657
gemaakt	-11.0665
▁fourth	-11.0675
▁gele	-11.0679
▁fragment	-11.0691
▁galaxy	-11.0691
▁grandmother	-11.0691
▁rapport	-11.0692
▁mouse	-11.0694
▁beroemde	-11.0696
wijze	-11.0696
▁woont	-11.0698
▁loud	-11.0699
▁daarop	-11.0712
▁publish	-11.0719
▁28	-11.073
▁essential	-11.0732
▁Last	-11.0733
▁gast	-11.0738
▁stuurde	-11.0742
▁dry	-11.0742
▁1960	-11.0743
▁ordinary	-11.0743
▁quantum	-11.0743
▁silence	-11.0743
▁polio	-11.0743
▁onthouden	-11.0744
▁firm	-11.0744
▁transition	-11.0745
kop	-11.0747
▁spell	-11.0753
▁stok	-11.0759
▁mail	-11.076
▁Samen	-11.0769
▁launched	-11.0771
wil	-11.0773
▁signalen	-11.0777
▁hierover	-11.0784
leren	-11.0791
scan	-11.0795
í	-11.0796
▁biljoen	-11.0796
▁nauwelijks	-11.0796
▁practical	-11.0796
▁teenager	-11.0796
▁automatisch	-11.0796
▁bekeken	-11.0796
▁trein	-11.0796
▁titel	-11.0798
▁Peter	-11.0804
▁skill	-11.0808
▁bestudeerd	-11.0815
▁react	-11.0817
▁tall	-11.0819
zijde	-11.0822
materiaal	-11.0822
dacht	-11.0826
wekkend	-11.083
▁geloofde	-11.0834
▁Act	-11.0838
▁slagen	-11.084
▁Jack	-11.084
▁diensten	-11.084
▁embrace	-11.0849
▁stupid	-11.0849
▁property	-11.0849
▁vóór	-11.0849
▁contrast	-11.0849
▁zware	-11.0849
▁emissions	-11.0849
▁verkennen	-11.0849
▁verdedig	-11.0849
▁twintig	-11.0849
▁vermoed	-11.0849
▁Bank	-11.0854
▁bescherming	-11.0859
▁moord	-11.0859
stan	-11.0874
oxi	-11.0875
schappen	-11.0878
▁broke	-11.0881
▁arrived	-11.0882
ibility	-11.0902
▁2011	-11.0902
▁celebrate	-11.0902
▁galaxies	-11.0902
▁mathematical	-11.0902
▁werknemers	-11.0902
▁klanten	-11.0902
▁industriële	-11.0902
▁metabol	-11.0902
▁lawyer	-11.0903
▁limb	-11.0904
▁combination	-11.0904
▁ethic	-11.0906
▁vrijwel	-11.0911
vaardig	-11.0912
▁kick	-11.0914
▁processes	-11.0917
▁bureau	-11.0919
▁eer	-11.0926
▁erom	-11.0928
▁danger	-11.093
▁technische	-11.093
▁normally	-11.0943
ngeveer	-11.0955
▁agriculture	-11.0956
▁concrete	-11.0956
▁gecreëerd	-11.0956
▁participate	-11.0956
▁verklaring	-11.0956
▁liquid	-11.0956
▁Engeland	-11.0956
▁vlag	-11.0956
▁facing	-11.0956
▁weather	-11.0956
▁review	-11.0963
▁ongeluk	-11.0964
▁omvang	-11.0965
▁testing	-11.0967
▁stip	-11.0969
▁invention	-11.0969
▁director	-11.0978
round	-11.0983
organisatie	-11.0983
gemeenschap	-11.0983
▁militaire	-11.0995
house	-11.1002
grav	-11.1005
▁apparaten	-11.1009
▁equipment	-11.1009
▁glimlach	-11.1009
▁praktijk	-11.1009
▁uitgevonden	-11.1009
▁vessel	-11.1009
▁helaas	-11.1009
▁Health	-11.1009
▁opgelost	-11.1009
▁variety	-11.101
▁hopefully	-11.1011
▁addict	-11.1012
▁1950	-11.1013
▁prefer	-11.1013
▁creatief	-11.1013
▁beschermd	-11.1014
▁construction	-11.1016
▁speaker	-11.1019
ectie	-11.1024
▁Their	-11.1033
▁protection	-11.1034
ontwerp	-11.1037
▁emotie	-11.1038
▁organized	-11.104
▁alien	-11.1045
▁leden	-11.1055
stromen	-11.1057
▁nergens	-11.1063
▁technological	-11.1063
▁Space	-11.1063
▁reclame	-11.1063
▁verkoop	-11.1063
▁transfer	-11.1065
rommel	-11.1065
genoot	-11.1066
back	-11.1068
▁drag	-11.1074
▁habit	-11.1077
▁statement	-11.1079
▁bijzondere	-11.109
▁tag	-11.1091
X	-11.1091
▁urge	-11.1092
▁statistic	-11.1094
bedrijven	-11.1097
▁wondering	-11.1099
▁Westen	-11.1102
aanse	-11.1115
▁organic	-11.1116
▁1990	-11.1118
▁Dankjewel	-11.1118
▁ontstond	-11.1118
▁regard	-11.1118
▁oneindig	-11.1118
▁internal	-11.1118
▁makkelijker	-11.1123
▁saved	-11.1124
▁2004	-11.1124
▁fysiek	-11.1124
▁buren	-11.1125
▁Vrouw	-11.1126
oid	-11.1127
▁compete	-11.1127
▁steel	-11.1131
▁klik	-11.1134
▁100,000	-11.1134
▁muren	-11.1135
▁plak	-11.1138
▁collection	-11.1143
▁opname	-11.1168
communic	-11.1172
▁chimpansee	-11.1172
▁GDP	-11.1172
▁sweet	-11.1172
▁attitude	-11.1172
▁eindigen	-11.1173
▁geraken	-11.1173
▁wiskundige	-11.1173
▁teveel	-11.1175
▁zichtbaar	-11.1178
▁tijdschrift	-11.1178
▁Would	-11.1178
▁Port	-11.1182
chip	-11.1187
▁quarter	-11.1197
▁transplant	-11.1201
▁reef	-11.1207
noem	-11.1214
▁sending	-11.122
▁voegen	-11.1225
▁merken	-11.1226
▁encounter	-11.1227
▁heavy	-11.1227
▁studeren	-11.1227
▁transparant	-11.1227
▁microscope	-11.1227
▁schouder	-11.1227
▁verkiezingen	-11.1227
▁Christian	-11.1227
▁High	-11.1228
▁title	-11.1229
▁south	-11.1229
▁verhouding	-11.1235
stroom	-11.1235
▁tekort	-11.1236
▁Alex	-11.1238
▁relatively	-11.1239
▁elementen	-11.1244
▁dame	-11.1251
face	-11.1259
▁gli	-11.126
▁Bel	-11.1263
▁advanced	-11.1268
▁Wall	-11.1276
▁vee	-11.1278
▁alcohol	-11.1283
▁calorie	-11.1283
▁reserve	-11.1283
▁hardware	-11.1283
▁bevindt	-11.1283
▁beslist	-11.1283
▁rende	-11.1283
▁educate	-11.1283
▁mieren	-11.1295
▁grid	-11.1295
▁poet	-11.1297
▁daardoor	-11.1311
Yes	-11.1325
▁critic	-11.1333
making	-11.1335
seizoen	-11.1338
▁absorb	-11.1338
▁importance	-11.1338
▁mosquito	-11.1338
▁William	-11.1338
▁valuable	-11.1338
▁escape	-11.1338
▁initial	-11.1339
▁uitvoeren	-11.1339
▁gehele	-11.1339
▁crop	-11.1339
▁bevrijd	-11.1341
▁peak	-11.1344
▁rapidly	-11.1346
▁verbrand	-11.135
▁bezocht	-11.1357
▁Super	-11.1366
graph	-11.1368
▁spul	-11.1372
trekking	-11.1373
▁hangen	-11.1376
▁stopte	-11.1378
▁donor	-11.139
▁Everybody	-11.1394
▁Foundation	-11.1394
▁geïnspireerd	-11.1394
▁pleasure	-11.1394
▁underneath	-11.1394
▁2012	-11.1394
▁Helaas	-11.1394
▁neural	-11.1394
▁federal	-11.1394
▁gooien	-11.1394
aliteit	-11.1396
▁Bush	-11.1398
▁wagen	-11.1401
▁kip	-11.1408
▁exception	-11.1413
▁moed	-11.1416
phone	-11.1423
▁surround	-11.1425
▁knie	-11.1425
▁neuron	-11.1427
▁elect	-11.1433
▁totale	-11.1435
hield	-11.1444
▁optie	-11.1445
▁Antarctica	-11.145
▁Florida	-11.145
▁Gelukkig	-11.145
▁nauwkeurig	-11.145
▁stierf	-11.145
▁verbetering	-11.145
▁tomorrow	-11.145
▁aanpassen	-11.145
▁praktisch	-11.145
▁convert	-11.1451
▁prime	-11.1451
▁witness	-11.1452
▁Arabische	-11.1455
▁Welke	-11.1455
stoel	-11.146
▁toestand	-11.1466
tail	-11.1468
lik	-11.1473
▁spoor	-11.1474
▁gigantische	-11.1475
▁gered	-11.1477
▁antibiotic	-11.1487
▁Spi	-11.1488
snel	-11.1491
▁standpunt	-11.1494
▁voeten	-11.15
▁noemden	-11.1504
▁medicijn	-11.1505
▁noodzakelijk	-11.1507
▁mammal	-11.1507
▁uitzondering	-11.1507
▁perceive	-11.1507
integrati	-11.1508
▁pitch	-11.151
▁verdeeld	-11.151
▁fijn	-11.1511
▁2,000	-11.1514
▁legde	-11.1514
▁covered	-11.152
▁Groot	-11.1521
▁verbindingen	-11.1526
▁soft	-11.1537
vriend	-11.1537
▁Rob	-11.1539
▁bike	-11.1542
dieren	-11.1545
rekening	-11.1546
▁Kenia	-11.1548
grijpen	-11.1552
▁gebruikers	-11.1561
▁according	-11.1563
▁vergeleken	-11.1563
▁advocate	-11.1563
▁chicken	-11.1563
▁soldiers	-11.1564
▁politicians	-11.1564
▁aandoening	-11.1564
▁rocket	-11.1566
▁specifically	-11.1566
▁getallen	-11.1566
▁stelden	-11.1568
box	-11.1573
▁dodelijk	-11.1574
▁presentatie	-11.1575
▁vat	-11.1578
▁bouwden	-11.1584
▁bronnen	-11.1589
▁joke	-11.159
rouwen	-11.1596
▁sight	-11.16
MA	-11.16
▁tries	-11.1603
▁height	-11.1607
▁assumption	-11.1621
▁explanation	-11.1621
▁gepubliceerd	-11.1621
▁onderneming	-11.1621
▁1970	-11.1621
▁Ebola	-11.1621
▁cyber	-11.1621
▁religieuze	-11.1621
▁snow	-11.1621
▁uitvinding	-11.1621
▁leeg	-11.1621
▁vierkante	-11.1623
▁effectieve	-11.1628
▁electrical	-11.1629
▁hopelijk	-11.1631
▁knee	-11.1633
▁kostte	-11.1643
computer	-11.1652
▁breken	-11.1656
▁gehouden	-11.1667
▁released	-11.1669
afdeling	-11.167
▁factory	-11.1671
vrouw	-11.1674
▁fenomeen	-11.1678
▁observation	-11.1678
▁conclude	-11.1678
▁Duits	-11.1678
▁distinct	-11.1678
▁Universiteit	-11.1679
▁sugar	-11.1679
▁Japanese	-11.1679
geef	-11.168
▁sterft	-11.1681
▁onlangs	-11.1682
▁wand	-11.1688
▁sterker	-11.1689
▁toenemen	-11.1696
▁Lang	-11.1698
▁sms	-11.1711
▁120	-11.1717
adem	-11.1721
▁increasing	-11.1724
▁client	-11.1736
▁surgeon	-11.1736
▁hormone	-11.1736
▁Everything	-11.1736
▁church	-11.1736
▁dichtbij	-11.1737
▁Duitsland	-11.1737
▁organiseren	-11.1738
sloeg	-11.1738
▁reject	-11.174
▁kapitaal	-11.1742
▁2006	-11.1742
hold	-11.1744
▁capaciteit	-11.1745
▁trok	-11.1745
lijst	-11.1749
▁verwerken	-11.1753
▁bezit	-11.1756
▁meaningful	-11.1758
▁activiteiten	-11.1759
▁proef	-11.1759
▁classic	-11.1765
▁gesteld	-11.1773
▁server	-11.1775
▁string	-11.1783
▁Matt	-11.1783
▁beroemd	-11.1788
vleugel	-11.1794
▁$1	-11.1794
▁Central	-11.1794
▁circumstance	-11.1794
▁possibilities	-11.1794
▁concert	-11.1794
▁mannetje	-11.1794
▁shame	-11.1795
▁severe	-11.1796
flat	-11.1796
▁corruption	-11.1796
▁Since	-11.1799
▁bleven	-11.18
▁spreek	-11.1804
▁ertoe	-11.1811
▁100.000	-11.1813
▁dots	-11.1815
break	-11.1826
▁uniek	-11.1841
▁Sea	-11.1843
▁relate	-11.185
▁disrupt	-11.1852
▁kitchen	-11.1852
▁ontvangen	-11.1852
▁paradox	-11.1852
▁wortel	-11.1852
▁soldaten	-11.1853
▁Women	-11.1853
▁awful	-11.1855
▁pray	-11.1859
▁herhaal	-11.1859
long	-11.186
▁gebroken	-11.1862
▁Hy	-11.1864
netwerk	-11.1866
▁infection	-11.1872
▁effectively	-11.1876
▁vriendelijk	-11.1877
▁tal	-11.1878
▁hire	-11.1882
▁scared	-11.1886
▁rent	-11.1889
▁1000	-11.189
▁file	-11.19
▁distribution	-11.1911
▁exploit	-11.1911
▁violent	-11.1911
▁voornamelijk	-11.1911
▁announce	-11.1911
▁microbes	-11.1912
▁chemistry	-11.1912
▁France	-11.1913
▁corruptie	-11.1915
▁Gates	-11.1917
▁kloof	-11.1918
▁engaged	-11.1919
▁daarbij	-11.1921
▁bedenk	-11.1922
bio	-11.1924
▁marine	-11.1928
zitten	-11.1928
▁ruw	-11.1929
▁ego	-11.1933
▁arrive	-11.1934
▁added	-11.1935
▁plat	-11.1937
▁poten	-11.1942
productie	-11.1954
▁geneesmiddelen	-11.1958
▁German	-11.1959
media	-11.1962
▁drukken	-11.1965
▁drinken	-11.1967
▁Oxford	-11.197
▁consumption	-11.197
▁inspiration	-11.197
▁manufacturing	-11.197
▁keuken	-11.197
▁excuse	-11.197
▁Brown	-11.1971
▁elders	-11.1971
▁verliefd	-11.1971
▁verwond	-11.1973
▁fake	-11.1977
▁stenen	-11.1979
▁transformatie	-11.198
gelach	-11.1981
▁wrap	-11.1981
▁aardig	-11.1982
▁sprong	-11.1983
▁tribe	-11.1984
▁accepteren	-11.1984
▁ants	-11.199
▁muis	-11.1992
sfeer	-11.1992
▁relatief	-11.1995
leef	-11.1995
▁quo	-11.1999
▁doorheen	-11.2007
▁dramatisch	-11.2012
▁bevatten	-11.2013
▁Bay	-11.2017
▁recept	-11.2018
▁gevoelig	-11.2018
▁mention	-11.2018
▁Scott	-11.203
▁maatschappelijk	-11.203
▁september	-11.203
▁routine	-11.203
▁swim	-11.203
▁balloon	-11.203
▁Titan	-11.203
▁parking	-11.2031
▁glad	-11.2031
▁citizen	-11.2037
▁cutting	-11.204
▁carefully	-11.204
▁benader	-11.2048
▁alarm	-11.2049
▁melt	-11.2049
▁aspecten	-11.2054
▁begeleid	-11.2061
▁thin	-11.2063
▁convinced	-11.2065
stitution	-11.2066
▁however	-11.2067
structuur	-11.2067
▁bergen	-11.2084
▁correspond	-11.209
▁negatieve	-11.209
▁producing	-11.209
▁vernietigen	-11.209
▁MRI	-11.209
▁worldwide	-11.209
▁biedt	-11.2091
▁liedje	-11.2091
▁houding	-11.2091
▁wijsheid	-11.2092
▁evil	-11.2092
▁dankzij	-11.2093
▁consistent	-11.2093
▁settle	-11.2095
▁roughly	-11.2097
▁kap	-11.21
▁positief	-11.2101
▁steen	-11.211
▁tube	-11.2116
profit	-11.2123
gevoel	-11.2124
geleid	-11.2128
foot	-11.2131
▁vertrouwd	-11.2132
▁grad	-11.2134
▁wijzen	-11.2137
▁serie	-11.214
▁Pra	-11.214
foto	-11.2141
▁buck	-11.2144
▁astronaut	-11.215
▁inspiratie	-11.215
▁laboratorium	-11.215
▁platteland	-11.215
▁verdwenen	-11.215
▁gekozen	-11.215
▁navigat	-11.215
▁Number	-11.215
▁gisteren	-11.215
▁incentive	-11.215
▁worm	-11.2151
▁Britain	-11.2151
▁zwemmen	-11.2152
▁gevecht	-11.2152
▁Mag	-11.2153
▁Grand	-11.2158
storm	-11.2159
▁Amerikaan	-11.216
▁selling	-11.2161
rick	-11.2167
▁wal	-11.2171
▁Brit	-11.2178
▁selectie	-11.2181
▁pond	-11.2189
▁eigenaar	-11.2195
▁increased	-11.2209
▁activities	-11.2211
▁gezamenlijk	-11.2211
▁ontzettend	-11.2211
▁verplaatsen	-11.2211
▁leiderschap	-11.2211
letter	-11.2212
▁2003	-11.2217
▁apartment	-11.2219
▁pulled	-11.2221
▁33	-11.2223
▁succesvolle	-11.2228
▁piek	-11.2241
wille	-11.2249
▁hal	-11.225
maakt	-11.2253
▁handle	-11.2259
▁machtig	-11.2262
▁radiation	-11.2272
▁toevoegen	-11.2272
▁employees	-11.2272
▁Could	-11.2272
▁decline	-11.2272
▁flash	-11.2272
▁stock	-11.2275
▁geur	-11.2278
▁2001	-11.2279
▁staff	-11.2279
▁affected	-11.228
▁klok	-11.2283
▁journal	-11.229
▁dankbaar	-11.2293
klei	-11.2296
▁gut	-11.2298
▁hiervoor	-11.2298
ographic	-11.2299
design	-11.2307
▁historical	-11.2317
virus	-11.2317
To	-11.2317
▁district	-11.2333
▁empathy	-11.2333
▁misbruik	-11.2333
▁properties	-11.2333
▁Oceaan	-11.2333
▁hallucin	-11.2333
▁baas	-11.2333
▁gevormd	-11.2333
▁rijkdom	-11.2334
▁spullen	-11.2335
▁Yet	-11.2336
▁Latin	-11.2339
▁vreselijk	-11.2346
▁stilte	-11.2349
▁weekend	-11.235
▁kwal	-11.2355
▁plas	-11.2355
▁cast	-11.2359
wise	-11.2365
▁potentially	-11.2368
▁leiding	-11.2393
▁Day	-11.2394
▁bepaalt	-11.2395
▁geconfronteerd	-11.2395
▁grandfather	-11.2395
▁occasion	-11.2395
▁suiker	-11.2395
▁vagina	-11.2395
▁angry	-11.2395
▁ontstaat	-11.2395
▁koken	-11.2395
▁hydrogen	-11.2398
▁essentieel	-11.24
▁bestaande	-11.2404
▁sporen	-11.2411
▁statistieken	-11.2423
▁warmte	-11.2427
▁voeg	-11.2435
▁reached	-11.2436
▁800	-11.2443
▁spreekt	-11.2446
ville	-11.2447
▁smaak	-11.2447
▁Silicon	-11.2457
▁dilemma	-11.2457
▁genocide	-11.2457
▁molecular	-11.2457
▁privé	-11.2457
▁verbaasd	-11.2457
▁yesterday	-11.2457
▁waarschuw	-11.2457
▁meerderheid	-11.2457
Audience	-11.2457
▁deserve	-11.2458
▁melk	-11.246
▁nose	-11.2463
▁Four	-11.2466
▁dreig	-11.2467
▁demonstrate	-11.2468
▁uitgevoerd	-11.2468
▁prepared	-11.2479
▁convince	-11.2483
▁jail	-11.2484
▁fundamentally	-11.249
▁noch	-11.2493
▁marker	-11.2493
schot	-11.2499
▁essentie	-11.2514
stone	-11.2519
▁traject	-11.2519
▁Bangladesh	-11.2519
▁Vervolgens	-11.2519
▁chimpanzee	-11.2519
▁dolphin	-11.2519
▁lichamen	-11.2519
▁onverwacht	-11.2519
▁phrase	-11.2519
▁physicist	-11.2519
telescoop	-11.2519
▁finance	-11.2519
▁mystery	-11.252
▁pilot	-11.252
▁voorkeur	-11.2521
bord	-11.2523
▁primary	-11.2524
▁genieten	-11.2525
▁Hong	-11.2527
▁Hill	-11.2534
soorten	-11.2535
▁productive	-11.2537
▁maag	-11.2538
▁Hou	-11.254
▁sculpture	-11.2545
gelegen	-11.2547
▁benadering	-11.2568
▁tanden	-11.2575
vil	-11.2578
▁Vietnam	-11.2582
▁Smith	-11.2582
▁emerging	-11.2582
▁awesome	-11.2582
▁murder	-11.2582
▁seksuele	-11.2583
▁branch	-11.2583
▁gebeurtenissen	-11.2583
▁spiritual	-11.2584
▁vital	-11.2584
▁passionate	-11.2585
▁lezing	-11.2586
▁vereist	-11.2588
lamp	-11.2589
▁toxic	-11.2589
▁reverse	-11.2593
▁willekeurige	-11.2594
tolerant	-11.2597
▁oorspronkelijke	-11.26
loosheid	-11.26
▁Kom	-11.2615
▁AI	-11.2637
▁2015	-11.2646
▁challenging	-11.2646
▁collaboration	-11.2646
▁moleculair	-11.2646
▁verklaren	-11.2646
▁verplicht	-11.2646
▁Design	-11.2646
▁transmit	-11.2646
▁beloning	-11.2647
▁introduced	-11.2648
▁appreciate	-11.2648
▁transportation	-11.2654
▁combineren	-11.2654
▁bug	-11.266
▁reactor	-11.2661
▁saai	-11.2663
▁stoffen	-11.267
▁cup	-11.2672
cultuur	-11.2683
▁verkracht	-11.2686
▁terrorisme	-11.2691
▁stapel	-11.2694
kosten	-11.2695
▁Vol	-11.2704
boom	-11.2705
▁advies	-11.2709
▁illusion	-11.2709
▁length	-11.2709
▁vermijden	-11.2709
▁repair	-11.2709
▁milk	-11.2709
▁microben	-11.271
▁entertainment	-11.271
▁leerlingen	-11.2711
▁export	-11.2714
▁appropriate	-11.2715
▁pump	-11.2719
▁gesloten	-11.2725
▁hoorden	-11.2727
crisis	-11.2747
▁officer	-11.2754
plek	-11.2756
▁vreselijke	-11.276
rank	-11.2761
▁infectie	-11.2768
▁Saturn	-11.2773
▁authentic	-11.2773
Publiek	-11.2773
▁Research	-11.2773
▁aangetoond	-11.2773
▁conclusion	-11.2773
▁gedood	-11.2773
▁While	-11.2773
▁plotseling	-11.2773
▁stretch	-11.2773
▁zoogdier	-11.2773
▁definitely	-11.2774
▁immers	-11.2774
▁Naar	-11.2776
▁evolutionary	-11.2777
▁hoeveelheden	-11.2777
▁House	-11.278
▁eigendom	-11.2783
▁Video	-11.2784
▁cognitieve	-11.2785
▁85	-11.2787
▁ergste	-11.2795
▁evolve	-11.2801
▁generally	-11.2809
▁mask	-11.2814
Weet	-11.2817
▁brave	-11.2823
▁volle	-11.2825
▁uiterst	-11.2826
voca	-11.2828
some	-11.2836
explosie	-11.2838
▁NGO	-11.2838
▁conclusie	-11.2838
▁decennium	-11.2838
▁inclusief	-11.2838
▁toegankelijk	-11.2838
▁kweken	-11.2838
▁kleding	-11.2838
▁omlaag	-11.2841
▁linker	-11.2841
▁bossen	-11.2842
▁atoms	-11.2845
schaal	-11.2848
▁droeg	-11.2849
▁Azië	-11.2851
▁leefden	-11.2867
▁pipe	-11.2869
▁driven	-11.2876
▁electro	-11.2878
doel	-11.2885
▁maal	-11.2885
straf	-11.2898
▁hydro	-11.29
▁bedreigd	-11.2903
▁metafoor	-11.2903
▁therapy	-11.2903
▁equality	-11.2908
▁blank	-11.2909
▁teeth	-11.2909
▁29	-11.2913
▁dagelijkse	-11.2921
▁Bang	-11.2925
bron	-11.2939
▁lacht	-11.2943
▁defined	-11.2952
pelijke	-11.2953
▁carrying	-11.2957
▁700	-11.2962
▁computation	-11.2968
verschuiving	-11.2968
▁pregnant	-11.2968
▁sophisticated	-11.2968
▁zwaartekracht	-11.2968
▁psychological	-11.2968
▁recycle	-11.2968
▁waarneming	-11.2968
▁koraal	-11.2968
▁incident	-11.2968
▁erkennen	-11.2968
▁consult	-11.2968
▁regelmatig	-11.2969
▁overtuiging	-11.2969
▁zonnestelsel	-11.2969
▁surf	-11.297
▁visible	-11.297
▁steal	-11.297
▁clever	-11.2972
▁gezinnen	-11.2974
▁wedstrijd	-11.2983
▁mile	-11.3007
▁alternatieve	-11.3034
▁jihad	-11.3034
▁verrassing	-11.3034
ö	-11.3034
▁clothes	-11.3034
▁allebei	-11.3034
▁awareness	-11.3037
▁streven	-11.3037
▁acid	-11.3042
wetenschap	-11.3043
einde	-11.3044
▁bellen	-11.3048
tien	-11.3053
▁funding	-11.3053
▁Rio	-11.3062
therapie	-11.3074
▁uitmaken	-11.3076
▁dramatic	-11.31
▁Waarschijnlijk	-11.31
▁alledaags	-11.31
▁compromis	-11.31
▁harvest	-11.31
▁intervention	-11.31
▁schaduw	-11.31
▁variation	-11.31
▁vreugde	-11.31
▁senior	-11.31
▁haaien	-11.31
▁ambitie	-11.31
▁predator	-11.3102
▁biologist	-11.3102
▁improvement	-11.3109
▁onbekende	-11.3109
▁lady	-11.3114
▁pijnlijk	-11.3115
digit	-11.3116
▁genetisch	-11.312
▁bijdragen	-11.3125
▁tand	-11.3131
▁zingen	-11.3135
eeuw	-11.3142
geluid	-11.3142
▁bra	-11.3153
▁Cambridge	-11.3167
▁beschouwen	-11.3167
▁democratic	-11.3167
▁dimensies	-11.3167
▁elegant	-11.3167
▁neiging	-11.3167
▁physician	-11.3167
▁domestic	-11.3167
▁nadenkt	-11.3167
▁optimism	-11.3167
▁opwindend	-11.3167
▁geschikt	-11.3167
▁intention	-11.3167
▁rescue	-11.3167
▁Vorig	-11.3168
▁modul	-11.3171
▁kwart	-11.3171
ografische	-11.3171
▁stadium	-11.3173
▁Enkele	-11.3176
▁merkte	-11.3178
▁dansen	-11.3188
▁nieuwsgierig	-11.321
▁bereik	-11.3211
▁opgeleid	-11.3211
ounce	-11.3215
▁evolutionair	-11.3227
▁naturally	-11.3231
▁accomplish	-11.3234
▁advice	-11.3234
▁trigger	-11.3234
▁Higgs	-11.3234
▁omgekeerd	-11.3234
▁Vijf	-11.3234
▁roepen	-11.3235
▁dropped	-11.3236
▁section	-11.3238
▁underwater	-11.324
▁personally	-11.3246
▁Arm	-11.3249
▁bovenop	-11.3258
▁kopie	-11.3258
pagina	-11.3275
Waar	-11.3282
▁schakel	-11.3282
▁printer	-11.3283
▁aanvaard	-11.3291
liggende	-11.3295
mensen	-11.3299
▁pose	-11.3301
▁beschouwd	-11.3302
▁exploration	-11.3302
▁gravity	-11.3302
▁uitgebreid	-11.3302
▁verdieping	-11.3302
▁verjaardag	-11.3302
▁GPS	-11.3302
assemble	-11.3302
▁terrein	-11.3302
bol	-11.3309
▁belde	-11.3311
schrijven	-11.3316
▁terrorism	-11.3322
......	-11.3323
▁receptor	-11.3326
▁tar	-11.3339
▁physically	-11.3351
▁brak	-11.3362
▁opeens	-11.3366
▁sustain	-11.3367
▁AB	-11.3369
à	-11.337
▁Pacific	-11.337
▁gewelddadig	-11.337
▁integrate	-11.337
▁motivate	-11.337
▁battery	-11.337
▁lokaal	-11.337
▁reference	-11.337
▁healthcare	-11.337
▁verdriet	-11.337
▁mechanical	-11.337
▁framework	-11.337
▁grain	-11.3374
▁2050	-11.3376
▁Union	-11.3378
gepakt	-11.3384
stroming	-11.339
▁blu	-11.3405
▁required	-11.3411
blad	-11.3419
▁voldoen	-11.3427
hard	-11.343
klimmen	-11.3436
▁breathe	-11.3437
▁ingredient	-11.3438
▁LED	-11.3438
▁Perhaps	-11.3438
▁analyze	-11.3438
▁grotendeels	-11.3438
▁lecture	-11.3438
▁toestemming	-11.3438
▁unusual	-11.3438
▁struck	-11.3438
▁sphere	-11.3438
▁assign	-11.3438
▁flood	-11.3438
▁rush	-11.3438
apparatuur	-11.3438
▁behave	-11.3439
▁rubber	-11.3439
▁unknown	-11.3439
▁wound	-11.3442
▁profession	-11.3442
▁Paris	-11.3443
▁shall	-11.3451
▁Vertel	-11.3457
▁achteruit	-11.3462
▁magnet	-11.3463
▁immune	-11.3474
▁behoeften	-11.3475
▁Hetzelfde	-11.348
economie	-11.3481
verkiezing	-11.3507
▁centuries	-11.3507
▁gentlemen	-11.3507
▁onvermijdelijk	-11.3507
▁rechtstreeks	-11.3507
▁verkrijg	-11.3507
▁expertise	-11.3507
▁computing	-11.3507
▁memories	-11.3507
▁garage	-11.3507
anthrop	-11.3508
▁gelezen	-11.3509
▁poetry	-11.3509
▁directeur	-11.351
▁authority	-11.3511
▁verhuisd	-11.3512
▁virussen	-11.3513
▁virtuele	-11.3513
▁haast	-11.352
▁Homo	-11.352
▁eeuwig	-11.3523
▁dish	-11.353
▁ineens	-11.3532
▁boxes	-11.3535
verhaal	-11.3542
auto	-11.3542
▁Plan	-11.3549
American	-11.355
▁Hol	-11.3554
▁nauw	-11.3556
▁functional	-11.3558
▁busy	-11.3558
▁ultimate	-11.3565
kleur	-11.3568
▁commit	-11.3572
▁duurzaam	-11.3573
▁zwanger	-11.3574
▁efficiency	-11.3576
▁oxytocin	-11.3576
vervuiling	-11.3576
▁klassieke	-11.3576
▁instruction	-11.3577
▁verhogen	-11.3577
▁raket	-11.3577
▁inequality	-11.3577
▁domein	-11.3577
▁ultra	-11.3577
▁barrier	-11.3577
▁onzichtbaar	-11.3577
▁greenhouse	-11.3577
▁toegepast	-11.3578
▁vocht	-11.3579
▁scherp	-11.3582
▁Mike	-11.3587
▁flies	-11.3587
▁hieraan	-11.3589
▁ballon	-11.3593
▁rip	-11.3594
▁VN	-11.3596
▁Ang	-11.3597
▁presentation	-11.36
▁antibiotica	-11.3601
▁convention	-11.3609
▁klap	-11.361
▁detector	-11.3613
stoffen	-11.362
letje	-11.363
▁Olympic	-11.3646
▁glamour	-11.3646
▁hypothese	-11.3646
▁identificeren	-11.3646
▁opwarming	-11.3646
▁policies	-11.3646
▁puzzel	-11.3646
▁surveillance	-11.3646
▁illusie	-11.3646
▁gewend	-11.3646
▁department	-11.3646
▁spider	-11.3647
▁impuls	-11.3647
▁Minister	-11.3647
▁govern	-11.3647
▁filmpje	-11.3649
▁engagement	-11.3653
▁aangepast	-11.3656
drie	-11.3663
▁getuige	-11.3664
▁37	-11.3664
▁toename	-11.3665
zaak	-11.3666
▁hackers	-11.3672
▁Later	-11.3676
▁graphic	-11.3676
breek	-11.3682
▁painful	-11.3685
voeding	-11.3691
▁sexy	-11.37
direct	-11.3704
born	-11.3714
▁neurowetenschap	-11.3717
▁bedreiging	-11.3717
▁chromosome	-11.3717
▁geholpen	-11.3717
▁misdaad	-11.3717
▁psychology	-11.3717
▁NSA	-11.3717
▁secure	-11.3717
▁stedelijke	-11.3717
▁swimming	-11.3717
▁trace	-11.3717
▁football	-11.3717
▁Sorry	-11.3718
▁tenzij	-11.3719
▁commitment	-11.372
▁ongelijkheid	-11.372
▁goedkope	-11.3726
stukken	-11.3728
▁bound	-11.3729
fish	-11.3737
▁waaronder	-11.3759
student	-11.3761
▁vouw	-11.378
ndanks	-11.3787
▁alsjeblieft	-11.3788
▁belachelijk	-11.3788
▁calculate	-11.3788
▁cruciaal	-11.3788
▁deploy	-11.3788
▁epidemie	-11.3788
▁innovative	-11.3788
▁ritual	-11.3788
▁complain	-11.3788
▁phase	-11.3788
▁applied	-11.3788
▁style	-11.3788
▁lekker	-11.379
▁suck	-11.3794
▁pijl	-11.3795
▁bizarre	-11.3799
▁leap	-11.38
▁42	-11.38
▁output	-11.3815
▁geavanceerde	-11.3816
▁viruses	-11.3819
▁55	-11.3822
▁organize	-11.3827
▁colleague	-11.3832
blok	-11.3852
▁luck	-11.3855
▁pile	-11.3858
▁constrain	-11.3859
▁batterij	-11.3859
▁fortunate	-11.3859
▁penguin	-11.3859
▁providing	-11.3859
▁shadow	-11.3859
▁manifest	-11.3859
▁sneeuw	-11.3859
▁conservation	-11.3863
▁voetbal	-11.3866
▁welvaart	-11.3866
▁Long	-11.3867
▁dalen	-11.3873
▁Bijna	-11.3873
▁dump	-11.388
▁boring	-11.3884
▁dik	-11.3884
▁oefening	-11.3886
▁surrounded	-11.3891
▁Far	-11.3897
blazen	-11.3901
▁Andere	-11.3907
bronnen	-11.3907
achter	-11.3924
▁zwem	-11.393
cyclus	-11.3931
schrijving	-11.3931
▁confidence	-11.3931
▁psychologist	-11.3931
▁evenwicht	-11.3931
▁vooroordelen	-11.3931
▁Disney	-11.3931
▁Syria	-11.3931
▁verloor	-11.3931
▁retire	-11.3932
▁pretend	-11.3932
▁password	-11.3932
▁truc	-11.3934
itude	-11.3938
sky	-11.3939
leider	-11.3946
▁hartelijk	-11.3966
▁waarderen	-11.3966
▁daarover	-11.3969
▁compar	-11.3971
▁attend	-11.3975
▁oudste	-11.3981
modellen	-11.3982
active	-11.3986
▁mannelijke	-11.3994
▁goedkoper	-11.3994
▁ratio	-11.4
▁weigh	-11.4
▁September	-11.4004
▁ecosysteem	-11.4004
▁immense	-11.4004
▁mortality	-11.4004
▁symmetrie	-11.4004
▁verschijnen	-11.4004
▁ziekenhuizen	-11.4004
▁Republic	-11.4004
▁variatie	-11.4004
▁afternoon	-11.4004
▁scholar	-11.4004
▁asteroid	-11.4004
▁verbeterd	-11.4004
▁causing	-11.4004
▁false	-11.4004
▁verbazen	-11.4004
▁Rusland	-11.4004
erzijds	-11.4004
▁tevoren	-11.4004
▁Blue	-11.4004
▁leefde	-11.4004
▁hoping	-11.4008
▁professionele	-11.4012
▁lying	-11.4012
▁schip	-11.4015
▁clock	-11.4016
▁3,000	-11.4017
eeuwse	-11.4025
▁Tweede	-11.4031
kunst	-11.4032
▁verslag	-11.4037
▁dense	-11.4049
pool	-11.4053
▁march	-11.4054
▁sluit	-11.4068
▁biologisch	-11.4069
▁conserv	-11.4072
Brittannië	-11.4077
▁dolfijn	-11.4077
▁literature	-11.4077
▁manufacture	-11.4077
▁uniform	-11.4077
▁programmeren	-11.4077
▁stort	-11.4083
▁Tony	-11.4085
▁defend	-11.4092
▁typically	-11.4095
▁zwee	-11.4104
lash	-11.4104
▁geë	-11.4109
▁invite	-11.4116
waarschijnlijk	-11.4124
▁draaide	-11.4125
factor	-11.4125
▁fiber	-11.4134
tress	-11.4136
Mijn	-11.4139
▁Remember	-11.415
▁evaluat	-11.415
▁horrible	-11.415
▁pollution	-11.415
▁uitzonderlijk	-11.415
▁aanpassing	-11.415
▁consumenten	-11.415
snijden	-11.415
▁solving	-11.415
▁Trans	-11.415
▁stigma	-11.415
▁resistance	-11.4151
▁sunlight	-11.4152
▁voorzichtig	-11.4152
▁thick	-11.4153
▁stunt	-11.4163
▁overvloed	-11.4165
▁nerd	-11.4167
▁bless	-11.4173
▁equally	-11.4174
▁Come	-11.4193
▁graf	-11.4194
dubbel	-11.4197
▁hoefde	-11.4197
▁Jane	-11.42
vlucht	-11.4201
▁specialist	-11.4202
▁campus	-11.421
▁pour	-11.4211
▁Christmas	-11.4224
▁explode	-11.4224
▁introvert	-11.4224
▁origami	-11.4224
▁opgegroeid	-11.4224
▁Before	-11.4224
▁griep	-11.4224
▁smoke	-11.4225
▁vloer	-11.4225
▁diameter	-11.4226
▁collectieve	-11.4227
▁vullen	-11.4228
book	-11.423
▁Dur	-11.4231
▁voren	-11.4242
▁toeval	-11.4244
▁zwak	-11.4246
▁scary	-11.4251
spanning	-11.4272
taart	-11.4297
▁boerderij	-11.4299
▁gedwongen	-11.4299
▁georganiseerd	-11.4299
▁verscheiden	-11.4299
▁desperate	-11.4299
▁kunstmatige	-11.4299
▁license	-11.4299
▁globe	-11.4299
▁audio	-11.4299
▁drill	-11.4299
▁emotioneel	-11.43
▁meditat	-11.4302
▁eisen	-11.4302
activiteit	-11.4305
▁narrow	-11.4306
▁fluid	-11.4308
▁Six	-11.4311
▁geneesmiddel	-11.4315
▁gehaald	-11.4315
▁objective	-11.4318
▁golven	-11.4323
▁MT	-11.4323
▁spanning	-11.4325
▁Democrat	-11.4337
▁electron	-11.4339
chauffeur	-11.4374
▁concurrent	-11.4374
▁immigrant	-11.4374
▁recommend	-11.4374
▁vergelijkbaar	-11.4374
▁destruction	-11.4374
▁guard	-11.4374
▁inherent	-11.4374
▁Wereldoorlog	-11.4374
▁engaging	-11.4374
▁auteur	-11.4374
▁motive	-11.4375
▁rising	-11.4375
▁suspect	-11.4375
▁dramatically	-11.4375
▁ticket	-11.4375
▁rechterkant	-11.4376
▁bedekt	-11.4379
▁koos	-11.438
▁vrijwilligers	-11.438
▁cash	-11.4381
▁welzijn	-11.4384
▁rabbi	-11.4384
▁economisch	-11.4401
shot	-11.4415
illion	-11.4417
maak	-11.4433
hart	-11.4446
▁Nobody	-11.445
▁Unfortunately	-11.445
▁empathie	-11.445
▁motivatie	-11.445
▁somewhat	-11.445
▁White	-11.445
▁knock	-11.445
▁leugen	-11.445
▁Daarmee	-11.445
▁uitziet	-11.445
▁laboratory	-11.445
▁ought	-11.445
wijzen	-11.445
▁Frankrijk	-11.4451
▁haalt	-11.4451
▁birthday	-11.4451
▁Albert	-11.4452
▁dancing	-11.4453
▁verliet	-11.4454
▁analyseren	-11.4455
▁chat	-11.4457
▁verwachtingen	-11.4458
▁rook	-11.4458
▁eigenschap	-11.4461
▁palm	-11.4476
viel	-11.4477
▁teruggaan	-11.4481
gevoerd	-11.4482
▁genie	-11.4486
winkel	-11.4489
▁slip	-11.4496
▁edit	-11.45
stream	-11.45
▁Shi	-11.45
class	-11.4501
schuld	-11.4504
▁draai	-11.4506
edurende	-11.4524
▁rijst	-11.4524
consumptie	-11.4526
▁Nederland	-11.4526
▁bicycle	-11.4526
▁deelnemers	-11.4526
▁motivation	-11.4526
▁oorsprong	-11.4526
▁psychologie	-11.4526
▁tsunami	-11.4526
▁iPod	-11.4526
▁uitdrukking	-11.4526
▁presence	-11.4526
▁silk	-11.4526
▁Parijs	-11.4526
▁telephone	-11.4526
▁kloppen	-11.4527
spannen	-11.4527
▁productivity	-11.4528
▁kapot	-11.4528
▁Everyone	-11.4529
▁jaarlijks	-11.453
lucht	-11.453
▁Abou	-11.4531
▁angle	-11.4533
▁5,000	-11.4536
▁herinneringen	-11.4537
▁persoonlijkheid	-11.4539
▁editor	-11.4541
jarig	-11.4548
▁east	-11.4561
▁hill	-11.4571
maatschappij	-11.4577
structure	-11.4577
called	-11.4581
▁Square	-11.4603
▁chapter	-11.4603
▁column	-11.4603
▁commerciële	-11.4603
▁dioxide	-11.4603
▁judgment	-11.4603
▁pinguïn	-11.4603
▁sensitive	-11.4603
▁veroorloven	-11.4603
▁historische	-11.4603
▁lengte	-11.4603
▁belofte	-11.4603
▁conservative	-11.4604
▁zowat	-11.4604
▁committed	-11.4604
▁Anyway	-11.4605
▁wireless	-11.4605
▁housing	-11.4606
▁tight	-11.4613
▁nabij	-11.4617
▁schone	-11.4626
▁debt	-11.465
kamp	-11.468
▁aantrekkelijk	-11.4681
▁candidate	-11.4681
▁schaamte	-11.4681
▁stimuleren	-11.4681
▁Chinees	-11.4681
▁FBI	-11.4681
▁scream	-11.4681
▁sweat	-11.4682
▁elektronisch	-11.4682
▁overcome	-11.4682
▁reconstruct	-11.4683
▁Wetenschap	-11.4687
zucht	-11.4688
▁fysica	-11.4691
▁prostitu	-11.4701
▁Maak	-11.4705
▁raar	-11.4705
▁dergelijk	-11.471
▁classes	-11.4719
▁klasse	-11.472
wandel	-11.4749
▁anxiety	-11.4759
▁obstacle	-11.4759
▁silent	-11.4759
▁veteran	-11.4759
▁Something	-11.4759
▁Louis	-11.4759
▁medeleven	-11.4759
▁carried	-11.4759
▁intellectuele	-11.4759
▁uitzoeken	-11.4759
▁huilen	-11.4759
▁stamcellen	-11.476
Fi	-11.476
▁mechanisch	-11.476
▁Kort	-11.4762
▁zonlicht	-11.4763
▁romantic	-11.4763
▁refuse	-11.4764
▁aanwezigheid	-11.4766
▁190	-11.4769
▁gestuurd	-11.4778
houding	-11.4806
binnen	-11.4811
omgeving	-11.4816
▁vrijwillig	-11.4831
▁Tegenwoordig	-11.4837
▁academisch	-11.4837
▁negeren	-11.4837
▁tenslotte	-11.4837
▁Kinderen	-11.4837
▁Bronx	-11.4837
▁Greek	-11.4837
▁extent	-11.4838
▁brown	-11.4838
▁geschenk	-11.4839
▁tonight	-11.4839
▁sail	-11.4839
▁mineral	-11.4839
▁capitalism	-11.484
▁minstens	-11.4841
▁onderwijzen	-11.4842
▁Kong	-11.4847
kleed	-11.4851
▁bovenaan	-11.4853
plaat	-11.4866
▁functioneren	-11.487
▁Gold	-11.4873
▁impos	-11.4878
▁blijf	-11.488
play	-11.4881
dollar	-11.489
other	-11.4902
schoen	-11.4907
▁thermo	-11.4909
▁afkomstig	-11.4917
▁beschreven	-11.4917
▁dynamisch	-11.4917
▁gewonnen	-11.4917
▁philosophy	-11.4917
▁unexpected	-11.4917
bijeenkomst	-11.4917
▁lifestyle	-11.4917
▁regret	-11.4917
▁grateful	-11.4917
▁overwinnen	-11.4917
▁racism	-11.4917
▁opbouwen	-11.4919
▁occurred	-11.4919
▁continuous	-11.492
▁scanner	-11.492
▁blame	-11.4921
▁Brian	-11.4921
▁juni	-11.4926
▁Howard	-11.494
▁wiel	-11.496
beleid	-11.4971
▁confident	-11.4997
▁distributed	-11.4997
▁geproduceerd	-11.4997
▁hedendaagse	-11.4997
▁simulation	-11.4997
▁suggereer	-11.4997
▁symbool	-11.4997
▁ultieme	-11.4997
▁vergadering	-11.4997
▁zelfmoord	-11.4997
▁muggen	-11.4997
▁opkomst	-11.4997
▁distant	-11.4997
▁Henry	-11.4997
▁vermeld	-11.4997
▁afgelegen	-11.5003
▁regulation	-11.5005
▁stroke	-11.5005
▁cheat	-11.5011
▁uitmaakt	-11.5015
eigen	-11.5027
conscious	-11.5051
▁zoet	-11.5052
ificatie	-11.5054
phy	-11.5055
oorlog	-11.5056
▁Auto	-11.5064
OK	-11.5073
Nou	-11.5074
▁betrouwbaar	-11.5077
▁library	-11.5077
▁neutral	-11.5077
▁opgewonden	-11.5077
▁proportion	-11.5077
▁Alexander	-11.5077
▁Parkinson	-11.5077
▁Uganda	-11.5077
▁gescheiden	-11.5077
▁klinische	-11.5077
▁revenue	-11.5077
▁radar	-11.5077
▁Nogmaals	-11.5077
▁tevreden	-11.5077
▁genius	-11.5077
▁verbergen	-11.5078
▁gekeken	-11.5078
▁household	-11.5079
▁Terug	-11.5079
▁brandstoffen	-11.5079
▁draad	-11.508
▁sales	-11.508
▁Media	-11.508
▁stammen	-11.5082
▁precisely	-11.5085
bracht	-11.5094
▁dringen	-11.5096
▁pace	-11.5102
level	-11.5113
Oké	-11.5132
worth	-11.5133
macht	-11.5146
▁Woo	-11.5155
▁Stephen	-11.5159
▁TEDTalk	-11.5159
▁automatically	-11.5159
▁bibliotheek	-11.5159
▁compound	-11.5159
▁ingrediënt	-11.5159
▁millimeter	-11.5159
▁vrachtwagen	-11.5159
▁stierven	-11.5159
▁beperken	-11.5159
▁trait	-11.5159
▁literatuur	-11.5159
▁kritisch	-11.5161
▁Turk	-11.5161
tocht	-11.5165
▁controlled	-11.5167
▁produceert	-11.5167
▁nep	-11.5173
▁staart	-11.5175
▁lading	-11.5178
▁meenemen	-11.5179
▁medisch	-11.5193
▁conventional	-11.5202
▁gekke	-11.5204
gewicht	-11.5214
Zo	-11.5215
▁koel	-11.5217
Look	-11.5221
▁willekeurig	-11.5226
entiële	-11.5238
▁alternatief	-11.5241
▁corporate	-11.5241
▁external	-11.5241
▁identical	-11.5241
▁matrix	-11.5241
▁medication	-11.5241
▁County	-11.5241
▁Finally	-11.5241
▁activism	-11.5241
▁honderdduizend	-11.5241
Audio	-11.5241
▁linkerkant	-11.5242
▁Haiti	-11.5242
▁infant	-11.5242
▁Julia	-11.5242
▁verwijderen	-11.5243
▁welcome	-11.5247
▁selection	-11.5249
▁buitenland	-11.5258
▁herhalen	-11.526
▁72	-11.5266
▁woe	-11.5267
▁chest	-11.527
verandering	-11.5271
▁buik	-11.528
▁constructie	-11.5292
▁dikke	-11.5293
bureau	-11.5297
golven	-11.5297
doet	-11.5306
▁virtue	-11.5316
▁Jupiter	-11.5323
▁asteroïde	-11.5323
▁philosopher	-11.5323
▁regenwoud	-11.5323
▁vanzelfsprekend	-11.5323
▁vergeet	-11.5323
▁upload	-11.5323
▁durf	-11.5324
▁careful	-11.5324
▁verdient	-11.5324
▁nogmaals	-11.5324
▁subtiel	-11.5324
▁scheppen	-11.5326
▁depth	-11.5328
▁eiwitten	-11.5329
▁bull	-11.5338
melt	-11.5339
▁31	-11.5345
▁Still	-11.5346
park	-11.5351
▁quit	-11.5359
Korea	-11.538
zocht	-11.5382
▁Land	-11.5388
▁snelweg	-11.5399
▁geleidelijk	-11.5406
osphere	-11.5407
▁Philip	-11.5407
▁curiosity	-11.5407
▁dopamine	-11.5407
▁Vaak	-11.5407
▁Cuba	-11.5407
▁traag	-11.5407
▁Lagos	-11.5407
▁nowhere	-11.5407
▁expectations	-11.5407
▁echo	-11.5407
▁Moore	-11.5408
▁productiviteit	-11.5408
▁floating	-11.5409
▁kerst	-11.541
▁horizontal	-11.541
▁buitenlandse	-11.5411
▁Andrew	-11.5412
▁plug	-11.5413
▁June	-11.542
▁personality	-11.5422
▁suppose	-11.5454
▁zwakke	-11.5466
▁taxi	-11.5482
▁Carolina	-11.5491
▁kolonie	-11.5491
▁mathematician	-11.5491
▁obsessed	-11.5491
▁phenomena	-11.5491
▁ridiculous	-11.5491
▁suicide	-11.5491
▁tienduizenden	-11.5491
▁vloeistof	-11.5491
▁overeenkomst	-11.5491
▁berekenen	-11.5491
▁ongeacht	-11.5491
▁stabiel	-11.5491
▁College	-11.5491
▁versterken	-11.5491
▁dwars	-11.5491
▁flew	-11.5491
▁uitvinden	-11.5491
▁genereren	-11.5491
▁chemo	-11.5491
▁borstkanker	-11.5491
zetting	-11.5491
▁medewerkers	-11.5491
▁Revolution	-11.5491
▁rennen	-11.5491
▁Koran	-11.5492
definieer	-11.5495
▁singing	-11.5499
wetenschapper	-11.5502
▁gray	-11.5504
▁formule	-11.5504
▁organisch	-11.5511
▁KB	-11.5516
▁schets	-11.5517
free	-11.5542
field	-11.5558
▁rapid	-11.5569
▁flexibel	-11.5575
▁ongemakkelijk	-11.5575
▁pensioen	-11.5575
▁synaps	-11.5575
▁zuiver	-11.5575
▁bloei	-11.5575
▁exposed	-11.5575
▁kritiek	-11.5575
▁reduction	-11.5575
▁Ocean	-11.5575
▁preserve	-11.5575
▁optimal	-11.5576
▁Golf	-11.5576
▁copyright	-11.5576
▁optreden	-11.5576
▁imaging	-11.5577
▁balans	-11.5578
▁woordenboek	-11.5579
▁darm	-11.5581
▁nationaal	-11.5581
▁focussen	-11.5586
▁zinvol	-11.559
▁innerlijk	-11.5593
▁resist	-11.5594
▁River	-11.5595
▁kleren	-11.5599
▁ensure	-11.5605
▁giftig	-11.5614
▁magnetic	-11.5616
ggle	-11.5622
▁hoofdstuk	-11.5628
publiek	-11.5636
graad	-11.5638
▁poo	-11.5647
▁Singapore	-11.5661
▁appartement	-11.5661
▁filosofie	-11.5661
▁guarantee	-11.5661
▁heuvel	-11.5661
▁oorzaken	-11.5661
▁recognition	-11.5661
▁thumb	-11.5661
▁absurd	-11.5661
▁digitaal	-11.5661
▁herself	-11.5661
▁Mandela	-11.5661
▁shelter	-11.5661
▁ugly	-11.5661
▁Hallo	-11.5661
▁westerse	-11.5662
▁speelgoed	-11.5662
▁rijdt	-11.5662
▁distract	-11.5662
agnost	-11.5663
▁prioriteit	-11.5663
▁knap	-11.5664
▁2030	-11.5666
▁spark	-11.5672
▁concentreren	-11.5673
▁mijzelf	-11.5674
▁streng	-11.5684
▁stack	-11.5689
richting	-11.5697
▁rif	-11.5701
▁bestudeer	-11.5716
▁vrouwtje	-11.5717
▁semi	-11.5717
▁Carl	-11.572
mission	-11.5721
▁optimistic	-11.5734
▁App	-11.5738
▁gebeurtenis	-11.5746
▁aardbeving	-11.5747
▁burgemeester	-11.5747
▁natuurkunde	-11.5747
▁verbluffend	-11.5747
▁Nelson	-11.5747
▁hectare	-11.5747
▁autoriteit	-11.5747
▁spreker	-11.5747
▁klinken	-11.5747
▁strike	-11.5747
▁amateur	-11.5747
▁appeal	-11.5748
stijging	-11.5748
▁minimal	-11.5749
▁orange	-11.575
▁schedel	-11.5751
▁overleefd	-11.5752
▁toneel	-11.5752
▁exhibition	-11.5752
▁personeel	-11.5766
▁Afrikanen	-11.5769
▁realiseer	-11.5776
spring	-11.5777
▁optimistisch	-11.5778
▁Geef	-11.5782
▁interne	-11.5789
blijven	-11.5808
snelheid	-11.5813
sleep	-11.5819
kust	-11.5821
▁vervolg	-11.5834
▁January	-11.5834
▁juridisch	-11.5834
▁migrant	-11.5834
▁renewable	-11.5834
▁veerkracht	-11.5834
▁citaat	-11.5834
▁measuring	-11.5834
▁onzichtbare	-11.5834
▁studeerde	-11.5834
▁gestopt	-11.5834
▁voorwaarden	-11.5834
▁Tesla	-11.5835
▁atomen	-11.5837
▁affair	-11.5837
▁schatting	-11.5839
▁mild	-11.584
▁darkness	-11.5843
▁meedoen	-11.5843
▁heerlijk	-11.5844
▁2002	-11.5848
▁daad	-11.5849
vlogen	-11.5852
▁advise	-11.5857
▁historic	-11.5858
▁creatie	-11.5859
▁drum	-11.586
▁divers	-11.5861
trans	-11.5874
changing	-11.5898
tafel	-11.5902
angezien	-11.5903
programmeer	-11.5903
▁Haïti	-11.5922
▁buitengewone	-11.5922
▁exponential	-11.5922
▁frankly	-11.5922
▁jungle	-11.5922
▁marathon	-11.5922
▁ontwierp	-11.5922
▁universities	-11.5922
▁lobby	-11.5922
▁wijzigen	-11.5922
▁Meestal	-11.5922
▁besparen	-11.5922
▁sensation	-11.5922
▁profile	-11.5922
▁General	-11.5922
▁geplaatst	-11.5922
▁zozeer	-11.5922
▁Welnu	-11.5923
▁priest	-11.5924
▁hook	-11.5925
▁align	-11.5926
▁raw	-11.5927
▁mindset	-11.5929
▁poorest	-11.594
▁leak	-11.5941
▁pomp	-11.5948
▁rustig	-11.5951
▁salt	-11.5954
rechtvaardigheid	-11.5959
methode	-11.5985
▁respons	-11.6008
▁diagnostic	-11.601
▁Ethiopia	-11.601
▁Tanzania	-11.601
▁cooperation	-11.601
▁geëvolueerd	-11.601
▁uncomfortable	-11.601
▁verdwijnt	-11.601
▁vergelijkbare	-11.601
▁minimum	-11.601
▁plenty	-11.601
▁Basically	-11.601
▁drove	-11.601
▁ladies	-11.601
▁Next	-11.601
▁euro	-11.6011
▁zoektocht	-11.6011
▁slum	-11.6012
▁dronk	-11.6012
gebonden	-11.6012
▁borrow	-11.6013
▁Derek	-11.6013
▁voormalig	-11.6014
▁meegemaakt	-11.6015
▁headline	-11.6022
q	-11.6025
▁boord	-11.6027
▁Japanse	-11.603
▁richtte	-11.603
▁ingenieur	-11.6036
▁update	-11.6065
present	-11.6068
geschreven	-11.6073
material	-11.6073
koppel	-11.6076
cycli	-11.6087
▁wiskundig	-11.6099
▁Atlanta	-11.61
▁Gandhi	-11.61
▁corporation	-11.61
▁fascinated	-11.61
▁radicaal	-11.61
▁struggling	-11.61
▁tragedie	-11.61
▁underground	-11.61
▁Detroit	-11.61
▁Hawaii	-11.61
▁salaris	-11.61
▁frequentie	-11.61
▁lijf	-11.61
▁ongelukkig	-11.61
▁bullet	-11.61
▁noorden	-11.61
▁kader	-11.61
▁wachtwoord	-11.6101
▁facial	-11.6102
▁enemy	-11.6102
▁demonstratie	-11.6104
▁verrast	-11.611
▁comic	-11.6111
▁porn	-11.6119
▁drama	-11.6128
▁creature	-11.6128
spoor	-11.6142
duizend	-11.6147
century	-11.6163
▁cite	-11.6179
▁capita	-11.6183
▁1999	-11.619
▁Arctic	-11.619
▁August	-11.619
▁druppel	-11.619
▁ogenblik	-11.619
▁pizza	-11.619
▁raising	-11.619
▁scratch	-11.619
▁serieuze	-11.619
▁survivor	-11.619
▁portrait	-11.619
▁beheersen	-11.619
▁knoop	-11.619
▁sponsor	-11.619
▁abandon	-11.619
▁Nature	-11.619
▁indicate	-11.619
▁neck	-11.619
▁uitkomst	-11.619
▁handicap	-11.619
▁sustainability	-11.619
▁backwards	-11.619
▁Emma	-11.619
▁Turn	-11.6191
▁Geographic	-11.6191
▁passenger	-11.6195
▁opgroeide	-11.6197
installatie	-11.6204
▁rag	-11.6213
destruct	-11.6219
▁klim	-11.6221
▁gehoor	-11.6234
gedrukt	-11.624
lezer	-11.6262
▁disgust	-11.6281
▁embryo	-11.6281
▁fulfill	-11.6281
▁monument	-11.6281
▁1998	-11.6281
▁adjust	-11.6281
▁definiëren	-11.6281
▁exploring	-11.6281
▁parachute	-11.6281
▁prikkel	-11.6281
▁rebuild	-11.6281
▁emergency	-11.6281
▁verhoogd	-11.6281
▁Beijing	-11.6281
▁Delhi	-11.6281
▁hungry	-11.6281
▁onschuldig	-11.6281
▁vertalen	-11.6281
▁Children	-11.6283
▁wandelen	-11.6283
▁subtle	-11.6284
▁2020	-11.6287
▁tired	-11.6289
▁proof	-11.6296
partij	-11.63
greep	-11.6306
▁weapon	-11.6314
▁immun	-11.6324
grafisch	-11.6328
kwaliteit	-11.6346
engineer	-11.6346
Amerikaanse	-11.6346
analyse	-11.6347
stoten	-11.6352
▁grijp	-11.6362
▁eiwit	-11.6367
▁intellect	-11.6371
▁decrease	-11.6372
▁dictator	-11.6372
▁embedded	-11.6372
▁januari	-11.6372
▁obstakel	-11.6372
▁tragedy	-11.6372
▁Clinton	-11.6372
▁dignity	-11.6372
▁sacred	-11.6372
▁opgebouwd	-11.6372
▁stereotype	-11.6373
▁gemeten	-11.6373
▁maaltijd	-11.6373
▁Allemaal	-11.6373
▁spelletje	-11.6374
▁bewaren	-11.6374
▁duurzaamheid	-11.6377
▁waterstof	-11.6381
▁globalization	-11.6381
▁Word	-11.6384
ected	-11.6384
▁activate	-11.64
▁Nico	-11.6402
hulp	-11.6414
▁varie	-11.6419
gewerkt	-11.6431
Yeah	-11.6439
▁relat	-11.644
stralen	-11.6441
▁tower	-11.645
▁Apollo	-11.6465
▁adventure	-11.6465
▁bacterie	-11.6465
▁chocolate	-11.6465
▁earthquake	-11.6465
▁inheemse	-11.6465
▁kapitalisme	-11.6465
▁neither	-11.6465
▁reproduce	-11.6465
▁skull	-11.6465
▁synchron	-11.6465
▁vegetable	-11.6465
▁kliniek	-11.6465
▁zojuist	-11.6465
▁transcend	-11.6465
▁Sierra	-11.6465
▁clue	-11.6465
▁Onderzoek	-11.6465
▁footprint	-11.6466
▁waardigheid	-11.6467
▁Nick	-11.6479
▁twin	-11.6491
geleverd	-11.6504
▁rechtvaardig	-11.652
functie	-11.6532
camera	-11.6532
chrijf	-11.6553
doos	-11.6555
▁contradict	-11.6558
▁eliminate	-11.6558
▁elsewhere	-11.6558
▁fantasie	-11.6558
▁ontwikkelt	-11.6558
▁rainforest	-11.6558
▁2013	-11.6558
▁2014	-11.6558
▁Neanderthal	-11.6558
▁disagree	-11.6558
▁millennia	-11.6558
▁geslaagd	-11.6558
▁insurance	-11.6558
▁legacy	-11.6558
▁poison	-11.6558
▁vergroten	-11.6558
▁Gulf	-11.6558
▁freak	-11.6558
▁overleving	-11.6559
▁accent	-11.6559
▁zaad	-11.6559
genovergestelde	-11.656
▁governance	-11.656
▁depressed	-11.656
▁gekleurd	-11.656
▁Prize	-11.6564
▁shake	-11.6566
▁extinction	-11.6566
soort	-11.6598
▁consequence	-11.66
while	-11.6626
Let	-11.6637
sverwachting	-11.6653
▁Brooklyn	-11.6653
▁acknowledge	-11.6653
▁cricket	-11.6653
▁miracle	-11.6653
▁spectacular	-11.6653
▁transparency	-11.6653
▁Zweden	-11.6653
▁register	-11.6653
▁voornaamste	-11.6653
▁stevig	-11.6653
▁slavery	-11.6653
▁Edward	-11.6653
▁isolated	-11.6653
▁opposed	-11.6653
▁vertonen	-11.6654
▁supermarkt	-11.6655
▁Nothing	-11.6655
▁bestrijden	-11.6657
▁cake	-11.6672
▁magnetisch	-11.6674
fuse	-11.6684
▁tune	-11.6689
mocratische	-11.6699
knop	-11.67
pakken	-11.6721
persoon	-11.6722
ervaring	-11.6722
▁extinct	-11.674
▁Berkeley	-11.6748
▁Mountain	-11.6748
▁Seattle	-11.6748
▁Taliban	-11.6748
▁Virginia	-11.6748
▁advocaat	-11.6748
▁agricultural	-11.6748
▁identified	-11.6748
▁rhythm	-11.6748
▁granted	-11.6748
▁request	-11.6748
▁kabel	-11.6748
▁getoond	-11.6748
▁trail	-11.6748
▁heaven	-11.6748
▁berekeningen	-11.6748
▁begun	-11.6748
▁aanzienlijk	-11.6748
▁lawaai	-11.675
▁systematisch	-11.675
▁permission	-11.6752
▁Johnson	-11.6756
▁Recent	-11.6758
▁irre	-11.679
▁sperm	-11.6806
gewoon	-11.6817
patronen	-11.6818
behoud	-11.6827
gedaan	-11.6836
▁overlap	-11.6838
▁opzet	-11.6839
▁Philadelphia	-11.6844
▁Professor	-11.6844
▁Slechts	-11.6844
▁adolescent	-11.6844
▁curriculum	-11.6844
▁dedicated	-11.6844
▁gefascineerd	-11.6844
▁mislukking	-11.6844
▁wereldbevolking	-11.6844
▁zeldzame	-11.6844
▁hybrid	-11.6844
▁colony	-11.6844
▁gelegenheid	-11.6844
▁parlement	-11.6844
▁recruit	-11.6844
▁vaardigheid	-11.6844
▁vakantie	-11.6844
▁dirty	-11.6844
▁onzekerheid	-11.6844
▁centraal	-11.6844
▁density	-11.6844
▁IBM	-11.6844
schreeuw	-11.6845
▁2,5	-11.6845
▁omarmen	-11.6845
koorts	-11.6845
▁grondstoffen	-11.6845
▁dinosaurussen	-11.6846
▁Nations	-11.6846
▁airport	-11.685
▁achterhalen	-11.6852
▁schuil	-11.6853
posing	-11.6866
▁schadelijk	-11.6882
situatie	-11.6915
sector	-11.6915
▁corrupt	-11.6931
▁rough	-11.6934
▁Atlantic	-11.6941
▁binnenkort	-11.6941
▁ethnic	-11.6941
▁geobsedeerd	-11.6941
▁identiek	-11.6941
▁inevitable	-11.6941
▁negatief	-11.6941
▁perceptie	-11.6941
▁pursue	-11.6941
▁pyramid	-11.6941
▁schitterend	-11.6941
▁sloppenwijk	-11.6941
▁Voice	-11.6941
▁tragic	-11.6941
▁session	-11.6941
▁animation	-11.6941
▁brutal	-11.6941
▁partnership	-11.6944
▁portret	-11.6946
▁Indus	-11.6948
▁technisch	-11.6987
drive	-11.701
contact	-11.7013
planet	-11.7019
▁terror	-11.702
▁350	-11.703
▁disturb	-11.7039
▁Feynman	-11.7039
▁Journal	-11.7039
▁Kennedy	-11.7039
▁advertentie	-11.7039
▁criteria	-11.7039
▁yield	-11.7039
▁obesity	-11.7039
▁skeptic	-11.7039
▁zintuigen	-11.7039
▁Computer	-11.7039
▁description	-11.7039
▁kozen	-11.7039
▁Bedenk	-11.7039
▁mutation	-11.7039
▁viral	-11.704
▁underlying	-11.704
▁compress	-11.704
▁domain	-11.704
▁én	-11.7041
▁muizen	-11.7042
▁filmmaker	-11.7043
▁economieën	-11.7047
afhankelijkheid	-11.7048
▁intact	-11.7048
▁bedrag	-11.709
▁particle	-11.7095
▁stereo	-11.7104
second	-11.7115
▁formula	-11.7135
▁Church	-11.7138
▁Leonardo	-11.7138
▁ceiling	-11.7138
▁champion	-11.7138
▁confirm	-11.7138
▁glucose	-11.7138
▁happier	-11.7138
▁mobieltje	-11.7138
▁poëzie	-11.7138
▁spectaculair	-11.7138
▁verbindt	-11.7138
▁biomass	-11.7138
▁recipe	-11.7138
▁tackle	-11.7138
▁vertragen	-11.7138
▁twist	-11.7138
▁bedrijfsleven	-11.7138
▁defense	-11.7139
▁chemicaliën	-11.7139
▁assess	-11.7139
▁verplaatst	-11.714
▁Luther	-11.7141
▁accessible	-11.7142
▁Liberia	-11.7142
▁package	-11.7144
▁neo	-11.7191
human	-11.7201
weefsel	-11.7212
▁kwantum	-11.7238
▁Shakespeare	-11.7238
▁bathroom	-11.7238
▁buitenaards	-11.7238
▁diagnosis	-11.7238
▁gepassioneerd	-11.7238
▁internationaal	-11.7238
▁intuitive	-11.7238
▁frozen	-11.7238
▁uitgenodigd	-11.7238
▁Victor	-11.7238
▁gewassen	-11.7238
▁reageert	-11.7238
▁chemie	-11.7238
▁relax	-11.7238
▁geduld	-11.7238
▁suburb	-11.7238
▁boundaries	-11.7238
▁inwoners	-11.7239
▁punch	-11.7239
▁fusion	-11.7239
▁textbook	-11.7239
▁spill	-11.724
▁reageerde	-11.724
▁beheren	-11.724
▁paniek	-11.7242
▁jazz	-11.7243
▁rice	-11.7247
▁prize	-11.7304
twijfel	-11.7313
geboren	-11.7314
▁1995	-11.7339
▁Gewoon	-11.7339
▁Tenslotte	-11.7339
▁beschikken	-11.7339
▁contribution	-11.7339
▁evolueren	-11.7339
▁garbage	-11.7339
▁geïsoleerd	-11.7339
▁protocol	-11.7339
▁resilience	-11.7339
▁versnellen	-11.7339
▁volgorde	-11.7339
▁2016	-11.7339
▁consequent	-11.7339
▁encrypt	-11.7339
▁interconnect	-11.7339
▁ondersteuning	-11.7339
▁anoniem	-11.7339
▁bescheiden	-11.7339
▁fraction	-11.7339
▁Gabby	-11.7339
▁afscheid	-11.7339
▁seksueel	-11.734
kampioen	-11.7341
▁bruin	-11.7341
▁kidney	-11.7342
truc	-11.7352
▁compose	-11.7353
▁Moet	-11.7386
▁Bern	-11.74
plein	-11.7411
gezondheid	-11.7415
When	-11.7415
▁October	-11.7441
▁avontuur	-11.7441
▁chocolade	-11.7441
▁explosion	-11.7441
▁figuring	-11.7441
▁getrouwd	-11.7441
▁gletsjer	-11.7441
▁koralen	-11.7441
▁neuroscience	-11.7441
▁subsidie	-11.7441
▁transparent	-11.7441
▁uitstoot	-11.7441
▁Arthur	-11.7441
▁athlete	-11.7441
▁beschrijft	-11.7441
▁comfortabel	-11.7441
▁confused	-11.7441
▁charity	-11.7441
▁brieven	-11.7441
▁getraind	-11.7441
▁Jewish	-11.7441
▁Probeer	-11.7441
▁vervelend	-11.7441
▁Italian	-11.7442
▁timing	-11.7442
▁baseball	-11.7442
▁Kevin	-11.7442
▁visueel	-11.7443
▁mimic	-11.7444
▁gesture	-11.7446
▁Typ	-11.7448
▁decor	-11.7494
sporen	-11.752
▁breng	-11.7521
▁Nada	-11.7524
▁lelijk	-11.7527
#	-11.7544
stoornissen	-11.7544
▁Bovendien	-11.7544
▁Shanghai	-11.7544
▁accelerate	-11.7544
▁apparently	-11.7544
▁attribute	-11.7544
▁gedreven	-11.7544
▁illegaal	-11.7544
▁nutrition	-11.7544
▁synthetic	-11.7544
▁McDonald	-11.7544
▁blijkbaar	-11.7544
▁dwingen	-11.7544
▁indrukwekkend	-11.7544
▁substance	-11.7544
▁verhuizen	-11.7544
▁robust	-11.7544
▁smooth	-11.7544
▁educatie	-11.7544
▁inspiring	-11.7544
▁southern	-11.7544
▁bewonder	-11.7545
▁overigens	-11.7545
▁zaden	-11.7545
▁bump	-11.7545
▁enhance	-11.7545
▁verwant	-11.7546
▁Stasi	-11.7546
▁acteur	-11.755
▁pirate	-11.7552
▁naald	-11.7565
molecule	-11.7622
Okay	-11.7622
▁immediate	-11.7637
spons	-11.7639
▁Syrië	-11.7649
▁beschadigd	-11.7649
▁consensus	-11.7649
▁essence	-11.7649
▁molecuul	-11.7649
▁sandwich	-11.7649
▁spontane	-11.7649
▁nagedacht	-11.7649
▁tragisch	-11.7649
▁Machine	-11.7649
▁fought	-11.7649
▁intuition	-11.7649
▁mysterious	-11.7649
▁sketch	-11.7649
▁fictie	-11.7649
▁whistle	-11.7649
▁inkomsten	-11.7649
▁injury	-11.7649
▁bekeek	-11.7649
▁sharp	-11.7649
▁Brother	-11.7649
▁uncertainty	-11.7649
▁opleveren	-11.7649
▁kolen	-11.7649
▁kernenergie	-11.765
▁riep	-11.765
▁anderhalf	-11.7652
.500	-11.7656
▁gooide	-11.7668
▁flee	-11.7679
▁prepare	-11.7718
apparaat	-11.7727
▁Child	-11.7751
instituut	-11.7754
▁Academy	-11.7754
▁Columbia	-11.7754
▁Interessant	-11.7754
▁Michigan	-11.7754
▁concurreren	-11.7754
▁ontsnappen	-11.7754
▁simplicity	-11.7754
▁slavernij	-11.7754
▁Jordan	-11.7754
▁acquire	-11.7754
▁gecompliceerd	-11.7754
▁orchestra	-11.7754
▁ideologie	-11.7754
▁vloog	-11.7754
▁Soviet	-11.7754
▁Sweden	-11.7754
▁agencies	-11.7754
▁ritme	-11.7754
▁vezel	-11.7754
▁aansluit	-11.7754
▁Venus	-11.7754
▁afterwards	-11.7754
▁evenveel	-11.7754
▁destijds	-11.7754
▁inspanningen	-11.7755
▁ruin	-11.7755
▁breder	-11.7755
▁insulin	-11.7757
▁Hawk	-11.7757
▁cafe	-11.7758
▁pause	-11.7763
▁grip	-11.7773
vallei	-11.7776
▁Egyptian	-11.7777
▁opvallend	-11.7778
▁bonus	-11.7789
touch	-11.7834
frame	-11.7835
golf	-11.7836
▁bijdrage	-11.7837
moeder	-11.7843
▁Chinezen	-11.786
▁Mumbai	-11.786
▁Through	-11.786
▁akkoord	-11.786
▁autonomous	-11.786
▁dialogue	-11.786
▁sacrifice	-11.786
▁bloedvaten	-11.786
▁écht	-11.786
▁benutten	-11.786
vloeien	-11.786
▁envelop	-11.786
▁northern	-11.786
▁convey	-11.7861
▁agency	-11.7861
▁demographic	-11.7861
▁zuig	-11.7861
▁keyboard	-11.7862
breuk	-11.787
▁voorspeld	-11.7883
Luister	-11.7909
oppervlak	-11.7941
concept	-11.7941
▁activa	-11.7944
lapse	-11.7952
hrew	-11.7964
voorziening	-11.7968
▁humanitarian	-11.7968
sufficient	-11.7968
▁Joseph	-11.7968
▁advertising	-11.7968
▁economen	-11.7968
▁stijgt	-11.7968
▁toegevoegd	-11.7968
▁wanhopig	-11.7968
▁Charlie	-11.7968
▁beoordelen	-11.7968
▁repareren	-11.7968
▁Bruno	-11.7968
▁glazen	-11.7968
▁transistor	-11.7968
▁Sterker	-11.7968
▁Tibet	-11.7968
▁helium	-11.7968
▁variant	-11.7968
▁burgeroorlog	-11.7968
▁opkomende	-11.7968
▁nonprofit	-11.7969
▁naked	-11.7969
▁diepgaand	-11.7969
▁aantonen	-11.797
▁sink	-11.7973
▁zussen	-11.7976
▁Jonge	-11.7993
▁originele	-11.7996
ogue	-11.8031
▁sculpt	-11.8032
gestuurd	-11.805
▁droge	-11.805
nummer	-11.8055
▁Ethiopië	-11.8076
▁Little	-11.8076
▁buried	-11.8076
▁episode	-11.8076
▁facility	-11.8076
▁flexible	-11.8076
▁fragile	-11.8076
▁helicopter	-11.8076
▁indicator	-11.8076
▁kleinkinderen	-11.8076
▁manuscript	-11.8076
▁röntgen	-11.8076
▁zorgvuldig	-11.8076
▁cliff	-11.8076
▁conversatie	-11.8076
▁reputation	-11.8076
▁resolve	-11.8076
▁FDA	-11.8076
▁grootvader	-11.8076
▁Third	-11.8076
▁uitsterven	-11.8076
▁pioneer	-11.8076
▁intimate	-11.8077
▁mutatie	-11.8077
▁mainstream	-11.8077
▁verstopt	-11.8078
▁betaalt	-11.8078
▁veroordeeld	-11.8078
▁shore	-11.8079
▁terugkeren	-11.808
▁bloeddruk	-11.808
▁restore	-11.809
▁rub	-11.8093
studie	-11.8144
vragen	-11.8155
gesproken	-11.816
▁onbekend	-11.8172
frequent	-11.8186
▁Abraham	-11.8186
▁breakthrough	-11.8186
▁choosing	-11.8186
▁circulat	-11.8186
▁competitie	-11.8186
▁experiencing	-11.8186
▁extremist	-11.8186
▁getroffen	-11.8186
▁glacier	-11.8186
▁plafond	-11.8186
▁visserij	-11.8186
▁dialoog	-11.8186
▁plaatsvinden	-11.8186
▁civic	-11.8186
▁mislukt	-11.8186
▁Daniel	-11.8186
▁cousin	-11.8186
schikking	-11.8186
▁tranen	-11.8187
▁conservatieve	-11.8187
▁beetle	-11.8187
▁Southern	-11.8187
▁programming	-11.8187
▁mood	-11.8187
▁forgive	-11.8187
▁declar	-11.8187
▁dichterbij	-11.8187
vloed	-11.8187
▁shrink	-11.8188
▁grootmoeder	-11.8188
▁capability	-11.8188
▁slaagde	-11.8193
▁woke	-11.8194
mechanisme	-11.8199
pakket	-11.8202
▁gigantisch	-11.8249
efficiënt	-11.8271
vliegen	-11.8271
Where	-11.8271
publi	-11.8295
▁vermenigvuldig	-11.8297
▁Colombia	-11.8297
▁Hospital	-11.8297
▁Monterey	-11.8297
▁anonymous	-11.8297
▁calculation	-11.8297
▁financieel	-11.8297
▁frustrated	-11.8297
▁gespecialiseerd	-11.8297
▁institute	-11.8297
▁kwetsbare	-11.8297
▁mechanics	-11.8297
▁medicatie	-11.8297
▁oktober	-11.8297
▁uitbreiden	-11.8297
▁reputatie	-11.8297
▁Dankuwel	-11.8297
▁Kepler	-11.8297
▁fifth	-11.8297
▁Business	-11.8297
▁burden	-11.8297
▁Craig	-11.8297
▁drift	-11.8298
▁Eastern	-11.8298
▁noodzaak	-11.8298
▁versterkt	-11.8298
▁uitvinder	-11.8298
▁noordelijk	-11.8298
▁raden	-11.8299
▁statistisch	-11.83
▁natuurkundige	-11.8301
gestoken	-11.8301
▁Creat	-11.8302
▁verlamd	-11.8302
▁slice	-11.8317
vouwen	-11.8322
pending	-11.8324
▁festival	-11.841
▁reinvent	-11.841
▁competitive	-11.841
▁expansion	-11.841
▁impression	-11.841
▁obsessie	-11.841
▁recycling	-11.841
▁volstrekt	-11.841
▁waanzin	-11.841
▁Department	-11.841
▁Jersey	-11.841
▁combat	-11.841
▁primarily	-11.841
▁Everest	-11.841
▁plaatsvindt	-11.841
▁Girl	-11.841
▁levensduur	-11.841
▁abilities	-11.841
▁referentie	-11.841
▁bevorderen	-11.841
▁gekoppeld	-11.841
▁drank	-11.8412
▁tonijn	-11.8413
herkenning	-11.8415
geschoten	-11.8424
▁organiseer	-11.8431
nieuwsgierigheid	-11.845
oscoop	-11.8504
▁Nobelprijs	-11.8523
Qaeda	-11.8523
beveiliging	-11.8523
▁1994	-11.8523
▁Technologie	-11.8523
▁Vroeger	-11.8523
▁currency	-11.8523
▁disconnect	-11.8523
▁frequency	-11.8523
▁iPad	-11.8523
▁mushroom	-11.8523
▁neocortex	-11.8523
▁opbrengst	-11.8523
▁ijzer	-11.8523
▁fortune	-11.8523
▁Alaska	-11.8523
▁kogel	-11.8523
▁macro	-11.8524
▁silly	-11.8524
▁ontbreken	-11.8524
▁duwen	-11.8524
▁gemak	-11.8525
▁spoel	-11.8526
placing	-11.8527
▁schrik	-11.853
▁Italy	-11.8531
resistant	-11.8559
space	-11.8592
geschiedenis	-11.8612
▁eenvoud	-11.8619
agged	-11.8637
ü	-11.8638
▁astonishing	-11.8638
▁bureaucrat	-11.8638
▁enigszins	-11.8638
▁grandchildren	-11.8638
▁microfoon	-11.8638
▁vacuum	-11.8638
▁verslaving	-11.8638
▁probability	-11.8638
▁kikker	-11.8638
▁translation	-11.8638
▁gekocht	-11.8638
▁trash	-11.8638
▁geneigd	-11.8638
▁ondergronds	-11.8639
▁annual	-11.8639
▁bedrog	-11.8639
▁naakt	-11.8644
techniek	-11.8728
screen	-11.8729
front	-11.8738
▁biodiversiteit	-11.8755
▁Allereerst	-11.8755
▁Benjamin	-11.8755
▁Magazine	-11.8755
▁SETI	-11.8755
▁bevroren	-11.8755
▁category	-11.8755
▁enquête	-11.8755
▁pesticide	-11.8755
▁shrimp	-11.8755
▁broadcast	-11.8755
▁congres	-11.8755
▁mondiaal	-11.8755
▁pencil	-11.8755
▁smoking	-11.8755
▁threatened	-11.8755
▁transmission	-11.8755
▁daalt	-11.8755
▁outrage	-11.8755
piramide	-11.8756
▁dertig	-11.8757
▁vrees	-11.8757
▁vertaald	-11.8759
Wacht	-11.8759
▁zwangerschap	-11.8759
polis	-11.8778
▁beantwoord	-11.8813
▁combin	-11.8824
patiënt	-11.8846
wedstrijd	-11.8846
▁precise	-11.8861
▁Bitcoin	-11.8872
▁Obviously	-11.8872
▁Should	-11.8872
▁afgestudeerd	-11.8872
▁anticipate	-11.8872
▁awkward	-11.8872
▁collaborative	-11.8872
▁comparison	-11.8872
▁dictionary	-11.8872
▁duisternis	-11.8872
▁extension	-11.8872
▁fabulous	-11.8872
▁ignorance	-11.8872
▁magnitude	-11.8872
▁overwhelming	-11.8872
▁purchase	-11.8872
▁qualities	-11.8872
▁signature	-11.8872
▁improvise	-11.8872
▁unfold	-11.8872
▁krediet	-11.8872
▁nederig	-11.8872
▁scheiding	-11.8873
▁crystal	-11.8873
▁zelfstandig	-11.8873
▁weergave	-11.8873
▁Spaans	-11.8873
▁inherit	-11.8873
▁queen	-11.8874
▁dependent	-11.8874
▁calm	-11.8874
▁verwerkt	-11.8879
▁consist	-11.8886
instruct	-11.893
conferentie	-11.8965
revolutie	-11.8965
▁appreciat	-11.8987
medewerker	-11.8991
▁Commun	-11.8991
▁Hubble	-11.8991
▁Mozart	-11.8991
▁Spanish	-11.8991
▁Telescope	-11.8991
▁ambulance	-11.8991
▁broeikasgassen	-11.8991
▁expedition	-11.8991
▁gevuld	-11.8991
▁indigenous	-11.8991
▁supernova	-11.8991
▁treffen	-11.8991
▁variable	-11.8991
▁vloeibaar	-11.8991
▁wheelchair	-11.8991
▁plankton	-11.8991
▁verzinnen	-11.8991
▁Saudi	-11.8991
▁intensive	-11.8991
▁Spring	-11.8991
▁gecontroleerd	-11.8991
▁immuunsysteem	-11.8992
▁gebaren	-11.8992
▁array	-11.8992
▁Jones	-11.8992
▁Russisch	-11.8992
▁opgroeien	-11.8993
▁gewond	-11.8994
▁beleefd	-11.8997
programmeur	-11.8997
schakelen	-11.9026
related	-11.9029
▁Oude	-11.9034
transplantatie	-11.905
▁instructies	-11.9062
telefoon	-11.9085
gehaald	-11.9089
Prince	-11.9107
▁Bhutan	-11.9112
▁Nairobi	-11.9112
▁Vergeet	-11.9112
▁ambigu	-11.9112
▁cholera	-11.9112
▁furniture	-11.9112
▁geïntegreerd	-11.9112
▁hypothesis	-11.9112
▁nutrients	-11.9112
▁onwetendheid	-11.9112
▁prosperity	-11.9112
▁structural	-11.9112
▁verpleegster	-11.9112
▁zeldzaam	-11.9112
▁ecological	-11.9112
▁essay	-11.9112
▁membrane	-11.9112
▁technici	-11.9112
▁christen	-11.9112
▁animatie	-11.9112
korrel	-11.9112
▁architectural	-11.9112
▁begraven	-11.9112
▁parasite	-11.9113
▁loyal	-11.9118
klank	-11.9161
tijdperk	-11.9207
periode	-11.9208
arbeid	-11.9208
sprong	-11.9225
▁beëindig	-11.9234
▁observatie	-11.9234
▁Arizona	-11.9234
▁Koninkrijk	-11.9234
▁afzonderlijk	-11.9234
▁automobile	-11.9234
▁biodiversity	-11.9234
▁cocktail	-11.9234
▁criminele	-11.9234
▁ecologische	-11.9234
▁gefrustreerd	-11.9234
▁kleuter	-11.9234
▁mobility	-11.9234
▁participation	-11.9234
▁scène	-11.9234
▁syndrome	-11.9234
▁unbelievable	-11.9234
▁vulnerability	-11.9234
▁breakfast	-11.9234
▁reducing	-11.9234
▁Canyon	-11.9234
▁reliable	-11.9234
▁slogan	-11.9234
▁innocent	-11.9234
▁smelten	-11.9234
▁prothese	-11.9234
▁middenklasse	-11.9234
▁draadloze	-11.9234
▁crawl	-11.9234
▁titan	-11.9235
▁vissers	-11.9235
meester	-11.9242
▁retina	-11.9244
prik	-11.9283
food	-11.9331
gevangen	-11.9333
▁exhibit	-11.935
▁Univers	-11.9354
▁Council	-11.9357
▁Montana	-11.9357
▁Stewart	-11.9357
▁aggressive	-11.9357
▁beneath	-11.9357
▁extremism	-11.9357
▁fertilize	-11.9357
▁financieren	-11.9357
▁kopiëren	-11.9357
▁simultaneously	-11.9357
▁wijziging	-11.9357
▁aesthetic	-11.9357
▁leeuwen	-11.9357
▁schudden	-11.9357
▁drought	-11.9357
▁externe	-11.9357
▁Dallas	-11.9357
▁racial	-11.9357
▁burst	-11.9357
▁snake	-11.9357
▁Italië	-11.9357
▁album	-11.9358
▁geleefd	-11.9358
▁Noordpool	-11.9358
▁Turkey	-11.9358
▁schattig	-11.936
▁Spel	-11.9368
▁Susan	-11.9369
patroon	-11.9456
onderwijs	-11.9456
▁quest	-11.9478
ontwikkelaar	-11.9482
▁Afghan	-11.9482
▁Although	-11.9482
▁Jefferson	-11.9482
▁Sovjet	-11.9482
▁System	-11.9482
▁capabilities	-11.9482
▁maximum	-11.9482
▁prosthetic	-11.9482
▁threshold	-11.9482
▁Orleans	-11.9482
▁Student	-11.9482
▁aanbieden	-11.9482
▁suppress	-11.9482
▁interventie	-11.9482
▁verwarren	-11.9482
▁collage	-11.9482
▁opvatting	-11.9482
▁verboden	-11.9482
▁Kansas	-11.9482
▁genital	-11.9483
▁barrel	-11.9484
▁conditie	-11.9484
▁Costa	-11.9484
▁democratisch	-11.9484
▁dumb	-11.9484
▁cabin	-11.949
▁ontslag	-11.957
standaard	-11.9583
▁vertrouw	-11.9587
▁December	-11.9609
▁Geweldig	-11.9609
▁Pennsylvania	-11.9609
▁contemporary	-11.9609
▁enterprise	-11.9609
▁excitement	-11.9609
▁exhaust	-11.9609
▁gedetailleerd	-11.9609
▁offshore	-11.9609
▁sapiens	-11.9609
▁terrifying	-11.9609
▁Indonesia	-11.9609
▁compliment	-11.9609
▁discrimination	-11.9609
▁improving	-11.9609
▁precious	-11.9609
▁wonderbaarlijk	-11.9609
▁gevaren	-11.9609
▁sauce	-11.9609
▁tongue	-11.9609
▁bewoners	-11.9609
▁ingebouwd	-11.9609
▁torture	-11.9609
geschakeld	-11.9609
▁Northern	-11.9609
▁ijskap	-11.9609
▁beweren	-11.961
▁verleng	-11.9617
▁scala	-11.9638
▁statistiek	-11.9678
known	-11.9708
sleutel	-11.9711
▁Himalaya	-11.9737
▁Sylvia	-11.9737
▁Thailand	-11.9737
▁chamber	-11.9737
▁extrovert	-11.9737
▁facilities	-11.9737
▁hamburger	-11.9737
▁primitive	-11.9737
▁psychisch	-11.9737
▁symmetry	-11.9737
▁unprecedented	-11.9737
▁vuilnis	-11.9737
▁hobby	-11.9737
▁thrive	-11.9737
▁Kleine	-11.9737
▁bedanken	-11.9737
▁bulb	-11.9737
▁excellent	-11.9737
▁drastisch	-11.9737
▁verlichting	-11.9737
▁serving	-11.9737
▁uitstekend	-11.9738
▁benzine	-11.9738
▁neat	-11.9738
▁Honderd	-11.9738
▁Help	-11.974
▁wettelijk	-11.9746
kapitali	-11.975
▁misleid	-11.9789
quarters	-11.9808
Azië	-11.984
klasse	-11.9844
▁verwijd	-11.9847
wiel	-11.9851
▁beschikba	-11.9862
ç	-11.9867
▁interrupt	-11.9867
+	-11.9867
▁1997	-11.9867
▁CRISPR	-11.9867
▁Elizabeth	-11.9867
▁angstaanjagend	-11.9867
▁bruikbaar	-11.9867
▁december	-11.9867
▁elderly	-11.9867
▁elektronica	-11.9867
▁horror	-11.9867
▁injustice	-11.9867
▁intersection	-11.9867
▁koelkast	-11.9867
▁mededogen	-11.9867
▁multinational	-11.9867
▁onthullen	-11.9867
▁simulate	-11.9867
▁verslaan	-11.9867
▁Turkije	-11.9867
▁ontbijt	-11.9867
▁clothing	-11.9867
▁generous	-11.9867
▁screw	-11.9867
▁orgasm	-11.9867
▁Westerse	-11.9867
unclear	-11.9867
▁algae	-11.9868
▁awake	-11.9921
▁ervaar	-11.996
operatie	-11.9972
corp	-11.9988
artikel	-11.9988
▁distinguish	-11.9998
▁Cyrus	-11.9998
▁Lincoln	-11.9998
▁Revolutie	-11.9998
▁Special	-11.9998
▁commission	-11.9998
▁coordinate	-11.9998
▁default	-11.9998
▁divorce	-11.9998
▁gradually	-11.9998
▁kandidaten	-11.9998
▁ontbossing	-11.9998
▁pandemic	-11.9998
▁pharmaceutical	-11.9998
▁propaganda	-11.9998
▁synthetisch	-11.9998
▁tattoo	-11.9998
▁Friday	-11.9998
▁compelling	-11.9998
▁lanceren	-11.9998
▁remix	-11.9998
▁cheese	-11.9998
▁excess	-11.9998
▁checklist	-11.9998
▁microbial	-11.9998
▁ownership	-11.9998
▁mutual	-11.9999
▁reuzen	-11.9999
▁bevond	-11.9999
▁submit	-11.9999
▁troepen	-11.9999
▁Norden	-11.9999
▁limitations	-11.9999
▁premier	-11.9999
▁venster	-11.9999
▁Iceland	-11.9999
▁stemming	-12
▁blend	-12.0003
▁defeat	-12.0021
video	-12.0106
▁IJsland	-12.0132
▁melkwegstelsel	-12.0132
▁proteïne	-12.0132
▁verpleegkundige	-12.0132
▁1996	-12.0132
▁Herinner	-12.0132
▁Princeton	-12.0132
▁Technology	-12.0132
▁Tegelijkertijd	-12.0132
▁exposure	-12.0132
▁gemotiveerd	-12.0132
▁genuine	-12.0132
▁idiot	-12.0132
▁twaalf	-12.0132
▁vitamin	-12.0132
▁1945	-12.0132
▁located	-12.0132
▁veroudering	-12.0132
▁whatsoever	-12.0132
▁striking	-12.0132
▁altitude	-12.0132
▁descend	-12.0132
▁cosmic	-12.0132
▁verscheen	-12.0132
▁urine	-12.0132
▁therapist	-12.0132
▁chronic	-12.0133
▁verdubbeld	-12.0134
gesneden	-12.0134
▁parasiet	-12.0135
▁lente	-12.0136
▁mannelijk	-12.0161
▁crow	-12.0224
write	-12.0224
keeper	-12.0239
wandering	-12.0252
▁flourish	-12.0267
assembly	-12.0267
turbine	-12.0267
▁Carnegie	-12.0267
▁February	-12.0267
▁Narrator	-12.0267
▁Phoenix	-12.0267
▁collaborator	-12.0267
▁expeditie	-12.0267
▁gelijkaardig	-12.0267
▁ontbreekt	-12.0267
▁paralyzed	-12.0267
▁reflex	-12.0267
▁robuust	-12.0267
▁serotonin	-12.0267
▁tegemoet	-12.0267
▁verklaart	-12.0267
▁zwijgen	-12.0267
▁dwang	-12.0267
▁Almost	-12.0267
▁Norway	-12.0267
▁vacation	-12.0267
▁condoom	-12.0267
▁schoot	-12.0267
▁boeiend	-12.0267
▁verlagen	-12.0267
▁seemingly	-12.0267
▁schreeuwen	-12.0267
▁racist	-12.0268
▁melodie	-12.0268
knipper	-12.0268
▁sync	-12.0268
▁Work	-12.0269
strijd	-12.0287
▁verricht	-12.032
strategie	-12.0378
lichaam	-12.0378
▁Linux	-12.0404
▁counsel	-12.0404
▁passagier	-12.0404
fabrikant	-12.0404
▁Canadian	-12.0404
▁Christopher	-12.0404
▁Holocaust	-12.0404
▁ambassade	-12.0404
▁astronomer	-12.0404
▁deforestation	-12.0404
▁describing	-12.0404
▁distributie	-12.0404
▁drempel	-12.0404
▁executive	-12.0404
▁gehandicapt	-12.0404
▁grandparents	-12.0404
▁manipuleren	-12.0404
▁méér	-12.0404
▁pedestrian	-12.0404
▁separation	-12.0404
▁suggereren	-12.0404
▁supermarket	-12.0404
▁therapeut	-12.0404
▁1984	-12.0404
▁RNA	-12.0404
▁bevestigd	-12.0404
▁inhabit	-12.0404
▁rationeel	-12.0404
▁teweeg	-12.0404
▁transaction	-12.0404
▁thread	-12.0404
▁Spain	-12.0404
▁gestolen	-12.0404
▁backyard	-12.0404
▁Dutch	-12.0404
▁Links	-12.0404
▁pigeon	-12.0404
▁bbp	-12.0404
▁quiz	-12.0405
▁ramen	-12.0405
▁geopend	-12.0405
▁distort	-12.0406
▁daalde	-12.0411
function	-12.0516
bescherming	-12.0516
▁April	-12.0543
▁Oeganda	-12.0543
▁barrière	-12.0543
▁colonies	-12.0543
▁geïnvesteerd	-12.0543
▁imperfect	-12.0543
▁mobiliteit	-12.0543
▁monarch	-12.0543
▁tentoonstelling	-12.0543
▁uitbreiding	-12.0543
▁vernietiging	-12.0543
▁virgin	-12.0543
▁1991	-12.0543
▁increment	-12.0543
▁persuade	-12.0543
▁discriminatie	-12.0543
▁harness	-12.0543
▁kolom	-12.0543
▁terrified	-12.0543
▁Vergelijk	-12.0543
▁Peace	-12.0543
▁tendency	-12.0543
▁voetafdruk	-12.0543
▁schijnen	-12.0543
▁Steek	-12.0543
▁Trade	-12.0543
▁geweten	-12.0543
▁antenna	-12.0543
▁bribe	-12.0544
▁methaan	-12.0544
▁presteren	-12.0545
efficient	-12.0657
temperatuur	-12.0657
conflict	-12.0657
vlees	-12.0657
generating	-12.0681
▁Galapagos	-12.0684
▁Joshua	-12.0684
▁Mohammed	-12.0684
▁Oklahoma	-12.0684
▁Twenty	-12.0684
▁Uiteraard	-12.0684
▁Zimbabwe	-12.0684
▁absence	-12.0684
▁inzoomen	-12.0684
▁overweldigend	-12.0684
▁parkeerplaats	-12.0684
▁prescription	-12.0684
▁stabiliteit	-12.0684
▁straightforward	-12.0684
▁synthesize	-12.0684
▁terribly	-12.0684
▁uitgestorven	-12.0684
▁ultraviolet	-12.0684
▁verhoogt	-12.0684
▁LHC	-12.0684
▁ademhaling	-12.0684
▁café	-12.0684
▁clarity	-12.0684
▁sentiment	-12.0684
▁volksgezondheid	-12.0684
▁gezelschap	-12.0684
▁spiral	-12.0684
▁oranje	-12.0684
▁consent	-12.0684
▁drew	-12.0684
▁aanraking	-12.0684
▁kelder	-12.0684
▁orkest	-12.0686
▁eindigde	-12.0687
ploeg	-12.074
club	-12.0802
▁Accord	-12.0826
▁steenkool	-12.0826
▁1989	-12.0826
▁Amsterdam	-12.0826
▁Michelangelo	-12.0826
▁Olympisch	-12.0826
▁Spanje	-12.0826
▁Starbucks	-12.0826
▁Suddenly	-12.0826
▁assistance	-12.0826
▁disabilities	-12.0826
▁encouraging	-12.0826
▁enforcement	-12.0826
▁februari	-12.0826
▁geaccepteerd	-12.0826
▁klaslokaal	-12.0826
▁smallpox	-12.0826
▁supplies	-12.0826
▁division	-12.0827
▁verfijnd	-12.0827
▁censor	-12.0827
▁nucleus	-12.0827
▁Oregon	-12.0827
▁despair	-12.0827
▁believing	-12.0827
▁guest	-12.0827
▁fysisch	-12.0827
▁accumulate	-12.0827
ontsteking	-12.0827
▁weegt	-12.0827
▁tegenstander	-12.0827
piece	-12.0945
▁Connecticut	-12.0971
▁Indonesië	-12.0971
▁Noorwegen	-12.0971
▁Palestijn	-12.0971
▁Plotseling	-12.0971
▁Tokyo	-12.0971
▁authentiek	-12.0971
▁beroerte	-12.0971
▁gearresteerd	-12.0971
▁pleeg	-12.0971
▁pregnancy	-12.0971
▁principal	-12.0971
▁CMU	-12.0971
▁gestorven	-12.0971
▁grootouders	-12.0971
▁liefdadigheid	-12.0971
▁rehabilitat	-12.0971
▁spaghetti	-12.0971
▁stikstof	-12.0971
▁uitgestrekt	-12.0971
▁investigation	-12.0971
▁Hopelijk	-12.0971
▁Vraag	-12.0971
▁interageren	-12.0971
▁preparing	-12.0971
▁storytelling	-12.0971
▁benadrukken	-12.0971
▁blokkeren	-12.0971
▁warrior	-12.0972
▁intended	-12.0972
▁rival	-12.0972
▁gemerkt	-12.0972
▁chronisch	-12.0972
▁onderhandeling	-12.0972
▁cube	-12.0972
▁confine	-12.0977
generation	-12.105
umbling	-12.1076
fabriek	-12.1092
Thank	-12.1092
▁Begrijp	-12.1095
ochtend	-12.1097
ontwikkeling	-12.1106
volution	-12.1109
▁fluorescent	-12.1118
▁honkbal	-12.1118
▁kandidaat	-12.1118
▁Organization	-12.1118
▁Vancouver	-12.1118
▁assault	-12.1118
▁blockchain	-12.1118
▁broccoli	-12.1118
▁cliënt	-12.1118
▁contaminat	-12.1118
▁devastating	-12.1118
▁reinforce	-12.1118
▁vermindert	-12.1118
▁verschijnt	-12.1118
▁voedingsstoffen	-12.1118
▁yourselves	-12.1118
▁Dylan	-12.1118
▁plaatsvond	-12.1118
▁ideology	-12.1118
▁transgender	-12.1118
▁destiny	-12.1119
▁frequently	-12.1119
▁gemengd	-12.1119
▁segment	-12.1119
▁Woman	-12.1119
▁profiel	-12.1119
▁luxe	-12.1119
▁overlijden	-12.1119
▁videogame	-12.1119
▁drunk	-12.1119
▁harmonie	-12.1119
▁kaas	-12.1119
▁modder	-12.1119
▁langzamer	-12.1119
▁werkgever	-12.1119
▁vrolijk	-12.1121
vroeg	-12.1241
droeg	-12.1242
blind	-12.1258
reiziger	-12.1268
▁Development	-12.1268
▁Galileo	-12.1268
▁Kiribati	-12.1268
▁November	-12.1268
▁Palestinian	-12.1268
▁Portugal	-12.1268
▁cigarette	-12.1268
▁eBay	-12.1268
▁flavor	-12.1268
▁gelanceerd	-12.1268
▁guerrill	-12.1268
▁hernieuwbare	-12.1268
▁implicaties	-12.1268
▁negotiate	-12.1268
▁officiële	-12.1268
▁receiving	-12.1268
▁sigaret	-12.1268
▁strategisch	-12.1268
▁theoretical	-12.1268
▁vernietigd	-12.1268
▁1975	-12.1268
▁DVD	-12.1268
▁cocaine	-12.1268
▁mycelium	-12.1268
▁composition	-12.1268
▁humanitaire	-12.1268
▁pionier	-12.1268
▁resembl	-12.1268
▁opwinding	-12.1268
▁ALS	-12.1268
▁favela	-12.1268
▁grijze	-12.1268
▁sneak	-12.1268
▁schedule	-12.1268
▁casual	-12.1268
▁Food	-12.1268
▁silver	-12.1268
▁uitdagend	-12.127
beheersing	-12.127
▁spike	-12.1271
invasive	-12.1273
▁tract	-12.1297
meenschappelijk	-12.1329
▁elektrisch	-12.1371
populatie	-12.1393
principe	-12.1393
▁Francis	-12.1417
ã	-12.1419
▁Inderdaad	-12.1419
▁Melkweg	-12.1419
▁Security	-12.1419
▁Society	-12.1419
▁aspiration	-12.1419
▁collaborate	-12.1419
▁cooperate	-12.1419
▁deliberate	-12.1419
▁earliest	-12.1419
▁endangered	-12.1419
▁essentiële	-12.1419
▁exclusive	-12.1419
▁farmaceutisch	-12.1419
▁gefinancierd	-12.1419
▁halverwege	-12.1419
▁jellyfish	-12.1419
▁legitimate	-12.1419
▁possess	-12.1419
▁psyche	-12.1419
▁temporary	-12.1419
▁vleermuizen	-12.1419
▁precisie	-12.1419
▁provincie	-12.1419
▁strategic	-12.1419
discriminat	-12.1419
▁Georgia	-12.1419
▁ruzie	-12.1419
▁Doctor	-12.1419
▁defect	-12.1419
▁lonely	-12.1419
▁Berlin	-12.1419
▁miserable	-12.1419
▁soccer	-12.1419
▁Half	-12.1419
▁tegenstrijdig	-12.1419
▁klagen	-12.142
▁plegen	-12.142
▁investigate	-12.142
bevorder	-12.142
▁converge	-12.1422
▁voorspelbaar	-12.1422
▁verbazing	-12.1514
script	-12.1547
campagne	-12.1547
signalen	-12.1547
behoefte	-12.1547
opdracht	-12.1547
course	-12.1549
▁Edinburgh	-12.1573
▁ambitious	-12.1573
▁hemisphere	-12.1573
▁integreren	-12.1573
▁migration	-12.1573
▁onvoldoende	-12.1573
▁pursuit	-12.1573
▁recognizing	-12.1573
▁ruggenmerg	-12.1573
▁testosteron	-12.1573
▁verantwoording	-12.1573
▁acoustic	-12.1573
▁prefrontal	-12.1573
▁zwaai	-12.1573
▁Joods	-12.1573
▁Sarah	-12.1573
▁preference	-12.1573
▁admire	-12.1573
▁storage	-12.1573
▁tijdstip	-12.1573
▁onderschat	-12.1573
▁negeer	-12.1573
onduidelijk	-12.1573
▁gegooid	-12.1573
▁verkoper	-12.1574
goochel	-12.1574
▁historie	-12.1575
▁diverge	-12.1575
▁invasie	-12.1575
▁menigte	-12.1583
▁Radio	-12.1593
▁deposit	-12.1707
▁Centraal	-12.1729
alomtegenwoordig	-12.1729
▁Atlantische	-12.1729
▁Library	-12.1729
▁Massachusetts	-12.1729
▁Qatar	-12.1729
▁advertise	-12.1729
▁bioluminescent	-12.1729
▁emphasize	-12.1729
▁frustration	-12.1729
▁geassocieerd	-12.1729
▁graffiti	-12.1729
▁helikopter	-12.1729
▁inevitably	-12.1729
▁islamitische	-12.1729
▁kindersterfte	-12.1729
▁legislation	-12.1729
▁luxury	-12.1729
▁millisecond	-12.1729
▁netvlies	-12.1729
▁obesitas	-12.1729
▁precision	-12.1729
▁rethink	-12.1729
▁sanitation	-12.1729
▁stimulate	-12.1729
▁stuifmeel	-12.1729
▁tevoorschijn	-12.1729
▁Vegas	-12.1729
▁knife	-12.1729
▁sediment	-12.1729
▁zwerm	-12.1729
▁execute	-12.1729
▁anxious	-12.1729
▁algebra	-12.1729
▁orphan	-12.1729
▁doorbraak	-12.1729
▁durven	-12.1729
▁historian	-12.1729
▁terminal	-12.173
bestrijding	-12.1748
vliegtuig	-12.1862
papier	-12.1862
kwestie	-12.1862
figure	-12.1867
▁swallow	-12.1888
▁Bangalore	-12.1888
▁Chuck	-12.1888
▁Eventually	-12.1888
▁administration	-12.1888
▁afschuwelijk	-12.1888
▁filosoof	-12.1888
▁glamorous	-12.1888
▁identities	-12.1888
▁immigration	-12.1888
▁independence	-12.1888
▁schijnbaar	-12.1888
▁ubiquitous	-12.1888
▁verbetert	-12.1888
▁vergelijkt	-12.1888
▁welfare	-12.1888
▁zelfvertrouwen	-12.1888
▁Oorlog	-12.1888
▁Roosevelt	-12.1888
▁Together	-12.1888
▁ambition	-12.1888
▁communicating	-12.1888
▁destination	-12.1888
▁vacuüm	-12.1888
▁vastberaden	-12.1888
▁Miami	-12.1888
▁Behalve	-12.1888
▁geactiveerd	-12.1888
▁fractal	-12.1888
▁doelstellingen	-12.1888
▁gadget	-12.1888
▁hé	-12.1888
syndroom	-12.1888
▁whisper	-12.1888
▁reusachtig	-12.189
▁interfere	-12.1891
gepast	-12.1921
ebaseerd	-12.1921
▁regenerati	-12.1976
begrip	-12.2023
gesprek	-12.2023
ndustriële	-12.2049
▁schimmel	-12.2049
▁Except	-12.2049
▁PowerPoint	-12.2049
▁Public	-12.2049
▁gedaald	-12.2049
▁gefocust	-12.2049
▁horloge	-12.2049
▁introduction	-12.2049
▁lichamelijk	-12.2049
▁negotiation	-12.2049
▁precieze	-12.2049
▁singular	-12.2049
▁substantial	-12.2049
▁territory	-12.2049
▁contrary	-12.2049
▁minority	-12.2049
▁ruiken	-12.2049
▁History	-12.2049
▁geschokt	-12.2049
▁verminderd	-12.2049
▁corpus	-12.2049
▁verkozen	-12.2049
▁inhibit	-12.2049
▁Office	-12.2049
▁injured	-12.2049
▁interior	-12.2049
▁vrezen	-12.2049
▁retreat	-12.205
▁couch	-12.205
▁troost	-12.205
▁theoretisch	-12.205
▁hartaanval	-12.205
traumatic	-12.2175
quality	-12.2184
algoritme	-12.2187
experiment	-12.2187
ongeluk	-12.2187
resultaten	-12.2187
Because	-12.2187
world	-12.2187
vreemd	-12.2187
tekort	-12.2187
activist	-12.22
▁extraordinar	-12.2202
▁Celsius	-12.2213
▁Colorado	-12.2213
▁Jonathan	-12.2213
▁aggregate	-12.2213
▁collision	-12.2213
▁embarrassing	-12.2213
▁irrelevant	-12.2213
▁leather	-12.2213
▁moskee	-12.2213
▁overduidelijk	-12.2213
▁paddenstoel	-12.2213
▁phantom	-12.2213
=	-12.2897
“	-12.3231
—	-12.3417
ê	-12.6227
^	-12.783
⁄	-12.874
ú	-13.0468
@	-13.3035
	-13.3535
ä	-13.4061
[	-13.7184
ì	-13.798
ò	-13.8813
ù	-13.8813
ø	-13.9722
É	-14.3083
ō	-14.3083
ā	-14.3083
±	-14.4512
ô	-14.4512
â	-14.6179
î	-14.6179
̈	-14.6179
å	-14.8179
Á	-14.8179
	-14.8179
ī	-14.8179
•	-15.0679
æ	-15.4012
	-15.4012
	-15.4012
¡	-15.4012
Ó	-15.4012
/	-15.8986
♫	-15.8986
ě	-15.9012
	-15.9012
Å	-15.9012
È	-15.9012
Ò	-15.9012
Č	-15.9012
̊	-15.9012
ė	-15.9012
्	-16.8988
े	-16.8989
र	-16.899
म	-16.8991
प	-16.8992
ć	-16.8993
û	-16.8994
ð	-16.8995
	-16.8996
	-16.8997
ň	-16.8998
Ö	-16.8999
£	-16.9
€	-16.9001
*	-16.9002
	-16.9003
́	-16.9004
ñ	-16.9005
°	-16.9006
_	-16.9007
–	-16.9008
$	-16.9009
”	-16.901
’	-16.9011
Ü	-16.9012
Ō	-16.9012
(	-16.9012
~	-16.9012
¢	-16.9012
©	-16.9012
Ç	-16.9012
Í	-16.9012
Ï	-16.9012
Ă	-16.9012
Ť	-16.9012
ū	-16.9012
̀	-16.9012
ẹ	-16.9012
ọ	-16.9012
你	-16.9012
葱	-16.9012
